<pad>	0
<s>	0
</s>	0
<unk>	0
▁the	-3.0649
s	-3.34713
ed	-3.77017
▁to	-3.79303
▁a	-3.80115
▁of	-4.00513
▁and	-4.00628
▁in	-4.00958
▁s	-4.52814
ing	-4.6428
▁for	-4.8164
▁was	-4.81821
▁on	-4.85997
▁	-4.91241
▁is	-5.00029
▁he	-5.0132
▁that	-5.02478
▁it	-5.09334
▁with	-5.10318
ly	-5.24855
▁his	-5.25074
▁at	-5.25485
▁said	-5.26029
y	-5.31101
d	-5.41329
▁by	-5.44258
▁i	-5.48645
▁has	-5.50224
▁as	-5.52044
▁from	-5.52077
▁be	-5.52347
e	-5.52429
▁have	-5.57947
▁her	-5.63308
▁but	-5.70665
▁are	-5.74171
▁she	-5.75065
▁an	-5.76227
▁after	-5.82709
▁who	-5.89508
▁they	-5.90862
▁had	-5.91034
▁not	-5.91129
▁this	-5.9283
▁been	-5.94349
▁were	-5.98483
▁their	-6.00231
▁will	-6.0272
▁we	-6.04835
n	-6.07284
▁t	-6.07363
▁year	-6.07693
er	-6.14931
▁up	-6.19118
▁one	-6.21913
▁when	-6.24162
▁out	-6.30286
▁which	-6.33681
▁new	-6.34628
▁more	-6.43842
▁two	-6.45404
r	-6.48218
es	-6.50035
▁you	-6.50717
▁about	-6.51186
▁also	-6.52141
a	-6.52573
▁or	-6.52664
▁can	-6.56241
▁last	-6.57148
▁police	-6.5787
▁people	-6.58681
▁all	-6.59132
▁over	-6.60188
▁time	-6.62578
▁him	-6.62829
▁there	-6.64619
▁would	-6.65526
▁old	-6.66887
▁into	-6.68658
▁no	-6.71054
▁so	-6.71068
▁first	-6.73297
▁told	-6.73444
▁than	-6.74869
o	-6.76592
t	-6.76846
▁just	-6.76982
▁1	-6.78713
▁home	-6.87786
▁before	-6.87792
▁years	-6.88171
▁down	-6.88387
▁if	-6.90257
▁now	-6.90493
▁could	-6.90901
▁back	-6.90978
▁mr	-6.91577
▁them	-6.94128
▁other	-6.95132
▁what	-6.96227
▁being	-6.96947
▁three	-6.97364
▁world	-6.97436
▁my	-6.97996
▁how	-6.98035
▁like	-7.0123
▁000	-7.01262
▁some	-7.02151
▁man	-7.02313
m	-7.02959
▁says	-7.03044
▁found	-7.04243
▁off	-7.04419
▁while	-7.04531
▁do	-7.05025
▁re	-7.0551
▁left	-7.08648
▁2	-7.08997
i	-7.10598
▁cnn	-7.10679
▁its	-7.12512
▁m	-7.13647
▁day	-7.14231
▁during	-7.14338
▁against	-7.16145
▁made	-7.17135
because	-7.1794
▁us	-7.18044
▁where	-7.18946
▁u	-7.19311
▁only	-7.20807
▁me	-7.21422
▁call	-7.22319
▁court	-7.23286
▁family	-7.23367
▁get	-7.23535
▁under	-7.24762
▁work	-7.26988
al	-7.28022
▁most	-7.28388
p	-7.2847
▁per	-7.30428
th	-7.3124
▁may	-7.31348
▁our	-7.32118
▁according	-7.32698
▁car	-7.32856
▁video	-7.33574
▁right	-7.33977
▁since	-7.3498
▁city	-7.35748
▁week	-7.359
▁say	-7.3604
▁team	-7.37839
▁go	-7.37978
▁est	-7.38419
c	-7.3919
▁around	-7.39283
▁10	-7.39672
▁make	-7.40176
▁four	-7.41998
▁help	-7.42472
ers	-7.43188
▁then	-7.43374
▁take	-7.43424
▁start	-7.44479
▁children	-7.44697
▁very	-7.44777
on	-7.4498
▁life	-7.45159
▁former	-7.46025
▁3	-7.46132
▁through	-7.4903
▁any	-7.49065
▁high	-7.49074
▁well	-7.49671
an	-7.50105
▁want	-7.50318
▁place	-7.51406
▁play	-7.5186
▁2013	-7.52874
▁un	-7.53003
▁show	-7.53113
▁group	-7.54054
man	-7.54376
▁way	-7.54487
▁state	-7.55118
▁even	-7.55426
▁many	-7.55473
▁school	-7.55801
ies	-7.56346
▁united	-7.56572
▁second	-7.56866
▁5	-7.57486
▁still	-7.58238
▁did	-7.58667
▁add	-7.59467
▁see	-7.59548
▁house	-7.59742
le	-7.59907
h	-7.60259
en	-7.61055
▁month	-7.61079
ion	-7.61223
▁part	-7.61498
▁mother	-7.61665
g	-7.61771
▁five	-7.61819
▁government	-7.62252
▁long	-7.62573
▁good	-7.63321
▁end	-7.63689
▁another	-7.64328
▁night	-7.64399
▁season	-7.64876
▁between	-7.65408
▁case	-7.65463
▁4	-7.66016
▁20	-7.66448
▁those	-7.66596
▁don	-7.66776
▁officer	-7.67312
st	-7.6782
▁next	-7.68125
in	-7.68171
▁took	-7.68254
▁near	-7.68349
▁set	-7.68456
▁women	-7.68911
▁death	-7.69082
▁going	-7.69171
▁president	-7.69242
▁hospital	-7.70017
▁country	-7.70497
▁league	-7.71037
▁used	-7.72447
▁both	-7.72866
▁including	-7.72874
▁reported	-7.7293
▁arrest	-7.72981
k	-7.73052
▁own	-7.73116
or	-7.73171
▁need	-7.73277
▁kill	-7.73429
▁think	-7.73936
l	-7.74269
▁men	-7.74506
▁london	-7.7479
▁should	-7.74985
▁report	-7.75464
▁6	-7.75522
▁cent	-7.75569
▁attack	-7.7557
▁post	-7.75866
▁public	-7.76551
▁top	-7.7668
▁know	-7.76691
▁ve	-7.76798
▁such	-7.77172
est	-7.77293
▁your	-7.77879
able	-7.78129
▁head	-7.78165
▁club	-7.78236
▁million	-7.78591
▁publish	-7.7863
▁later	-7.78806
▁game	-7.78834
▁co	-7.79106
▁got	-7.7974
▁woman	-7.8038
▁d	-7.80444
▁pictured	-7.80445
▁south	-7.80557
▁12	-7.8103
▁claim	-7.81244
▁six	-7.81778
▁put	-7.82643
▁taken	-7.83053
re	-7.8309
▁2012	-7.83145
▁service	-7.83298
▁return	-7.83765
▁30	-7.83795
▁seen	-7.83937
▁these	-7.84219
▁much	-7.84453
▁away	-7.84759
▁side	-7.84811
b	-7.84814
▁cup	-7.8558
▁win	-7.85601
▁de	-7.85717
▁area	-7.87648
▁al	-7.87703
▁11	-7.88005
▁died	-7.88455
▁come	-7.88541
▁15	-7.88968
▁19	-7.89042
▁months	-7.89371
▁days	-7.89995
▁p	-7.9002
ever	-7.90176
▁england	-7.90248
▁today	-7.90402
▁came	-7.91005
▁face	-7.91544
▁national	-7.91667
▁sunday	-7.92081
▁went	-7.92331
▁news	-7.92524
▁updat	-7.92891
▁appear	-7.92957
▁move	-7.93779
▁never	-7.94183
ity	-7.94781
▁same	-7.94847
▁believe	-7.94853
▁18	-7.95106
▁best	-7.95259
▁young	-7.95425
ch	-7.95928
▁number	-7.96569
▁west	-7.97325
▁close	-7.97378
el	-7.98222
▁father	-7.98291
▁use	-7.98809
▁o	-7.99597
▁york	-7.99614
ton	-7.99802
▁recent	-8.00191
▁child	-8.00889
▁wife	-8.01071
▁student	-8.0113
▁company	-8.01182
z	-8.01208
▁half	-8.01348
▁star	-8.01534
▁great	-8.0189
▁won	-8.02009
▁saturday	-8.0232
▁monday	-8.03002
▁remain	-8.03459
▁water	-8.03514
▁following	-8.03621
▁watch	-8.03747
▁hit	-8.03779
▁son	-8.04436
▁look	-8.04569
▁north	-8.04582
▁international	-8.04857
▁incident	-8.04878
▁force	-8.05055
ation	-8.05283
▁support	-8.05491
▁statement	-8.05931
▁st	-8.06183
▁tuesday	-8.06196
▁park	-8.06197
u	-8.06751
▁change	-8.07076
▁having	-8.07106
▁times	-8.07494
▁thought	-8.07574
▁friday	-8.07669
▁body	-8.08158
▁local	-8.08163
▁british	-8.08266
▁health	-8.08379
▁miss	-8.08436
▁couple	-8.08452
us	-8.08512
0	-8.08513
▁turn	-8.08547
▁e	-8.08699
▁here	-8.09159
▁really	-8.09348
▁16	-8.09357
▁money	-8.0956
▁every	-8.09593
▁fire	-8.10015
▁daughter	-8.10036
▁until	-8.10309
▁officials	-8.1034
▁war	-8.10886
▁each	-8.11416
▁allow	-8.11838
▁final	-8.11856
▁far	-8.12252
▁order	-8.12831
▁uk	-8.13109
▁too	-8.13457
▁hours	-8.13559
▁wednesday	-8.13914
w	-8.1397
▁air	-8.14078
▁didn	-8.14207
▁known	-8.14257
▁current	-8.14981
▁office	-8.15063
▁manchester	-8.1534
▁real	-8.15956
▁authoritie	-8.15972
ic	-8.1614
▁white	-8.16191
▁give	-8.16306
▁big	-8.16357
▁law	-8.16409
▁open	-8.16642
▁c	-8.16651
▁dead	-8.1674
ar	-8.16815
il	-8.16858
▁find	-8.16876
▁comment	-8.17094
▁13	-8.1717
▁match	-8.17521
5	-8.17589
▁14	-8.17789
▁shot	-8.17945
▁asked	-8.17982
▁la	-8.18494
▁little	-8.18554
▁given	-8.18787
▁david	-8.18851
▁run	-8.19196
la	-8.19368
▁thursday	-8.20205
▁200	-8.20468
▁lot	-8.20478
▁8	-8.20759
▁ago	-8.20867
▁scroll	-8.20972
▁large	-8.21366
f	-8.21433
▁earlie	-8.22078
▁security	-8.22216
▁murder	-8.22248
▁university	-8.22684
out	-8.22845
▁seven	-8.22897
▁black	-8.23131
▁0	-8.23138
3	-8.23402
▁film	-8.23502
▁despite	-8.23739
▁american	-8.24022
ia	-8.24288
▁players	-8.24368
▁25	-8.24603
▁behind	-8.24945
▁past	-8.25003
▁taking	-8.25028
▁spokesma	-8.25129
▁free	-8.25164
▁party	-8.25205
▁pay	-8.25382
▁saying	-8.25398
▁across	-8.2545
▁third	-8.2617
▁manager	-8.2681
▁already	-8.26958
▁several	-8.27099
ta	-8.27122
▁n	-8.27286
▁food	-8.27354
▁w	-8.27615
▁50	-8.27674
▁business	-8.27857
▁girl	-8.28382
▁hard	-8.287
▁include	-8.28796
▁lost	-8.28812
▁again	-8.29052
▁boy	-8.29542
▁front	-8.29721
▁person	-8.29741
▁investigation	-8.29951
▁test	-8.30153
▁am	-8.30193
1	-8.30262
▁minister	-8.30365
▁john	-8.30376
am	-8.30525
▁january	-8.30768
▁media	-8.30837
▁red	-8.30851
▁sex	-8.31124
▁become	-8.3113
▁making	-8.31197
▁judge	-8.31198
▁able	-8.31223
▁few	-8.31376
▁friends	-8.3162
v	-8.31659
▁early	-8.31856
▁parents	-8.31915
ra	-8.32043
x	-8.32108
ho	-8.32189
▁b	-8.32224
▁outside	-8.3243
▁department	-8.32458
2	-8.32611
▁staff	-8.32612
▁tri	-8.32688
▁working	-8.32817
▁releas	-8.32864
▁action	-8.33009
▁accus	-8.33462
ie	-8.33464
▁states	-8.33771
▁looking	-8.33996
▁deal	-8.34439
▁9	-8.34459
ma	-8.34501
▁march	-8.34793
▁100	-8.34822
▁something	-8.34991
▁obama	-8.35007
▁love	-8.35055
na	-8.35235
▁members	-8.35461
▁dr	-8.35579
▁full	-8.35945
▁among	-8.36002
▁keep	-8.36261
ro	-8.36313
million	-8.36329
ment	-8.36348
it	-8.36462
son	-8.36632
▁official	-8.37006
▁short	-8.37213
▁question	-8.37418
▁saw	-8.37453
▁driver	-8.37541
▁system	-8.3755
▁point	-8.37743
ne	-8.37876
ry	-8.37887
▁campaign	-8.37909
▁care	-8.37979
▁decision	-8.37996
▁jail	-8.38141
▁minutes	-8.38276
ul	-8.38508
▁football	-8.38559
▁k	-8.38656
▁24	-8.38714
▁live	-8.38764
▁facebook	-8.38793
▁husband	-8.38894
▁daily	-8.39054
te	-8.39082
▁charged	-8.39291
▁hand	-8.3933
▁morning	-8.39506
▁clear	-8.39697
▁previous	-8.39851
▁ever	-8.4016
▁least	-8.40174
▁heard	-8.40211
less	-8.40226
▁street	-8.4076
▁eight	-8.40801
▁shows	-8.4117
▁record	-8.41179
ley	-8.41206
▁held	-8.41245
▁receiv	-8.41494
▁name	-8.4167
▁wear	-8.41754
▁fans	-8.41873
▁21	-8.41918
▁heart	-8.42089
▁whether	-8.42233
▁always	-8.42285
▁weeks	-8.42495
▁age	-8.42529
▁attempt	-8.42564
▁launch	-8.42806
▁due	-8.4302
▁once	-8.43218
▁prison	-8.43727
▁2011	-8.43961
▁ms	-8.44018
▁baby	-8.44027
▁revealed	-8.44031
▁follow	-8.44407
▁road	-8.44429
▁premier	-8.44462
▁friend	-8.44613
▁based	-8.44765
▁involv	-8.44802
▁charges	-8.44873
▁december	-8.44885
▁line	-8.44933
ance	-8.44977
▁stay	-8.45068
▁military	-8.45201
▁van	-8.45285
▁chief	-8.45305
▁40	-8.45423
▁county	-8.45589
▁trying	-8.4567
ant	-8.45932
▁visit	-8.46065
▁suspect	-8.46183
▁mail	-8.46308
▁mark	-8.46415
▁crash	-8.46581
▁wanted	-8.47274
▁november	-8.47498
▁phone	-8.47561
▁september	-8.47934
▁late	-8.47955
▁better	-8.48049
▁britain	-8.48116
▁power	-8.48221
▁job	-8.48245
▁must	-8.48284
▁social	-8.48307
▁claimed	-8.48347
▁games	-8.48413
▁player	-8.48508
▁stop	-8.48568
▁reach	-8.48669
▁different	-8.4874
▁goal	-8.48982
▁22	-8.49019
▁himself	-8.49082
▁october	-8.49231
▁expected	-8.49544
▁scene	-8.50125
▁sent	-8.50229
▁why	-8.50232
▁information	-8.50515
▁caus	-8.50679
▁less	-8.50734
▁august	-8.50799
▁chelsea	-8.50888
▁building	-8.51079
▁provide	-8.51099
ur	-8.51161
▁site	-8.51201
ian	-8.51203
▁centre	-8.51316
▁website	-8.51722
▁small	-8.51759
▁summer	-8.51887
▁dog	-8.52168
▁join	-8.52277
▁liverpool	-8.52344
▁online	-8.52388
▁june	-8.52881
▁store	-8.53001
▁com	-8.53115
▁michael	-8.53543
▁medical	-8.53628
▁together	-8.53687
▁almost	-8.53765
▁g	-8.53922
at	-8.53926
▁seem	-8.53992
▁book	-8.54
▁list	-8.54007
▁offer	-8.54116
8	-8.54118
▁along	-8.54565
4	-8.54657
ive	-8.55032
▁term	-8.55115
▁confirm	-8.55145
ce	-8.55289
▁human	-8.55408
▁inside	-8.55666
co	-8.557
▁training	-8.55714
▁began	-8.55947
▁does	-8.55984
▁serious	-8.55995
▁wrot	-8.56041
▁director	-8.56093
▁2014	-8.56388
▁bar	-8.56405
▁played	-8.56438
▁cause	-8.56577
▁study	-8.56818
▁yet	-8.56866
▁july	-8.57138
▁getting	-8.5737
ter	-8.57493
6	-8.57536
▁23	-8.57542
▁twitter	-8.57545
▁moment	-8.57858
▁le	-8.57892
▁control	-8.57966
▁tv	-8.57999
▁round	-8.58193
▁might	-8.582
▁leave	-8.58239
▁led	-8.58309
▁ahead	-8.58311
▁town	-8.58361
ist	-8.58467
▁trial	-8.58488
▁light	-8.58538
▁east	-8.58588
▁complete	-8.5862
▁major	-8.58698
▁cost	-8.58703
▁china	-8.58754
▁walk	-8.58757
ke	-8.58794
▁council	-8.58985
▁room	-8.59419
▁lead	-8.59504
▁consider	-8.59511
▁fight	-8.59632
▁sexual	-8.59662
▁james	-8.59695
▁arm	-8.59813
▁f	-8.59834
▁comes	-8.60006
▁april	-8.60033
▁things	-8.60346
▁became	-8.6062
▁strong	-8.60741
▁target	-8.60751
▁form	-8.60985
▁feel	-8.61056
▁let	-8.61173
▁patient	-8.61271
▁victim	-8.61305
spent	-8.61422
▁forward	-8.61468
▁flight	-8.61782
▁general	-8.618
▁enough	-8.61817
▁ground	-8.6188
▁center	-8.62358
ri	-8.62518
9	-8.62527
▁result	-8.62549
▁describ	-8.62659
▁reports	-8.6278
▁likely	-8.6285
▁believed	-8.63333
ling	-8.63379
▁passenger	-8.63594
ft	-8.63882
▁2010	-8.64094
▁vehicle	-8.64324
▁station	-8.64357
▁allegedly	-8.64485
▁happened	-8.64502
▁though	-8.64703
▁february	-8.64897
▁admitted	-8.6508
▁design	-8.65208
▁26	-8.65222
▁drug	-8.65334
▁event	-8.65602
▁chance	-8.65797
▁hope	-8.65816
▁series	-8.65839
▁treat	-8.66036
▁legal	-8.66043
▁title	-8.66116
▁bad	-8.66141
▁land	-8.66187
▁ex	-8.66352
▁operation	-8.66784
▁account	-8.66827
▁australia	-8.66931
▁pair	-8.67063
▁further	-8.67247
yesterday	-8.67337
▁ll	-8.67424
▁announc	-8.67518
▁read	-8.67662
▁risk	-8.67798
▁board	-8.679
▁assault	-8.6821
▁france	-8.68262
ves	-8.68694
▁coach	-8.68848
▁gun	-8.68907
▁ten	-8.68934
▁r	-8.69191
▁fail	-8.69299
▁special	-8.69345
▁picture	-8.69394
▁break	-8.69423
▁gave	-8.69442
▁future	-8.69459
▁bill	-8.69503
▁research	-8.6965
▁interview	-8.69725
▁role	-8.69752
▁met	-8.69905
▁popular	-8.69971
ir	-8.70089
ent	-8.70224
▁ball	-8.70318
▁nine	-8.70323
is	-8.70388
▁living	-8.70433
▁beat	-8.70461
▁arsenal	-8.70521
▁cancer	-8.70528
▁california	-8.70531
▁damage	-8.70977
▁done	-8.71017
▁search	-8.71028
▁cut	-8.71074
▁treatment	-8.71213
lo	-8.71278
▁fa	-8.71453
▁race	-8.71471
▁others	-8.7173
▁guilty	-8.71747
▁space	-8.71833
▁although	-8.72013
▁evidence	-8.72102
▁pre	-8.72122
▁paul	-8.72552
ca	-8.72731
▁press	-8.728
▁leader	-8.72824
▁mo	-8.72917
▁28	-8.72968
▁release	-8.73017
▁con	-8.73164
▁airport	-8.73198
▁doing	-8.73258
▁injur	-8.73296
▁mrs	-8.73363
ka	-8.73408
et	-8.73667
▁royal	-8.7368
▁sea	-8.7384
▁host	-8.7403
▁h	-8.74061
ally	-8.74117
▁green	-8.74182
ness	-8.74493
▁career	-8.74581
ish	-8.74644
▁european	-8.74905
▁within	-8.74955
▁attorney	-8.75103
▁born	-8.75121
▁community	-8.75563
▁try	-8.75918
age	-8.76005
ge	-8.76228
▁thing	-8.76524
▁safety	-8.76578
▁agency	-8.76666
▁french	-8.76695
▁hotel	-8.76698
▁miles	-8.76787
▁page	-8.76892
▁experience	-8.76902
to	-8.77087
▁act	-8.77192
▁important	-8.77254
land	-8.7739
▁named	-8.77453
▁ask	-8.77802
li	-8.77807
▁issue	-8.77968
▁suffered	-8.78014
▁injury	-8.7837
▁lives	-8.78455
▁travel	-8.78549
▁fact	-8.78638
id	-8.78907
▁charge	-8.79084
▁carry	-8.7913
vi	-8.79215
▁bit	-8.7939
ful	-8.79482
▁level	-8.79696
▁customer	-8.79724
▁expert	-8.79866
▁injuries	-8.7994
▁someone	-8.80076
ine	-8.80127
▁happy	-8.8015
▁missing	-8.80155
no	-8.80165
▁prime	-8.80452
▁source	-8.80474
▁history	-8.80835
▁crime	-8.80924
ate	-8.81057
▁resident	-8.81066
▁champions	-8.81186
▁bank	-8.81239
▁plans	-8.81242
▁often	-8.81249
▁key	-8.81415
ha	-8.8144
▁weekend	-8.81495
▁warn	-8.81673
▁brown	-8.81921
▁owner	-8.81974
▁500	-8.81986
stead	-8.82062
▁na	-8.82217
ni	-8.82339
▁contact	-8.8235
▁coming	-8.82412
▁possible	-8.82448
▁market	-8.825
▁hour	-8.82772
j	-8.8296
▁driving	-8.83143
▁condition	-8.83166
▁effort	-8.83272
go	-8.8331
um	-8.83313
▁christmas	-8.83512
▁di	-8.83563
▁political	-8.83571
▁count	-8.83592
da	-8.83595
▁plane	-8.838
▁soon	-8.83817
▁continue	-8.83886
▁tour	-8.84029
▁san	-8.84062
▁price	-8.84076
▁stage	-8.84151
▁29	-8.84187
▁member	-8.84191
▁view	-8.84193
ba	-8.84276
▁pull	-8.84303
▁photo	-8.84435
▁brother	-8.8446
▁blood	-8.84702
▁plann	-8.84741
ous	-8.84748
▁discovered	-8.84789
▁striker	-8.84844
▁course	-8.85052
▁federal	-8.85112
▁caught	-8.85139
▁drink	-8.8519
▁paid	-8.85252
▁alleged	-8.85293
▁similar	-8.85381
▁interest	-8.8541
▁personal	-8.8543
me	-8.85493
▁story	-8.85699
ol	-8.85702
ut	-8.8572
▁attend	-8.85736
▁accept	-8.85818
▁huge	-8.859
▁above	-8.85969
▁doesn	-8.86044
▁process	-8.86077
▁sure	-8.86131
▁points	-8.8627
▁election	-8.86275
▁concern	-8.8638
▁firm	-8.86398
▁problem	-8.86707
▁decided	-8.86744
▁property	-8.86803
▁reason	-8.86916
tic	-8.87014
▁camera	-8.87017
▁washington	-8.87045
▁rights	-8.87167
▁ba	-8.87201
▁trip	-8.87339
latest	-8.87623
▁criminal	-8.87731
▁capital	-8.8813
▁tax	-8.88134
▁challenge	-8.88474
▁ho	-8.88503
ty	-8.88737
▁60	-8.88825
▁running	-8.88913
▁scor	-8.88918
ga	-8.88955
▁showed	-8.89093
▁middle	-8.89118
▁private	-8.89144
▁2009	-8.89286
▁prosecutor	-8.89509
▁bring	-8.89626
▁goals	-8.90022
▁nation	-8.90113
▁low	-8.90136
▁nothing	-8.90159
▁kind	-8.90242
▁brand	-8.90333
▁rest	-8.90659
▁king	-8.90682
▁accident	-8.90712
▁relationship	-8.90895
▁abuse	-8.91004
▁america	-8.91123
▁australian	-8.91143
▁thousands	-8.91207
▁grand	-8.91262
▁l	-8.91314
mo	-8.91459
di	-8.91902
▁madrid	-8.92001
▁develop	-8.92086
▁shooting	-8.92177
▁sign	-8.92273
▁idea	-8.92499
▁coast	-8.92728
▁sold	-8.92732
ci	-8.92747
▁winning	-8.92797
▁meeting	-8.93159
▁anything	-8.93181
▁lawyer	-8.93524
▁plan	-8.93539
▁model	-8.93553
▁boss	-8.9359
ard	-8.93648
▁image	-8.93705
▁animal	-8.93895
available	-8.93932
▁hair	-8.94012
▁j	-8.94077
▁girls	-8.94452
▁sports	-8.94515
▁difficult	-8.9454
▁leaving	-8.9454
▁single	-8.94752
▁island	-8.94886
▁contribut	-8.94937
▁victims	-8.94993
▁workers	-8.95119
▁dress	-8.95136
▁position	-8.9516
▁potential	-8.95165
▁agree	-8.95256
▁worth	-8.95318
▁looked	-8.95378
ham	-8.95437
▁minute	-8.95456
anyone	-8.95512
▁justice	-8.95591
▁talk	-8.95725
▁reporter	-8.95754
▁sentence	-8.95761
▁countrie	-8.9577
lin	-8.95799
▁whose	-8.95828
do	-8.95886
▁secretary	-8.95891
▁brought	-8.95928
▁hearing	-8.96159
▁disease	-8.96181
▁foreign	-8.96182
be	-8.96234
▁bbc	-8.96381
▁cross	-8.96669
▁florida	-8.96669
▁captain	-8.96704
▁program	-8.96714
ner	-8.96748
▁mc	-8.96903
▁anti	-8.96939
▁gold	-8.96972
▁female	-8.97099
▁el	-8.97274
▁vi	-8.97386
way	-8.97486
▁contract	-8.97494
▁demand	-8.97559
▁church	-8.9762
▁shock	-8.97816
▁george	-8.98032
▁images	-8.98176
▁31	-8.98212
▁marri	-8.98264
▁squad	-8.98313
▁range	-8.98315
▁explain	-8.98331
▁everyone	-8.98334
▁pictures	-8.98489
▁speed	-8.98643
▁wrong	-8.98659
▁mar	-8.98678
▁ban	-8.98772
ve	-8.98884
▁district	-8.99022
▁stand	-8.99032
▁actual	-8.9905
▁ran	-8.99079
▁safe	-8.9925
▁super	-8.99542
▁certain	-8.99669
ey	-8.99799
▁doctors	-8.99897
▁arrived	-8.99951
without	-9.00032
▁problems	-9.00285
▁smith	-9.00345
▁app	-9.00417
▁2008	-9.0051
▁fear	-9.00557
▁defeat	-9.00696
▁wide	-9.00771
▁average	-9.0099
▁europe	-9.00994
▁appeal	-9.01059
▁original	-9.0106
▁bus	-9.01263
▁eye	-9.01275
▁style	-9.01424
ster	-9.01608
line	-9.01671
▁message	-9.01689
▁killing	-9.01872
▁protect	-9.01927
▁means	-9.01955
▁train	-9.02145
▁everything	-9.0216
▁gone	-9.02255
▁familie	-9.02314
▁fell	-9.02483
▁network	-9.02614
▁central	-9.02841
▁germany	-9.02926
▁rate	-9.03089
▁situation	-9.031
▁perform	-9.03116
▁river	-9.03166
▁beach	-9.03187
▁africa	-9.03244
▁seat	-9.03428
▁project	-9.03432
▁violence	-9.03585
▁pro	-9.03678
▁li	-9.03807
ac	-9.03997
▁users	-9.04016
▁felt	-9.04022
po	-9.04027
▁benefit	-9.0406
▁tell	-9.0414
▁region	-9.04173
▁tweet	-9.04175
▁english	-9.04175
▁wasn	-9.04186
▁protest	-9.04236
▁35	-9.04272
▁enter	-9.04302
▁leg	-9.04434
▁push	-9.04518
▁focus	-9.04559
▁device	-9.04647
ting	-9.04863
▁art	-9.04978
▁executive	-9.05003
▁created	-9.05171
per	-9.05375
▁hundred	-9.05653
▁total	-9.05774
▁vote	-9.05854
▁crew	-9.05943
▁document	-9.06134
▁access	-9.06175
▁field	-9.06189
▁threat	-9.06241
▁main	-9.06297
▁check	-9.06617
▁foot	-9.06664
pm	-9.06786
gg	-9.06797
▁looks	-9.06855
▁door	-9.06985
▁martin	-9.0707
ary	-9.07105
he	-9.07132
▁forces	-9.07154
▁performance	-9.07301
▁feet	-9.0737
▁senior	-9.07443
▁williams	-9.0747
▁hands	-9.07485
▁v	-9.07542
▁fashion	-9.07615
▁battle	-9.07704
▁recover	-9.07763
▁labour	-9.07804
▁rather	-9.07875
▁deep	-9.08139
▁ham	-9.08201
▁themsel	-9.08224
▁chris	-9.08331
▁prince	-9.08385
▁crown	-9.08437
▁weapon	-9.0897
▁german	-9.0907
▁decade	-9.09086
▁meet	-9.09148
▁photos	-9.092
ot	-9.09248
▁emergency	-9.09313
▁music	-9.09327
▁union	-9.0938
kept	-9.09572
▁lu	-9.09916
▁investigat	-9.10016
▁leading	-9.10036
▁32	-9.10218
▁hold	-9.10241
▁track	-9.10342
▁fall	-9.1039
▁class	-9.10454
victory	-9.10497
▁45	-9.10647
▁loss	-9.10667
▁letter	-9.10851
▁speaking	-9.10892
▁pressure	-9.10904
▁rescue	-9.10991
▁expect	-9.11007
▁convict	-9.11268
▁particular	-9.11467
▁direct	-9.11523
▁russian	-9.11848
▁spot	-9.11968
▁shop	-9.11969
▁ru	-9.11983
▁effect	-9.12006
▁share	-9.12014
▁storm	-9.12048
▁camp	-9.12195
▁knew	-9.12393
▁cover	-9.12597
▁manag	-9.12639
▁pe	-9.12703
field	-9.12756
▁step	-9.1283
▁secret	-9.13019
▁spain	-9.13019
ah	-9.13089
▁internet	-9.13112
▁employee	-9.13147
▁los	-9.13172
▁enjoy	-9.13181
▁limit	-9.13194
▁researcher	-9.13209
▁barcelona	-9.13236
▁size	-9.13304
za	-9.13414
▁famous	-9.13459
▁learn	-9.13567
▁initial	-9.13656
▁sister	-9.13672
▁date	-9.13754
▁sun	-9.1377
▁holiday	-9.13815
▁rock	-9.13871
▁block	-9.13961
▁jump	-9.14058
▁increase	-9.14098
ten	-9.14112
▁trust	-9.14499
▁floor	-9.14639
▁ka	-9.14673
pa	-9.1469
▁brazil	-9.14754
▁carri	-9.14775
▁drugs	-9.14897
mp	-9.14902
▁army	-9.14927
▁competition	-9.15073
▁birth	-9.15296
▁india	-9.15309
▁apple	-9.15372
▁attacks	-9.15587
▁fine	-9.15628
que	-9.15641
▁brain	-9.15717
▁da	-9.15774
▁restaurant	-9.15775
▁border	-9.1578
▁blue	-9.15785
▁create	-9.15856
chinese	-9.1591
▁stopp	-9.1594
men	-9.15958
▁approach	-9.16068
▁address	-9.16201
▁cat	-9.16216
▁row	-9.16392
▁conduct	-9.165
▁measure	-9.16525
surgery	-9.1658
▁sale	-9.16656
▁en	-9.16683
▁immediately	-9.16727
▁midfielder	-9.16731
▁cameron	-9.16746
▁cash	-9.1683
▁else	-9.16887
▁period	-9.17082
▁weight	-9.17164
▁amount	-9.17263
▁award	-9.1741
▁college	-9.1751
▁footage	-9.17519
▁champion	-9.17546
▁biggest	-9.177
mi	-9.17819
der	-9.17862
▁request	-9.17924
ph	-9.18255
▁gas	-9.18439
▁longer	-9.18511
▁celebrate	-9.18561
▁wall	-9.18564
▁stadium	-9.18614
▁couldn	-9.18682
▁ta	-9.18726
▁texas	-9.1879
▁billion	-9.18923
▁partner	-9.18949
▁fast	-9.19198
ina	-9.19205
▁ko	-9.19243
▁draw	-9.19309
▁giant	-9.19337
ig	-9.19349
▁avoid	-9.19377
▁bo	-9.19443
▁financial	-9.19613
▁prevent	-9.19682
▁percent	-9.19803
▁ma	-9.19991
▁defense	-9.2023
▁cell	-9.20297
▁ha	-9.20344
▁opening	-9.20344
▁cannot	-9.204
▁ne	-9.20496
▁northern	-9.20537
▁iraq	-9.20555
▁investigator	-9.20615
▁common	-9.2063
▁teenager	-9.2064
▁sir	-9.20674
im	-9.2073
▁signed	-9.20768
▁peter	-9.20775
▁review	-9.20871
▁agent	-9.20887
▁matter	-9.20931
ck	-9.21014
▁whole	-9.21265
▁twic	-9.21274
▁fourth	-9.21314
▁technology	-9.21433
▁refused	-9.21494
▁snow	-9.2157
▁33	-9.21603
▁regular	-9.21838
▁opportunit	-9.21881
▁poor	-9.21896
▁buy	-9.21964
▁quite	-9.21987
▁fair	-9.2204
▁russia	-9.22094
▁drive	-9.22113
▁normal	-9.2215
ti	-9.22202
▁broke	-9.22275
▁hall	-9.2231
▁policy	-9.22392
▁card	-9.22445
▁animals	-9.22466
▁marriage	-9.22471
by	-9.2261
▁character	-9.22622
▁winner	-9.22633
▁raise	-9.22768
▁allegation	-9.22768
▁aged	-9.22775
▁wales	-9.22947
well	-9.2296
▁giving	-9.22982
▁defend	-9.23124
▁success	-9.2321
▁quickly	-9.23263
▁ice	-9.23283
▁queen	-9.23297
ell	-9.23315
▁ben	-9.23347
▁self	-9.23373
▁bridge	-9.23377
▁fi	-9.23399
▁bid	-9.23505
▁built	-9.23608
▁display	-9.2371
▁jo	-9.23776
▁makes	-9.23791
▁data	-9.23806
▁perfect	-9.23823
▁newspaper	-9.23911
▁weather	-9.24043
▁artist	-9.24045
ad	-9.24185
▁wait	-9.24303
ier	-9.24448
▁italy	-9.24626
▁ro	-9.24718
bo	-9.24862
▁impact	-9.24874
▁strike	-9.24909
shire	-9.25111
mer	-9.2528
▁richard	-9.25304
ver	-9.25466
▁boat	-9.2549
ff	-9.25625
▁denied	-9.25672
▁rise	-9.25716
han	-9.25882
▁apparent	-9.25893
▁male	-9.26129
▁sport	-9.2624
▁save	-9.26254
▁plead	-9.26258
▁su	-9.26387
▁girlfriend	-9.26525
▁response	-9.26541
▁sam	-9.2663
▁pilot	-9.26659
▁conference	-9.26704
▁defender	-9.26789
▁touch	-9.26856
nd	-9.26887
▁mind	-9.26962
▁african	-9.26981
▁angeles	-9.27018
▁figures	-9.27103
▁identifi	-9.2713
bi	-9.27131
ak	-9.27157
▁pet	-9.27196
▁wedding	-9.27254
▁google	-9.27285
▁double	-9.27386
▁fighting	-9.27427
▁fund	-9.27478
▁surprise	-9.27522
▁individual	-9.27531
up	-9.27578
bb	-9.27996
▁fit	-9.2802
▁fan	-9.28023
▁continued	-9.28059
tra	-9.28128
▁johnson	-9.28174
▁spend	-9.28175
▁express	-9.28392
▁takes	-9.28455
▁successful	-9.28537
▁suit	-9.28553
ated	-9.28579
▁complaint	-9.28627
▁x	-9.28937
▁details	-9.29109
▁nearby	-9.29181
▁loan	-9.2919
▁pa	-9.29201
▁radio	-9.29205
▁dangerous	-9.29206
▁rival	-9.29245
▁lo	-9.29363
▁spott	-9.29653
▁rare	-9.29747
▁emerg	-9.2995
un	-9.29968
▁global	-9.30063
▁scotland	-9.3017
▁tournament	-9.30203
▁charity	-9.30263
min	-9.30299
▁illegal	-9.30307
▁mobile	-9.30374
▁poll	-9.30426
▁ready	-9.30449
▁mexico	-9.3057
▁guard	-9.30579
▁attention	-9.30579
▁ni	-9.30753
▁actor	-9.30781
▁aid	-9.30917
q	-9.30976
▁garden	-9.31066
ford	-9.31107
led	-9.31112
▁jones	-9.31125
▁ra	-9.31128
▁afternoon	-9.31183
▁issues	-9.31188
ise	-9.3127
▁sentenced	-9.31273
▁receive	-9.31332
den	-9.31382
▁television	-9.31386
▁sky	-9.3141
▁gay	-9.31586
▁90	-9.31599
pe	-9.31646
▁struggl	-9.3166
▁towards	-9.31671
▁80	-9.31685
▁eventual	-9.31698
▁natural	-9.31733
ran	-9.31812
▁fellow	-9.31831
▁survey	-9.31848
▁bought	-9.31886
▁warning	-9.31908
▁economic	-9.31943
ab	-9.31963
▁paris	-9.31982
▁energy	-9.3201
▁value	-9.32042
▁deliver	-9.32301
▁sell	-9.32414
▁present	-9.32587
▁34	-9.32595
▁speak	-9.32606
▁leaders	-9.32738
▁italian	-9.32768
▁gu	-9.32796
▁screen	-9.32815
ang	-9.3283
▁transport	-9.32845
▁lee	-9.32883
▁entire	-9.32959
▁remov	-9.33081
▁suspend	-9.33491
ler	-9.33714
▁collection	-9.33741
▁finally	-9.33853
▁korea	-9.33876
▁evening	-9.33963
▁significant	-9.34064
▁results	-9.34084
cy	-9.34218
▁doctor	-9.34288
▁scientists	-9.34304
▁kids	-9.34458
▁crowd	-9.34478
▁probabl	-9.34523
▁oil	-9.34578
ger	-9.347
▁non	-9.34709
▁ship	-9.34791
▁item	-9.34856
▁rush	-9.34873
▁faces	-9.34912
▁education	-9.34952
▁relative	-9.35016
▁association	-9.35114
▁dream	-9.3522
▁committee	-9.35238
▁guy	-9.35297
▁hot	-9.35392
▁shown	-9.35485
ett	-9.35631
mm	-9.35722
ney	-9.35733
▁computer	-9.35784
▁professional	-9.35835
truck	-9.35867
▁teacher	-9.36069
▁afghanistan	-9.36081
▁onto	-9.36164
▁lived	-9.36266
▁hop	-9.36342
▁earn	-9.36358
▁stone	-9.36563
▁em	-9.36583
▁base	-9.3664
▁300	-9.36669
▁bed	-9.36774
▁robert	-9.36809
▁alcohol	-9.3691
▁understand	-9.36948
▁herself	-9.36954
▁quarter	-9.37036
▁opened	-9.37045
▁jackson	-9.37422
▁needs	-9.37506
▁eat	-9.37548
▁dogs	-9.37556
▁band	-9.37697
▁extra	-9.37744
▁penalty	-9.37755
▁moving	-9.37765
▁village	-9.37789
▁conditions	-9.37825
▁kim	-9.37904
▁pain	-9.37911
▁civil	-9.37927
▁growing	-9.37984
▁mid	-9.38006
side	-9.38303
▁eith	-9.384
▁calls	-9.38459
▁goes	-9.38474
▁figure	-9.38515
▁passed	-9.38549
all	-9.38605
▁answer	-9.38906
▁magazine	-9.39139
▁movie	-9.39375
board	-9.39385
ja	-9.39435
▁deput	-9.39437
▁separate	-9.39478
▁36	-9.39508
▁cap	-9.39543
▁du	-9.39569
▁compar	-9.39571
▁daniel	-9.39617
ized	-9.39638
ow	-9.39728
▁send	-9.39742
▁development	-9.39999
▁feeling	-9.40164
▁newcastle	-9.40221
▁aircraft	-9.40244
au	-9.40262
▁reveal	-9.40273
▁companies	-9.40283
▁usual	-9.403
▁apartment	-9.40324
va	-9.40335
▁ca	-9.40412
▁occurr	-9.40511
▁ring	-9.40587
▁lake	-9.40592
▁industry	-9.40646
▁fun	-9.40931
▁commission	-9.41039
▁fill	-9.4111
▁lack	-9.41148
spanish	-9.41181
▁sydney	-9.4121
io	-9.41215
▁costs	-9.41231
▁thomas	-9.41304
▁severe	-9.41401
▁hu	-9.41506
▁bra	-9.41515
▁text	-9.41581
ber	-9.41654
▁captur	-9.41659
▁showing	-9.41961
▁build	-9.42034
kin	-9.42058
ud	-9.4211
▁table	-9.42268
▁skin	-9.42579
▁rules	-9.42598
▁suffering	-9.42622
▁score	-9.42635
▁pick	-9.42776
▁spoke	-9.42832
▁droppe	-9.42834
▁flat	-9.42918
▁earth	-9.42938
▁happen	-9.43014
lu	-9.4317
▁syria	-9.43203
▁boys	-9.43222
ven	-9.4324
▁words	-9.43469
▁bur	-9.43532
▁fe	-9.43634
▁cars	-9.43648
▁walking	-9.43649
▁william	-9.43931
▁god	-9.43973
▁paper	-9.44005
ism	-9.44041
▁dis	-9.44081
▁palace	-9.44186
▁respect	-9.44196
wa	-9.44223
▁nations	-9.44241
▁championship	-9.44267
▁chairman	-9.44287
▁mission	-9.44408
▁pakistan	-9.44443
▁mean	-9.44566
our	-9.44602
▁alone	-9.44675
ial	-9.44758
▁lower	-9.44772
▁lose	-9.4478
▁mayor	-9.44863
▁southern	-9.44921
▁facilit	-9.45147
▁unit	-9.4515
▁fly	-9.45186
▁spending	-9.45292
▁pass	-9.45318
▁fired	-9.4539
▁remember	-9.45398
▁custod	-9.4542
▁sales	-9.45495
▁subject	-9.45518
▁mor	-9.45564
▁box	-9.45566
▁rape	-9.45672
▁straight	-9.45747
▁clash	-9.45761
ag	-9.4577
▁photographer	-9.45995
▁eyes	-9.46034
▁mis	-9.46141
▁shar	-9.46174
▁holding	-9.46205
▁andrew	-9.46226
▁villa	-9.46323
▁version	-9.4633
▁troops	-9.46349
▁related	-9.46352
▁spread	-9.46429
▁guest	-9.46444
ical	-9.46446
▁za	-9.46477
▁choice	-9.46497
▁2006	-9.46539
op	-9.46592
▁jet	-9.46636
▁terrorist	-9.46676
▁tough	-9.46709
▁location	-9.46729
▁eu	-9.4677
▁contain	-9.4687
▁roll	-9.46882
▁japan	-9.469
00	-9.47064
▁suicide	-9.47237
▁dozen	-9.47248
▁hopes	-9.47276
▁file	-9.47344
▁kick	-9.47515
▁practice	-9.47536
▁louis	-9.47585
▁gain	-9.47615
▁western	-9.47641
▁bay	-9.47741
▁population	-9.47742
▁ensure	-9.47764
ee	-9.47774
▁euro	-9.48041
▁lift	-9.48067
▁inter	-9.48145
▁broken	-9.48164
▁served	-9.48175
▁organization	-9.48196
▁rose	-9.48197
▁especial	-9.48309
▁iran	-9.4833
▁gang	-9.48372
▁38	-9.48414
▁stars	-9.48515
▁appearance	-9.48519
▁truck	-9.48565
▁affair	-9.48782
▁fox	-9.4907
▁alex	-9.49079
▁higher	-9.49156
▁meanwhil	-9.49352
▁spark	-9.49383
▁linked	-9.49451
▁va	-9.49525
▁speech	-9.49621
▁slow	-9.49641
▁singer	-9.49651
▁po	-9.49755
▁positive	-9.49769
▁grant	-9.49798
▁administration	-9.49814
▁standing	-9.49883
cu	-9.4992
▁ke	-9.49958
▁professor	-9.49974
ou	-9.49991
▁steve	-9.50033
▁annual	-9.50169
▁cold	-9.5017
▁christian	-9.50176
▁wood	-9.50221
tor	-9.50265
▁alongside	-9.50431
▁bear	-9.50597
▁bail	-9.50603
▁winter	-9.50613
▁banned	-9.5082
time	-9.50891
▁simply	-9.50938
▁signing	-9.51103
▁fish	-9.51179
om	-9.5122
▁rais	-9.51287
▁photograph	-9.51296
▁calling	-9.51309
▁mov	-9.51336
ru	-9.51353
▁42	-9.51357
▁hear	-9.5147
▁traffic	-9.51478
▁dark	-9.51483
▁mental	-9.51502
▁defence	-9.5153
▁harry	-9.51631
▁serve	-9.51779
▁aim	-9.51781
▁mal	-9.51807
▁window	-9.51859
▁voice	-9.51942
▁throw	-9.51964
▁filed	-9.52047
▁products	-9.52133
▁sheriff	-9.5218
▁events	-9.52248
▁sorry	-9.52299
wood	-9.5231
▁witness	-9.52426
▁credit	-9.52519
▁bull	-9.52596
▁flood	-9.52684
▁cook	-9.52744
▁soldiers	-9.52773
▁hurt	-9.52778
▁detective	-9.52798
▁ski	-9.52838
▁bush	-9.53032
▁pitch	-9.53076
▁society	-9.53165
self	-9.53172
▁threaten	-9.53311
fa	-9.53455
ill	-9.53463
▁warm	-9.53668
▁offence	-9.53783
▁tottenham	-9.53816
▁nhs	-9.53882
▁hill	-9.53955
ised	-9.5398
▁web	-9.54066
▁supporters	-9.5408
▁responsibl	-9.54149
▁bedroom	-9.54165
▁bag	-9.54198
▁committ	-9.54224
▁features	-9.5424
▁die	-9.54244
▁bin	-9.54266
▁rain	-9.54295
▁shape	-9.54333
▁writte	-9.54364
▁session	-9.54388
▁sometime	-9.54432
▁physical	-9.54451
▁degree	-9.54465
▁steven	-9.54568
▁programme	-9.54668
▁waiting	-9.54865
ville	-9.54937
▁55	-9.54994
▁material	-9.5507
gan	-9.5516
▁wild	-9.5527
▁farm	-9.55271
▁clean	-9.5528
▁complain	-9.55317
▁throughout	-9.55395
▁works	-9.55411
▁cit	-9.55423
▁americans	-9.5546
▁channel	-9.55465
▁discuss	-9.55527
▁matches	-9.55717
▁square	-9.5577
▁flying	-9.55827
▁easi	-9.55876
▁traditional	-9.55922
▁machine	-9.55927
we	-9.55934
nt	-9.5597
▁adding	-9.56047
▁pack	-9.56067
▁bodie	-9.5611
▁promise	-9.56111
▁lord	-9.56222
▁jersey	-9.56231
▁facing	-9.56293
▁clinton	-9.56304
▁piece	-9.56374
▁option	-9.56384
▁loved	-9.5643
▁jury	-9.5658
▁ministry	-9.56608
▁word	-9.56753
▁gaal	-9.56794
▁bottom	-9.56914
▁39	-9.57037
▁handed	-9.57038
▁true	-9.57089
▁nick	-9.57116
▁jack	-9.57328
▁increasing	-9.57491
▁pretty	-9.57528
▁affect	-9.57585
▁heavy	-9.5765
▁represent	-9.57743
▁selling	-9.57748
▁blow	-9.57749
▁drop	-9.57772
▁spring	-9.57863
▁har	-9.57933
▁finish	-9.57969
▁spokeswom	-9.58045
▁joe	-9.5814
▁43	-9.58162
▁author	-9.5834
▁48	-9.58349
▁jobs	-9.58469
▁stock	-9.5851
▁boyfriend	-9.58583
▁bond	-9.58594
▁scoring	-9.58641
▁older	-9.58798
▁shirt	-9.58856
▁sleep	-9.59041
▁port	-9.59198
▁urge	-9.59203
ct	-9.59236
▁lady	-9.59264
▁respond	-9.59332
▁secure	-9.59333
▁bomb	-9.59342
tu	-9.5935
▁includes	-9.59442
▁transfer	-9.59473
▁knock	-9.59506
▁climb	-9.59507
▁del	-9.59609
▁fifth	-9.59707
▁losing	-9.59745
ov	-9.59756
▁murray	-9.5977
▁collect	-9.59774
▁wish	-9.59779
▁tree	-9.59908
▁sense	-9.59917
▁rich	-9.59924
▁example	-9.59998
▁ga	-9.60072
▁issu	-9.60089
▁massive	-9.60117
▁pool	-9.60194
▁isn	-9.60202
▁seeing	-9.60212
▁44	-9.60234
ble	-9.60351
▁levels	-9.60435
▁par	-9.60514
▁pi	-9.60583
bu	-9.60757
▁travell	-9.60792
▁economy	-9.60795
▁ceremon	-9.60987
che	-9.61069
▁heat	-9.6107
▁province	-9.61101
▁mac	-9.61239
▁destroy	-9.61395
ron	-9.61415
vo	-9.615
ker	-9.61545
▁proud	-9.6168
▁covered	-9.61813
ki	-9.61919
▁olympic	-9.61959
▁mp	-9.62052
▁independent	-9.62064
▁rep	-9.62131
▁israel	-9.62232
▁worst	-9.62259
▁concerned	-9.62268
▁ryan	-9.62286
▁owners	-9.62288
▁progress	-9.62438
off	-9.62472
▁suggest	-9.62477
▁rul	-9.62487
▁putt	-9.62492
▁cal	-9.62493
▁beautiful	-9.62567
▁visitors	-9.62731
em	-9.62966
▁telling	-9.63014
▁ireland	-9.63074
gu	-9.63085
▁trouble	-9.63088
▁claiming	-9.63209
▁crisis	-9.63259
▁via	-9.63305
mb	-9.63324
▁colour	-9.63326
▁militant	-9.63387
one	-9.63389
▁homes	-9.63466
ez	-9.63505
▁dy	-9.63508
▁mon	-9.63591
▁century	-9.63623
tro	-9.63644
▁mass	-9.6375
▁talking	-9.63842
▁birthday	-9.6385
▁colleague	-9.63871
▁scott	-9.63908
▁meant	-9.64114
▁repeated	-9.64225
▁burn	-9.64242
▁schools	-9.64291
▁rob	-9.64396
▁candidate	-9.64478
▁monitor	-9.6453
▁amazing	-9.64571
▁actress	-9.64588
▁400	-9.64606
▁sound	-9.64616
▁temperature	-9.64688
▁messages	-9.64732
▁jose	-9.64743
▁cast	-9.64744
▁mike	-9.64764
▁movement	-9.64802
▁wouldn	-9.64823
▁records	-9.64855
▁thanks	-9.64864
▁plant	-9.64915
▁favourite	-9.64983
▁eating	-9.65021
▁talks	-9.6505
▁zoo	-9.65168
▁z	-9.65179
▁absolute	-9.65219
▁49	-9.65311
▁islamic	-9.65311
▁quality	-9.65339
▁ju	-9.65436
▁trade	-9.65453
▁encourage	-9.65499
▁fresh	-9.655
▁smoke	-9.65596
▁rule	-9.65616
▁doubt	-9.65619
▁remove	-9.65663
▁produc	-9.65836
▁harm	-9.6591
▁type	-9.65946
▁easy	-9.65967
▁obvious	-9.6598
ries	-9.66037
ach	-9.66132
▁controversial	-9.66181
▁assistant	-9.66238
▁tim	-9.66279
▁sub	-9.66321
▁taylor	-9.66397
▁thank	-9.66451
▁neighbor	-9.66569
▁parts	-9.66575
▁debut	-9.66639
▁violent	-9.6668
▁improve	-9.66704
▁41	-9.66739
▁46	-9.66753
▁below	-9.66757
▁prices	-9.66759
▁semi	-9.66774
▁behaviour	-9.66801
▁estate	-9.66827
ite	-9.66927
▁glass	-9.67087
▁becoming	-9.67152
▁profile	-9.67183
ure	-9.67194
ec	-9.67239
▁clearly	-9.6727
▁tr	-9.67407
▁estimated	-9.67437
▁prove	-9.67622
▁peace	-9.67783
▁wheel	-9.6782
▁ja	-9.67823
hi	-9.6815
▁pounds	-9.68175
▁2005	-9.68175
▁finished	-9.68247
▁worker	-9.6828
▁weigh	-9.68378
▁hunt	-9.68424
ng	-9.68475
▁wind	-9.6848
▁reporters	-9.68534
▁simon	-9.68592
▁designer	-9.68712
ence	-9.68804
▁sch	-9.68824
▁lawsuit	-9.68955
▁inspir	-9.6899
▁extremely	-9.69038
▁mailonline	-9.6907
▁surface	-9.69078
▁aware	-9.69093
▁modern	-9.69099
▁museum	-9.69125
▁sha	-9.69135
▁maria	-9.69203
▁bell	-9.69354
ino	-9.69509
▁product	-9.69515
▁korean	-9.69547
▁wound	-9.69578
▁raid	-9.69591
ze	-9.69627
▁adam	-9.69728
▁pen	-9.69751
▁medal	-9.69773
▁horse	-9.69979
▁ill	-9.69995
▁connection	-9.7015
▁helping	-9.70152
▁affected	-9.70187
▁stress	-9.70265
▁fbi	-9.70268
▁nuclear	-9.70322
▁indian	-9.70339
▁nor	-9.70439
▁ya	-9.70541
▁ali	-9.70561
▁youtube	-9.70603
▁frank	-9.70614
▁suggested	-9.7068
▁print	-9.7068
ock	-9.70883
▁diet	-9.70954
▁song	-9.70979
▁talent	-9.71154
▁conservative	-9.71265
▁auction	-9.71345
▁admit	-9.71401
con	-9.71445
▁quick	-9.71449
▁ray	-9.715
▁fatal	-9.71549
▁milan	-9.71649
▁ruling	-9.71654
▁hi	-9.71717
let	-9.71733
▁maintain	-9.71751
▁southampton	-9.71789
▁sick	-9.7196
▁budget	-9.72002
▁imp	-9.72103
▁sand	-9.72114
▁charles	-9.72188
▁danger	-9.72225
▁vice	-9.72301
▁fighter	-9.7233
▁cla	-9.72339
▁domestic	-9.72359
ick	-9.72435
ep	-9.72464
und	-9.72503
▁mile	-9.72542
▁article	-9.72559
▁flag	-9.72604
▁attract	-9.72662
▁pregnant	-9.72874
▁critical	-9.72904
▁opinion	-9.73018
pl	-9.73271
▁hat	-9.73292
▁mourin	-9.73307
nel	-9.73329
ev	-9.73409
▁stick	-9.73525
▁unlike	-9.73551
▁knee	-9.73645
▁pu	-9.73653
mon	-9.73679
▁sitting	-9.73686
▁matt	-9.739
▁nice	-9.73963
▁picked	-9.74014
▁protection	-9.74072
▁150	-9.74136
▁agreement	-9.74183
▁continues	-9.74199
▁serving	-9.74233
▁eastern	-9.74251
▁extend	-9.74335
where	-9.74355
ko	-9.74357
wi	-9.74406
▁streets	-9.74476
sen	-9.7451
▁helicopter	-9.7451
▁2015	-9.74617
▁feature	-9.74626
▁muslim	-9.74648
ana	-9.74672
▁sort	-9.74704
▁recall	-9.74847
▁signs	-9.74966
▁ronaldo	-9.74977
▁difference	-9.75038
▁increased	-9.75044
lan	-9.75123
▁finding	-9.75152
▁healthy	-9.75155
▁fully	-9.7518
▁isis	-9.7523
▁catch	-9.75259
pped	-9.7534
▁fuel	-9.75457
tion	-9.75537
pp	-9.75537
▁schedul	-9.75611
pi	-9.75624
▁tony	-9.75625
▁tom	-9.75626
▁multiple	-9.75702
▁dan	-9.75743
▁duty	-9.75764
▁stolen	-9.75781
▁numbers	-9.75823
king	-9.75828
▁diagnos	-9.75877
ara	-9.75881
▁chose	-9.75932
ade	-9.75953
▁mistake	-9.76005
▁client	-9.76047
▁opposition	-9.76056
▁tragic	-9.76084
▁196	-9.76202
▁minor	-9.76231
▁08	-9.76247
ek	-9.76254
▁youth	-9.76326
▁iphone	-9.76381
▁deaths	-9.76423
▁write	-9.76452
▁neck	-9.76531
▁ride	-9.76615
▁gar	-9.76727
port	-9.76743
▁specific	-9.76763
▁nurse	-9.7693
▁chi	-9.76988
chi	-9.77001
▁pop	-9.7703
▁associat	-9.77125
▁fat	-9.77128
▁prize	-9.77203
▁paint	-9.77235
▁marine	-9.7725
▁silver	-9.77308
▁parliament	-9.77495
▁locat	-9.77504
▁debate	-9.77584
▁georgia	-9.77654
▁culture	-9.77655
▁52	-9.77682
▁everton	-9.77787
▁2004	-9.77808
▁presidential	-9.77818
▁lewis	-9.77866
ex	-9.77972
▁effective	-9.77993
▁runs	-9.78004
▁grow	-9.78009
▁zealand	-9.78076
▁alert	-9.78077
▁breaking	-9.78091
lic	-9.78229
tan	-9.78285
▁nature	-9.78296
▁golf	-9.78297
▁victoria	-9.78317
▁click	-9.78325
▁describe	-9.7835
▁sat	-9.78405
▁rebel	-9.78411
▁intelligence	-9.78501
▁ocean	-9.78547
▁capture	-9.78547
▁argentina	-9.78623
▁ambulance	-9.78638
▁alive	-9.78649
▁wing	-9.78702
berg	-9.7871
▁victor	-9.78714
▁kevin	-9.78781
▁establish	-9.78904
▁republican	-9.79022
▁user	-9.79062
▁sight	-9.79089
▁boost	-9.79123
▁younger	-9.79124
zi	-9.79139
▁names	-9.79169
▁exist	-9.79185
▁bowl	-9.79193
▁chicago	-9.79233
▁language	-9.79233
ung	-9.79297
▁ab	-9.79574
af	-9.79586
head	-9.79599
▁teams	-9.7962
▁chain	-9.79632
▁shoot	-9.79673
▁mary	-9.79721
▁airline	-9.79793
▁rooney	-9.79801
over	-9.7986
▁reading	-9.79875
▁register	-9.79878
▁punch	-9.79893
▁reject	-9.79909
▁seeking	-9.79944
▁require	-9.7995
▁science	-9.80032
▁escape	-9.80156
▁mountain	-9.80215
▁robber	-9.80298
mar	-9.80308
▁determined	-9.80319
▁intend	-9.80342
▁navy	-9.8047
ani	-9.80472
▁congress	-9.8052
▁foundation	-9.806
▁proper	-9.80638
▁canada	-9.80642
▁unusual	-9.80713
▁object	-9.8074
▁ri	-9.80858
▁governor	-9.8095
▁begin	-9.80987
▁costa	-9.81072
▁honor	-9.81087
▁worse	-9.81119
ap	-9.81234
▁pal	-9.8127
▁insisted	-9.81272
▁stephen	-9.81296
▁shopping	-9.81478
▁millions	-9.81494
▁09	-9.81549
▁dad	-9.8156
▁produce	-9.81631
▁airlines	-9.81699
▁rap	-9.81911
▁content	-9.81961
▁boston	-9.82066
tal	-9.82163
▁cool	-9.82188
ifi	-9.82374
▁beauty	-9.82376
▁keen	-9.82391
hu	-9.82506
▁greater	-9.82726
▁studie	-9.82817
▁fraud	-9.82852
▁faced	-9.82869
mph	-9.82897
▁tribute	-9.82927
ik	-9.82965
▁operat	-9.83
▁engineer	-9.83025
▁lock	-9.83058
▁messi	-9.8307
▁seal	-9.83076
▁production	-9.83164
if	-9.83197
ious	-9.83264
▁kate	-9.83284
▁cor	-9.83286
▁rank	-9.83354
▁management	-9.83436
▁maybe	-9.83468
▁sit	-9.83479
▁panel	-9.83483
▁surviv	-9.83505
▁54	-9.83512
▁bright	-9.83584
▁net	-9.83614
▁requir	-9.83801
▁keeping	-9.8384
▁resort	-9.83854
lt	-9.83856
▁qu	-9.83878
ug	-9.8399
▁cambridge	-9.83998
▁scandal	-9.84095
rd	-9.84103
▁route	-9.84129
▁activity	-9.84227
▁path	-9.84262
▁standards	-9.84263
▁witnesses	-9.84285
▁mill	-9.8432
▁tall	-9.84326
car	-9.84338
pping	-9.8437
▁festival	-9.84447
▁trend	-9.84486
low	-9.84531
▁addition	-9.84598
▁expensive	-9.84608
▁ability	-9.84668
▁engine	-9.84703
▁lay	-9.84814
fe	-9.84877
▁bike	-9.85054
▁che	-9.85058
ub	-9.85195
▁adult	-9.85293
▁thinking	-9.85347
▁generation	-9.85389
▁brief	-9.85519
▁reality	-9.85547
▁freedom	-9.85593
air	-9.85698
gen	-9.85726
▁diego	-9.85733
▁responsibility	-9.85827
▁growth	-9.85834
▁legs	-9.85857
▁blast	-9.85872
▁upset	-9.85933
▁enforcement	-9.85974
▁joke	-9.85981
ai	-9.86018
▁arms	-9.86055
▁hollywood	-9.86074
▁gi	-9.86082
▁dar	-9.86082
house	-9.8611
▁instagram	-9.86122
▁sad	-9.86131
▁53	-9.86139
▁breast	-9.86171
▁referr	-9.86181
▁65	-9.86246
▁gather	-9.86316
▁whom	-9.86342
▁lucky	-9.86362
▁crimes	-9.86449
▁reaction	-9.86465
▁198	-9.86513
▁06	-9.86515
▁friendly	-9.86858
▁fo	-9.86928
▁wake	-9.87106
▁miami	-9.87129
▁exercise	-9.87137
▁wilson	-9.87154
▁reform	-9.87167
▁dem	-9.87243
ea	-9.8727
▁civilian	-9.87309
▁terror	-9.87394
▁journey	-9.87492
▁environment	-9.87559
▁flow	-9.87621
▁propos	-9.87626
▁corner	-9.87691
▁dutch	-9.87697
▁sarah	-9.87733
▁seconds	-9.87757
▁length	-9.87758
▁celebrat	-9.87764
▁mum	-9.87769
▁israeli	-9.87776
▁luxury	-9.87808
▁col	-9.87873
▁struggle	-9.87921
▁views	-9.88016
▁je	-9.88186
▁suarez	-9.88192
▁gra	-9.88272
▁audience	-9.88276
haps	-9.88279
▁clothes	-9.8831
▁authorit	-9.8832
▁highly	-9.88355
▁cho	-9.88401
gi	-9.88447
▁56	-9.88484
▁cha	-9.88677
▁illness	-9.88699
▁51	-9.88704
▁amid	-9.88712
▁detail	-9.88769
▁active	-9.88773
▁suffer	-9.88809
▁goalkeeper	-9.88836
▁pan	-9.88956
ll	-9.88966
▁lane	-9.88978
▁offering	-9.88991
coming	-9.89034
▁dinner	-9.89196
▁powerful	-9.8923
▁meaning	-9.89279
ink	-9.89315
▁carolina	-9.8946
▁barack	-9.89472
▁laws	-9.89608
▁smash	-9.89609
▁immigration	-9.89625
▁eric	-9.89632
▁beating	-9.89635
ize	-9.89636
ya	-9.89714
hr	-9.89772
ari	-9.89792
▁incredible	-9.89831
▁mag	-9.89861
ella	-9.89964
▁mad	-9.90011
ities	-9.90088
▁inform	-9.90092
▁exchange	-9.90165
bury	-9.90167
jo	-9.90174
▁parent	-9.90196
▁false	-9.90209
▁unique	-9.90241
ify	-9.90255
▁bi	-9.90269
▁declar	-9.90298
▁introduc	-9.90301
▁scheme	-9.90308
▁beyond	-9.90341
▁bu	-9.90344
▁procedure	-9.90358
▁conflict	-9.90409
▁jordan	-9.90426
▁commercial	-9.90461
▁various	-9.90503
▁recorded	-9.90504
▁notice	-9.90506
▁additional	-9.90514
▁retired	-9.90567
▁trick	-9.90594
▁spirit	-9.90632
▁occasion	-9.90658
▁mount	-9.90699
▁beginning	-9.90703
▁sudden	-9.90752
▁joint	-9.90907
▁complex	-9.90924
▁angry	-9.9096
▁seek	-9.90974
▁mate	-9.90979
ible	-9.90997
▁shut	-9.91027
▁identify	-9.91131
art	-9.91141
▁democrat	-9.91162
▁han	-9.91261
▁decide	-9.91272
▁tower	-9.91282
▁simple	-9.9134
▁emotional	-9.9137
▁funeral	-9.91373
▁elder	-9.91403
rie	-9.91404
ong	-9.91413
gle	-9.91488
▁declin	-9.91502
▁min	-9.91585
▁wi	-9.91628
don	-9.9165
▁protester	-9.91711
mail	-9.91719
int	-9.91727
her	-9.91733
ib	-9.91747
▁paying	-9.91815
ay	-9.91833
▁tu	-9.91867
▁ken	-9.91967
▁dispute	-9.91979
▁anthony	-9.92048
▁dance	-9.92116
ship	-9.92135
▁breath	-9.92183
▁mouth	-9.92222
ala	-9.92281
▁turkey	-9.9233
nes	-9.92411
▁tiger	-9.9244
▁birmingham	-9.92607
▁parties	-9.92617
▁stretch	-9.92624
▁tru	-9.92655
▁600	-9.92671
▁section	-9.92715
▁05	-9.92715
▁species	-9.92765
▁inquir	-9.92822
▁responded	-9.92844
ough	-9.92849
cities	-9.92865
▁jean	-9.9291
▁falling	-9.92941
▁wenger	-9.92959
ward	-9.93034
▁conviction	-9.93068
▁politician	-9.93098
▁wine	-9.93101
▁payment	-9.93117
▁hart	-9.93191
▁kitchen	-9.93204
▁youngster	-9.93226
▁photographs	-9.93244
▁majorit	-9.93306
▁complet	-9.93311
fo	-9.93323
▁possession	-9.93382
▁representative	-9.93473
▁delay	-9.93545
gar	-9.93617
▁profit	-9.93698
row	-9.93735
▁setting	-9.93816
▁select	-9.93843
▁knife	-9.9391
▁bon	-9.93973
▁cry	-9.94066
▁hamilton	-9.94069
▁predict	-9.94127
▁scream	-9.94211
▁note	-9.94239
ok	-9.94261
▁unveil	-9.94318
▁hull	-9.94342
▁ear	-9.94358
▁bayern	-9.9439
▁please	-9.94413
▁equipment	-9.94461
▁tea	-9.94588
▁planet	-9.94723
▁gets	-9.94729
▁failure	-9.94733
▁magistrate	-9.94746
▁criticism	-9.94796
▁failing	-9.94813
▁defendant	-9.94825
ator	-9.9494
▁plus	-9.94945
▁qaed	-9.94968
▁ceo	-9.94971
tt	-9.94982
enate	-9.95036
fi	-9.95054
▁exactly	-9.95054
ip	-9.95162
▁reduce	-9.95198
▁alan	-9.95244
▁killer	-9.95259
▁traged	-9.95302
▁confidence	-9.9532
qui	-9.9537
▁disappear	-9.9537
▁tiny	-9.95384
▁writing	-9.95446
▁moon	-9.95458
▁democratic	-9.95647
▁advice	-9.95716
▁taliban	-9.95734
▁japanese	-9.9576
▁adopt	-9.95812
▁prepared	-9.95824
▁leak	-9.95828
▁classic	-9.95971
▁ticket	-9.96047
tz	-9.9606
vin	-9.9619
▁kit	-9.96303
▁hopeful	-9.96424
▁breach	-9.96434
▁edge	-9.96529
▁split	-9.9655
▁250	-9.96565
▁referee	-9.96565
▁teen	-9.96578
▁ku	-9.96594
▁sharp	-9.96776
aw	-9.96781
▁wealth	-9.96789
▁threatening	-9.96833
▁debt	-9.96915
▁income	-9.96955
▁nasa	-9.96987
▁tie	-9.97049
▁yes	-9.97083
▁influence	-9.97097
afford	-9.97119
▁criticis	-9.97233
▁hole	-9.97374
▁celebrity	-9.97435
▁yellow	-9.97485
▁desperate	-9.9761
▁opponent	-9.97666
ium	-9.97708
▁haven	-9.97738
▁task	-9.97766
▁undergo	-9.97791
▁standard	-9.97874
▁fifa	-9.97938
▁religious	-9.97979
▁virus	-9.97998
▁email	-9.98034
▁founder	-9.9808
▁fears	-9.98081
body	-9.98284
water	-9.98284
▁leicester	-9.98293
▁drove	-9.983
▁proposal	-9.98369
▁approve	-9.98425
▁wayne	-9.98489
▁fled	-9.98493
stone	-9.98618
▁dismiss	-9.98671
▁expos	-9.98678
▁virginia	-9.98683
▁sustain	-9.98683
▁plastic	-9.9872
▁luis	-9.98748
ins	-9.98851
myself	-9.98908
▁59	-9.9894
▁prov	-9.98941
▁link	-9.99035
pt	-9.99068
▁assist	-9.99083
eb	-9.99084
▁cru	-9.99126
▁kelly	-9.99153
▁shots	-9.99195
▁gary	-9.99351
▁switch	-9.99357
▁stoke	-9.99534
▁davis	-9.99596
▁sweet	-9.99599
burg	-9.99617
zz	-9.99649
▁abc	-9.99671
work	-9.99735
▁morgan	-9.99742
▁viewers	-9.9979
▁adults	-9.9982
▁fu	-9.99829
▁melbourne	-9.99843
▁confident	-9.99853
▁phil	-9.99876
▁memorial	-9.99968
▁angel	-9.99997
▁roger	-10.0003
▁reflect	-10.0008
▁tank	-10.0009
▁metal	-10.0018
▁800	-10.0025
ington	-10.0032
▁tourists	-10.0036
▁strip	-10.0044
▁mom	-10.0049
▁books	-10.0052
▁woods	-10.0058
▁infection	-10.0065
▁cu	-10.0066
▁landing	-10.0091
▁pat	-10.0091
▁hack	-10.0092
▁mcc	-10.0101
tter	-10.0101
lb	-10.011
▁institute	-10.0111
▁ki	-10.0115
▁58	-10.0118
▁wounded	-10.0127
▁motor	-10.0132
▁bird	-10.0133
▁clubs	-10.0134
▁chase	-10.0138
▁stuff	-10.0139
▁voter	-10.014
▁episode	-10.0142
▁overall	-10.0143
▁hy	-10.0147
▁ebola	-10.0149
▁regard	-10.0156
my	-10.0169
▁sunderland	-10.0174
▁ver	-10.0175
▁critics	-10.0181
▁patrol	-10.0192
▁yorkshire	-10.0195
▁princess	-10.0206
▁rod	-10.0212
▁stands	-10.0215
▁ward	-10.0229
▁cricket	-10.023
▁replace	-10.023
▁mps	-10.0234
▁wa	-10.0236
▁busy	-10.024
iv	-10.0243
▁et	-10.0252
billion	-10.0252
▁scale	-10.0255
▁broadcast	-10.027
val	-10.0275
▁sending	-10.0275
▁welcome	-10.0282
▁saved	-10.0283
▁seed	-10.029
▁syrian	-10.0295
▁unfortunate	-10.0296
▁crystal	-10.0299
▁advertis	-10.0306
▁surrounding	-10.0313
▁insurance	-10.0315
▁announcement	-10.032
▁celebration	-10.0321
▁basic	-10.0328
▁academy	-10.0334
▁journal	-10.0339
ji	-10.0344
▁direction	-10.0349
▁meat	-10.035
▁disaster	-10.035
▁chemical	-10.0354
▁typical	-10.0358
▁rat	-10.0359
▁explosion	-10.0364
▁scottish	-10.037
▁tennis	-10.0372
▁supreme	-10.0372
▁bottle	-10.0377
▁bob	-10.0377
▁veteran	-10.0379
▁drone	-10.0384
▁blog	-10.0386
▁rodger	-10.0392
▁starr	-10.04
▁wonder	-10.0408
av	-10.0409
▁broad	-10.0412
▁chest	-10.0416
har	-10.0419
016	-10.0419
▁evans	-10.0424
▁mini	-10.0431
▁primar	-10.0432
▁clip	-10.0436
▁tend	-10.0437
▁none	-10.0437
▁dating	-10.0444
▁featured	-10.0445
tri	-10.0449
▁fl	-10.0451
▁pub	-10.0454
▁models	-10.0457
light	-10.0458
▁dec	-10.046
▁journalist	-10.0467
▁arrive	-10.0467
▁command	-10.0469
▁cruise	-10.0475
rn	-10.0479
▁forest	-10.0479
▁miller	-10.0483
ating	-10.0487
▁prisoner	-10.0488
▁affiliate	-10.0501
▁communication	-10.0506
▁obtain	-10.0521
▁factor	-10.0532
▁chair	-10.0532
▁worried	-10.0532
▁matthew	-10.0533
▁vessel	-10.0545
▁conversation	-10.0547
▁pot	-10.0549
▁soldier	-10.0555
▁04	-10.0555
ther	-10.0556
▁prior	-10.0558
▁grave	-10.0571
▁bor	-10.0574
▁jan	-10.0575
▁lines	-10.0581
▁ge	-10.0585
▁2001	-10.0588
▁ci	-10.0593
▁pope	-10.0595
▁crack	-10.0602
▁insists	-10.0603
▁entertainment	-10.0606
rin	-10.061
▁marijuana	-10.0611
▁atlanta	-10.0625
ack	-10.0629
uk	-10.0631
▁impressive	-10.0643
▁investment	-10.0644
iff	-10.0645
▁opt	-10.0649
cher	-10.0651
▁stuck	-10.0652
▁improv	-10.0658
▁ultimate	-10.0659
▁heavi	-10.0661
▁spell	-10.0665
▁nbc	-10.0666
▁seize	-10.0678
og	-10.0678
▁cooper	-10.0679
▁prompt	-10.068
▁div	-10.0684
▁scar	-10.0694
▁scan	-10.0696
▁ash	-10.0702
▁hol	-10.0702
▁zone	-10.0706
▁painting	-10.0708
▁advantage	-10.0709
nie	-10.0717
▁fake	-10.0719
▁2002	-10.0723
ski	-10.0723
▁arizona	-10.0724
▁enjoyed	-10.0725
▁sites	-10.0729
▁colorado	-10.073
▁replac	-10.0731
▁impress	-10.0731
▁bre	-10.0734
▁athlete	-10.074
▁mi	-10.0741
ette	-10.0744
com	-10.0746
▁finger	-10.0752
▁inspector	-10.0758
▁uses	-10.0758
▁code	-10.0769
the	-10.0773
▁editor	-10.0773
▁oscar	-10.0775
▁equal	-10.0782
▁offers	-10.0784
▁ranger	-10.0786
▁kent	-10.0786
▁wore	-10.0788
▁multi	-10.0794
▁bullet	-10.0797
▁swansea	-10.0803
worth	-10.0807
▁republic	-10.081
▁legend	-10.0815
bar	-10.0815
▁vot	-10.0823
▁flights	-10.0825
▁iraqi	-10.0826
▁determine	-10.0828
gra	-10.0834
▁citizens	-10.0838
▁anger	-10.0842
▁lin	-10.0848
▁nu	-10.0854
ect	-10.0858
▁babie	-10.0859
▁grandmother	-10.0868
▁changing	-10.087
oo	-10.0874
ese	-10.0877
ile	-10.0879
▁parking	-10.0881
▁ferguson	-10.0889
▁housing	-10.0899
▁smart	-10.0901
▁stories	-10.0902
▁wildlife	-10.0904
▁waste	-10.0904
▁creat	-10.0911
▁tory	-10.0918
ory	-10.0919
▁hong	-10.0928
▁mention	-10.0963
▁discovery	-10.0965
▁mexican	-10.0965
▁shoulder	-10.0973
dale	-10.0976
▁cuts	-10.0978
▁ac	-10.0985
▁prepare	-10.0986
▁circumstance	-10.0999
▁laugh	-10.1
aid	-10.1001
▁branch	-10.1003
▁philip	-10.1008
▁rugby	-10.1009
oc	-10.1013
▁blame	-10.1016
▁cur	-10.1029
▁producer	-10.1034
▁ohio	-10.1037
▁status	-10.1041
lli	-10.1047
ano	-10.1053
▁continu	-10.1056
▁spi	-10.1056
▁suspicion	-10.107
▁din	-10.1071
▁pla	-10.1073
▁stood	-10.1084
▁acting	-10.1084
▁rising	-10.1084
▁ongoing	-10.1087
▁fallen	-10.109
▁kr	-10.1092
▁bringing	-10.11
nk	-10.1103
▁flu	-10.1104
ini	-10.1104
▁valley	-10.1105
▁kiss	-10.1107
▁detain	-10.111
▁dna	-10.1116
▁distance	-10.1118
▁roof	-10.1118
▁awards	-10.1123
▁appearances	-10.1136
▁counter	-10.1138
▁teenage	-10.1141
▁toward	-10.1145
▁resign	-10.1151
▁prosecution	-10.1154
▁vega	-10.1155
▁harris	-10.1157
▁pose	-10.1158
▁stunning	-10.1158
▁outfit	-10.1161
▁tells	-10.1163
▁contest	-10.1165
ore	-10.1166
▁bombing	-10.117
stood	-10.1172
cha	-10.1182
▁brazilian	-10.1185
▁saudi	-10.1194
▁anniversar	-10.1201
▁gift	-10.1202
▁pieces	-10.1203
▁brian	-10.1212
ita	-10.1212
▁division	-10.1218
▁brothers	-10.122
▁regime	-10.1223
▁extreme	-10.1237
▁turning	-10.1244
▁controll	-10.1245
▁bro	-10.1246
▁sen	-10.1247
▁cctv	-10.1252
▁investigate	-10.1254
▁devastat	-10.1256
▁supposed	-10.1261
▁francisco	-10.1266
▁permanent	-10.1273
▁inches	-10.1277
▁structure	-10.1279
ob	-10.1279
▁kong	-10.1284
▁ukraine	-10.1284
▁quiet	-10.1294
▁lunch	-10.1297
▁definite	-10.1308
▁2000	-10.1312
ria	-10.1314
▁remark	-10.1317
▁conclud	-10.1322
▁condemn	-10.1322
▁yard	-10.1325
ists	-10.1333
▁recovered	-10.1336
▁argument	-10.1341
▁sw	-10.1341
▁construction	-10.1341
▁yo	-10.1374
▁coffee	-10.1376
▁cameras	-10.1382
▁ch	-10.1384
▁firefighters	-10.1386
▁tech	-10.139
▁taste	-10.14
▁milk	-10.14
▁santa	-10.14
▁skills	-10.1402
▁shout	-10.1405
uff	-10.141
ola	-10.1414
mu	-10.1416
▁anderson	-10.1417
▁99	-10.1419
▁arrival	-10.142
▁remote	-10.1424
▁derby	-10.1425
▁presenter	-10.1429
▁offender	-10.1432
▁swimming	-10.1433
stein	-10.1435
▁sack	-10.1441
back	-10.1442
ren	-10.1445
▁encounter	-10.1452
▁tight	-10.1457
▁yu	-10.1466
▁pink	-10.1468
ira	-10.1472
▁gre	-10.1478
▁gym	-10.1485
▁coalition	-10.1487
▁afghan	-10.1491
▁dramatic	-10.1493
▁walker	-10.1493
▁album	-10.1494
▁steps	-10.1495
▁tackle	-10.1503
▁chang	-10.1508
▁racing	-10.1514
▁shift	-10.1515
▁nose	-10.1524
▁string	-10.1528
▁shocking	-10.1537
ova	-10.1541
▁grabb	-10.1544
▁native	-10.1545
▁smartphone	-10.1551
▁golden	-10.1552
▁hang	-10.1553
▁cri	-10.1555
▁bow	-10.1557
▁trained	-10.1558
▁neighborhood	-10.156
▁henry	-10.1569
▁providing	-10.157
▁pupils	-10.1577
▁brave	-10.1579
▁grade	-10.158
▁bat	-10.1581
▁organisation	-10.1585
▁toilet	-10.1601
▁banks	-10.1603
▁shell	-10.1606
▁03	-10.1613
▁historic	-10.1622
▁honour	-10.1624
▁import	-10.1624
▁stabb	-10.1625
▁rough	-10.1632
▁testing	-10.1634
▁application	-10.1635
▁compete	-10.1636
▁fitness	-10.1647
▁canadian	-10.165
▁teachers	-10.1652
▁strength	-10.1654
▁aston	-10.1654
▁climate	-10.1655
▁wo	-10.1663
▁knows	-10.1667
beaten	-10.1667
▁mario	-10.1668
▁studio	-10.167
▁bigger	-10.1677
▁findings	-10.168
▁calm	-10.1691
▁pos	-10.1698
▁resource	-10.1704
▁theft	-10.1706
hen	-10.1715
▁feed	-10.1717
rg	-10.1719
▁spoken	-10.1722
▁household	-10.1729
▁clothing	-10.173
▁abu	-10.1733
▁boast	-10.1739
▁rome	-10.174
▁rio	-10.1744
▁surveill	-10.1748
▁roy	-10.1749
▁identity	-10.1755
du	-10.1759
▁constant	-10.176
▁settle	-10.1762
▁closer	-10.1763
▁escaped	-10.1785
20	-10.1789
▁1990	-10.1789
▁visiting	-10.1791
▁terry	-10.1798
▁rent	-10.1801
caine	-10.1801
▁watson	-10.1809
ei	-10.1814
▁activiti	-10.182
▁memory	-10.1823
▁symptom	-10.1829
▁coin	-10.1832
▁disorder	-10.1832
▁jay	-10.1842
gue	-10.1846
▁rocket	-10.1848
▁sixth	-10.1851
▁shark	-10.1852
▁promote	-10.1857
▁background	-10.1858
▁routine	-10.1859
▁possibilit	-10.1866
ural	-10.1868
▁error	-10.187
▁tickets	-10.1879
▁blind	-10.1879
▁nfl	-10.188
▁64	-10.1888
▁brutal	-10.1889
▁neighbour	-10.1899
ott	-10.1902
▁everybody	-10.1906
▁mates	-10.1908
▁egypt	-10.1909
▁drunk	-10.1913
▁mu	-10.1916
▁worldwide	-10.1917
▁hero	-10.1923
▁pleas	-10.1924
▁cub	-10.1927
▁burglar	-10.1927
▁suggests	-10.1929
▁color	-10.1931
▁irish	-10.1932
▁bench	-10.1934
▁ian	-10.1941
▁apolog	-10.1941
▁warrant	-10.1941
▁apart	-10.1946
▁larger	-10.1953
▁gen	-10.1957
▁custom	-10.1957
▁ok	-10.1961
mber	-10.1974
mouth	-10.1986
▁advance	-10.1987
▁manhattan	-10.1989
▁holds	-10.1997
ace	-10.1998
▁supermarket	-10.2005
itt	-10.2007
▁choose	-10.201
▁qpr	-10.201
▁highway	-10.2013
rick	-10.2013
▁ashley	-10.2015
▁wave	-10.2017
▁dump	-10.2019
rk	-10.202
▁happi	-10.2031
▁lights	-10.2032
ati	-10.2033
▁robin	-10.2036
▁gap	-10.2037
▁moore	-10.2039
▁tattoo	-10.204
▁bare	-10.204
▁recommend	-10.2043
▁munich	-10.2045
▁cloud	-10.2047
▁hid	-10.2047
▁olympics	-10.2049
▁supply	-10.2056
▁specialist	-10.2059
▁necessar	-10.206
▁smile	-10.2069
▁khan	-10.2071
▁formula	-10.2075
▁mars	-10.2082
▁iron	-10.2083
▁faith	-10.2087
▁flash	-10.2094
▁alarm	-10.2095
▁ze	-10.2109
▁bath	-10.2116
▁holland	-10.2117
▁cra	-10.2119
▁collaps	-10.2125
▁jim	-10.2132
ris	-10.2135
▁fought	-10.214
▁clinic	-10.2141
▁195	-10.2142
▁birds	-10.2142
▁abandoned	-10.2146
▁smoking	-10.2147
▁driven	-10.2147
▁tablet	-10.2155
▁expand	-10.2158
▁der	-10.2162
ative	-10.2172
▁sterling	-10.2172
▁estimate	-10.2173
▁patrick	-10.2173
▁invite	-10.2174
▁fruit	-10.2179
▁elizabeth	-10.2184
▁appli	-10.2188
▁dig	-10.2195
▁explosive	-10.2198
▁engag	-10.22
▁jason	-10.2202
mann	-10.2213
▁formal	-10.2217
▁combat	-10.2221
ros	-10.2226
▁fee	-10.2226
rri	-10.223
▁ol	-10.2231
cl	-10.2241
▁guide	-10.2241
▁blamed	-10.2245
▁correct	-10.2245
▁cards	-10.2249
tin	-10.2251
bl	-10.2257
▁las	-10.2261
▁bathroom	-10.2262
▁reward	-10.2266
▁joseph	-10.2268
▁offensive	-10.2269
▁cre	-10.2269
▁notic	-10.227
▁leadership	-10.2271
▁cole	-10.2272
hrew	-10.2273
▁package	-10.2277
▁moscow	-10.2283
▁diamond	-10.2283
umerous	-10.2283
neath	-10.2286
▁terrorism	-10.2296
▁plea	-10.2296
▁learning	-10.2298
▁wins	-10.2301
▁discussion	-10.2307
▁map	-10.2314
▁trail	-10.2315
sley	-10.2316
▁excited	-10.2326
▁shoes	-10.2328
▁highlight	-10.233
▁method	-10.2335
▁grew	-10.2335
▁buying	-10.2336
▁manage	-10.2337
▁dam	-10.2342
▁survive	-10.2344
▁digital	-10.2349
▁label	-10.2351
▁allen	-10.2354
▁purchase	-10.237
▁cheer	-10.2372
▁commissioner	-10.2381
▁atletico	-10.2383
▁drew	-10.2387
▁appropriate	-10.2388
▁pennsylvania	-10.2388
▁heading	-10.2394
▁argued	-10.2403
▁shelter	-10.2407
▁hate	-10.2411
▁inmate	-10.2414
▁brom	-10.2424
▁85	-10.2426
▁listen	-10.2433
▁hasn	-10.2437
▁purpose	-10.2438
▁passing	-10.244
▁michelle	-10.2445
▁craig	-10.2451
▁grey	-10.2453
▁tomorrow	-10.2455
tch	-10.2456
ane	-10.247
▁ram	-10.2471
▁62	-10.2473
▁pakistani	-10.2481
▁mine	-10.2483
▁chocolate	-10.2484
▁199	-10.2484
▁fantastic	-10.2491
tar	-10.2491
▁presence	-10.2493
▁attach	-10.2494
▁lung	-10.2495
▁violat	-10.2496
▁usa	-10.2498
▁tied	-10.2499
win	-10.25
▁plate	-10.2501
▁sum	-10.2508
▁grown	-10.2509
▁leaves	-10.2516
ging	-10.2518
▁behavior	-10.252
▁afford	-10.2521
▁francis	-10.2525
▁immediate	-10.2528
▁br	-10.253
▁inc	-10.253
▁whale	-10.2532
▁height	-10.2533
▁orange	-10.254
▁massachusett	-10.2542
▁territor	-10.2547
▁trees	-10.2547
▁pound	-10.2555
▁jamie	-10.2559
▁creature	-10.256
▁charlie	-10.2562
▁flame	-10.2564
▁feels	-10.2564
▁naked	-10.2576
▁hidden	-10.2577
gate	-10.2585
▁beijing	-10.2586
▁detect	-10.2591
▁taxi	-10.2593
▁unknown	-10.2595
▁hammer	-10.2601
ball	-10.2602
▁kid	-10.2612
▁briton	-10.2622
▁mat	-10.2622
▁sporting	-10.2626
▁bri	-10.2628
del	-10.2632
▁ipad	-10.2633
▁trigger	-10.2637
ain	-10.264
▁danny	-10.264
▁gerrard	-10.2642
more	-10.2652
▁leeds	-10.2659
▁kennedy	-10.2664
▁houston	-10.2664
▁sought	-10.2664
▁quit	-10.2665
▁writer	-10.2669
▁solution	-10.2671
▁1980	-10.2677
hitting	-10.2684
▁alternative	-10.2691
▁journalists	-10.2697
▁duchess	-10.2698
▁iranian	-10.2703
▁surround	-10.2703
▁coat	-10.2712
▁lie	-10.2714
▁funding	-10.2718
▁balotelli	-10.2721
▁exit	-10.2725
▁trapped	-10.2726
▁realis	-10.2732
▁joining	-10.2732
▁reserve	-10.2732
az	-10.2733
▁ker	-10.2748
old	-10.275
▁load	-10.2756
▁asia	-10.2757
▁vow	-10.2759
▁internal	-10.276
▁balance	-10.2761
▁senator	-10.2761
▁cardiff	-10.2769
▁den	-10.2769
▁brit	-10.2771
▁palestinian	-10.2773
▁194	-10.2773
lia	-10.2774
▁sugar	-10.2775
▁ii	-10.2784
▁exclusive	-10.279
▁phones	-10.2797
elle	-10.28
▁frame	-10.2803
▁signal	-10.2805
▁00	-10.2806
ably	-10.2814
▁wage	-10.2814
▁02	-10.2814
▁robinson	-10.2818
▁fame	-10.2838
▁iconic	-10.2839
town	-10.284
▁knowledge	-10.2844
▁elephant	-10.2848
▁function	-10.2868
uck	-10.2869
▁scores	-10.2879
▁negative	-10.288
wick	-10.288
▁graham	-10.289
▁appoint	-10.289
▁63	-10.2901
yl	-10.2914
▁divorce	-10.2914
▁alexander	-10.2918
▁commander	-10.2922
▁controversy	-10.2928
▁prospect	-10.2928
▁prepar	-10.2929
▁miliband	-10.2931
▁employ	-10.2933
▁plot	-10.2936
▁platform	-10.2951
▁drama	-10.2956
▁stepp	-10.2967
▁cas	-10.2969
▁inquest	-10.2974
▁fix	-10.2974
▁spin	-10.2981
▁pr	-10.2985
▁bru	-10.2988
▁verdict	-10.2991
▁destination	-10.2992
▁jonathan	-10.2994
iz	-10.2998
▁experienc	-10.2999
▁putin	-10.3
▁neighbours	-10.3015
▁uniform	-10.3017
▁pin	-10.3025
gl	-10.3025
▁aggressive	-10.3029
▁electronic	-10.3032
▁analyst	-10.3035
▁pm	-10.3037
ide	-10.3039
▁ways	-10.3042
▁indicat	-10.3042
▁selfie	-10.3045
▁smaller	-10.3046
▁imagine	-10.305
▁experiment	-10.3055
▁compensation	-10.3066
▁essex	-10.3068
▁shore	-10.3077
▁frequent	-10.3081
▁ye	-10.3082
▁spokesperson	-10.3083
ction	-10.3083
▁bags	-10.309
▁trophy	-10.3096
▁coroner	-10.3099
▁ger	-10.3105
▁button	-10.3106
lf	-10.3116
rat	-10.3117
▁whatever	-10.3117
▁ambassador	-10.3119
sha	-10.3127
▁pregnanc	-10.3135
▁clo	-10.3137
▁interior	-10.3137
▁quote	-10.3138
▁fernand	-10.3139
▁runner	-10.3144
▁tam	-10.3152
▁era	-10.3159
▁cutting	-10.3159
▁sharing	-10.3162
▁66	-10.3167
▁relations	-10.3169
▁donation	-10.3171
▁shin	-10.3171
▁divers	-10.3172
mel	-10.3176
▁sides	-10.3179
▁promot	-10.3179
▁bizarre	-10.3181
▁salt	-10.3182
▁hum	-10.3183
▁chicken	-10.3193
▁mask	-10.3194
▁presented	-10.3199
▁wimbledon	-10.3202
▁roma	-10.3205
▁follower	-10.3206
▁politics	-10.3207
▁hip	-10.3209
▁vital	-10.3212
▁environmental	-10.3215
▁lover	-10.3218
▁favour	-10.3222
▁buri	-10.3229
▁bars	-10.3234
▁campus	-10.3236
▁teeth	-10.3237
▁stream	-10.3249
▁windows	-10.3249
▁ross	-10.325
▁convert	-10.3254
▁chef	-10.3257
▁cream	-10.3257
▁peak	-10.3257
▁meal	-10.3261
▁asian	-10.3262
▁lesson	-10.3265
▁weekly	-10.3267
▁michigan	-10.3267
▁locked	-10.3273
▁thrill	-10.328
▁favorite	-10.328
ign	-10.3282
nic	-10.3291
▁reduced	-10.3293
▁privacy	-10.3296
fl	-10.3298
len	-10.3298
▁clock	-10.3302
▁dev	-10.3302
▁dollars	-10.3303
▁snake	-10.3304
▁raising	-10.3304
▁pace	-10.3306
▁cabinet	-10.331
▁joy	-10.3316
sis	-10.332
▁novel	-10.3322
▁prosecut	-10.3323
▁missile	-10.3324
▁flew	-10.3325
▁luke	-10.3326
▁delighted	-10.3328
▁blaze	-10.3336
▁install	-10.3337
▁felon	-10.3344
▁react	-10.3348
▁campbell	-10.3356
▁pole	-10.3367
▁unclear	-10.3377
▁guns	-10.3377
▁shaw	-10.3379
ash	-10.3379
▁abus	-10.3385
▁convince	-10.3385
▁cro	-10.3387
▁belt	-10.3395
nny	-10.3398
▁pocket	-10.3398
▁surf	-10.3399
▁max	-10.34
welfare	-10.3401
ada	-10.3405
▁mix	-10.3406
▁drawn	-10.3406
▁sole	-10.3411
▁battery	-10.3414
ome	-10.3416
▁portugal	-10.3417
▁hail	-10.3421
▁medicine	-10.3423
ification	-10.3426
▁posting	-10.3427
▁hernandez	-10.3427
▁rodriguez	-10.343
bel	-10.343
▁anna	-10.3432
▁jr	-10.3435
▁catholic	-10.3435
▁hodgson	-10.3435
▁jennifer	-10.3438
▁vulnerabl	-10.3441
▁recruit	-10.3441
▁rail	-10.3443
▁martinez	-10.3446
▁tan	-10.3447
▁discover	-10.3453
▁apply	-10.3456
ric	-10.346
att	-10.3463
▁emma	-10.3464
▁gear	-10.3471
▁christopher	-10.3472
▁priorit	-10.3486
broad	-10.3487
▁variet	-10.3501
▁pig	-10.3502
▁01	-10.3502
▁gordon	-10.3502
▁consumers	-10.3502
▁911	-10.3508
▁soft	-10.3509
▁pra	-10.3511
▁fur	-10.3511
▁jon	-10.3513
▁neil	-10.3517
▁advert	-10.3517
qu	-10.3524
hill	-10.3524
▁mcdonald	-10.3527
▁gene	-10.3528
▁searching	-10.3528
▁stole	-10.3531
▁possibl	-10.354
▁oxford	-10.3545
▁permission	-10.3556
net	-10.3557
▁fla	-10.3557
hl	-10.356
▁rick	-10.356
▁nigeria	-10.3565
mat	-10.3568
▁lib	-10.3568
▁repair	-10.357
ight	-10.3574
▁attacker	-10.3577
▁dancing	-10.358
▁maker	-10.3597
▁char	-10.3599
▁disappoint	-10.3606
ave	-10.3609
▁immigrant	-10.361
▁nazi	-10.3611
ado	-10.3613
▁communities	-10.3615
▁marks	-10.3616
▁dave	-10.3616
▁kicked	-10.3625
▁stroke	-10.3626
▁footballer	-10.3628
wise	-10.363
▁arab	-10.3634
▁rapid	-10.364
▁shake	-10.3645
cent	-10.3647
▁handle	-10.365
▁careful	-10.3653
▁belgium	-10.3658
tle	-10.366
▁vast	-10.366
day	-10.367
▁relief	-10.3678
▁plenty	-10.368
▁stomach	-10.3694
oz	-10.3697
▁baker	-10.3699
▁accidental	-10.3704
▁regional	-10.3705
illa	-10.3705
▁racist	-10.3706
▁disney	-10.371
▁concert	-10.371
▁68	-10.3713
▁metres	-10.3714
▁pension	-10.3714
▁denies	-10.3717
ue	-10.3717
▁tonight	-10.3719
for	-10.3722
▁lau	-10.3735
bra	-10.3736
▁punishment	-10.3739
▁celtic	-10.3744
▁honest	-10.3746
▁tears	-10.3746
▁flee	-10.3748
▁fr	-10.3749
▁justin	-10.375
▁headline	-10.375
▁horrific	-10.3751
▁tourist	-10.3763
▁neith	-10.3763
itch	-10.3764
▁wonderful	-10.3772
▁hoped	-10.3774
▁mel	-10.3778
▁spurs	-10.3781
▁mirror	-10.3787
weight	-10.379
▁lip	-10.379
▁hunting	-10.3803
▁impose	-10.3804
ridge	-10.3811
▁amazon	-10.3817
▁wal	-10.3817
▁truth	-10.382
▁para	-10.3825
▁sanction	-10.383
▁gulf	-10.383
▁solar	-10.3836
▁davie	-10.3838
▁belong	-10.3839
▁brooklyn	-10.3839
▁thompson	-10.3847
lon	-10.3848
▁cats	-10.3854
▁rating	-10.3865
▁basis	-10.3869
▁lap	-10.387
▁involve	-10.388
▁slam	-10.3881
▁videos	-10.3882
▁winds	-10.3889
▁letters	-10.3893
▁smell	-10.3893
▁chile	-10.3894
▁maximum	-10.3895
tre	-10.3895
▁reputation	-10.3897
▁recording	-10.3898
▁paramedic	-10.3906
▁brenda	-10.3917
▁license	-10.3919
▁dallas	-10.392
▁tension	-10.3926
qua	-10.3937
▁empty	-10.3942
▁dry	-10.3944
▁islands	-10.3945
▁helen	-10.3945
▁mus	-10.3946
▁fer	-10.3946
▁federer	-10.3948
▁await	-10.3951
▁dubai	-10.3959
▁sample	-10.396
▁bound	-10.3961
▁jar	-10.3962
▁outbreak	-10.3965
▁tape	-10.3973
▁grass	-10.3978
▁pit	-10.398
pr	-10.398
▁operate	-10.3982
▁auto	-10.3993
▁hay	-10.3997
ban	-10.3997
▁policie	-10.3998
▁unless	-10.3999
▁snap	-10.4007
▁tar	-10.4017
▁suspicious	-10.4018
▁afterward	-10.4019
▁dominat	-10.4021
ston	-10.4021
lar	-10.4022
▁supplie	-10.4025
▁waters	-10.4039
▁sleeping	-10.4041
▁bruce	-10.4042
▁duke	-10.4048
▁kar	-10.4048
▁celebrit	-10.4053
▁sentencing	-10.4054
▁saving	-10.4074
lock	-10.4077
▁knight	-10.4077
▁hide	-10.408
ovic	-10.4082
ken	-10.4085
▁acts	-10.4089
▁legislation	-10.4091
▁vet	-10.41
▁master	-10.4103
▁juan	-10.4109
▁mall	-10.4121
▁agenci	-10.4124
▁stewart	-10.4128
▁shopper	-10.4135
▁fort	-10.4137
▁inspiration	-10.4138
▁cow	-10.4139
▁distress	-10.4139
ison	-10.4142
▁transform	-10.4142
▁incredib	-10.4149
ground	-10.415
▁corruption	-10.4152
sky	-10.4154
▁hughes	-10.4158
▁technique	-10.4159
▁comfort	-10.4162
▁lifestyle	-10.4162
▁cable	-10.4164
▁inde	-10.4173
nc	-10.4175
▁speaker	-10.4176
▁tip	-10.4179
▁announce	-10.4182
▁muscle	-10.4183
▁prix	-10.4185
▁bristol	-10.4188
▁fault	-10.4188
▁racial	-10.4194
50	-10.42
▁finance	-10.4208
▁breed	-10.4216
llo	-10.4216
▁trace	-10.4228
war	-10.4229
▁pill	-10.423
cker	-10.4236
▁swim	-10.424
▁wire	-10.4245
nder	-10.4245
▁forget	-10.4245
▁headed	-10.4248
▁winger	-10.426
▁arch	-10.4261
▁violation	-10.4272
▁shadow	-10.4274
▁regret	-10.4279
▁deny	-10.4282
ju	-10.4284
hal	-10.4285
▁connect	-10.4287
▁beckham	-10.4287
▁symbol	-10.4295
▁hook	-10.4297
▁collision	-10.4297
▁switzerland	-10.4297
▁doors	-10.4302
zo	-10.4302
▁statistic	-10.4304
▁dubb	-10.4304
▁earthquake	-10.4306
▁happening	-10.4307
of	-10.4314
▁commitment	-10.4317
▁repli	-10.4317
▁oklahoma	-10.4321
▁teammate	-10.4325
▁clark	-10.4327
▁stable	-10.4329
▁marry	-10.4337
▁sanchez	-10.4347
▁arriv	-10.4348
▁fra	-10.435
▁cbs	-10.4351
▁narrow	-10.4356
▁shi	-10.4359
▁stunt	-10.4361
▁featur	-10.4365
nan	-10.4368
▁anne	-10.437
iest	-10.4374
▁pacific	-10.4375
▁eve	-10.4379
ice	-10.4391
▁challeng	-10.4391
▁afr	-10.4393
▁finals	-10.4393
▁gate	-10.4394
ert	-10.4397
▁happens	-10.4408
▁jessica	-10.4411
▁boxing	-10.4411
▁cake	-10.4412
▁retailer	-10.4418
▁insist	-10.442
▁elected	-10.4423
▁chat	-10.4425
▁essential	-10.444
cc	-10.4441
▁venue	-10.4446
▁infant	-10.445
▁edward	-10.445
▁jacket	-10.4457
▁loud	-10.4457
▁foster	-10.4457
▁bio	-10.4461
▁riding	-10.4464
▁films	-10.4465
▁achieve	-10.4466
▁anonymous	-10.4468
ux	-10.4481
▁kris	-10.4484
▁pri	-10.4485
▁gill	-10.4485
je	-10.4486
▁dun	-10.4487
▁funny	-10.4494
▁tries	-10.4503
▁sc	-10.451
▁fined	-10.4513
▁fri	-10.4513
▁strange	-10.4514
▁61	-10.4525
▁graduate	-10.4525
▁aren	-10.4532
▁institution	-10.4534
▁humans	-10.4535
ising	-10.4538
ple	-10.4538
▁grace	-10.4548
▁pad	-10.4552
▁inappropriate	-10.4556
▁surgeon	-10.4557
▁laura	-10.4558
▁handl	-10.4564
▁hell	-10.4565
▁keeper	-10.4566
▁95	-10.4567
▁substitute	-10.4573
▁combin	-10.4576
▁migrant	-10.4579
▁buyer	-10.4581
▁wright	-10.4585
and	-10.4586
pro	-10.4587
▁swiss	-10.4592
▁tre	-10.4596
▁settlement	-10.46
▁69	-10.4603
down	-10.4604
▁fed	-10.4606
▁mercedes	-10.4609
▁scenes	-10.4611
▁reference	-10.4615
▁lt	-10.4621
▁fortune	-10.4624
▁confront	-10.4625
▁cristiano	-10.4627
wear	-10.4629
▁motion	-10.4633
ew	-10.4637
▁winners	-10.4645
gre	-10.4647
lie	-10.4648
▁concept	-10.4651
▁1999	-10.4653
▁electric	-10.4654
▁frustrat	-10.4661
▁execution	-10.4667
▁aaron	-10.4668
▁boo	-10.4669
▁technical	-10.4669
▁trainer	-10.4669
▁burst	-10.4672
▁coll	-10.4683
▁holder	-10.4685
▁horn	-10.4686
▁pattern	-10.469
▁noise	-10.4691
▁labor	-10.4694
▁chip	-10.4699
▁begins	-10.47
▁gray	-10.4702
▁garcia	-10.4702
▁collapse	-10.4709
hy	-10.4709
▁desire	-10.4712
▁cheek	-10.4718
▁subsequent	-10.472
▁deserve	-10.4724
▁bel	-10.4726
▁burns	-10.4727
▁satellite	-10.4729
▁globe	-10.473
▁outrage	-10.4731
▁heads	-10.4732
▁sean	-10.4734
▁automatic	-10.4735
▁nato	-10.4739
pending	-10.4743
▁cab	-10.475
▁rice	-10.4751
▁vision	-10.4751
▁romney	-10.4754
▁stat	-10.4757
▁compet	-10.4758
▁ranking	-10.476
fall	-10.4764
▁gov	-10.4767
▁wrapp	-10.4769
kh	-10.4769
ologist	-10.4774
▁promotion	-10.4777
tv	-10.4778
▁bal	-10.4779
▁arabia	-10.4784
▁activists	-10.479
ila	-10.4791
▁seattle	-10.4792
▁chancellor	-10.4793
▁abbott	-10.4793
▁mcg	-10.4795
▁comedy	-10.4798
▁hostage	-10.4802
▁wash	-10.4804
bit	-10.4806
▁cam	-10.4811
▁hampshire	-10.4817
▁upload	-10.4826
▁philadelphia	-10.4826
sistance	-10.4827
▁endanger	-10.4833
▁atlantic	-10.4836
fer	-10.4836
▁slightly	-10.484
▁hurricane	-10.4842
▁teaching	-10.4848
▁petition	-10.4849
▁rolling	-10.4849
▁bale	-10.4852
▁rider	-10.4854
▁q	-10.4854
▁guid	-10.4855
▁consumer	-10.4856
▁belief	-10.486
▁beer	-10.486
▁traffick	-10.4861
▁oversea	-10.4864
▁rear	-10.4864
▁jeremy	-10.4869
▁tradition	-10.4871
▁bak	-10.4877
▁mari	-10.4882
▁probe	-10.4883
▁jeff	-10.4884
▁lions	-10.4885
▁dor	-10.4886
▁depend	-10.4893
▁motorist	-10.4894
▁dust	-10.4896
van	-10.4898
▁republicans	-10.4899
▁totally	-10.4903
▁blair	-10.4923
▁ancient	-10.4925
▁habit	-10.4931
▁viral	-10.4935
▁infect	-10.4941
▁substance	-10.4943
▁mun	-10.4948
itz	-10.4952
▁conspirac	-10.4953
▁hunter	-10.4955
▁endur	-10.4959
▁brook	-10.496
▁dean	-10.4963
▁hills	-10.4963
▁summit	-10.4974
▁jimmy	-10.4975
▁djokovic	-10.498
▁laid	-10.4983
▁crucial	-10.4983
▁gender	-10.4985
▁ministers	-10.4987
▁desert	-10.499
▁vo	-10.499
dic	-10.4991
▁smuggl	-10.4993
shi	-10.4998
▁russell	-10.5005
▁connected	-10.5005
▁stealing	-10.5005
par	-10.5011
graph	-10.5013
▁tag	-10.502
▁mas	-10.502
▁popp	-10.5022
fire	-10.5023
right	-10.5025
▁partners	-10.503
▁manuel	-10.503
▁poses	-10.5034
▁mul	-10.5036
▁welsh	-10.5036
xi	-10.5037
▁ignor	-10.5037
▁mystery	-10.5043
oma	-10.5044
▁hanging	-10.5049
▁adapt	-10.5052
▁zo	-10.5056
▁grab	-10.5056
▁penn	-10.5058
▁basketball	-10.5058
▁earning	-10.506
▁triumph	-10.5071
▁dealing	-10.5071
▁thailand	-10.5072
▁cop	-10.5074
▁cheap	-10.5076
▁invest	-10.5087
▁drawing	-10.5087
▁spa	-10.5088
▁mitchell	-10.5102
▁corp	-10.5102
▁indicate	-10.5115
▁decline	-10.5117
▁core	-10.5119
▁bills	-10.5121
▁accusation	-10.5121
▁sail	-10.5123
▁juventus	-10.5127
▁minimum	-10.5127
▁greg	-10.5131
▁organ	-10.5131
▁rang	-10.5132
▁twin	-10.5137
▁software	-10.5137
▁arena	-10.5137
bert	-10.5139
half	-10.5148
▁marathon	-10.5152
▁120	-10.5152
coverage	-10.5155
▁prais	-10.516
▁cancel	-10.516
▁portrait	-10.5162
▁prop	-10.5162
▁disappearance	-10.5165
▁riot	-10.5169
▁gross	-10.5169
▁innocent	-10.5174
▁licence	-10.5184
▁dragg	-10.5184
▁liga	-10.5185
▁withdraw	-10.5187
▁liberal	-10.5193
▁inch	-10.5202
▁nadal	-10.5203
▁mont	-10.5207
▁ferrari	-10.5212
▁homeless	-10.5216
▁ny	-10.5221
▁stuart	-10.5225
▁bone	-10.5227
▁costume	-10.5233
▁webb	-10.5236
▁raf	-10.5239
▁headquarter	-10.5241
▁snapp	-10.5244
▁qua	-10.5245
▁confess	-10.5246
▁cli	-10.5247
▁exhibition	-10.5253
▁evacuat	-10.5261
▁garage	-10.5267
oli	-10.5268
▁burnley	-10.5269
▁spr	-10.5269
▁operator	-10.5272
▁impossible	-10.5273
▁crush	-10.5276
▁athletic	-10.5282
▁revenue	-10.5282
▁refugee	-10.5284
▁ankle	-10.5286
lk	-10.5287
▁depression	-10.5291
▁glasgow	-10.5292
▁hazard	-10.5293
▁grandfather	-10.5295
▁illinois	-10.5298
▁pur	-10.53
▁delivery	-10.53
▁op	-10.5303
▁ukip	-10.5304
▁sector	-10.5305
▁bishop	-10.5305
▁cousin	-10.5308
▁upper	-10.5309
▁uruguay	-10.5314
▁criticiz	-10.5319
▁pier	-10.5324
▁toddler	-10.5325
▁dedicated	-10.5327
▁expense	-10.5327
▁horror	-10.5327
▁spray	-10.5328
▁poster	-10.5332
▁officially	-10.5334
▁fewer	-10.5336
gun	-10.5337
▁disabl	-10.5339
▁brilliant	-10.534
▁analysi	-10.5344
▁scared	-10.5344
▁mod	-10.5346
▁competitive	-10.5346
hold	-10.5349
▁greece	-10.5359
▁spy	-10.5367
▁carl	-10.5372
▁turkish	-10.5373
▁mohammed	-10.5379
▁bureau	-10.5379
▁occur	-10.5382
istic	-10.5391
▁explod	-10.5398
▁soccer	-10.5398
▁thick	-10.5401
▁appointment	-10.5404
▁kenya	-10.5407
▁atmosphere	-10.5408
▁jam	-10.5409
▁islam	-10.5414
tis	-10.5417
▁fees	-10.5421
▁deploy	-10.5422
embassy	-10.5422
▁rooms	-10.5423
▁admir	-10.5424
▁var	-10.5426
▁educat	-10.5432
▁pronounc	-10.544
▁sons	-10.5442
▁float	-10.5443
▁flowers	-10.5446
▁castle	-10.5454
▁cliff	-10.5454
tel	-10.5471
▁arsene	-10.5476
▁propertie	-10.5477
uri	-10.548
▁perry	-10.5483
▁consequence	-10.5486
▁thin	-10.5489
▁speculation	-10.5491
▁marc	-10.55
gh	-10.5501
▁dia	-10.5501
ena	-10.5503
▁overnight	-10.5505
▁utah	-10.5509
▁mansion	-10.5518
▁batter	-10.5527
▁breakfast	-10.5531
fu	-10.5532
▁principal	-10.5535
▁jewish	-10.5548
▁jok	-10.555
▁independenc	-10.5554
rate	-10.5558
▁cia	-10.5559
▁documentary	-10.5563
▁tail	-10.5563
▁1998	-10.5563
▁commit	-10.5565
▁root	-10.5565
▁medic	-10.5565
▁retirement	-10.5566
▁christie	-10.5566
▁oh	-10.5567
▁plays	-10.557
ili	-10.5576
▁suburb	-10.5578
▁bang	-10.5579
▁worry	-10.558
book	-10.5581
▁crossing	-10.5582
▁furious	-10.5588
▁lab	-10.5593
▁stranger	-10.5598
fre	-10.5613
▁manufacturer	-10.5619
▁virtual	-10.562
▁anfield	-10.5626
▁neymar	-10.5627
▁argue	-10.5629
hm	-10.5629
▁jane	-10.5633
▁replacement	-10.5634
▁colombia	-10.5639
▁wolf	-10.5642
▁exciting	-10.5647
▁southwest	-10.5647
▁interesting	-10.5658
▁lisa	-10.5663
ky	-10.5664
▁factory	-10.5665
▁probation	-10.5667
▁strain	-10.5673
uc	-10.568
▁aggravat	-10.568
▁devon	-10.5681
▁qatar	-10.5687
list	-10.5688
▁tin	-10.5692
▁knowing	-10.5692
▁kh	-10.5694
▁lan	-10.5694
▁attitude	-10.5696
▁circuit	-10.5696
▁mcilroy	-10.5703
▁sheffield	-10.5703
▁missouri	-10.5713
▁frozen	-10.572
▁def	-10.5722
▁egyptian	-10.5723
▁contained	-10.5726
▁drinks	-10.5727
▁loving	-10.573
▁hiv	-10.5735
shaw	-10.5737
▁gates	-10.5745
cur	-10.5745
▁intention	-10.5746
▁stake	-10.5746
▁sudan	-10.575
▁worn	-10.5755
▁yourself	-10.5755
▁chill	-10.5759
▁emirates	-10.576
▁trans	-10.577
sey	-10.5771
▁lawmaker	-10.5772
▁austin	-10.5774
▁fishing	-10.5774
▁foul	-10.5781
▁medication	-10.5783
spread	-10.5784
▁element	-10.5785
▁alaska	-10.579
▁roads	-10.5795
▁greet	-10.5796
▁craft	-10.58
▁mock	-10.5801
▁fence	-10.5806
▁rifle	-10.5807
▁pc	-10.581
▁ren	-10.5811
▁tipp	-10.5816
▁crazy	-10.582
▁demonstration	-10.5823
▁virgin	-10.5824
▁oregon	-10.5824
▁ending	-10.5827
▁nigel	-10.5835
tain	-10.5836
▁stamp	-10.5837
▁transferr	-10.584
▁barclays	-10.5841
▁rev	-10.5845
▁carter	-10.585
▁throwing	-10.5853
▁striking	-10.5854
▁somalia	-10.5855
▁baseball	-10.5859
▁rou	-10.586
▁schedule	-10.5861
▁peer	-10.5861
▁closing	-10.5862
▁hired	-10.5862
▁val	-10.5867
▁junior	-10.5871
log	-10.5874
▁cave	-10.5884
▁lion	-10.5884
▁osborne	-10.5888
▁creative	-10.5889
lor	-10.589
▁owen	-10.5892
ef	-10.5895
▁lionel	-10.5896
▁ruin	-10.5902
therapy	-10.5905
room	-10.5908
▁shares	-10.5914
▁entry	-10.5926
▁strict	-10.5929
▁partnership	-10.5931
▁bears	-10.5931
▁toll	-10.5947
▁carrier	-10.5947
▁regarding	-10.595
▁entitl	-10.5953
▁monaco	-10.5953
▁haul	-10.5955
▁guards	-10.5957
▁waves	-10.5959
▁grounds	-10.596
▁kidnapping	-10.596
▁punish	-10.5961
▁rescu	-10.5962
▁duo	-10.5969
▁trac	-10.5969
▁sponsor	-10.598
▁yards	-10.598
comfortable	-10.598
▁cope	-10.5984
▁alabama	-10.599
▁creation	-10.5993
▁hor	-10.6001
▁proceed	-10.6008
▁temporar	-10.601
ero	-10.6014
▁geo	-10.6015
▁guarantee	-10.6018
▁extremist	-10.6027
▁slamm	-10.6028
strategy	-10.6028
▁saint	-10.6031
▁shame	-10.6032
▁bite	-10.6036
▁roman	-10.6036
▁leads	-10.6036
▁employer	-10.6036
lton	-10.6038
▁doll	-10.604
▁aviation	-10.6046
▁assess	-10.6047
▁transcript	-10.6052
▁wool	-10.6057
▁howard	-10.6059
▁lincoln	-10.6059
▁antonio	-10.6063
▁robot	-10.6069
▁hawaii	-10.607
▁stunn	-10.607
▁traveling	-10.6076
▁rover	-10.6081
▁ky	-10.6084
▁passport	-10.6089
▁bust	-10.6089
ram	-10.61
▁corporation	-10.6101
▁beck	-10.6105
▁investor	-10.6106
▁initiative	-10.6108
▁roberts	-10.6118
ich	-10.6123
▁queensland	-10.6126
▁involvement	-10.6128
▁shouldn	-10.6131
▁improvement	-10.6138
▁wembley	-10.6139
capacity	-10.6143
▁instant	-10.6143
▁adviser	-10.6147
▁flo	-10.6151
set	-10.6152
▁surprising	-10.6153
▁prefer	-10.6159
▁retain	-10.6172
▁carrie	-10.6173
▁burning	-10.6174
▁oppos	-10.6175
▁chu	-10.6183
izing	-10.6189
▁extraordinary	-10.619
ition	-10.619
▁gla	-10.6191
▁govern	-10.6193
▁micro	-10.6198
▁eagle	-10.6198
▁robb	-10.6199
▁jen	-10.6203
▁whit	-10.6216
▁pointed	-10.6219
▁spill	-10.622
▁youngest	-10.6222
nell	-10.6222
▁posing	-10.6223
▁connecticut	-10.6223
ture	-10.6225
▁halt	-10.6236
▁julie	-10.6238
▁observ	-10.6239
▁steel	-10.6245
▁gal	-10.6245
▁mah	-10.6245
▁retail	-10.6246
▁mood	-10.6251
▁pour	-10.6254
▁preparation	-10.6255
▁libya	-10.6257
▁baghdad	-10.6258
▁leap	-10.6263
awareness	-10.6265
▁rally	-10.6268
▁eggs	-10.627
▁barn	-10.6272
▁arrang	-10.6276
ode	-10.6285
hand	-10.6286
bul	-10.6287
▁consum	-10.6291
ency	-10.6294
▁math	-10.6295
▁gall	-10.6304
▁ripp	-10.6305
▁tro	-10.6306
▁participant	-10.6307
▁fitt	-10.6317
▁ordeal	-10.6318
▁susan	-10.632
named	-10.632
▁edwards	-10.6324
ress	-10.6328
▁therefore	-10.6329
tak	-10.6333
▁kidnapp	-10.6334
▁detention	-10.6336
▁cafe	-10.6339
▁twist	-10.634
▁consistent	-10.6344
▁distribut	-10.6345
▁amanda	-10.6347
▁mixed	-10.6352
▁fixture	-10.6354
clu	-10.6355
▁muslims	-10.6355
▁suspension	-10.6357
▁terminal	-10.6364
tto	-10.6364
▁intense	-10.6371
▁bug	-10.6373
▁volunteer	-10.6378
▁dortmund	-10.6378
▁sandy	-10.639
▁examin	-10.6394
▁blo	-10.6397
ix	-10.6398
▁allege	-10.6402
▁gam	-10.6402
mal	-10.6403
wide	-10.6405
▁gil	-10.6412
hood	-10.6413
▁pride	-10.6417
▁kerry	-10.6418
▁sweden	-10.6419
▁selection	-10.642
▁lambert	-10.6422
▁radical	-10.6425
▁plants	-10.6428
▁compound	-10.6428
▁advised	-10.643
went	-10.643
▁pensioner	-10.6434
▁lies	-10.6439
▁notes	-10.6454
▁childhood	-10.6468
▁egg	-10.6468
ku	-10.647
▁kay	-10.6473
▁trauma	-10.6474
▁bun	-10.6478
▁homicide	-10.6479
▁resist	-10.648
▁sheet	-10.6482
▁resolution	-10.6482
ica	-10.6484
▁amy	-10.6489
▁revolution	-10.6489
▁manner	-10.649
▁renew	-10.6491
▁achiev	-10.6493
▁abortion	-10.65
▁northwest	-10.6501
▁horses	-10.6508
▁tur	-10.6509
▁intent	-10.6513
▁cheese	-10.652
▁deem	-10.6523
cle	-10.6524
▁anchor	-10.6533
▁departure	-10.6537
▁reporting	-10.6556
▁uncle	-10.6561
▁comedian	-10.6566
▁negotiat	-10.6568
▁extensive	-10.6576
▁barrier	-10.6577
▁runway	-10.6577
▁hood	-10.6577
▁veterans	-10.6578
▁signature	-10.658
▁zero	-10.658
▁cornwall	-10.6584
▁midlands	-10.6588
▁swift	-10.6591
▁luck	-10.6592
▁taxpayers	-10.6592
▁ease	-10.6594
▁skull	-10.6595
▁marco	-10.6595
ua	-10.6602
▁statue	-10.6606
▁boot	-10.6614
▁championships	-10.662
▁defensive	-10.662
▁implement	-10.6631
▁praise	-10.6641
▁reli	-10.6641
▁corn	-10.6644
▁pray	-10.6646
ization	-10.6647
▁oliver	-10.6649
▁adams	-10.6654
▁pizza	-10.666
▁reign	-10.6662
▁categor	-10.6663
pu	-10.6666
▁lean	-10.667
▁tunnel	-10.6672
▁approximate	-10.6675
▁mart	-10.6679
▁gr	-10.6679
▁asset	-10.6681
▁gaza	-10.6682
▁deliberate	-10.6686
▁clarke	-10.6687
▁shak	-10.6688
▁realise	-10.6688
fc	-10.6689
▁weren	-10.6689
▁brad	-10.6692
▁slip	-10.6695
▁gro	-10.6695
lam	-10.6698
▁gop	-10.67
▁sergio	-10.6701
▁graphic	-10.6705
▁purchas	-10.6706
▁dur	-10.6707
▁philippine	-10.6708
▁relax	-10.6709
▁edinburgh	-10.6712
▁negotiation	-10.6713
hir	-10.6715
ology	-10.6719
▁tear	-10.6721
▁steal	-10.6724
▁shower	-10.6727
▁picking	-10.6729
▁tap	-10.673
▁cannabis	-10.673
▁gp	-10.6733
are	-10.6734
▁bump	-10.6737
▁residence	-10.6738
▁throat	-10.6741
▁soar	-10.6744
▁uefa	-10.6745
▁duck	-10.6745
br	-10.6749
▁warren	-10.675
▁teach	-10.6756
ability	-10.676
▁pulling	-10.6762
▁nut	-10.6763
▁approval	-10.6767
▁gallery	-10.6771
ali	-10.6772
▁cheat	-10.678
cop	-10.6781
▁outcome	-10.6786
▁classes	-10.6787
▁planes	-10.6788
▁parade	-10.679
▁cuba	-10.679
▁loose	-10.6791
▁poland	-10.6791
▁bride	-10.6792
▁dock	-10.6797
▁battl	-10.6799
▁nba	-10.6799
▁falls	-10.68
▁manufactur	-10.6802
▁firing	-10.6809
▁charlotte	-10.6819
▁acknowledg	-10.6821
▁christ	-10.6842
eng	-10.6847
▁cultural	-10.6849
▁covering	-10.685
▁odds	-10.6856
▁familiar	-10.6857
▁avenue	-10.686
▁singapore	-10.6864
▁passion	-10.6864
▁sets	-10.6866
▁detroit	-10.6872
▁glad	-10.6873
▁stated	-10.6875
▁sibling	-10.6879
▁kingdom	-10.6888
▁regulations	-10.6888
▁pile	-10.6889
▁houses	-10.6891
▁pump	-10.6892
▁heritage	-10.6894
borough	-10.6896
▁galaxy	-10.6898
▁admitt	-10.6902
▁mil	-10.6905
▁genetic	-10.6907
▁carol	-10.6914
▁meals	-10.6915
▁drill	-10.692
▁donald	-10.6921
▁employment	-10.693
▁orbit	-10.6935
▁devastating	-10.6936
terrible	-10.6936
▁ivor	-10.6936
▁ethnic	-10.6939
▁sgt	-10.6942
ose	-10.6943
▁pellegrini	-10.6943
▁apologise	-10.6943
▁spectacular	-10.6947
▁absence	-10.6947
▁span	-10.6952
▁donor	-10.6953
▁contrast	-10.6954
▁itv	-10.6954
▁rid	-10.696
▁boom	-10.696
▁urban	-10.6962
▁suggestion	-10.6965
▁kilometer	-10.6966
▁volunteers	-10.6966
zar	-10.6968
▁understanding	-10.6971
▁donat	-10.6974
gie	-10.6976
▁porn	-10.6979
▁adventure	-10.6992
▁walls	-10.7
mond	-10.7001
▁depict	-10.7004
uz	-10.7006
▁tracks	-10.7009
▁pardew	-10.7011
▁recreat	-10.7011
▁jong	-10.7012
ort	-10.7018
▁marketing	-10.7023
▁peaceful	-10.7023
▁berlin	-10.7024
band	-10.7025
▁commons	-10.7031
▁circle	-10.7038
▁associate	-10.7045
▁nelson	-10.7045
jan	-10.7051
▁eighth	-10.7053
kar	-10.7056
▁tesco	-10.7061
▁collins	-10.7062
▁tokyo	-10.7065
▁delayed	-10.7069
▁heroin	-10.7072
▁download	-10.7076
▁1960	-10.7076
rell	-10.7079
▁campaigner	-10.7085
▁bombs	-10.7091
▁qualifying	-10.7093
▁copy	-10.7095
▁twins	-10.7096
▁carbon	-10.7098
▁ron	-10.71
▁82	-10.7105
▁android	-10.7111
▁restor	-10.7113
hn	-10.7114
▁swing	-10.7117
▁citizen	-10.7117
▁burger	-10.7118
▁songs	-10.7119
▁entertain	-10.7121
▁mayweather	-10.7122
▁sara	-10.7122
▁emotion	-10.7122
▁spider	-10.7124
▁xi	-10.7124
▁mess	-10.7125
▁cabin	-10.7125
▁clegg	-10.7127
▁maryland	-10.713
▁appearing	-10.7135
▁salary	-10.7141
▁remind	-10.7148
▁samsung	-10.7149
▁papers	-10.715
▁ti	-10.7152
▁compos	-10.7155
▁industrial	-10.7164
▁reunit	-10.7168
▁telegraph	-10.7168
▁advocate	-10.7171
▁links	-10.7177
▁laden	-10.7179
▁repeat	-10.718
▁jaw	-10.7182
▁restriction	-10.7184
▁lit	-10.7187
▁1996	-10.7194
▁edition	-10.7197
▁lone	-10.7204
▁teens	-10.721
▁enormous	-10.7214
cho	-10.7225
▁movies	-10.7226
▁bacteria	-10.7226
▁notorious	-10.7226
▁reception	-10.723
▁prohibit	-10.7249
▁developer	-10.7257
▁84	-10.7258
▁translat	-10.7258
▁bolton	-10.7259
▁hillary	-10.7265
▁emily	-10.7266
▁roberto	-10.7267
▁guess	-10.7267
▁restrict	-10.7268
tur	-10.7273
▁gunners	-10.7274
▁ties	-10.7279
library	-10.7281
▁pirate	-10.7282
▁debri	-10.7287
▁indonesia	-10.7289
▁bitter	-10.7291
▁accompanie	-10.7292
▁tweets	-10.7293
▁sisters	-10.7298
▁tips	-10.73
▁organiz	-10.7302
▁obesit	-10.7304
▁whils	-10.7305
▁colon	-10.7308
▁tennessee	-10.7312
▁masters	-10.7313
▁serie	-10.7314
▁ann	-10.7318
▁favor	-10.7319
▁netherlands	-10.7331
▁rumour	-10.7331
▁widow	-10.7331
▁torture	-10.7333
▁kra	-10.7337
▁gareth	-10.7339
▁leon	-10.7342
▁autumn	-10.7343
▁greek	-10.7344
▁bud	-10.7348
▁electricity	-10.7352
▁tourism	-10.7353
ood	-10.7358
▁westminste	-10.736
▁swan	-10.736
▁religion	-10.7363
▁comic	-10.7364
▁lowest	-10.7378
ama	-10.738
yne	-10.7393
▁loyal	-10.7394
▁slim	-10.7396
▁dressing	-10.7401
▁judges	-10.7409
▁ideal	-10.7409
▁mourn	-10.7415
▁bosse	-10.7416
▁simpson	-10.7418
▁rafael	-10.7418
uch	-10.7419
▁solid	-10.7424
▁islamist	-10.7424
▁priest	-10.7424
km	-10.7433
burn	-10.7434
▁revelation	-10.7434
hief	-10.7435
▁minnesota	-10.7442
▁keith	-10.7445
▁mut	-10.7448
▁scot	-10.7453
▁dispatch	-10.7454
▁sits	-10.7454
▁transplant	-10.7462
▁commonwealth	-10.7462
▁moyes	-10.7462
▁surrey	-10.7466
▁hawk	-10.7466
ral	-10.7468
▁remarkable	-10.747
▁boots	-10.747
▁murphy	-10.7474
▁ronald	-10.7478
▁succeed	-10.7481
▁faster	-10.7491
▁equivalent	-10.7493
▁sussex	-10.7493
▁wil	-10.7494
lea	-10.7495
▁strand	-10.7501
dding	-10.7505
▁insult	-10.7506
▁mud	-10.7506
gram	-10.7509
▁proceedings	-10.7513
▁jesus	-10.7514
▁shu	-10.7517
▁belonging	-10.7521
▁unconscious	-10.7525
ware	-10.7532
▁forcing	-10.7535
▁bomber	-10.7535
▁visible	-10.7536
▁valencia	-10.7537
▁refuse	-10.7545
▁bonus	-10.7548
bon	-10.7549
▁gesture	-10.7549
▁restrain	-10.755
▁bailey	-10.7551
▁esp	-10.7553
▁bett	-10.7554
▁castro	-10.7563
▁carlos	-10.7563
osa	-10.7563
▁opposite	-10.7566
▁193	-10.7573
▁nathan	-10.7574
▁lopez	-10.7577
▁sim	-10.758
▁terrifi	-10.7581
▁somebod	-10.7583
▁prevention	-10.7585
▁persie	-10.7588
▁landscape	-10.759
▁kane	-10.7592
▁dollar	-10.7594
▁balloon	-10.7594
bal	-10.7594
▁pornograph	-10.7598
▁excellent	-10.7598
▁draft	-10.7606
▁genuine	-10.761
▁spar	-10.7613
▁conservation	-10.7615
▁degrees	-10.7616
cri	-10.7617
▁juror	-10.7618
▁tent	-10.7618
▁offend	-10.7619
▁southeast	-10.7622
app	-10.763
▁minorit	-10.7636
▁liquid	-10.7638
etta	-10.7641
kg	-10.7645
ache	-10.7647
▁denver	-10.7648
adi	-10.7649
▁bet	-10.7657
▁kansas	-10.7666
tie	-10.7668
▁memori	-10.7668
gal	-10.7669
▁dropping	-10.7671
▁polish	-10.7671
▁sensation	-10.7675
▁barbara	-10.7675
▁pap	-10.7678
▁freed	-10.7679
▁1994	-10.7682
wich	-10.7683
lbs	-10.7685
▁groom	-10.7686
▁ew	-10.7686
▁pipe	-10.7688
▁palm	-10.769
▁vs	-10.7691
▁elite	-10.7693
▁tube	-10.7697
▁qualifier	-10.7703
mic	-10.7707
▁alonso	-10.7707
▁hut	-10.771
▁griev	-10.7711
born	-10.7712
▁pep	-10.7712
bro	-10.7712
▁herald	-10.7713
▁woke	-10.7716
▁discrimination	-10.7721
uf	-10.7726
▁norway	-10.7739
▁finishing	-10.7749
▁darren	-10.7753
▁grim	-10.7755
▁sri	-10.7766
wan	-10.7775
▁attraction	-10.7782
▁eliminat	-10.7785
▁trains	-10.7788
gui	-10.7788
▁lifetime	-10.7789
▁escort	-10.7793
mate	-10.7793
▁guardian	-10.7794
▁theater	-10.7795
▁andre	-10.7801
▁bottles	-10.781
▁transition	-10.7812
▁dj	-10.7813
▁lur	-10.7816
▁bradley	-10.7816
mor	-10.7816
▁kidney	-10.7823
▁cel	-10.7841
▁louisiana	-10.7842
▁desk	-10.7843
eck	-10.7851
dra	-10.7853
read	-10.7858
▁lawrence	-10.7859
▁haiti	-10.7864
▁swed	-10.7867
▁instance	-10.7868
aff	-10.7871
▁lamb	-10.7874
▁marked	-10.7875
ax	-10.7879
▁counsel	-10.7882
top	-10.7885
▁spencer	-10.7888
▁nico	-10.7888
▁apologis	-10.7888
▁deck	-10.7889
oun	-10.789
▁fc	-10.7898
anna	-10.7899
▁painful	-10.7906
▁forecast	-10.7907
▁types	-10.7912
▁petrol	-10.7917
▁chart	-10.7924
▁margaret	-10.7925
▁phillips	-10.7928
▁apps	-10.7933
▁embrace	-10.7933
▁povert	-10.7934
wo	-10.7935
▁romantic	-10.7939
▁engagement	-10.7939
▁sensitive	-10.7942
▁nest	-10.7943
▁yemen	-10.7944
▁raw	-10.7945
▁risks	-10.7949
▁weak	-10.795
▁magic	-10.7953
▁welcomed	-10.7953
ura	-10.7954
▁diabete	-10.7954
▁manslaughter	-10.7967
▁traveller	-10.7973
▁disabilit	-10.7975
▁blu	-10.7975
▁respective	-10.7978
▁microsoft	-10.7988
▁cle	-10.7988
▁surge	-10.7989
▁testifie	-10.7991
▁chant	-10.7993
▁assume	-10.7996
▁musician	-10.7999
▁brisbane	-10.8
▁merc	-10.8013
ark	-10.8014
▁nervous	-10.8017
▁nail	-10.8018
▁falca	-10.8018
▁stamford	-10.8021
▁uncover	-10.8021
▁lampard	-10.8022
▁balls	-10.8024
rop	-10.8028
▁lanka	-10.8028
▁glen	-10.8029
▁metropolitan	-10.803
▁activist	-10.8038
▁bones	-10.8039
away	-10.8042
▁entrance	-10.8042
▁vegetable	-10.8042
▁consultant	-10.8044
▁brighton	-10.8045
▁erupt	-10.805
▁unidentifi	-10.8051
▁drown	-10.8051
tti	-10.8056
▁zu	-10.806
▁cooperat	-10.806
▁andrea	-10.8062
▁holidays	-10.8062
▁survival	-10.8065
▁unfair	-10.8067
▁tired	-10.807
▁albert	-10.8071
▁belgian	-10.8072
▁grateful	-10.8076
▁dash	-10.8078
▁86	-10.808
pen	-10.8081
enko	-10.8084
kel	-10.8086
▁cleveland	-10.8093
▁lloyd	-10.8093
▁sprint	-10.8094
▁generat	-10.8099
▁cancell	-10.8101
▁adrian	-10.8102
▁mir	-10.8121
▁mur	-10.8125
▁emails	-10.8126
▁combination	-10.8127
▁valuable	-10.8135
▁exposure	-10.8137
▁plain	-10.814
aba	-10.8145
gli	-10.8148
▁rib	-10.815
▁proof	-10.815
amo	-10.8151
▁overturn	-10.8152
▁coordinat	-10.8165
▁outstanding	-10.8165
elli	-10.8168
▁trading	-10.8169
▁opener	-10.8175
▁harassment	-10.8175
▁landmark	-10.8175
▁rot	-10.8175
idi	-10.8176
▁argentine	-10.8178
bre	-10.8178
▁stan	-10.8179
▁fabregas	-10.8186
▁nurs	-10.8191
▁ros	-10.8192
▁cord	-10.8196
cla	-10.8197
▁cape	-10.8198
▁portray	-10.8199
▁tornado	-10.8199
▁hub	-10.8204
▁bolt	-10.821
▁reid	-10.8211
▁feeding	-10.8211
▁sue	-10.8218
ust	-10.822
▁ingredient	-10.8221
ote	-10.8227
▁duncan	-10.8229
bridge	-10.8233
▁sony	-10.8234
▁tactic	-10.8236
▁rh	-10.824
▁festive	-10.8242
▁cyber	-10.8242
▁bread	-10.8242
▁bleed	-10.8243
▁yacht	-10.8246
▁douglas	-10.8255
▁hospitals	-10.8255
▁czech	-10.8259
cra	-10.8261
och	-10.8263
▁scout	-10.8264
▁wander	-10.8274
▁historical	-10.8275
▁shield	-10.8276
▁exact	-10.828
taught	-10.8287
tom	-10.8294
ima	-10.8295
▁potter	-10.8295
▁possess	-10.8297
▁croatia	-10.8298
▁silva	-10.8298
▁matters	-10.8301
▁telephone	-10.8302
▁hadn	-10.8304
▁ferdinand	-10.8307
▁unexpected	-10.8307
▁monkey	-10.8308
▁mountains	-10.8312
▁dealer	-10.8314
▁dolphin	-10.8315
▁barry	-10.8319
▁melt	-10.8325
▁indiana	-10.8325
▁malaysia	-10.8326
▁testimon	-10.8328
▁liver	-10.8333
▁trio	-10.8337
iya	-10.8337
▁cher	-10.8337
▁pets	-10.834
▁83	-10.8345
▁ahmed	-10.8353
▁eli	-10.8353
▁alter	-10.8355
▁ec	-10.8362
▁lauren	-10.8366
▁icon	-10.8369
▁newborn	-10.8373
met	-10.8374
maker	-10.8376
ull	-10.8377
cat	-10.838
▁federation	-10.838
▁dick	-10.8383
mun	-10.8384
▁lev	-10.8385
▁gran	-10.8386
▁louise	-10.8386
▁cyclist	-10.8389
ale	-10.8389
▁constitution	-10.8392
▁toys	-10.8393
▁gig	-10.8398
▁spaniard	-10.8398
▁facial	-10.8398
▁rachel	-10.8398
aught	-10.84
▁fin	-10.8406
▁disappointing	-10.8409
▁disgrac	-10.8411
▁predator	-10.8411
▁cav	-10.8417
▁homeland	-10.8418
▁congratulat	-10.8424
▁discharg	-10.8424
▁midnight	-10.8428
▁pledge	-10.8429
▁checks	-10.8437
▁illustrat	-10.8437
▁torres	-10.8442
ben	-10.8442
▁regulator	-10.8442
▁wheelchair	-10.845
▁sturridge	-10.845
▁recognise	-10.8456
▁appreciate	-10.8463
▁boeing	-10.847
▁factors	-10.8471
▁caution	-10.8477
▁redknapp	-10.8477
▁jacob	-10.8486
▁disc	-10.8489
rb	-10.8493
suit	-10.8494
▁domin	-10.8498
▁plunge	-10.8499
▁projects	-10.85
char	-10.8501
▁900	-10.8502
▁wag	-10.8507
▁trailer	-10.8509
▁requirement	-10.851
▁katie	-10.8511
▁crop	-10.8512
▁reverse	-10.8512
▁clever	-10.8517
▁joan	-10.852
ula	-10.8521
▁airways	-10.8521
vel	-10.8528
cal	-10.8529
▁forensic	-10.8538
▁brady	-10.8542
▁achievement	-10.8542
▁beard	-10.8546
mark	-10.8547
▁cycle	-10.8547
▁dawn	-10.8547
ien	-10.8551
▁anticipat	-10.8554
rum	-10.8555
▁kir	-10.8556
kov	-10.8556
▁cage	-10.8577
▁defin	-10.859
▁morrison	-10.8593
▁penalt	-10.8596
▁sham	-10.8596
▁unacceptabl	-10.8601
▁autops	-10.8601
▁beloved	-10.8601
▁morris	-10.8605
▁democrac	-10.8623
▁designs	-10.8629
▁assessment	-10.863
▁nominat	-10.8632
▁deadline	-10.8632
▁cartel	-10.8633
▁rip	-10.8639
▁realiz	-10.8643
▁exam	-10.8644
▁81	-10.8646
▁beside	-10.8647
▁interests	-10.8649
▁advanc	-10.865
▁protective	-10.8657
▁fleet	-10.8659
▁ships	-10.8664
▁demonstrate	-10.8668
▁introduce	-10.8677
▁solo	-10.8681
▁calendar	-10.8685
▁everywhere	-10.8688
▁helmet	-10.8695
▁soul	-10.8699
▁billionaire	-10.8699
▁sensor	-10.87
▁examination	-10.8703
▁midfield	-10.8707
far	-10.8708
▁expectation	-10.8709
▁kirk	-10.8709
▁josh	-10.8709
▁sounds	-10.871
▁wet	-10.8713
▁railway	-10.8724
▁bagg	-10.8729
▁addict	-10.873
▁contractor	-10.8732
▁isolat	-10.8735
▁limb	-10.8736
▁vari	-10.8739
▁layer	-10.8742
▁shirts	-10.8744
ivity	-10.8746
▁parker	-10.8747
▁eva	-10.8748
▁instrument	-10.8748
bat	-10.8753
▁menu	-10.8754
▁nerve	-10.8755
▁reliev	-10.8756
▁guideline	-10.876
▁competitor	-10.8762
▁scratch	-10.8762
▁contribution	-10.8764
▁organised	-10.8765
▁loves	-10.8766
▁log	-10.8773
▁gambl	-10.8779
▁turns	-10.8781
▁theatre	-10.8788
▁scientific	-10.8789
ily	-10.879
▁donate	-10.8794
▁pic	-10.8797
▁dug	-10.8797
▁farmers	-10.8799
▁freez	-10.88
▁hits	-10.8801
▁armstrong	-10.8803
▁henderson	-10.8803
▁ble	-10.8804
▁nsw	-10.8809
▁130	-10.8809
▁musical	-10.8811
▁dancer	-10.8811
▁disclos	-10.8811
▁scam	-10.8812
▁odd	-10.8813
▁inspection	-10.8816
▁ruth	-10.8818
olo	-10.8823
▁watchdog	-10.8826
▁outlet	-10.8826
gon	-10.8835
▁academic	-10.8844
▁holy	-10.8846
▁silence	-10.8848
ius	-10.8853
▁aside	-10.8857
▁jeweller	-10.8858
roll	-10.8864
▁cara	-10.8865
▁vacation	-10.8867
▁bil	-10.8867
▁neuro	-10.8867
▁mississippi	-10.8871
▁vatican	-10.8871
▁kil	-10.8874
▁turner	-10.8876
▁qualifi	-10.888
▁yell	-10.8883
ourselve	-10.8884
▁councillor	-10.8888
▁represented	-10.8888
▁nett	-10.8896
▁salmon	-10.8896
ela	-10.8899
▁michel	-10.8899
▁sergeant	-10.8903
▁indecent	-10.8904
▁mali	-10.8906
▁hollande	-10.8911
▁prof	-10.8912
ique	-10.8916
▁grip	-10.892
▁architect	-10.8921
cm	-10.8926
▁casualt	-10.8928
▁comeback	-10.893
▁syndrome	-10.8931
augh	-10.8932
▁kyle	-10.894
▁poison	-10.8942
▁cart	-10.8946
long	-10.8952
▁dresses	-10.8957
▁hotels	-10.8959
▁encouraging	-10.8963
▁portugues	-10.8968
▁alexis	-10.8971
▁boxes	-10.8972
▁shoe	-10.8975
▁pure	-10.8975
▁europa	-10.8977
▁recognis	-10.898
▁pentagon	-10.8982
▁fabric	-10.8982
▁patriot	-10.8982
▁powers	-10.8985
▁comparison	-10.8988
▁pursue	-10.899
▁vietnam	-10.8991
aya	-10.8991
▁prominent	-10.9
▁cinema	-10.9
▁88	-10.9003
sleep	-10.9004
▁nottingham	-10.9004
▁neglect	-10.9005
▁mandat	-10.9009
▁export	-10.901
▁vol	-10.9012
▁toronto	-10.9014
▁rosberg	-10.9019
anybody	-10.9025
▁temple	-10.9031
▁diplomatic	-10.9031
ello	-10.9032
▁strengthen	-10.9039
▁vincent	-10.9042
▁suv	-10.9049
▁tsa	-10.905
isation	-10.9051
▁discipline	-10.9051
tric	-10.9057
▁nightclub	-10.9061
wer	-10.9065
▁exploit	-10.9067
▁wip	-10.9067
▁visa	-10.907
▁parole	-10.9071
▁letting	-10.9073
▁soil	-10.9077
▁lend	-10.9078
▁continent	-10.908
▁killings	-10.908
30	-10.9083
▁survivors	-10.9093
▁consecutive	-10.9093
ois	-10.9112
▁stem	-10.9115
▁abduct	-10.9116
▁unemploy	-10.912
▁lancashi	-10.9122
▁partial	-10.9124
run	-10.9126
▁fortunate	-10.9126
▁assad	-10.9129
cap	-10.9131
▁laughing	-10.9135
bound	-10.914
▁theory	-10.9143
▁brick	-10.9144
▁disciplinar	-10.9145
▁vaccine	-10.9145
▁bullying	-10.9147
▁semifinal	-10.9149
▁nightmare	-10.915
▁blues	-10.9151
▁smiles	-10.9152
▁stupid	-10.9154
▁extent	-10.9168
▁rocks	-10.9171
ddle	-10.9173
▁disrupt	-10.9173
▁kara	-10.9174
▁barb	-10.9184
▁aims	-10.9185
▁paw	-10.9188
▁chan	-10.9195
▁aide	-10.9202
ida	-10.9203
▁sweat	-10.9207
▁iowa	-10.9208
eh	-10.9209
▁stall	-10.9211
▁alexandr	-10.9216
▁shade	-10.9221
▁units	-10.923
▁orlando	-10.923
▁1993	-10.923
▁arts	-10.9232
▁hal	-10.9233
▁guinea	-10.9235
▁decorat	-10.9239
▁wreck	-10.9247
▁collid	-10.925
▁bla	-10.9251
▁psg	-10.9252
▁classroom	-10.9255
▁buck	-10.9259
▁humanitarian	-10.9263
▁karl	-10.9265
▁cleaning	-10.9267
▁fierce	-10.9268
▁wooden	-10.927
▁qui	-10.9272
▁defi	-10.9272
▁slave	-10.9273
▁patch	-10.9275
▁mandela	-10.9277
▁outdoor	-10.9282
▁flor	-10.9283
▁meters	-10.9284
▁indictment	-10.9289
▁201	-10.9291
▁indication	-10.9291
▁conclusion	-10.9296
▁rope	-10.9297
▁thai	-10.9298
▁caption	-10.9302
▁blake	-10.9306
▁gps	-10.9309
▁clinical	-10.9318
▁saints	-10.9318
▁nicole	-10.932
▁caribbean	-10.932
▁dive	-10.9324
▁1992	-10.9325
▁astronaut	-10.9325
▁refusing	-10.9325
lade	-10.9328
ase	-10.9329
lc	-10.933
▁disagree	-10.9335
▁mau	-10.9335
▁fate	-10.9337
▁lash	-10.9338
▁preliminar	-10.9339
rov	-10.934
▁gru	-10.9346
▁leather	-10.9349
▁motivat	-10.9354
▁samuel	-10.9354
▁superior	-10.9354
▁gunshot	-10.9355
▁mph	-10.9357
▁permit	-10.9357
▁ox	-10.936
math	-10.936
▁singh	-10.9361
▁races	-10.9362
▁walter	-10.9363
▁snack	-10.9364
▁phoenix	-10.9368
▁rsp	-10.937
front	-10.9371
▁retire	-10.9375
▁glove	-10.9379
▁scrap	-10.938
▁tribunal	-10.9387
▁random	-10.9393
▁conf	-10.9402
▁implant	-10.9402
▁snowden	-10.9402
▁bruise	-10.9403
▁350	-10.9404
agh	-10.9404
▁newly	-10.9407
▁brush	-10.9407
▁gathering	-10.9409
▁ditch	-10.9417
▁gifts	-10.9417
▁publication	-10.9421
▁portion	-10.9421
▁holes	-10.9422
▁perez	-10.9423
▁caroline	-10.9428
▁haz	-10.943
▁vanish	-10.9431
▁asylum	-10.9436
▁broadcaster	-10.9436
▁container	-10.9439
▁bart	-10.9439
▁instruction	-10.9444
▁substantial	-10.9445
▁bradford	-10.9451
mont	-10.946
▁aguero	-10.9465
▁bol	-10.9466
▁owe	-10.9468
lla	-10.9469
▁concrete	-10.947
▁clay	-10.9473
eau	-10.9478
▁impression	-10.9481
▁lottery	-10.9484
▁cruz	-10.9485
▁capabl	-10.9486
▁entrepreneur	-10.9489
▁thorough	-10.9489
▁audit	-10.9491
▁elementar	-10.9492
▁monte	-10.9494
▁funded	-10.9495
▁forever	-10.9498
▁treasury	-10.9499
▁norman	-10.9499
▁ridiculous	-10.9499
▁ukrainian	-10.9504
▁puppy	-10.9504
▁hint	-10.9504
▁delhi	-10.9506
▁lovely	-10.9513
▁prank	-10.9514
▁mere	-10.9521
▁bark	-10.9522
▁enable	-10.9523
▁pie	-10.9523
▁sweep	-10.9523
▁lucy	-10.9523
▁stopping	-10.9524
▁urgent	-10.9526
▁kentucky	-10.9528
▁smiling	-10.9528
▁pok	-10.953
play	-10.9541
▁rein	-10.9543
bn	-10.9545
▁echo	-10.9546
▁gloucester	-10.9548
▁watches	-10.955
▁angle	-10.9552
▁patt	-10.9556
▁clue	-10.9556
▁mosque	-10.9558
▁crowds	-10.9559
▁submitt	-10.9562
▁argu	-10.9562
▁except	-10.9562
▁literal	-10.9563
▁pretend	-10.9567
▁pochettin	-10.9572
▁holmes	-10.9572
▁columbia	-10.9577
▁abbey	-10.9577
▁gaz	-10.9579
▁kin	-10.9582
▁duti	-10.9586
▁catherine	-10.9587
▁reckless	-10.9587
▁slash	-10.9587
ito	-10.9593
▁executed	-10.96
▁cigarettes	-10.9601
▁bronze	-10.9602
▁harsh	-10.961
▁treasure	-10.9611
▁hind	-10.9613
▁realize	-10.9614
ister	-10.9621
▁fulham	-10.9621
▁lor	-10.9624
▁qualify	-10.9624
▁arrangement	-10.9626
oni	-10.9628
▁queens	-10.9629
▁cartoon	-10.9631
cam	-10.9634
oll	-10.9634
▁intensive	-10.9636
▁superb	-10.964
feld	-10.964
▁marie	-10.964
▁mothers	-10.9641
cia	-10.9641
▁northeast	-10.9646
▁triple	-10.965
▁persuad	-10.9651
▁slipped	-10.9651
▁pastor	-10.9655
▁charg	-10.9665
▁powell	-10.9665
▁contaminat	-10.9671
▁proportion	-10.9671
▁swep	-10.9671
pher	-10.9672
▁catching	-10.9673
▁screening	-10.9677
▁mega	-10.9679
▁bucket	-10.9682
▁rescuer	-10.9683
▁wigan	-10.9683
▁participat	-10.9684
▁fred	-10.9685
▁180	-10.9687
▁relaxed	-10.969
▁fixed	-10.969
▁gadget	-10.9691
▁larry	-10.9706
ika	-10.9707
▁creator	-10.9712
▁tee	-10.9715
▁slide	-10.9724
▁trump	-10.9725
▁crawl	-10.9733
ular	-10.9734
▁thigh	-10.9735
▁89	-10.9739
▁stabbing	-10.9742
▁storage	-10.9745
▁extension	-10.975
▁miracle	-10.975
▁cdc	-10.9751
bank	-10.9756
▁engage	-10.9758
▁tumour	-10.9765
▁humiliat	-10.9765
ene	-10.9768
▁moral	-10.9768
▁thieve	-10.977
▁cigarette	-10.9771
▁cooking	-10.9775
▁frighten	-10.978
▁blanket	-10.9786
▁trap	-10.979
▁sophie	-10.979
▁www	-10.9795
nam	-10.9797
▁escalat	-10.9801
▁closure	-10.9805
▁everyday	-10.9806
osh	-10.9807
▁revealing	-10.9809
tte	-10.981
▁drum	-10.9812
10	-10.9814
▁metro	-10.9816
▁volcano	-10.9821
▁savings	-10.983
▁referendum	-10.983
tability	-10.9843
esh	-10.9849
▁sandwich	-10.9856
▁explore	-10.9857
▁insect	-10.9863
▁tools	-10.987
▁prayers	-10.9874
▁cops	-10.9875
una	-10.9876
▁recognize	-10.988
▁terrifying	-10.9881
▁tooth	-10.9885
box	-10.9886
▁attractive	-10.9888
▁monster	-10.9901
▁biden	-10.9903
▁refer	-10.9904
▁nevada	-10.9906
▁examine	-10.991
ret	-10.9919
▁tropical	-10.9922
▁rica	-10.9936
izz	-10.9939
▁crocodile	-10.9942
▁underwear	-10.9944
▁polar	-10.9944
▁wisconsin	-10.9947
▁aspect	-10.9947
▁scal	-10.9948
▁casino	-10.9953
▁convention	-10.9957
▁frustration	-10.996
▁mick	-10.9965
▁indict	-10.9976
▁tuck	-10.9976
▁fold	-10.9977
▁mortgage	-10.9978
▁adjust	-10.9988
welbeck	-10.9988
▁boxer	-10.9989
▁sees	-10.9989
mbo	-10.9996
onic	-10.9999
▁barca	-11.0001
▁calories	-11.0003
▁parliamentar	-11.0006
▁thinks	-11.0008
▁1989	-11.0009
card	-11.001
▁apologize	-11.0012
▁amateur	-11.0013
▁wrist	-11.0019
aki	-11.002
▁edit	-11.002
▁recommendation	-11.002
▁prescription	-11.0024
▁sideline	-11.0024
▁glo	-11.0028
▁feedback	-11.003
▁carpet	-11.0034
▁coup	-11.0034
point	-11.0039
▁rapper	-11.0043
▁wicket	-11.0051
▁bernard	-11.0056
▁empire	-11.006
▁claire	-11.0065
▁excuse	-11.0065
▁tire	-11.0067
rio	-11.007
▁garner	-11.0075
▁consult	-11.0075
▁laptop	-11.0075
ista	-11.0085
▁bundesli	-11.0085
▁buzz	-11.0088
▁courage	-11.0091
▁overcome	-11.0091
▁recogniz	-11.0091
rich	-11.0094
▁somerset	-11.0096
▁tele	-11.0096
▁chaos	-11.0097
▁principle	-11.0101
▁scientist	-11.0103
▁ladies	-11.0107
▁dirty	-11.0108
bin	-11.0109
▁millionaire	-11.0111
▁accurate	-11.0112
▁eligib	-11.0113
▁depart	-11.0114
▁quake	-11.0116
▁harrison	-11.0117
▁abdul	-11.0122
▁kicking	-11.0123
▁reserv	-11.0125
▁gm	-11.013
▁exhibit	-11.0132
▁deni	-11.0135
▁percentage	-11.0142
▁rated	-11.0142
▁thorn	-11.0146
▁pav	-11.015
▁spec	-11.0151
▁induc	-11.0153
▁1991	-11.0163
▁analys	-11.0164
ninth	-11.0167
▁cycling	-11.0168
▁dementia	-11.0168
▁phase	-11.0169
▁heroes	-11.017
▁skill	-11.0172
▁contestant	-11.0179
▁mclaren	-11.0179
tree	-11.0181
▁pupil	-11.0182
▁pac	-11.0186
▁lightning	-11.0187
▁demonstrator	-11.0187
▁destruction	-11.0189
▁hitler	-11.0192
▁pledg	-11.0196
▁motive	-11.0205
▁grandchildren	-11.0205
pin	-11.0209
▁folk	-11.0211
▁bog	-11.0217
▁diana	-11.0219
▁rubbish	-11.0221
▁racism	-11.0221
path	-11.0224
▁spectator	-11.0226
▁tissue	-11.0226
▁carlo	-11.0227
▁inspire	-11.0227
▁bloody	-11.0235
▁blackpool	-11.0236
▁descend	-11.0236
▁misconduct	-11.0236
▁staggering	-11.0236
▁franchise	-11.0242
▁addiction	-11.0247
▁libyan	-11.0249
▁lorry	-11.0255
illo	-11.026
▁explanation	-11.0263
▁ji	-11.0267
▁embarrassing	-11.027
▁assign	-11.0271
▁zimmerman	-11.0273
▁middleton	-11.0275
▁karen	-11.0276
▁consent	-11.0279
▁bloom	-11.0284
▁92	-11.0285
hra	-11.0285
load	-11.0286
▁intervention	-11.0289
▁resume	-11.0294
▁meteor	-11.0294
▁smooth	-11.0294
▁grove	-11.0302
▁aunt	-11.0307
▁damaging	-11.031
iola	-11.0323
▁copie	-11.0324
▁lou	-11.0326
▁constable	-11.0327
▁pants	-11.0329
▁legacy	-11.0331
▁neville	-11.0341
▁norwich	-11.0343
▁chok	-11.0343
▁expression	-11.0343
cast	-11.0348
▁waist	-11.0348
▁origin	-11.0351
▁deficit	-11.0352
▁rebecca	-11.0352
▁stir	-11.0357
▁toure	-11.0357
▁guitar	-11.0358
▁naval	-11.0361
▁subway	-11.0363
▁ireport	-11.0363
ordinary	-11.0367
gb	-11.0369
▁sav	-11.0377
▁mysterious	-11.0379
▁alliance	-11.0379
▁fro	-11.038
▁grin	-11.0382
▁ambition	-11.0384
▁firearms	-11.0385
▁mit	-11.0386
▁cheaper	-11.0388
▁subsid	-11.0391
▁mob	-11.0393
▁samantha	-11.0395
▁bash	-11.0398
▁pacquiao	-11.04
▁urging	-11.0401
▁hungry	-11.0402
▁pol	-11.0404
▁lang	-11.0412
▁spare	-11.0421
▁wise	-11.0431
▁coma	-11.0436
▁splash	-11.0438
▁advisor	-11.0442
▁recognition	-11.0443
▁excessive	-11.0445
▁beef	-11.0447
▁dodg	-11.0451
▁vers	-11.0451
▁monk	-11.0451
gne	-11.0453
▁resolve	-11.0454
▁maps	-11.0458
▁cemeter	-11.0459
▁ana	-11.046
var	-11.0462
▁lil	-11.0463
▁soviet	-11.047
▁93	-11.047
▁thankful	-11.047
hannah	-11.0471
▁drag	-11.0474
▁sullivan	-11.0475
▁mohamed	-11.0475
▁pursu	-11.0479
iri	-11.0483
▁bou	-11.0483
▁dish	-11.0485
▁circulat	-11.0486
▁kha	-11.0489
▁begg	-11.0506
▁palmer	-11.0506
▁fever	-11.0509
▁attendant	-11.051
▁brussel	-11.0513
▁invasion	-11.0513
▁devil	-11.0523
▁admission	-11.0523
▁sneak	-11.0524
▁kal	-11.0526
▁dealt	-11.0527
▁metre	-11.0528
lit	-11.0528
▁prostitute	-11.0529
▁sculpture	-11.0529
▁supervis	-11.053
▁hospitaliz	-11.0538
▁flower	-11.0538
▁curriculum	-11.054
▁keane	-11.0542
▁trash	-11.0542
▁1950	-11.0543
▁richardson	-11.0544
▁bann	-11.0544
▁140	-11.0545
▁moss	-11.0549
▁cuban	-11.055
▁fascinat	-11.055
▁orlean	-11.0551
▁construct	-11.0554
▁oxygen	-11.0561
▁tongue	-11.0563
ht	-11.0564
▁fool	-11.0582
▁tab	-11.0585
▁counterpart	-11.0588
▁pga	-11.0589
▁mccain	-11.0589
hall	-11.0589
▁homosexual	-11.0594
▁deposit	-11.0594
▁fertil	-11.0594
▁behav	-11.0598
▁apologiz	-11.06
▁disturbing	-11.06
▁fran	-11.0601
▁administrator	-11.0605
▁heels	-11.0606
lington	-11.0612
▁julian	-11.0618
▁vent	-11.062
▁deter	-11.0624
▁parish	-11.0624
▁artwork	-11.0624
▁austria	-11.0625
▁hug	-11.0625
▁cruel	-11.0628
▁160	-11.063
ological	-11.0637
▁rad	-11.064
▁delight	-11.0642
▁carriage	-11.0643
▁recession	-11.0643
▁header	-11.0646
▁gabriel	-11.0648
▁resignation	-11.0651
▁billy	-11.066
▁dear	-11.0663
▁somali	-11.0663
▁assembly	-11.0664
iano	-11.0664
▁stimul	-11.0665
▁ryder	-11.0665
▁hunger	-11.0666
▁injection	-11.0669
▁scare	-11.0673
▁consist	-11.0676
▁vladimir	-11.0681
▁dennis	-11.0681
▁offense	-11.0681
▁revenge	-11.0687
▁description	-11.0692
▁stair	-11.0693
▁fal	-11.0693
▁downtown	-11.0698
▁lancaster	-11.0699
▁nude	-11.0699
▁ghana	-11.07
▁pepper	-11.0701
▁drain	-11.0703
▁ferry	-11.0708
▁angela	-11.071
ozil	-11.0712
▁communist	-11.0714
14	-11.0715
▁lump	-11.0716
▁oak	-11.0722
▁bieber	-11.0725
▁fianc	-11.0727
▁plum	-11.0729
▁currency	-11.0731
▁sharks	-11.0731
▁crackdown	-11.0731
▁blonde	-11.0732
enberg	-11.0733
▁prompting	-11.0735
▁unaware	-11.0735
▁nypd	-11.0736
▁embarrass	-11.0737
▁jill	-11.0738
▁rig	-11.0739
▁bobby	-11.074
▁laser	-11.0743
▁nancy	-11.0744
▁compromise	-11.0747
▁tale	-11.0752
▁congressional	-11.0753
▁overwhelming	-11.0756
▁electrical	-11.0758
▁bodi	-11.0767
▁highlights	-11.0768
▁reduction	-11.077
▁savile	-11.077
▁farmer	-11.0774
▁ceiling	-11.0775
▁consumption	-11.0775
▁wan	-11.078
▁evil	-11.078
▁leaf	-11.0787
mba	-11.0787
pan	-11.0789
owski	-11.0791
▁correspondent	-11.0792
▁nomination	-11.0798
▁gat	-11.0801
▁liberty	-11.0803
▁delta	-11.0808
▁oversee	-11.0808
▁relation	-11.0822
▁ancelott	-11.0825
▁tobacco	-11.0825
▁corporate	-11.083
▁reopen	-11.083
▁passe	-11.0832
▁swat	-11.0833
▁panda	-11.0836
▁shelve	-11.0838
▁rumor	-11.0843
▁furniture	-11.0847
▁unhapp	-11.0847
▁ghost	-11.0847
▁bold	-11.0849
▁cruelt	-11.0849
▁zimbabwe	-11.0853
▁bend	-11.0854
▁deer	-11.0858
▁ebay	-11.0858
▁sierra	-11.0858
ttle	-11.0859
▁handcuff	-11.0864
▁venture	-11.0867
▁kur	-11.0872
▁mason	-11.0873
▁risen	-11.0874
▁chad	-11.0875
▁cease	-11.0875
▁panic	-11.0877
▁allardyce	-11.088
▁sharapov	-11.0886
qual	-11.0888
▁gunmen	-11.0896
▁sebastian	-11.0897
▁acquir	-11.0903
▁amendment	-11.0904
eva	-11.0907
▁patent	-11.0908
▁heathrow	-11.0909
▁dil	-11.0916
▁fetch	-11.0916
▁pint	-11.0918
▁protein	-11.092
▁von	-11.093
▁twenty	-11.0931
bol	-11.0932
▁infrastructure	-11.0942
▁easter	-11.0942
▁chen	-11.0947
▁prestigious	-11.0953
▁healthcare	-11.0959
▁champagne	-11.0965
▁superintendent	-11.097
▁solve	-11.0977
▁mata	-11.0979
▁hob	-11.0983
▁readers	-11.0988
▁lucas	-11.0988
▁examiner	-11.0994
▁observer	-11.0995
▁clashe	-11.0998
some	-11.1001
▁fried	-11.1001
▁touching	-11.1001
hri	-11.1003
break	-11.1004
▁sketch	-11.1004
▁appealing	-11.1011
▁dorset	-11.1012
▁alzheimer	-11.1016
▁skirt	-11.1021
▁beaches	-11.1028
fish	-11.1035
▁qc	-11.1037
kell	-11.1038
orussia	-11.1039
▁filing	-11.1044
▁anxiet	-11.1044
▁decid	-11.1047
▁knox	-11.105
▁promising	-11.105
▁96	-11.1051
▁sew	-11.1052
dom	-11.1052
▁carroll	-11.1058
held	-11.1058
▁boris	-11.1058
▁blanc	-11.1059
▁taxpayer	-11.1065
▁scrutin	-11.1067
▁participate	-11.1068
▁nap	-11.1072
▁joshua	-11.1073
▁maine	-11.1075
▁shah	-11.1077
▁logo	-11.1078
▁depth	-11.1078
bby	-11.1078
▁trademark	-11.1079
▁personalit	-11.1084
▁benjamin	-11.1095
▁hugo	-11.1101
▁contribute	-11.1102
▁topic	-11.1102
▁exhaust	-11.1107
▁rory	-11.1109
▁photography	-11.111
woman	-11.111
▁listening	-11.1112
▁kardashian	-11.1112
▁difficulties	-11.1113
ato	-11.1114
▁hacking	-11.1118
▁wrap	-11.1119
▁hike	-11.1121
▁carv	-11.1125
▁judgment	-11.1125
▁acres	-11.1126
▁massacre	-11.113
▁defect	-11.1131
▁insurgent	-11.1141
▁wilshere	-11.1147
igh	-11.1148
80	-11.1149
▁confused	-11.1158
▁interpret	-11.1164
▁110	-11.1166
anne	-11.1169
gel	-11.117
▁glu	-11.1171
▁lingeri	-11.1174
▁rack	-11.1178
uous	-11.118
zu	-11.1181
▁accuse	-11.1183
▁toxic	-11.1187
▁preferr	-11.119
▁banner	-11.1196
▁homeowner	-11.1199
▁doubled	-11.1204
▁stripped	-11.1205
▁unbeaten	-11.1207
▁formation	-11.1211
ico	-11.1216
▁unlawful	-11.1216
▁labell	-11.1218
▁bulgaria	-11.1222
▁durham	-11.1224
▁nigerian	-11.1224
▁peru	-11.1227
▁190	-11.1228
▁forum	-11.123
▁kath	-11.1233
▁seizure	-11.1233
▁rabbit	-11.1239
▁kam	-11.1246
995	-11.1248
▁glasse	-11.125
▁pup	-11.1251
▁oust	-11.1251
▁cater	-11.1255
▁ramsey	-11.1257
▁margin	-11.1258
▁wider	-11.1259
▁tracking	-11.1262
lio	-11.1263
▁dart	-11.1264
▁faa	-11.1268
▁taiwan	-11.1268
▁steer	-11.1274
▁javi	-11.1276
▁conc	-11.1279
▁tackl	-11.1292
▁radar	-11.1295
▁hire	-11.1304
▁glory	-11.1306
▁enforc	-11.1315
▁thatcher	-11.1316
▁relegation	-11.1317
▁slot	-11.1328
▁forgive	-11.133
▁fundamental	-11.1332
▁horrible	-11.1332
▁ultra	-11.1332
▁thames	-11.1333
asi	-11.1337
▁modest	-11.1337
▁visual	-11.1338
▁spat	-11.134
▁grandson	-11.1343
▁cargo	-11.1345
▁fury	-11.1347
▁dragon	-11.135
▁luc	-11.1351
▁curv	-11.1352
▁jerry	-11.1356
▁bout	-11.1357
▁conscious	-11.136
▁handgun	-11.136
▁affidavit	-11.1362
▁butter	-11.1365
▁pitt	-11.1366
▁slat	-11.1369
▁confidential	-11.137
▁reduc	-11.137
▁inflict	-11.1373
▁novak	-11.1373
▁northampton	-11.1391
▁squeez	-11.1391
boat	-11.1394
▁torn	-11.1395
▁satisfi	-11.1397
▁surrender	-11.1397
▁supporter	-11.1399
▁vettel	-11.1403
▁relat	-11.1405
rina	-11.1406
▁practical	-11.1407
▁borrow	-11.141
▁conceal	-11.1415
▁biological	-11.1415
▁suite	-11.1425
▁undercover	-11.1426
▁gunn	-11.1433
▁alien	-11.1434
▁lace	-11.1434
▁restore	-11.1435
▁spear	-11.1438
▁haye	-11.144
▁removal	-11.145
lett	-11.1454
nce	-11.1478
▁bennett	-11.148
▁stab	-11.1488
▁jenkins	-11.1496
▁lebanon	-11.1497
▁lobby	-11.1498
▁fisher	-11.1502
▁pistol	-11.1503
▁acid	-11.1507
▁denmark	-11.151
▁nicolas	-11.1512
▁handful	-11.1515
▁correction	-11.1516
▁creek	-11.1517
▁enemy	-11.1521
▁privilege	-11.1527
▁phrase	-11.1527
▁psychological	-11.1528
▁performer	-11.1531
▁baltimore	-11.1533
▁inspect	-11.1536
▁blade	-11.1538
▁nicholas	-11.1539
▁recipe	-11.1539
▁gown	-11.1539
▁insider	-11.1542
▁chambers	-11.1544
▁commuter	-11.1545
▁cock	-11.155
▁discount	-11.1551
▁tyler	-11.1552
▁sympath	-11.1557
itis	-11.1557
▁advise	-11.156
▁colombian	-11.1565
▁berry	-11.1565
▁constitutional	-11.1566
▁latter	-11.1566
▁shortage	-11.157
▁liam	-11.1578
▁beast	-11.1584
cini	-11.1587
▁whi	-11.1587
▁frenchman	-11.1591
lov	-11.1591
▁colin	-11.1592
▁unnecessar	-11.1593
▁amnest	-11.1594
▁lens	-11.1595
▁chasing	-11.1599
▁throne	-11.1599
▁whistle	-11.1599
▁wreckage	-11.1601
▁blackburn	-11.1603
▁lesbian	-11.1605
▁todd	-11.1606
▁warner	-11.1609
▁litera	-11.1609
▁eager	-11.1611
▁exceptional	-11.1614
▁bald	-11.1614
▁horrifi	-11.1617
▁chavez	-11.1617
▁sheep	-11.1618
▁ramo	-11.1618
▁linda	-11.162
▁portland	-11.1625
▁motorcycle	-11.1629
▁coastal	-11.1634
▁compare	-11.1637
▁buff	-11.1637
▁phillip	-11.1637
form	-11.1641
▁complicat	-11.1642
▁elaborate	-11.1647
▁regain	-11.1647
▁zi	-11.1649
leigh	-11.1653
▁legendar	-11.1654
▁sailor	-11.1655
▁explicit	-11.1659
▁shooter	-11.166
▁beam	-11.1672
▁drunken	-11.1673
▁perth	-11.1678
▁divorced	-11.1681
▁renown	-11.1683
▁napoli	-11.1693
▁ramp	-11.1693
▁lethal	-11.1694
▁precaution	-11.1702
▁lucki	-11.1704
▁aerial	-11.1704
▁acknowledge	-11.1706
▁volume	-11.1708
▁jews	-11.1714
rington	-11.1717
▁shanghai	-11.172
▁obese	-11.172
▁companion	-11.1726
▁silent	-11.1726
▁hamas	-11.1729
▁fda	-11.1741
▁ivan	-11.1742
▁staffordshire	-11.1744
▁barnes	-11.1756
▁proven	-11.1759
▁traveler	-11.1762
▁swallow	-11.1769
▁felipe	-11.1775
▁accommodation	-11.1778
▁inherit	-11.1781
▁bourne	-11.1784
▁snatch	-11.1787
▁nar	-11.1789
▁audio	-11.1791
▁emerge	-11.1792
▁prey	-11.1795
lip	-11.1796
post	-11.1801
▁farage	-11.1802
▁ador	-11.1805
▁chatt	-11.1805
▁confrontation	-11.1806
▁spike	-11.1814
▁grid	-11.1819
▁spotlight	-11.1821
▁harbour	-11.1821
▁cox	-11.1825
▁titan	-11.1835
▁pont	-11.1836
▁diplomat	-11.1837
▁casual	-11.184
saw	-11.184
residential	-11.1841
▁canal	-11.1844
▁chamber	-11.1845
▁universiti	-11.1848
▁yan	-11.1849
▁kla	-11.1853
zone	-11.1854
▁peninsula	-11.1861
▁compil	-11.1861
▁terminat	-11.1864
▁bargain	-11.1867
▁recycl	-11.1867
▁ensur	-11.1869
▁communicate	-11.1873
▁mistaken	-11.1875
▁iii	-11.1875
▁charter	-11.1875
▁zara	-11.1876
▁depress	-11.1878
▁awful	-11.188
▁rag	-11.1884
▁samaritan	-11.1885
gin	-11.1886
▁capabilit	-11.1888
▁dip	-11.1889
keeper	-11.189
▁monarch	-11.1892
▁barrel	-11.1895
▁intercept	-11.1898
berry	-11.1909
▁juvenile	-11.191
▁believ	-11.1912
▁accomplish	-11.1916
▁battled	-11.1918
▁sarkozy	-11.1935
▁slept	-11.1935
▁schoolgirl	-11.1936
▁ecuador	-11.1941
▁nowhere	-11.1944
▁congo	-11.1945
voluntary	-11.1947
▁connor	-11.1948
ywhere	-11.1954
▁till	-11.1957
▁troubl	-11.196
▁generate	-11.196
▁bryan	-11.1961
▁94	-11.1963
▁serena	-11.1968
▁dictator	-11.1974
▁lynn	-11.1979
▁upgrad	-11.1985
▁pearson	-11.1991
▁epic	-11.1992
▁excess	-11.1995
▁fantasy	-11.1997
▁latin	-11.2002
▁complication	-11.2009
▁calf	-11.201
▁98	-11.2011
▁laborator	-11.2017
▁friendship	-11.2018
▁stefan	-11.2022
▁arthur	-11.2029
▁abandon	-11.203
▁shy	-11.2034
▁sauce	-11.2035
▁tune	-11.2038
cio	-11.2041
▁etihad	-11.2041
▁jamaica	-11.2041
▁norfolk	-11.2041
▁pedestrian	-11.2041
▁gau	-11.2043
▁unbelievabl	-11.2047
▁successive	-11.2055
▁hamstring	-11.206
▁rehabilitation	-11.2061
▁basement	-11.2062
▁flaw	-11.2068
▁supplier	-11.2069
▁eddie	-11.2073
▁cute	-11.2078
▁unrest	-11.208
▁rever	-11.2084
▁pistori	-11.2085
▁sadly	-11.2104
▁invent	-11.2112
▁lavish	-11.2117
▁organizer	-11.2118
▁authoriz	-11.212
▁sunni	-11.2121
▁firework	-11.2121
▁worrying	-11.2125
▁chuck	-11.2126
▁rac	-11.2129
▁pond	-11.2135
▁firearm	-11.2135
▁cosmetic	-11.2136
▁unpaid	-11.2136
▁rebuild	-11.2142
▁floyd	-11.2143
▁knot	-11.2144
▁nutrition	-11.2146
mmune	-11.2158
▁charm	-11.2159
▁vicious	-11.2161
▁chemotherapy	-11.2174
▁mccarthy	-11.2174
▁litre	-11.2177
▁occasional	-11.2177
▁tribe	-11.2182
view	-11.2184
▁erik	-11.2184
▁deserved	-11.2184
▁infamous	-11.2187
▁survivor	-11.2192
▁freak	-11.2193
ride	-11.2195
▁venezuela	-11.2196
▁conceded	-11.2199
▁sufficient	-11.2199
▁rage	-11.22
▁iceland	-11.2205
▁gel	-11.2205
▁wishe	-11.2207
▁astonishing	-11.2212
salem	-11.2217
▁cottage	-11.2219
▁jeffrey	-11.2219
▁litter	-11.2219
▁tons	-11.222
fight	-11.2221
▁overlook	-11.2225
▁perspective	-11.2225
▁annoy	-11.2227
▁kat	-11.2229
oud	-11.2232
▁mug	-11.2233
▁drought	-11.2238
▁classified	-11.2238
▁haram	-11.224
▁ur	-11.2243
▁unprecedented	-11.2244
▁grocer	-11.2244
▁beau	-11.2247
▁commemorat	-11.2251
▁premium	-11.2251
▁cameroon	-11.2251
▁superstar	-11.2251
▁gala	-11.2252
▁chariti	-11.2259
▁coleman	-11.2265
▁arkansas	-11.227
▁agenda	-11.227
▁horizon	-11.227
▁dim	-11.2277
▁bir	-11.2279
▁thumb	-11.2283
▁preserv	-11.2287
▁glamorous	-11.2289
▁ellis	-11.229
▁sock	-11.2291
▁index	-11.2298
▁concentration	-11.2298
▁slice	-11.2308
mobil	-11.2308
▁indoor	-11.2309
▁courtroom	-11.2309
▁bounc	-11.231
▁hurl	-11.2313
▁corr	-11.2314
▁collector	-11.2324
▁levi	-11.2326
▁freeze	-11.2335
▁explor	-11.2337
smith	-11.234
▁steam	-11.2342
▁shiite	-11.2342
▁walsh	-11.2345
▁generous	-11.2347
▁arctic	-11.2348
screen	-11.2351
▁equality	-11.2352
▁luggage	-11.2354
▁phenomenon	-11.2354
▁integrat	-11.2354
▁universal	-11.2354
▁victorian	-11.2355
▁halloween	-11.236
▁soap	-11.2364
▁reasonable	-11.2369
▁serial	-11.2375
▁dot	-11.2378
▁grief	-11.2386
▁wav	-11.2387
ota	-11.2388
▁artificial	-11.2393
▁somehow	-11.2393
press	-11.2397
25	-11.2399
▁hometown	-11.24
▁plagu	-11.24
▁poly	-11.2404
▁dhabi	-11.2406
▁harvard	-11.2406
▁trooper	-11.2406
iness	-11.2412
▁gadhafi	-11.2412
▁trek	-11.2413
▁gin	-11.2415
▁equipp	-11.2419
▁chapter	-11.242
▁purse	-11.2421
▁fitting	-11.2423
▁bloomberg	-11.2426
▁distract	-11.2433
▁controller	-11.2436
▁abusive	-11.2437
igan	-11.2442
▁pioneer	-11.2445
▁provok	-11.2447
▁disgusting	-11.2448
diagnosis	-11.2452
▁lyon	-11.2456
▁marshall	-11.2457
▁shav	-11.2457
▁administer	-11.2464
▁stanley	-11.2468
▁palin	-11.2469
chu	-11.247
▁cocktail	-11.2471
▁tsunami	-11.2471
▁passionate	-11.2474
▁dc	-11.2483
▁attendance	-11.2488
rian	-11.2493
▁alleg	-11.2495
fin	-11.2501
▁heather	-11.2504
▁ashe	-11.2508
▁evolv	-11.251
▁norwegian	-11.251
▁abdullah	-11.251
▁anyway	-11.252
▁demonstrat	-11.2526
▁passage	-11.2526
▁jun	-11.2528
▁borough	-11.253
▁stark	-11.2532
▁swimmer	-11.2546
urg	-11.255
▁km	-11.2552
▁blew	-11.2555
▁bangladesh	-11.2557
▁harvey	-11.2557
▁ibrahimovic	-11.2557
▁navigat	-11.2564
▁org	-11.2565
▁tampa	-11.2566
active	-11.2568
▁cer	-11.2569
▁vitamin	-11.257
▁trousers	-11.257
▁flock	-11.2571
▁hatch	-11.2572
▁mack	-11.2572
▁bmw	-11.2577
▁centuri	-11.258
▁stephani	-11.2584
▁brace	-11.2584
▁tha	-11.2586
▁bt	-11.2594
▁seller	-11.2595
▁91	-11.26
▁sunshine	-11.2603
▁enrique	-11.261
▁honey	-11.2611
▁dose	-11.2612
▁shane	-11.2618
▁glow	-11.2622
▁lance	-11.2624
▁radiation	-11.2625
▁boko	-11.2627
▁lac	-11.2628
▁mode	-11.2629
▁petr	-11.2641
▁attribute	-11.2643
▁deteriorat	-11.2643
▁bern	-11.2644
▁adoption	-11.2648
▁idol	-11.2648
▁organiser	-11.2651
▁julia	-11.2668
▁unfold	-11.267
▁patron	-11.2672
▁mainten	-11.2673
▁cure	-11.2673
▁forgott	-11.2675
▁romanian	-11.2676
▁harper	-11.2676
▁chronic	-11.2679
▁qualification	-11.2683
▁refund	-11.2683
▁airplane	-11.2683
▁temporari	-11.2685
▁kenyan	-11.269
▁lyn	-11.2691
▁maid	-11.2693
▁hung	-11.2696
▁sophisticat	-11.2696
▁collar	-11.2697
▁christine	-11.2699
▁fossil	-11.2703
▁liberia	-11.2704
▁hydro	-11.2706
▁goodbye	-11.271
▁purple	-11.2711
▁flare	-11.2712
▁rubber	-11.2717
▁125	-11.2718
▁watt	-11.2719
▁stance	-11.2721
▁griffith	-11.2723
▁raheem	-11.2723
▁germain	-11.273
▁powder	-11.2731
▁ranch	-11.2731
▁fil	-11.2734
▁chin	-11.2741
▁lennon	-11.2743
▁tehran	-11.2743
▁brewer	-11.275
▁certificate	-11.275
▁unsuccessful	-11.275
▁kitten	-11.2754
▁cathedral	-11.2757
brook	-11.2757
▁traumatic	-11.276
▁elect	-11.2761
▁buckingham	-11.2765
▁brawl	-11.2765
▁administrative	-11.2777
▁thanksgiving	-11.2777
▁1986	-11.2778
▁glenn	-11.2779
▁hussein	-11.2784
▁utter	-11.2784
▁leigh	-11.2791
▁insight	-11.2793
▁boil	-11.2797
▁shatter	-11.28
▁eden	-11.2802
▁judicial	-11.2804
▁authentic	-11.2811
▁bubble	-11.2811
straught	-11.2811
▁stepping	-11.2812
▁quin	-11.2817
▁misdemeanor	-11.2818
▁potato	-11.2818
▁qa	-11.282
▁notifi	-11.2821
▁disappointment	-11.2824
▁compli	-11.2825
▁badge	-11.2825
▁scorer	-11.2828
▁fluid	-11.2829
▁washing	-11.283
▁wade	-11.2834
▁thousand	-11.2835
▁onlooker	-11.2838
▁obsess	-11.284
▁fam	-11.2843
▁molest	-11.2845
▁ballot	-11.2846
▁deport	-11.2853
▁neill	-11.2856
▁acre	-11.286
▁nsa	-11.2867
▁rhino	-11.2868
▁acquitt	-11.2879
▁exceed	-11.288
▁slump	-11.2883
▁nephew	-11.2886
▁rab	-11.2892
▁grill	-11.2897
▁excitement	-11.29
▁bible	-11.2905
15	-11.2907
▁weird	-11.2909
▁tun	-11.2911
▁relevant	-11.2913
▁romania	-11.2916
▁replica	-11.2927
▁verbal	-11.2935
avi	-11.2957
▁vomit	-11.2961
▁postpon	-11.2963
▁robertson	-11.297
▁declare	-11.2974
▁sheikh	-11.2976
▁fare	-11.2982
▁divert	-11.2984
▁warrior	-11.2996
▁premise	-11.2996
▁balcon	-11.2997
▁flick	-11.3005
▁valentine	-11.3005
ancy	-11.3005
bia	-11.3005
▁allowance	-11.3006
▁capt	-11.3011
▁bass	-11.3014
▁melissa	-11.3017
▁existence	-11.3019
▁mitt	-11.3028
▁fry	-11.3029
▁gh	-11.3035
▁brake	-11.3038
▁cleaner	-11.3039
cca	-11.3041
▁fond	-11.3042
▁displac	-11.3044
▁suffolk	-11.3044
▁skipper	-11.3044
▁inject	-11.3046
▁paedophile	-11.3051
▁condolence	-11.3058
▁precious	-11.3058
▁crow	-11.3059
▁feather	-11.3059
him	-11.3064
▁rihanna	-11.3065
▁veterinar	-11.3065
▁stroll	-11.307
▁holly	-11.3072
lv	-11.3075
what	-11.3075
▁magnitude	-11.3079
▁clutch	-11.3079
▁honda	-11.3079
▁santos	-11.3081
▁450	-11.3084
▁legitimate	-11.3086
▁gardner	-11.3086
▁poyet	-11.3086
▁retreat	-11.3107
▁mash	-11.3109
▁scary	-11.3113
▁franklin	-11.3114
▁fletcher	-11.3114
▁haunt	-11.3114
▁poisoning	-11.312
▁sharon	-11.3121
▁blogger	-11.3131
▁accelerat	-11.3135
▁bikini	-11.3135
▁penguin	-11.3135
▁shipping	-11.3142
▁vocal	-11.3143
▁opera	-11.3149
▁dame	-11.3158
bach	-11.316
▁dated	-11.316
▁column	-11.316
▁shuttle	-11.3165
▁harass	-11.3168
▁occupi	-11.317
▁negligen	-11.317
▁butler	-11.3171
▁bacon	-11.3177
▁terrace	-11.3177
▁cohen	-11.3182
▁manipulat	-11.3184
▁scenario	-11.3184
▁shov	-11.3187
▁preston	-11.319
▁merseyside	-11.3191
▁classmate	-11.3193
▁pursuit	-11.3195
▁tunisia	-11.3198
nik	-11.3201
▁feat	-11.3202
▁hugh	-11.3204
▁dw	-11.3207
▁pearl	-11.3208
▁ignore	-11.321
▁crane	-11.3217
▁bicycle	-11.3219
▁prescrib	-11.3219
▁hormone	-11.3219
▁instruct	-11.3219
▁distribution	-11.3222
▁combine	-11.3223
▁devoted	-11.3227
piece	-11.323
▁vall	-11.323
▁ammunition	-11.3234
▁dakota	-11.3234
▁holidaymaker	-11.3235
power	-11.3238
▁strategic	-11.3239
▁innovation	-11.3241
poli	-11.3243
▁raj	-11.3245
angkok	-11.3252
▁bidding	-11.3252
19	-11.3253
▁moderate	-11.3255
▁999	-11.3257
▁airstrike	-11.3262
▁schumacher	-11.3269
▁hudson	-11.3269
▁strapp	-11.327
▁fractur	-11.3275
▁jake	-11.3281
ucci	-11.3283
▁archbishop	-11.3283
▁universe	-11.3283
dell	-11.3283
▁hashtag	-11.3283
▁lawson	-11.3289
▁intimate	-11.329
▁rash	-11.3291
▁ownership	-11.3304
▁jin	-11.331
▁burden	-11.331
▁kan	-11.3311
▁1984	-11.3313
etti	-11.3318
▁drogba	-11.3319
▁leopard	-11.3319
▁stumbl	-11.3319
▁rosie	-11.3322
▁pleasure	-11.3328
▁hijack	-11.3333
▁volley	-11.3337
▁extract	-11.3337
▁presum	-11.3347
shot	-11.3348
▁solicitor	-11.335
▁chop	-11.335
▁efficient	-11.3355
▁gonzalez	-11.3355
▁falcon	-11.3355
▁servant	-11.3362
▁simulat	-11.3363
▁manning	-11.3367
▁membership	-11.3368
▁submarine	-11.3369
▁staple	-11.3369
▁copyright	-11.3369
bie	-11.3374
lene	-11.338
▁tide	-11.3382
▁grenade	-11.3383
▁rhode	-11.3384
▁modelling	-11.3389
▁romance	-11.339
▁premature	-11.339
▁madison	-11.3399
hem	-11.34
erkel	-11.3401
▁fundrais	-11.3403
▁bulli	-11.3403
▁estrang	-11.3405
▁shabaa	-11.3407
▁preserve	-11.3407
▁pul	-11.341
▁edg	-11.341
▁gregor	-11.3411
▁consideration	-11.3412
▁paulo	-11.3412
hel	-11.3412
▁nickname	-11.3412
▁guil	-11.3413
▁jumper	-11.3414
▁instructor	-11.3416
▁siege	-11.3418
▁hilarious	-11.3419
▁quarterfinal	-11.3419
▁breathe	-11.3428
▁speculat	-11.3429
▁realistic	-11.343
▁collective	-11.343
▁clinch	-11.3441
▁shepherd	-11.3441
▁console	-11.3441
▁comply	-11.3442
▁gibb	-11.3446
▁pine	-11.3448
▁vick	-11.345
▁pollution	-11.3455
▁mice	-11.3457
▁choos	-11.3457
▁prostituti	-11.3458
cup	-11.3458
▁leone	-11.3463
▁hom	-11.3466
▁oppose	-11.3466
▁finn	-11.3466
▁guinness	-11.347
cco	-11.347
▁gust	-11.3475
▁crist	-11.3477
▁steep	-11.3477
▁dublin	-11.3478
▁fracture	-11.3478
wyn	-11.348
12	-11.3483
▁mumbai	-11.3484
▁wolve	-11.3485
▁plug	-11.3493
▁joel	-11.3495
hab	-11.35
▁innocence	-11.3506
▁habitat	-11.3515
▁loft	-11.352
▁cairo	-11.3521
▁divided	-11.3522
▁curb	-11.3525
▁compatriot	-11.3528
▁tsarnaev	-11.3528
▁vintage	-11.3528
▁reilly	-11.3537
▁toyota	-11.3537
▁sufferer	-11.354
▁algeria	-11.3543
▁khal	-11.3545
▁gentle	-11.3549
▁vest	-11.355
▁scrambl	-11.355
watch	-11.3551
▁jihadist	-11.3558
▁mia	-11.3558
▁lego	-11.3559
▁presidenc	-11.3559
▁penny	-11.356
▁dramatical	-11.3563
▁cambodia	-11.3564
▁detonat	-11.3565
▁trent	-11.3565
lot	-11.3569
▁dishe	-11.3572
▁stray	-11.3577
▁mild	-11.3578
lby	-11.3579
▁dow	-11.3582
▁enthusiast	-11.3585
▁prayer	-11.3585
▁doug	-11.3588
chen	-11.3588
▁meter	-11.3592
▁francois	-11.3598
▁chap	-11.3598
▁tempt	-11.3602
▁revis	-11.3606
▁supplement	-11.3608
quin	-11.3608
▁gravit	-11.3609
▁script	-11.361
▁amaz	-11.3611
▁jeru	-11.3612
▁wu	-11.3612
▁whisk	-11.3617
▁reef	-11.3622
▁danish	-11.3624
eoul	-11.3624
▁2018	-11.3626
▁wang	-11.3628
▁vogue	-11.3631
▁slaughter	-11.3634
▁monument	-11.3638
▁maurici	-11.3638
hurst	-11.3639
▁nou	-11.3641
▁emission	-11.3653
▁gibson	-11.3653
▁luiz	-11.3654
▁bounce	-11.3658
▁invitation	-11.366
▁strictly	-11.3663
▁gul	-11.3665
▁360	-11.3665
▁suburban	-11.3666
▁mouse	-11.3677
▁evacuation	-11.3679
▁turtle	-11.3683
▁gum	-11.3685
▁inflation	-11.3687
▁okay	-11.3692
▁lind	-11.3692
▁decease	-11.3697
▁logan	-11.3699
▁savage	-11.37
▁archive	-11.3702
▁showcase	-11.3708
▁useful	-11.3712
▁natalie	-11.3713
raf	-11.3716
oxide	-11.3717
▁nominee	-11.3727
▁invad	-11.3728
▁wallet	-11.3732
▁maj	-11.3732
▁morale	-11.3733
▁breakthrough	-11.3734
▁pinn	-11.374
▁dispos	-11.375
▁wallace	-11.3752
▁supervisor	-11.3755
▁serbia	-11.3764
▁chester	-11.3765
▁tribal	-11.3769
chalke	-11.3769
▁pedro	-11.3769
▁workplace	-11.3771
▁soak	-11.3772
▁pod	-11.3776
▁herrera	-11.3779
▁hispanic	-11.3786
wall	-11.379
plan	-11.3791
▁temper	-11.3794
▁headache	-11.3795
▁kabul	-11.3796
▁imag	-11.3796
▁knit	-11.3798
▁hamburg	-11.3798
▁flavour	-11.3801
▁database	-11.3801
▁koeman	-11.3801
▁bribe	-11.3803
▁birdie	-11.3804
▁starv	-11.3806
▁bast	-11.3807
▁graduat	-11.3814
▁salon	-11.3814
▁golfer	-11.3822
▁slope	-11.3824
▁kurdish	-11.3831
▁tick	-11.3834
▁theresa	-11.3838
▁uganda	-11.3839
▁lieutenant	-11.3846
▁sanctuary	-11.3846
▁walmart	-11.3846
▁ugly	-11.385
▁capp	-11.3852
▁villager	-11.3853
▁arraign	-11.3854
▁stylish	-11.3854
▁maz	-11.3855
▁coal	-11.3859
▁earl	-11.3861
▁glimpse	-11.3861
▁peterson	-11.3868
▁cesc	-11.3869
▁marshal	-11.3871
▁lodge	-11.3871
▁hyper	-11.3881
▁tyre	-11.3884
▁strangle	-11.3884
▁mammal	-11.3884
▁porter	-11.3885
▁banker	-11.389
▁brien	-11.3893
▁candle	-11.3895
▁motorway	-11.3896
▁sacrifice	-11.3897
▁moor	-11.3898
wal	-11.3903
▁militia	-11.3907
iva	-11.3909
▁perceiv	-11.3915
▁rehab	-11.3916
▁curl	-11.3922
odor	-11.3923
▁thriv	-11.3924
▁wick	-11.3926
bri	-11.3927
▁antarctic	-11.3937
▁xinhua	-11.3937
isa	-11.3942
▁hockey	-11.3944
▁organis	-11.3952
▁granddaughter	-11.396
▁fifty	-11.396
▁accent	-11.3961
▁parkinson	-11.3968
▁thug	-11.3968
▁alice	-11.3971
▁sao	-11.3972
▁reluctant	-11.3977
broken	-11.3985
▁placing	-11.399
▁fancy	-11.3993
▁burial	-11.3993
▁kai	-11.3995
▁catwalk	-11.3999
▁contender	-11.4003
▁hedge	-11.4006
▁trunk	-11.4007
▁cuddl	-11.4008
▁comfortabl	-11.4008
▁candy	-11.401
▁safer	-11.4015
▁lounge	-11.4017
▁indonesian	-11.4019
▁imprisonment	-11.4023
▁lamp	-11.4031
emi	-11.4036
▁nepal	-11.4036
▁montana	-11.4038
▁testify	-11.404
▁tier	-11.4052
lou	-11.4053
▁bunch	-11.4057
▁thrash	-11.4059
▁blend	-11.4064
▁influential	-11.4067
▁filter	-11.4069
▁uncomfortable	-11.4072
▁claw	-11.4074
▁regulat	-11.4076
▁slogan	-11.4082
terim	-11.4083
employment	-11.4088
▁scholes	-11.409
▁reagan	-11.409
▁transit	-11.4091
▁enhanc	-11.4094
▁benedict	-11.4098
▁activat	-11.4098
▁dani	-11.4104
zel	-11.4104
▁berlusconi	-11.4105
▁yahoo	-11.4105
▁erect	-11.4107
▁disgust	-11.4109
master	-11.4111
▁relate	-11.4113
▁pippa	-11.4113
▁handset	-11.4113
chester	-11.4114
▁plott	-11.4115
▁fulfill	-11.4117
▁fog	-11.4119
▁antibiotic	-11.4121
▁jacque	-11.4122
▁asteroid	-11.4128
zzi	-11.4132
▁educational	-11.4134
▁bryant	-11.4135
▁flipp	-11.4136
▁bever	-11.414
▁malaysian	-11.4147
▁fraternit	-11.4152
▁axe	-11.416
▁necessaril	-11.4162
▁frog	-11.4164
▁wilt	-11.4169
▁yaya	-11.4172
▁pageant	-11.4173
▁raymond	-11.4176
▁decent	-11.4176
▁nursery	-11.4179
▁wig	-11.4181
▁interrupt	-11.4183
▁handbag	-11.4183
▁commentator	-11.4187
▁decrease	-11.4191
▁quest	-11.4198
▁arc	-11.4207
▁shaun	-11.4207
▁observation	-11.4213
▁component	-11.4214
▁2020	-11.4214
▁determination	-11.4222
▁evolution	-11.4222
▁spiral	-11.4223
vor	-11.4228
▁bahrain	-11.423
▁blunt	-11.4231
▁juice	-11.4235
▁dunn	-11.4237
▁capitol	-11.4237
▁firefighter	-11.424
▁adelaide	-11.4245
▁conspir	-11.4247
▁stricke	-11.4253
▁migration	-11.4255
▁flies	-11.4257
▁billboard	-11.4258
▁wardrobe	-11.4261
▁whip	-11.4262
▁grandparents	-11.4269
▁starbucks	-11.4277
▁aisle	-11.4279
▁dirt	-11.4283
▁spiritual	-11.4284
▁reminder	-11.4286
▁quarterback	-11.4295
▁slapp	-11.4298
▁comprehensive	-11.4301
▁dup	-11.4305
▁airlift	-11.4308
▁identification	-11.4316
▁airbus	-11.4317
▁resistance	-11.4319
▁lynch	-11.432
▁pundit	-11.4324
▁boycott	-11.4326
▁intentional	-11.4329
▁clare	-11.4329
▁regulation	-11.4334
▁101	-11.4335
▁kon	-11.4338
▁enclosure	-11.434
▁olympia	-11.434
▁liberat	-11.4343
▁nobel	-11.4345
▁inflat	-11.4348
▁ethic	-11.4357
▁confession	-11.436
▁boyle	-11.4362
▁extradition	-11.4367
sbrough	-11.4371
▁slid	-11.4371
made	-11.4372
▁jackie	-11.4379
▁dylan	-11.4383
▁lecture	-11.4387
▁gorilla	-11.4387
▁amputat	-11.4387
▁buffalo	-11.4395
▁sadden	-11.44
wash	-11.4403
▁circus	-11.4403
▁cowboy	-11.4403
▁liz	-11.4404
▁psychologist	-11.4406
▁omar	-11.4408
▁forbes	-11.441
▁myanmar	-11.4411
▁porto	-11.4412
▁bent	-11.4428
▁physician	-11.4429
▁motivation	-11.4435
▁bp	-11.4441
▁squirrel	-11.4443
▁rosa	-11.4446
▁backward	-11.4455
▁mai	-11.4464
world	-11.4465
▁junk	-11.4472
▁fiscal	-11.4475
▁reinforc	-11.4483
▁nav	-11.4483
▁jorge	-11.4483
▁intervene	-11.4488
▁crisp	-11.449
▁nicknam	-11.4493
▁penis	-11.4493
▁tolerat	-11.4494
▁cardinal	-11.4499
▁overdose	-11.4502
▁backlash	-11.4507
▁gradual	-11.4507
▁expire	-11.4512
▁harbor	-11.4514
▁portsmouth	-11.4515
▁altercation	-11.4523
▁epidemic	-11.4523
▁identical	-11.4523
▁absent	-11.4523
▁harmful	-11.4524
▁gerard	-11.4527
▁nun	-11.453
▁thus	-11.453
▁applaud	-11.4534
▁bitten	-11.4539
▁olivia	-11.4539
▁precise	-11.4539
▁bosnia	-11.4539
▁tommy	-11.4543
▁chapman	-11.4545
▁prototype	-11.4547
▁tremendous	-11.4547
▁extinct	-11.4547
▁torch	-11.4548
▁heaven	-11.4565
▁skat	-11.4565
▁prom	-11.4565
hard	-11.4566
▁queue	-11.4569
▁ritual	-11.4571
▁whereabout	-11.4571
▁bab	-11.4574
▁mutual	-11.458
▁ajax	-11.458
▁embass	-11.4583
▁nolan	-11.4583
▁cheshire	-11.4584
▁confusion	-11.4588
▁backpack	-11.4588
▁fernande	-11.459
▁resemble	-11.4594
▁murdoch	-11.4596
▁drift	-11.4596
▁humor	-11.4603
▁motorbike	-11.4604
▁colourful	-11.4605
▁creep	-11.4606
▁stack	-11.461
▁shotgun	-11.4611
▁inevitabl	-11.4612
▁eto	-11.4614
▁lohan	-11.462
▁predecessor	-11.462
▁distinctive	-11.4622
▁poach	-11.4625
▁ambitious	-11.4628
▁psychiatric	-11.4628
▁psycho	-11.4644
▁lucrative	-11.4644
▁checkpoint	-11.4646
▁awkward	-11.4653
▁tara	-11.4653
▁economist	-11.4661
▁wrestle	-11.4661
▁exeter	-11.4661
▁fraser	-11.4663
▁seeker	-11.4665
▁captiv	-11.4667
▁provision	-11.4686
▁assassination	-11.4688
hart	-11.4688
kinson	-11.4692
▁accessori	-11.4693
▁dinosaur	-11.4702
▁intelligent	-11.4702
▁laurent	-11.4702
▁streak	-11.471
▁wrongdoing	-11.471
▁orphan	-11.471
▁marcel	-11.4713
▁adorable	-11.4715
▁olive	-11.4718
▁cheryl	-11.4719
bell	-11.4723
▁aberdeen	-11.4726
▁medium	-11.4727
▁riley	-11.4729
▁blank	-11.4734
▁silk	-11.4734
▁sochi	-11.4735
neja	-11.4737
▁worship	-11.4743
▁chamberlain	-11.4751
▁timoth	-11.4751
▁bali	-11.4751
▁cosby	-11.4752
▁fiancee	-11.4752
▁reuter	-11.4753
▁pipeline	-11.4753
▁exception	-11.4755
▁goat	-11.4758
▁stint	-11.4759
▁amsterdam	-11.4759
▁skeleton	-11.4759
▁finalist	-11.4759
▁pyongyan	-11.4767
▁accord	-11.477
ymore	-11.4772
▁canyon	-11.4773
▁booth	-11.4776
▁context	-11.4776
▁hurdle	-11.4776
▁plummet	-11.4784
▁citizenship	-11.4793
▁wives	-11.4794
▁reynolds	-11.48
▁revolutionar	-11.4802
▁slur	-11.4803
▁enhance	-11.4804
▁builder	-11.4804
▁lava	-11.4805
▁kor	-11.4805
▁kenneth	-11.4809
▁wozniack	-11.4817
▁abduction	-11.4817
▁trader	-11.4821
▁pietersen	-11.4825
▁suitcase	-11.4825
▁winston	-11.4829
▁driveway	-11.4829
▁array	-11.4834
▁spacecraft	-11.4835
▁visitor	-11.4842
▁concentrate	-11.4846
▁typhoon	-11.485
▁curious	-11.4852
▁enabl	-11.4853
▁jesse	-11.4853
▁overwhelm	-11.4854
▁dialogue	-11.4859
▁expansion	-11.4859
▁pharmac	-11.4867
▁respondent	-11.4869
▁frost	-11.4871
▁cookie	-11.4871
▁mediterrane	-11.4875
▁leo	-11.4882
▁parachute	-11.4884
▁megan	-11.4889
▁dvd	-11.4892
▁premiership	-11.4894
liest	-11.4895
▁nike	-11.4896
▁arnold	-11.49
▁pittsburgh	-11.4909
▁sovereign	-11.4909
▁exclud	-11.4909
▁barred	-11.4916
▁nichols	-11.4917
▁tub	-11.4917
▁overhaul	-11.4925
▁heath	-11.4937
wen	-11.4938
▁warehouse	-11.4942
▁submit	-11.4943
▁spree	-11.4945
▁jockey	-11.4951
▁eruption	-11.496
atrice	-11.4962
storm	-11.4963
▁stern	-11.4967
▁scatter	-11.4967
▁organic	-11.4968
▁mak	-11.4969
▁johnny	-11.497
▁gut	-11.4976
▁taunt	-11.4977
▁introduction	-11.4978
▁levy	-11.4979
▁hale	-11.498
▁yang	-11.498
▁mubarak	-11.4984
issa	-11.4989
walk	-11.4991
▁blatter	-11.4993
ledge	-11.4994
rah	-11.4997
▁bot	-11.4997
assi	-11.4999
▁resolv	-11.5001
▁espn	-11.5002
▁condom	-11.5004
▁katy	-11.5006
▁chew	-11.5007
▁netanyahu	-11.5009
▁radam	-11.5011
▁heavyweight	-11.5012
▁pavement	-11.5018
tmz	-11.502
▁brandon	-11.5023
▁martha	-11.5024
▁gove	-11.5025
▁hassan	-11.5027
▁brent	-11.5029
▁electro	-11.5029
▁marr	-11.5032
▁rust	-11.5042
▁hondura	-11.5043
▁assembl	-11.5045
▁hardest	-11.5049
▁tumble	-11.5052
▁harvest	-11.5052
▁jenny	-11.5054
▁cockpit	-11.5069
▁gea	-11.5069
▁brigade	-11.5069
▁backyard	-11.5069
▁roadside	-11.5071
▁memorabl	-11.5072
▁physic	-11.5073
▁divide	-11.5078
combe	-11.5082
market	-11.5086
▁knive	-11.5086
▁samp	-11.5091
▁1985	-11.5092
shop	-11.5092
▁accompany	-11.5094
▁sherwood	-11.5095
▁inventor	-11.5098
▁hugg	-11.51
▁embark	-11.5103
▁landlord	-11.5103
▁neighbourhood	-11.5104
▁forecaster	-11.5106
▁jewel	-11.5107
▁giroud	-11.5111
▁withdrawal	-11.5113
▁petra	-11.5115
▁establishment	-11.5116
▁aviv	-11.5117
▁wow	-11.5119
▁mortem	-11.512
▁spoil	-11.512
▁assured	-11.5121
▁cult	-11.5121
▁collaboration	-11.5124
▁accomplice	-11.5128
▁calculate	-11.5128
life	-11.5132
▁agriculture	-11.5137
▁bianca	-11.5137
▁bron	-11.5138
▁enterprise	-11.5146
▁netflix	-11.5146
▁muhammad	-11.5154
▁berkshire	-11.5154
▁hilton	-11.5156
▁weaken	-11.5156
▁miranda	-11.5163
▁terrier	-11.5163
▁giggs	-11.5163
▁claudi	-11.5163
▁sofa	-11.519
▁tenant	-11.519
▁propagand	-11.5197
cott	-11.5198
▁dawson	-11.5206
▁anxious	-11.5206
▁cahill	-11.5208
▁austrian	-11.5209
▁pant	-11.5213
▁interact	-11.5225
▁victorie	-11.5231
▁philosoph	-11.5232
▁depriv	-11.5232
▁memo	-11.5232
▁worcester	-11.524
▁discriminat	-11.5244
▁sank	-11.5248
▁detach	-11.5249
▁solv	-11.5251
▁rallie	-11.5251
▁utilit	-11.5258
▁disruption	-11.5258
▁repay	-11.5262
▁tapp	-11.5265
▁nasty	-11.5267
▁jade	-11.5273
▁obstruct	-11.5275
▁integrit	-11.5275
▁arson	-11.5275
chel	-11.5277
mpton	-11.5279
▁breakdown	-11.528
▁interstate	-11.5284
▁rom	-11.5287
▁socialist	-11.5289
▁distinct	-11.529
▁confiscat	-11.5292
▁telescope	-11.5292
▁terribl	-11.5299
▁captive	-11.5299
▁sevilla	-11.5301
▁kei	-11.5302
▁conceiv	-11.5303
▁barkley	-11.5305
▁contemporar	-11.531
▁slaying	-11.531
▁boundar	-11.5316
▁zuckerberg	-11.5318
katherine	-11.5319
kova	-11.532
▁rak	-11.5325
▁madonna	-11.5327
▁charlton	-11.5328
▁chunk	-11.5328
▁reviv	-11.5338
▁steady	-11.5341
▁transgender	-11.5345
▁exotic	-11.5345
▁disguis	-11.5345
▁township	-11.5345
▁wireless	-11.5351
▁roar	-11.5351
▁ethiopia	-11.5353
▁lodged	-11.5361
▁sandra	-11.5363
▁ignit	-11.5366
▁frantic	-11.5373
▁auster	-11.5374
▁tomas	-11.538
▁permitt	-11.5382
▁affordabl	-11.5384
ompany	-11.5386
▁sentiment	-11.5388
▁consultation	-11.5403
▁historian	-11.5406
▁rant	-11.5407
▁filmmaker	-11.5411
▁poet	-11.5422
▁maxim	-11.5422
▁recipient	-11.5424
▁occupy	-11.5432
▁quantit	-11.5433
▁glamour	-11.5441
▁imprison	-11.5448
▁innovative	-11.545
▁noble	-11.5456
▁lallana	-11.5459
▁rubble	-11.5459
▁coffin	-11.5459
▁abid	-11.5463
▁evaluat	-11.5463
▁intruder	-11.5468
▁transaction	-11.5468
▁kieran	-11.5468
lake	-11.5471
▁packag	-11.5479
▁skies	-11.5479
▁dismissal	-11.5482
▁gilbert	-11.5483
▁nicola	-11.5487
▁accommodat	-11.5489
▁prosthetic	-11.5494
▁janeiro	-11.5494
▁lindsay	-11.5494
▁hammond	-11.5497
▁walt	-11.5502
▁successor	-11.5502
▁janet	-11.5506
▁flip	-11.5508
▁scrapp	-11.5509
▁tribune	-11.5512
▁expedition	-11.5512
▁revive	-11.5514
▁cannon	-11.5514
▁coventry	-11.5521
▁genital	-11.5521
▁deleted	-11.5523
▁protocol	-11.553
▁undertake	-11.5535
productive	-11.5538
▁dental	-11.555
▁altitude	-11.5552
titude	-11.5554
▁bau	-11.5557
▁destin	-11.5564
▁banana	-11.5574
▁perception	-11.5574
▁reddit	-11.5584
▁supportive	-11.5584
izer	-11.5591
▁monroe	-11.5592
▁catalan	-11.5592
▁playground	-11.56
▁flesh	-11.5602
ollah	-11.5608
▁beyonce	-11.561
▁cardiac	-11.561
▁ladder	-11.5619
▁ivanovic	-11.562
▁interactive	-11.5622
▁interaction	-11.5624
▁tailor	-11.5631
▁craze	-11.5631
▁hoop	-11.5633
▁salad	-11.5634
▁robbie	-11.5636
▁yemeni	-11.5636
▁steward	-11.5637
▁brink	-11.564
▁rossi	-11.5647
▁maritime	-11.5648
▁helm	-11.565
▁derek	-11.5658
▁fist	-11.5663
▁fiorentin	-11.5664
▁retaliat	-11.5664
▁muller	-11.5667
▁yoga	-11.5669
▁chronicle	-11.567
▁griffin	-11.5673
▁oakland	-11.5676
▁elbow	-11.5682
zhou	-11.5685
▁corpse	-11.5693
▁embarrassment	-11.5695
▁turf	-11.5698
▁practis	-11.57
▁sutton	-11.5701
▁rental	-11.5711
▁didier	-11.5718
▁mohammad	-11.5718
▁retiring	-11.5718
▁venezuelan	-11.5724
▁interfer	-11.573
▁chic	-11.5731
▁profession	-11.5734
▁adequate	-11.5737
▁originat	-11.5739
▁toast	-11.5741
▁gaga	-11.5743
▁darling	-11.5745
▁reptile	-11.5746
▁cotton	-11.5746
▁johan	-11.5746
▁impair	-11.5749
tner	-11.5753
▁vale	-11.5754
▁patricia	-11.5755
eaten	-11.5759
shore	-11.5763
▁christina	-11.5766
▁spice	-11.5767
▁dominic	-11.5774
drew	-11.5778
▁sanders	-11.578
▁gallon	-11.578
▁engulf	-11.5782
▁segment	-11.5782
▁designat	-11.5783
▁tomato	-11.5785
▁diane	-11.5787
▁sainsbury	-11.5791
▁stereotyp	-11.5791
▁travis	-11.5791
▁particle	-11.58
▁monica	-11.5802
▁brew	-11.5805
▁capsule	-11.581
▁grammy	-11.581
▁acute	-11.581
▁clerk	-11.582
▁cesar	-11.582
▁setback	-11.5829
▁takeaway	-11.5832
▁peanut	-11.5837
▁idaho	-11.5837
▁masse	-11.5846
stow	-11.5851
mia	-11.5851
▁definition	-11.5865
▁outrageous	-11.5869
▁cough	-11.587
▁primari	-11.5872
▁handler	-11.5873
▁technologi	-11.5874
▁jungle	-11.5875
▁optimistic	-11.5875
▁recruitment	-11.5882
▁jealous	-11.5883
▁batt	-11.5884
▁hopkins	-11.5889
▁awesome	-11.5892
▁advoca	-11.5894
▁rico	-11.5897
▁municipal	-11.5902
▁cpr	-11.5903
▁sunny	-11.5906
▁tortur	-11.5909
▁python	-11.5911
▁martial	-11.5913
▁pru	-11.5919
▁brig	-11.592
▁securing	-11.592
▁awake	-11.592
▁gonna	-11.592
▁critic	-11.5921
▁scoop	-11.5929
▁mentor	-11.5939
▁sword	-11.5948
▁couch	-11.5949
▁thunder	-11.5966
▁enroll	-11.5969
▁windsor	-11.5973
▁morocco	-11.5976
▁evan	-11.5978
▁clarkson	-11.5984
▁fortnight	-11.5985
▁relocat	-11.5985
▁initiat	-11.5993
▁islamabad	-11.5994
▁lisbon	-11.5994
▁detainees	-11.5995
▁towel	-11.5995
▁graz	-11.5997
allah	-11.5999
▁fugitive	-11.6004
▁neal	-11.6012
▁mccartney	-11.6013
▁supermodel	-11.6013
▁mint	-11.6019
▁rapist	-11.6023
▁fundraiser	-11.6025
▁coral	-11.6026
▁transmitt	-11.6032
▁obligation	-11.6034
▁launder	-11.6042
▁rubi	-11.6047
▁pickup	-11.6049
▁unlock	-11.605
▁makeshift	-11.605
▁albion	-11.6051
▁payout	-11.6064
▁chick	-11.6065
▁shootout	-11.6065
▁knockout	-11.6069
▁fabio	-11.6069
▁contend	-11.6072
▁valid	-11.6074
▁archaeologist	-11.6075
▁workout	-11.6077
▁burton	-11.6078
▁bernabe	-11.6088
▁jolie	-11.6091
▁hague	-11.6092
▁crude	-11.6096
▁reunion	-11.6097
▁upstair	-11.6107
▁johannes	-11.6108
▁installation	-11.6109
▁ipswi	-11.6114
▁radi	-11.6117
▁allergi	-11.6118
▁liu	-11.6119
▁mls	-11.612
▁karim	-11.6127
▁witch	-11.6127
▁miner	-11.6134
▁tann	-11.6136
thorpe	-11.6145
▁marina	-11.6147
▁worrie	-11.6148
▁slovenia	-11.6154
hton	-11.6155
▁prediction	-11.6161
malcolm	-11.6164
uru	-11.6164
▁marcus	-11.6164
▁grain	-11.6168
▁indefinite	-11.6173
▁convoy	-11.6173
▁jab	-11.6174
▁batman	-11.6177
▁jac	-11.6184
▁malik	-11.6185
▁regiment	-11.6186
▁cull	-11.6189
▁isabel	-11.6189
▁graffiti	-11.6192
▁dynamic	-11.6192
▁chloe	-11.6192
▁wilfrie	-11.6193
▁polic	-11.6194
▁evict	-11.6196
▁uber	-11.6197
▁fiction	-11.6197
▁cattle	-11.6197
▁disturb	-11.6198
▁brooke	-11.62
▁schoolboy	-11.6202
▁crouch	-11.6202
▁swapp	-11.6204
▁pulis	-11.6208
▁surgical	-11.6211
kenny	-11.6214
▁packet	-11.6215
▁copa	-11.6215
raz	-11.6215
▁lease	-11.6223
▁momentum	-11.6223
▁eco	-11.6224
▁applicant	-11.623
▁wield	-11.623
▁clause	-11.623
▁forgot	-11.6235
▁westwood	-11.6239
▁ibrahim	-11.6239
▁compassion	-11.624
▁unharm	-11.624
▁osama	-11.624
▁orchestra	-11.6249
▁hertford	-11.625
▁incorporat	-11.6259
▁equaliser	-11.6259
▁summon	-11.6261
▁kilometre	-11.6268
▁delicate	-11.6268
▁shareholder	-11.6268
▁trophi	-11.6269
▁richmond	-11.627
▁mou	-11.6274
▁showdown	-11.6276
ullah	-11.6279
▁lime	-11.6283
▁alberto	-11.6284
▁roam	-11.6285
▁serbian	-11.6288
▁mackay	-11.6288
▁bentley	-11.6291
▁tyson	-11.6291
▁outspoken	-11.6297
▁podium	-11.6298
▁retrieve	-11.6299
▁vigil	-11.6305
▁endors	-11.6305
▁podolsk	-11.6307
▁architecture	-11.6308
▁woodland	-11.631
▁chapel	-11.6317
▁leonardo	-11.6318
▁flank	-11.6319
▁hover	-11.6322
▁prostate	-11.6326
▁hiring	-11.6329
▁fuell	-11.6334
▁conventional	-11.6336
▁plaintiff	-11.6336
▁debora	-11.6337
▁vince	-11.6338
▁courthouse	-11.634
▁comb	-11.634
▁provisional	-11.6344
▁separatist	-11.6345
▁falkland	-11.6355
▁marvel	-11.6358
▁ashamed	-11.6362
▁bankruptc	-11.6364
▁niece	-11.6365
▁merg	-11.6369
▁reconstruct	-11.6371
▁seaside	-11.6371
▁shook	-11.6375
▁dual	-11.6379
napolis	-11.638
▁occupation	-11.6384
▁instinct	-11.6384
▁luxurious	-11.6384
▁nebraska	-11.6384
▁thor	-11.6385
▁neutral	-11.6394
▁tycoon	-11.6404
▁animated	-11.6404
▁caf	-11.6405
▁heroic	-11.6407
▁yeah	-11.6407
▁collaborat	-11.6408
▁password	-11.6413
▁churchill	-11.6414
▁flush	-11.6415
▁decisive	-11.6423
▁measuring	-11.6423
▁reassure	-11.6423
▁silicon	-11.6423
▁isolation	-11.6424
▁elevator	-11.6427
▁groin	-11.6435
▁scooter	-11.6442
▁sleeve	-11.6443
▁bulk	-11.6444
▁observator	-11.6454
croft	-11.6454
▁sniff	-11.6463
▁polo	-11.6468
▁pablo	-11.6472
▁passers	-11.6472
▁hun	-11.6473
▁objective	-11.6474
▁barrister	-11.6482
▁imminent	-11.6491
▁curtis	-11.6493
▁quinn	-11.6501
▁johnston	-11.6502
▁beatles	-11.6504
▁delaware	-11.6511
▁rudd	-11.652
▁autism	-11.6521
▁urine	-11.6524
▁magnificent	-11.6531
▁duell	-11.6532
▁rude	-11.6544
▁assassin	-11.6547
▁crater	-11.6559
▁dav	-11.6565
▁breastfeed	-11.657
▁shipp	-11.658
▁wendy	-11.6581
▁dumb	-11.6582
▁kiev	-11.6583
▁consensu	-11.659
nham	-11.6592
▁mcdo	-11.6596
▁paralys	-11.6597
▁arrow	-11.6602
▁puerto	-11.661
▁elegant	-11.662
▁mugabe	-11.662
▁pierre	-11.6621
▁playoff	-11.6622
▁timber	-11.663
▁propell	-11.6633
▁basket	-11.6639
▁fraudulent	-11.6639
▁walcott	-11.664
▁fiona	-11.664
▁balanc	-11.6645
▁cleric	-11.6651
▁nanny	-11.6655
▁fellaini	-11.6659
▁dub	-11.6662
▁colonel	-11.6668
▁gent	-11.667
▁ahmadi	-11.6673
▁implication	-11.6682
spiring	-11.6688
▁jaguar	-11.6689
▁licens	-11.6691
▁external	-11.6699
▁lukaku	-11.6699
▁respirator	-11.6699
▁sperm	-11.6701
▁camill	-11.6704
▁evaluation	-11.6705
▁caravan	-11.671
▁bias	-11.6719
▁lyrics	-11.6719
▁participation	-11.6719
▁ellie	-11.6725
▁barton	-11.6729
▁holoca	-11.6729
▁junction	-11.673
▁afp	-11.6735
▁vodka	-11.6739
▁curry	-11.6741
▁bedford	-11.6741
▁tighten	-11.6743
▁fridge	-11.6746
ollen	-11.6748
▁zombie	-11.6749
▁demolish	-11.6759
▁uncertain	-11.676
▁odi	-11.6769
▁convenience	-11.677
▁stemm	-11.677
▁disrespect	-11.678
▁guilt	-11.678
upp	-11.678
▁explorer	-11.6787
▁remorse	-11.6789
▁olivier	-11.679
▁drank	-11.679
▁unarm	-11.679
▁naming	-11.6793
gaard	-11.6795
umbling	-11.6796
▁bashar	-11.6796
▁hotspur	-11.68
▁minimal	-11.6801
▁eleven	-11.681
▁enemie	-11.681
▁transformation	-11.6811
▁dentist	-11.682
leine	-11.6823
▁vine	-11.6827
▁industrie	-11.683
▁dignity	-11.683
▁majest	-11.683
▁panama	-11.6837
▁receipt	-11.684
▁finest	-11.6842
▁leonard	-11.6842
▁corrupt	-11.6846
▁extradit	-11.6847
▁emphasis	-11.685
▁salvador	-11.685
▁quirk	-11.6852
▁xbox	-11.6852
▁kol	-11.6855
▁oct	-11.6859
▁gem	-11.6878
▁orient	-11.6879
▁mechanism	-11.6881
▁strauss	-11.6881
▁milestone	-11.6885
▁rojo	-11.6886
craft	-11.6889
▁intoxicated	-11.6891
▁jackpot	-11.6891
▁mainland	-11.6892
▁insert	-11.6896
▁pilgrim	-11.6901
▁siberia	-11.6901
▁registration	-11.6904
▁brotherhood	-11.6905
▁latino	-11.691
▁cypru	-11.6912
▁gruesome	-11.6912
▁mccann	-11.6912
▁uprising	-11.6913
▁flagship	-11.6915
▁ligament	-11.6919
▁distinguish	-11.6922
▁klein	-11.6922
gna	-11.6923
▁vigilant	-11.6924
▁amir	-11.6925
▁valde	-11.6926
▁elevat	-11.693
▁memphi	-11.6932
▁mimic	-11.6936
lier	-11.6937
▁raul	-11.6946
elena	-11.695
▁tripoli	-11.6951
▁cheque	-11.6952
▁footstep	-11.6953
▁burges	-11.6954
▁alison	-11.6956
▁exile	-11.6956
▁reflection	-11.6959
▁swap	-11.6959
▁pleasant	-11.6963
▁owl	-11.6964
▁judg	-11.6966
▁presentation	-11.6966
▁senegal	-11.6973
▁dixon	-11.6973
▁commentar	-11.6979
▁daylight	-11.6983
▁curiosit	-11.6983
▁gomez	-11.6983
▁merit	-11.6989
▁cind	-11.6993
▁escap	-11.7003
▁karzai	-11.7004
▁schneider	-11.7004
▁guantan	-11.7004
▁ellen	-11.7004
wanted	-11.7005
▁brett	-11.7007
▁temp	-11.7015
▁hoax	-11.7018
▁bystander	-11.7025
▁absorb	-11.7025
▁dwarf	-11.7025
▁taser	-11.7026
▁fum	-11.7027
▁lazi	-11.7035
▁transparent	-11.7035
▁watford	-11.7035
▁salford	-11.7036
▁congressman	-11.7039
▁bruno	-11.7041
▁crawford	-11.7045
▁caretaker	-11.7045
couver	-11.7045
▁relay	-11.7047
▁mature	-11.7049
▁representation	-11.7052
▁mechanical	-11.7052
▁wrestling	-11.7056
▁verge	-11.7076
eldest	-11.7076
▁scour	-11.7081
▁boehner	-11.7087
▁eyebrow	-11.7087
▁diesel	-11.7088
bourne	-11.7092
▁improper	-11.7097
▁safari	-11.7097
▁rampage	-11.71
▁deportation	-11.7102
▁montgomery	-11.7108
▁darwin	-11.711
related	-11.7118
▁sunglass	-11.7118
▁xavi	-11.712
▁remand	-11.7121
▁searche	-11.7131
▁donnell	-11.7139
▁mobility	-11.7139
▁surgeri	-11.7142
▁thirty	-11.7149
▁ivf	-11.715
▁roland	-11.7157
▁astronomer	-11.716
▁miraculous	-11.717
▁exempt	-11.717
▁bombard	-11.7171
▁cincinnati	-11.7191
▁contention	-11.7193
▁bronx	-11.7194
▁fictional	-11.72
▁elvis	-11.7203
▁mainstream	-11.7213
▁journalism	-11.7217
▁cling	-11.7219
▁fingerprint	-11.7223
▁cheltenham	-11.7244
▁broadwa	-11.7245
▁valeri	-11.7247
▁rigg	-11.7249
▁televis	-11.725
together	-11.7255
▁betray	-11.7257
▁strategi	-11.7257
▁limp	-11.7259
▁ginger	-11.7264
▁hygien	-11.7265
▁tumor	-11.7267
▁jewelr	-11.7275
▁commerce	-11.7276
▁ballet	-11.7279
▁canvas	-11.7281
▁luther	-11.7282
▁fowler	-11.7286
▁650	-11.7286
▁swoop	-11.7286
▁abraham	-11.7287
▁asthma	-11.7287
▁stash	-11.7289
▁hobby	-11.7291
▁mesut	-11.7291
▁teddy	-11.7298
▁replay	-11.7305
▁electoral	-11.7308
▁obstacle	-11.7308
▁outskirt	-11.7308
▁glacier	-11.7308
▁watkins	-11.7308
strom	-11.731
▁crab	-11.7312
▁bolivia	-11.7318
▁wildfire	-11.7321
▁skydiv	-11.7324
▁poised	-11.7336
▁provincial	-11.735
▁rwanda	-11.735
▁unanimous	-11.735
▁prolong	-11.7353
▁heartbreaking	-11.7361
▁swarm	-11.7361
court	-11.7364
▁sunset	-11.7365
▁floral	-11.7366
▁zip	-11.7368
▁nonprofit	-11.7372
▁persistent	-11.7372
▁indulg	-11.7372
▁shutdown	-11.7373
▁cumbria	-11.7382
▁gha	-11.7388
▁fatigue	-11.7393
▁oprah	-11.7394
▁henri	-11.7396
▁maure	-11.7397
▁raft	-11.74
▁ambush	-11.7404
obamacare	-11.7404
▁bueno	-11.7415
▁fabian	-11.7415
▁waiv	-11.7416
▁mechanic	-11.7418
▁drastic	-11.7425
▁sharia	-11.7434
▁shannon	-11.7436
▁advertisement	-11.7436
▁heighten	-11.7437
▁loot	-11.7439
▁wax	-11.7446
▁render	-11.7449
boro	-11.7454
▁necklace	-11.7458
▁venus	-11.7458
▁humour	-11.7461
▁danielle	-11.7465
▁botch	-11.7469
▁blunder	-11.7469
▁foley	-11.7472
▁cherry	-11.7485
▁leslie	-11.749
▁sept	-11.7491
▁frei	-11.7491
▁dominant	-11.7495
▁spinal	-11.7498
▁safeguard	-11.7512
▁reinstat	-11.7512
▁jonny	-11.7516
▁topple	-11.7521
▁tolerance	-11.7523
▁alcoholic	-11.7532
▁glitter	-11.7533
▁landslide	-11.7533
▁blessing	-11.7535
▁wedg	-11.7537
▁finland	-11.7537
▁estonia	-11.7541
▁trott	-11.7544
▁zhang	-11.7544
▁sidewalk	-11.7549
▁whitehall	-11.755
▁rim	-11.7552
▁robust	-11.7557
▁digging	-11.7557
▁ralph	-11.7566
▁lindsey	-11.7567
▁salarie	-11.7568
▁disposal	-11.7576
▁disastrous	-11.7577
▁contrar	-11.7578
▁pow	-11.7579
▁mascot	-11.7579
▁operative	-11.758
▁alpha	-11.758
▁avalanche	-11.7588
▁emmanuel	-11.7588
▁1930	-11.7594
▁elliott	-11.7596
▁yield	-11.7599
▁dairy	-11.7599
cock	-11.7606
▁terrain	-11.761
▁diar	-11.761
▁salute	-11.7611
▁clement	-11.7616
▁convincing	-11.7621
▁enlist	-11.7624
▁constituenc	-11.7632
news	-11.7633
▁outrag	-11.7634
▁exchang	-11.7646
▁logg	-11.7647
continental	-11.7652
▁unearth	-11.7654
▁benghazi	-11.7654
▁manhunt	-11.7654
▁miserable	-11.7654
▁bogey	-11.7657
▁lemon	-11.7659
▁concussion	-11.7665
▁compell	-11.7665
▁spouse	-11.7665
▁sync	-11.7672
▁deployment	-11.7684
▁adjourn	-11.7687
▁felix	-11.7687
▁rainbow	-11.7687
▁hoffman	-11.7687
▁derail	-11.7687
▁roast	-11.7687
▁touchdown	-11.769
▁loom	-11.7696
cci	-11.7697
▁alligator	-11.7698
▁surpass	-11.7698
▁cech	-11.7699
▁slain	-11.77
▁getaway	-11.7706
▁technician	-11.7709
▁compris	-11.7709
▁decoration	-11.7709
▁empower	-11.771
bird	-11.7711
▁pork	-11.7713
▁denise	-11.7715
▁porsche	-11.772
▁carnival	-11.772
▁hodge	-11.772
▁trait	-11.7722
▁intensit	-11.7727
▁plight	-11.773
▁florenc	-11.7731
▁alfred	-11.7732
▁fatt	-11.7735
▁geneva	-11.7736
▁garment	-11.7738
▁lama	-11.7741
▁offshore	-11.7742
▁incentive	-11.7742
▁buckle	-11.7744
bull	-11.7752
▁screw	-11.7753
▁honeymoon	-11.7753
▁cement	-11.7754
▁playmaker	-11.7756
▁bour	-11.7764
▁consciousness	-11.7768
▁sociedad	-11.7776
▁puppie	-11.7776
▁ferrer	-11.7777
▁bolster	-11.7779
▁belfast	-11.7787
▁ecclestone	-11.7787
▁sakho	-11.7787
▁wak	-11.779
▁wilk	-11.779
▁doyle	-11.7794
▁confin	-11.7794
▁leisure	-11.7798
▁anonymit	-11.7809
▁kilogram	-11.7809
▁paralympic	-11.7809
▁situat	-11.7816
verse	-11.7825
▁miguel	-11.7832
▁wikileak	-11.7832
▁womb	-11.7834
▁1940	-11.7835
▁execut	-11.784
▁hbo	-11.7841
▁whipp	-11.7841
▁hussain	-11.7843
▁reactor	-11.785
ugher	-11.785
▁garbage	-11.7854
▁chanel	-11.7854
took	-11.7857
▁blam	-11.7858
▁massage	-11.7859
▁deaf	-11.7861
agging	-11.7862
▁bundl	-11.7863
▁census	-11.7865
▁uncertaint	-11.7876
▁swelling	-11.7879
▁shack	-11.7885
▁unleash	-11.7888
▁lunar	-11.7888
▁shallow	-11.7899
▁santiag	-11.7899
▁reservation	-11.7906
▁guatemala	-11.791
▁incorrect	-11.791
▁wiggins	-11.791
▁cyrus	-11.791
▁turbine	-11.791
▁analyz	-11.7911
▁saga	-11.7919
▁pogba	-11.7922
▁continuous	-11.7929
▁jihadi	-11.793
▁prolific	-11.7933
▁rupert	-11.7933
▁parson	-11.7933
▁clamp	-11.7941
▁pearce	-11.7956
▁subscribe	-11.7956
▁font	-11.7963
▁aurora	-11.7967
▁casilla	-11.7968
▁kahn	-11.797
▁censor	-11.7978
▁townsend	-11.7978
▁roommate	-11.7984
▁zin	-11.7984
▁kickstart	-11.799
▁bruising	-11.7991
▁denial	-11.7997
▁viking	-11.8
▁blasio	-11.8001
▁sequence	-11.8024
▁thierry	-11.8024
▁lebanese	-11.8035
▁twelve	-11.8035
▁tractor	-11.8038
▁manual	-11.8038
▁lille	-11.8039
▁ransom	-11.8041
▁agony	-11.8042
▁steak	-11.8047
▁tibetan	-11.805
▁culprit	-11.8058
▁immense	-11.8058
▁quarantine	-11.8058
▁schmidt	-11.8058
▁feud	-11.8066
▁jefferson	-11.807
▁nash	-11.8077
▁maiden	-11.808
▁columbu	-11.8081
▁malicious	-11.8081
▁molecul	-11.8081
▁perpetrator	-11.8081
▁baffle	-11.8082
▁cramp	-11.8083
▁judy	-11.8083
▁harness	-11.8085
▁jazz	-11.8085
▁hostile	-11.8091
▁acclaim	-11.8093
▁blockbuster	-11.8093
▁submerg	-11.8093
▁sadness	-11.8093
▁meadow	-11.8093
▁cremat	-11.8101
▁saunders	-11.8104
▁measle	-11.8104
▁declaration	-11.8114
▁dependent	-11.8122
▁cellphone	-11.8127
▁fragil	-11.8128
▁batsman	-11.8128
▁vienn	-11.8128
▁unsur	-11.8136
▁zlatan	-11.8139
▁fragment	-11.8139
▁invention	-11.8148
brand	-11.8154
nfica	-11.8155
▁magical	-11.8161
▁eyewitness	-11.8162
horn	-11.817
▁refin	-11.817
▁loop	-11.8172
▁workshop	-11.8172
▁panick	-11.8173
▁pug	-11.8175
▁transparenc	-11.8185
▁nashville	-11.8186
▁natal	-11.8186
▁distant	-11.8197
▁enact	-11.8197
▁apprehend	-11.8208
▁lithuania	-11.8208
▁gemma	-11.8213
▁nairobi	-11.822
▁amend	-11.8233
▁pony	-11.8234
▁ensu	-11.8238
▁stiff	-11.8246
▁sinclair	-11.8255
▁fishermen	-11.8257
▁jihad	-11.8257
▁milner	-11.8259
▁gris	-11.8265
▁gavin	-11.8272
▁lorenzo	-11.8278
▁wolfsburg	-11.8278
▁farrell	-11.8288
▁mineral	-11.8289
▁fisherman	-11.8289
▁maternity	-11.829
▁homophobi	-11.829
▁gutt	-11.829
worn	-11.8293
▁categorie	-11.8293
▁compliment	-11.8294
▁justifie	-11.8295
usky	-11.8297
▁simmon	-11.8298
▁distraction	-11.8299
▁ethical	-11.83
▁handwrit	-11.8302
▁mercury	-11.8302
▁flirt	-11.8302
▁memoir	-11.8304
▁diaz	-11.8313
▁miniature	-11.8314
▁mixture	-11.8315
▁amass	-11.8323
▁argentinian	-11.8325
▁genocide	-11.8325
▁1964	-11.8329
▁economies	-11.8337
▁predominant	-11.8337
▁wilkinson	-11.8337
credible	-11.8346
▁identiti	-11.8349
▁rigb	-11.8357
▁turk	-11.8361
▁cordon	-11.8374
▁preference	-11.8375
▁mafia	-11.8384
▁robotic	-11.8386
▁gentleman	-11.8393
▁hyde	-11.8395
▁ounce	-11.8396
▁nissan	-11.8396
fax	-11.8397
▁strap	-11.8399
▁barbie	-11.8403
▁wheat	-11.8408
▁molly	-11.841
▁indigenous	-11.842
▁tevez	-11.842
▁barrett	-11.842
▁kasem	-11.842
▁exploration	-11.8426
▁overtake	-11.8427
▁mahmoud	-11.8432
▁bowel	-11.8436
▁expir	-11.8437
ssange	-11.844
▁shakespeare	-11.8444
▁eject	-11.8456
▁uae	-11.8457
▁daddy	-11.8457
▁blackberry	-11.846
▁mathieu	-11.8468
▁umbrella	-11.8468
▁freddie	-11.8468
▁stalking	-11.8468
▁prosper	-11.8468
▁autograph	-11.8469
▁nasri	-11.847
▁tactical	-11.8474
▁lars	-11.8476
▁profound	-11.848
▁voyage	-11.848
▁baroness	-11.848
▁piano	-11.848
▁correspond	-11.849
▁intersection	-11.8491
▁characteristic	-11.8495
▁harrow	-11.8496
▁arabic	-11.8497
▁straw	-11.8499
▁faithful	-11.8499
▁malaga	-11.8504
▁detection	-11.8504
▁patien	-11.8511
▁joyce	-11.8512
▁certifi	-11.8515
▁vacuum	-11.8515
▁harriet	-11.8516
▁clown	-11.8516
evic	-11.8516
▁dunde	-11.8525
▁qantas	-11.8527
▁ravi	-11.8527
▁rotat	-11.8529
▁disturbance	-11.853
▁swearing	-11.8532
▁basil	-11.8532
▁evident	-11.8539
▁kuwait	-11.8552
▁barrack	-11.8552
▁feast	-11.8552
▁bracelet	-11.8553
▁forehead	-11.8554
▁refuge	-11.8558
▁proclaim	-11.8564
▁paradise	-11.8564
▁outgoing	-11.8567
netsk	-11.8572
▁swind	-11.8574
▁hindu	-11.8574
▁leverku	-11.8576
▁convey	-11.8576
▁apprentice	-11.8588
▁holloway	-11.8588
▁excavat	-11.8588
▁mogul	-11.8588
▁outcr	-11.8589
▁modifi	-11.8596
▁dominican	-11.8597
▁savannah	-11.86
▁expell	-11.86
▁embryo	-11.8601
▁practic	-11.8604
▁editorial	-11.8605
▁benzema	-11.8612
▁catastrophic	-11.8612
▁coastguard	-11.8612
▁erin	-11.8619
▁transmission	-11.8624
▁vermont	-11.8625
▁curtain	-11.8626
▁champ	-11.8628
▁replicate	-11.8632
▁embroil	-11.8636
▁irvine	-11.8636
▁chipp	-11.8647
▁appetite	-11.8648
▁separation	-11.8648
▁daisy	-11.8648
▁petersburg	-11.8649
▁isaac	-11.8652
▁qualiti	-11.8655
▁bha	-11.8658
▁differ	-11.8658
▁dimension	-11.866
pcc	-11.8664
lermo	-11.8669
drift	-11.8672
▁villarreal	-11.8673
mrc	-11.8676
▁defam	-11.8682
▁milton	-11.8685
▁beverage	-11.8687
▁recount	-11.8697
▁unhealth	-11.8697
▁biography	-11.8697
▁conserv	-11.8706
▁northeastern	-11.8709
▁descent	-11.871
▁assailant	-11.8722
▁charitable	-11.8722
▁misleading	-11.8722
▁diminish	-11.8734
▁yankee	-11.8734
▁playboy	-11.8734
▁damien	-11.8735
▁plaza	-11.874
▁considerabl	-11.8741
▁rodent	-11.8744
▁marilyn	-11.8747
▁emmy	-11.8752
stream	-11.8758
▁corridor	-11.8758
▁airspace	-11.8771
▁dispers	-11.8771
▁disclosure	-11.8772
uarez	-11.8776
▁maul	-11.8782
▁extinguish	-11.8783
▁trespass	-11.8795
▁sponsorship	-11.8797
▁sacramento	-11.8808
▁waitrose	-11.8808
▁weakness	-11.8812
▁flexible	-11.882
▁debbie	-11.882
▁denounc	-11.882
▁pillow	-11.8824
▁deila	-11.8824
▁baptist	-11.8832
▁delegation	-11.8832
▁envelope	-11.8832
▁mistress	-11.8832
▁montreal	-11.8832
▁grammar	-11.8832
▁monetar	-11.8833
▁skype	-11.8836
▁hottest	-11.8845
▁gcse	-11.8845
▁coronation	-11.8845
▁berahin	-11.8848
jack	-11.8852
▁consulate	-11.8857
▁clooney	-11.8857
▁concentrat	-11.8858
▁enthusiastic	-11.8859
▁hungary	-11.8859
settling	-11.8861
▁ligue	-11.8863
▁curfew	-11.887
▁pervert	-11.887
ntsb	-11.8872
dorf	-11.8872
▁malala	-11.8875
icular	-11.8882
▁corporal	-11.8882
▁dehydrat	-11.8894
▁microphone	-11.8894
▁spectacle	-11.8894
▁imperial	-11.8894
▁2022	-11.8895
▁columnist	-11.8899
▁shortlist	-11.8903
▁cancellation	-11.8904
▁voucher	-11.8907
▁voluntari	-11.8907
▁helman	-11.8913
▁communicat	-11.8915
▁batch	-11.8917
▁memorabil	-11.8919
▁mogad	-11.892
cheng	-11.8923
▁pardon	-11.8925
▁tamper	-11.8925
raeme	-11.8928
▁intricate	-11.8932
▁wren	-11.8934
▁scarf	-11.894
▁defo	-11.8944
▁jubilee	-11.8944
▁intact	-11.8945
▁enrich	-11.8947
▁battalion	-11.8957
▁imitat	-11.8958
▁colbert	-11.8959
▁kingston	-11.8966
▁alps	-11.8983
▁revok	-11.8985
▁huffington	-11.8995
▁provocative	-11.8995
▁retweet	-11.8995
▁flavor	-11.8995
▁vandalis	-11.9002
▁rbs	-11.9007
▁biscuit	-11.9007
▁bulger	-11.9007
▁farewell	-11.9009
▁horrifying	-11.902
▁backdrop	-11.902
helps	-11.903
▁geographic	-11.9033
▁gerald	-11.9033
▁scholarship	-11.9033
▁candid	-11.9036
ndisclos	-11.9045
▁enquirie	-11.9055
▁lapse	-11.9056
▁abnormal	-11.9058
▁frequenc	-11.9058
▁mickelson	-11.9058
▁ronnie	-11.9059
▁renovation	-11.9063
▁dismantl	-11.9071
▁bragg	-11.9073
▁franco	-11.9075
▁exploitation	-11.9079
▁cps	-11.908
▁imagination	-11.9083
▁ontario	-11.9083
▁fanatic	-11.9084
▁anthem	-11.9084
▁peck	-11.9085
▁copper	-11.9088
▁obsession	-11.9092
▁mcderm	-11.9096
▁branson	-11.9096
▁chiellini	-11.9109
▁mathematic	-11.9109
▁messag	-11.9118
▁reclaim	-11.9121
▁mastermind	-11.9121
▁pirac	-11.9122
▁whitney	-11.9124
▁renovat	-11.9129
▁calderon	-11.9134
▁quizz	-11.9137
▁graduation	-11.9143
▁marseille	-11.9147
▁contradict	-11.916
▁shrink	-11.916
▁conquer	-11.916
▁katrina	-11.9173
▁culminat	-11.9185
▁enquir	-11.9188
▁naomi	-11.9198
▁reiterat	-11.9198
▁equaliz	-11.9199
▁autobiography	-11.9211
▁trillion	-11.9211
▁auckland	-11.9211
▁bachelor	-11.9224
▁jerome	-11.9224
▁paterson	-11.9224
▁carcass	-11.9224
▁occupant	-11.9237
▁tanzania	-11.9237
▁thomson	-11.9237
▁bernie	-11.9245
▁accumulat	-11.925
▁default	-11.925
▁skyscraper	-11.925
▁sausage	-11.925
▁cluster	-11.925
▁pumpkin	-11.9256
▁ferri	-11.9257
▁mosquito	-11.9263
▁prejudice	-11.9263
▁interrogation	-11.9265
▁esc	-11.9275
▁calorie	-11.9275
▁wyoming	-11.9275
▁canberra	-11.9276
▁stump	-11.9276
▁pooch	-11.9278
▁royce	-11.9287
▁psychiatrist	-11.9288
▁refusal	-11.9288
responsibilities	-11.9301
▁unresponsive	-11.9301
▁financ	-11.9307
▁oblig	-11.9311
▁rogue	-11.932
▁clive	-11.9322
▁adebayo	-11.934
▁eclipse	-11.934
▁remarkabl	-11.9344
▁troop	-11.9346
▁damasc	-11.9353
▁melani	-11.9356
▁tomlins	-11.936
▁intimidate	-11.9366
▁vibrant	-11.9366
▁marquez	-11.9367
▁pigeon	-11.9367
▁maradon	-11.9367
rickie	-11.9373
▁disbelie	-11.938
▁forrest	-11.9381
▁mushroom	-11.9393
▁boutique	-11.9393
▁glid	-11.9399
▁registr	-11.9403
▁cautious	-11.9406
▁clifford	-11.9406
▁meteorologist	-11.9406
▁whel	-11.9411
▁faint	-11.942
▁resemblance	-11.942
▁slipper	-11.9423
▁aggregate	-11.9432
▁contempt	-11.9432
▁gorgeous	-11.9432
▁significance	-11.9432
▁plough	-11.9432
▁peacekeep	-11.9433
▁itunes	-11.9434
▁skinny	-11.945
▁suppress	-11.9458
▁kanye	-11.9459
▁slum	-11.9463
▁ridicul	-11.947
▁dedication	-11.9472
▁nixon	-11.9472
▁bercow	-11.9485
▁berdych	-11.9485
▁slovakia	-11.9485
enheim	-11.9486
cross	-11.9487
▁endorsement	-11.9498
▁hezb	-11.9499
▁hampton	-11.95
▁verify	-11.9502
▁croc	-11.9502
▁satisfy	-11.9511
▁wawrinka	-11.9511
▁arguabl	-11.9513
▁kathlee	-11.9514
▁urinat	-11.9529
▁sake	-11.9533
▁abdomen	-11.9538
▁outburst	-11.9538
▁sequel	-11.9538
▁genius	-11.9539
nbc	-11.9544
▁conversion	-11.9551
▁headteacher	-11.9551
▁irresponsibl	-11.9551
▁stanford	-11.9554
▁pique	-11.956
▁applau	-11.9561
▁aquarium	-11.9564
▁daredevil	-11.9564
▁deflect	-11.9565
▁kidnap	-11.957
▁lick	-11.9582
▁hybrid	-11.9591
▁simeone	-11.9591
▁imposing	-11.9591
▁pounc	-11.9591
▁strait	-11.9591
▁polite	-11.9593
▁threshold	-11.9604
▁bahama	-11.9604
▁moses	-11.9607
▁vidal	-11.9608
▁ideolog	-11.9613
▁sculpt	-11.9617
▁giraffe	-11.9618
▁ramirez	-11.9618
▁merchandise	-11.9631
▁mcqueen	-11.9631
▁kumar	-11.9636
▁inadequate	-11.9645
▁rhythm	-11.9645
▁revolv	-11.9658
▁compensat	-11.9667
▁lebron	-11.9672
▁vaccination	-11.9675
▁snar	-11.9683
▁bodyguard	-11.9685
▁copenhagen	-11.9685
▁emphasiz	-11.9685
▁vanessa	-11.9685
▁sagna	-11.9686
▁swipe	-11.969
▁tearful	-11.9691
▁psycholog	-11.9693
▁criteria	-11.9699
▁mould	-11.9699
▁bunker	-11.9701
▁jenson	-11.9722
▁buddhist	-11.9726
▁intellectual	-11.9726
▁magnetic	-11.9726
▁hatred	-11.9729
arenka	-11.9737
▁inaugural	-11.9739
▁degrad	-11.9739
▁kayak	-11.9743
▁grape	-11.9751
▁fukushi	-11.9753
▁pneumonia	-11.9753
▁ipod	-11.9756
▁superhero	-11.9766
▁vendor	-11.9766
▁sentinel	-11.9766
▁galatasara	-11.978
▁nonsense	-11.978
▁aussie	-11.9782
laughter	-11.9786
▁angelina	-11.9787
▁boulder	-11.9794
▁rookie	-11.9794
▁outlook	-11.9794
friend	-11.9794
▁crook	-11.9796
atasha	-11.9802
▁narcotic	-11.9807
▁animation	-11.9807
▁crumbl	-11.9808
jiang	-11.982
▁enthusiasm	-11.9821
▁unsafe	-11.9821
▁gossip	-11.9821
▁misery	-11.9822
bilities	-11.9831
▁gaddafi	-11.9834
▁kremlin	-11.9834
▁fibre	-11.9838
▁orientation	-11.9839
▁discard	-11.9841
▁motel	-11.9842
▁pause	-11.9851
▁dense	-11.9852
▁slap	-11.9857
▁aggression	-11.9862
▁immunity	-11.9862
▁credential	-11.9876
▁adverse	-11.9877
▁rainfall	-11.9879
▁avon	-11.9887
▁spectrum	-11.9889
▁courier	-11.9889
▁vaugh	-11.99
▁counterfeit	-11.9903
▁labrador	-11.9903
▁ancestor	-11.9903
▁paddle	-11.9907
▁caliber	-11.9917
▁dispens	-11.9917
▁thur	-11.9918
▁fend	-11.9926
▁dictat	-11.9927
▁torrent	-11.9931
▁venom	-11.9931
▁spinning	-11.9932
▁sepp	-11.9964
▁illicit	-11.9972
▁caffein	-11.9972
▁paddy	-11.9973
▁obscur	-11.9986
▁lovren	-11.9986
▁discourag	-11.9986
▁dynast	-11.9986
▁saha	-11.9992
▁havan	-11.9996
church	-11.9996
▁kangaroo	-12
▁brennan	-12
▁blister	-12
▁horrendous	-12.0014
▁showcas	-12.0027
▁resuscitat	-12.0028
unlight	-12.0028
▁infra	-12.0031
▁painkiller	-12.0042
▁prophet	-12.0042
▁bouchar	-12.0043
▁pulse	-12.0046
▁hicks	-12.0048
▁minneapoli	-12.0056
▁steroid	-12.0056
▁unluck	-12.0056
▁envoy	-12.0056
▁pencil	-12.0056
▁hanse	-12.0061
▁thread	-12.007
▁lydia	-12.0071
▁hagel	-12.0077
▁bulb	-12.0097
▁midwest	-12.0098
▁cecil	-12.0098
▁idiot	-12.0098
▁rooftop	-12.0102
▁presid	-12.0102
▁populat	-12.0107
▁mammoth	-12.0112
▁surreal	-12.0112
▁seahawk	-12.0113
▁oversight	-12.0115
▁yi	-12.0122
▁methamphetamine	-12.0126
▁halv	-12.0131
▁agricultural	-12.014
▁kazakhstan	-12.014
▁illusion	-12.014
▁delegate	-12.014
▁playstation	-12.014
▁resum	-12.0163
▁camouflage	-12.0169
▁prevail	-12.0169
▁zuric	-12.0181
▁giorgio	-12.0183
▁buddy	-12.0184
▁erdo	-12.0187
▁lucia	-12.0192
▁volatile	-12.0197
▁breathtaking	-12.0197
▁nottinghamshire	-12.02
▁waitress	-12.0201
▁constitute	-12.0211
▁shoplift	-12.0211
▁punctur	-12.0211
▁jagger	-12.0211
▁magpie	-12.0212
trust	-12.0223
▁erotic	-12.0225
▁bypass	-12.0226
▁infectious	-12.0228
▁congregation	-12.024
▁unauthori	-12.024
▁counsell	-12.0243
▁gonzal	-12.0253
▁hudders	-12.0254
▁reliabl	-12.0262
▁stepfather	-12.0268
▁sitcom	-12.0272
▁weiner	-12.0274
▁legislative	-12.0297
▁welcoming	-12.0297
▁midwife	-12.0311
▁trierweile	-12.0311
▁lizzie	-12.0311
▁vibrat	-12.0313
988	-12.0323
▁penetrat	-12.0326
▁auctioneer	-12.033
▁croyd	-12.0334
▁delevingne	-12.034
▁remembrance	-12.034
▁volcanic	-12.034
▁corona	-12.0344
▁glance	-12.0356
▁undoubted	-12.0369
▁gorman	-12.037
▁aspiration	-12.0383
▁frankfurt	-12.0383
▁gibraltar	-12.0383
▁advis	-12.0389
▁torso	-12.04
▁gaffe	-12.0405
▁cognitive	-12.0412
▁gallagher	-12.0412
▁turmoil	-12.0412
▁stylist	-12.0412
▁repeal	-12.0413
▁worm	-12.0413
▁vandal	-12.0424
▁lipstick	-12.0427
▁portfolio	-12.0427
▁razor	-12.0427
▁parcel	-12.0427
▁biologist	-12.0436
▁vacant	-12.0441
▁rahman	-12.0441
▁shre	-12.045
▁rotherham	-12.0456
▁solicit	-12.0466
▁brittany	-12.047
▁civic	-12.047
▁credibil	-12.0475
▁valentin	-12.0481
▁tabloid	-12.0485
▁fraction	-12.0501
▁fabulous	-12.0514
▁jermain	-12.0514
▁mortar	-12.0519
▁alvaro	-12.0529
stellar	-12.0539
▁wolverhampton	-12.0544
▁sotheby	-12.0544
▁meningitis	-12.0544
▁dishonest	-12.0558
▁ascot	-12.057
▁besikta	-12.0573
▁pluck	-12.0573
▁jeep	-12.0578
grove	-12.0579
▁scholar	-12.0587
▁wisdom	-12.0588
▁adidas	-12.0588
ennial	-12.0589
▁saracen	-12.0603
▁mattress	-12.0605
▁videotap	-12.0605
▁relegat	-12.0613
▁efficienc	-12.0617
▁lizard	-12.062
▁gwyne	-12.062
▁entrie	-12.0622
▁abdel	-12.0626
▁rhetoric	-12.0632
▁trevor	-12.0633
▁inundat	-12.0645
▁bluetooth	-12.0647
▁steenkamp	-12.0647
▁stockholm	-12.0647
▁atomic	-12.0648
▁infest	-12.0651
▁allocat	-12.0653
▁cheerleader	-12.0662
▁embedd	-12.0662
▁jurgen	-12.0662
▁eradicat	-12.0662
▁insurer	-12.0665
▁carragher	-12.0677
▁judiciar	-12.0677
▁refresh	-12.0677
▁perfume	-12.0677
▁cunningham	-12.0692
▁shrine	-12.0695
▁dangl	-12.072
▁ravag	-12.0722
▁retriev	-12.0722
▁grasp	-12.0723
▁pamel	-12.0735
▁filipino	-12.0751
▁luxembourg	-12.0751
ncaster	-12.0756
▁circl	-12.0764
▁eugenie	-12.0766
▁rochdale	-12.0766
▁merchant	-12.0781
▁teresa	-12.0781
▁degener	-12.0782
▁liberti	-12.0784
▁absurd	-12.0796
▁artillery	-12.0796
▁contemplat	-12.0812
▁disqualifie	-12.0827
▁unsurprising	-12.0827
▁solidarit	-12.0828
▁mcconnel	-12.083
▁jfk	-12.0842
▁vertical	-12.0842
▁masterpiece	-12.0858
oggy	-12.0867
▁pediatric	-12.0872
▁jurisdiction	-12.0872
▁laundry	-12.0872
▁domain	-12.0873
▁reverend	-12.0887
▁accura	-12.09
▁autonomous	-12.0903
▁tarmac	-12.0903
▁harrington	-12.0904
▁diploma	-12.0905
▁visibl	-12.0908
▁invisible	-12.0918
▁sunrise	-12.0923
▁concede	-12.0931
▁orthodox	-12.0933
▁renault	-12.0933
▁tuition	-12.0935
▁optimis	-12.0948
▁mccormac	-12.0948
▁donovan	-12.0949
▁ortiz	-12.0949
▁exercis	-12.0954
▁biolog	-12.0955
▁robbe	-12.0962
▁unspecifi	-12.0964
▁jakarta	-12.0964
▁studd	-12.0964
▁sofia	-12.0965
dolph	-12.0966
arried	-12.0976
▁expectanc	-12.0977
▁legislature	-12.0979
▁illuminat	-12.0994
▁szczesn	-12.0994
▁unprov	-12.0995
▁pinpoint	-12.1011
▁elliot	-12.1014
▁ridde	-12.102
▁unpopular	-12.1025
▁carlisle	-12.1025
▁shirley	-12.1025
▁fringe	-12.1036
▁hotspot	-12.1041
▁thrust	-12.1041
▁reservoir	-12.1056
▁snoop	-12.1056
▁prevalen	-12.1059
aldwin	-12.106
▁bleach	-12.1074
▁impersonat	-12.1087
▁paralyz	-12.1087
▁schurrle	-12.1103
▁ricardo	-12.1103
▁influx	-12.1103
▁ernest	-12.1103
▁saddam	-12.1103
▁sloot	-12.1103
▁mertesacker	-12.1118
▁schwartz	-12.1118
▁meredit	-12.1124
▁acquisition	-12.1134
▁appreciation	-12.1134
▁disadvantag	-12.1149
▁delicious	-12.1149
▁synthetic	-12.1149
▁apollo	-12.1149
▁sensible	-12.1149
▁deriv	-12.115
arjen	-12.1152
▁goodwill	-12.1165
▁chorley	-12.1165
▁concord	-12.1165
▁geological	-12.1166
▁botox	-12.1181
▁atrocit	-12.1181
▁scuffle	-12.1196
▁insurgenc	-12.1196
▁interference	-12.1197
▁froome	-12.1197
▁deportivo	-12.1212
▁suffocat	-12.1212
▁assurance	-12.1212
▁lobster	-12.1212
▁belarus	-12.1212
▁stigma	-12.1212
▁ribbon	-12.1213
▁visibilit	-12.1221
▁relentless	-12.1228
▁incumbent	-12.1243
▁jupiter	-12.1243
▁trayvon	-12.1243
▁mugshot	-12.1244
▁revamp	-12.1259
osul	-12.1263
▁sasha	-12.1265
▁alejandr	-12.1275
▁alvarez	-12.1275
▁medieval	-12.1275
▁sensitivit	-12.1275
▁beacon	-12.1276
▁liabilit	-12.1281
▁decompos	-12.1291
▁therapist	-12.1291
▁diameter	-12.1307
▁logistic	-12.1308
▁baines	-12.1308
▁offspring	-12.1323
▁squat	-12.1323
▁mccull	-12.1325
ibility	-12.1336
▁erratic	-12.1338
▁infirmar	-12.1338
▁insufficient	-12.1338
▁mckenzi	-12.1338
▁pelvi	-12.1339
▁xiao	-12.1341
▁chihuahua	-12.1354
▁millennium	-12.1354
▁machete	-12.1354
cdonald	-12.1362
▁whisper	-12.137
▁mutilat	-12.1374
▁ramsay	-12.1386
▁polio	-12.1391
▁ecstas	-12.1402
▁newlywed	-12.1403
▁scrum	-12.1404
▁gloria	-12.1404
▁relish	-12.1409
wicz	-12.1409
▁steadi	-12.1416
▁intimidation	-12.1418
▁excel	-12.1422
▁ahmad	-12.1428
▁marouan	-12.1435
▁primate	-12.1436
▁pickles	-12.1442
▁uncommon	-12.145
▁emulate	-12.1451
▁boulevard	-12.1467
▁sinkhole	-12.1483
▁catalogue	-12.1499
▁parallel	-12.1499
▁thibaut	-12.1515
▁drake	-12.1516
▁exaggerat	-12.1531
▁kashmir	-12.1531
▁midweek	-12.1531
▁structural	-12.1531
▁mcgreg	-12.1531
▁freight	-12.1531
▁salah	-12.1542
▁fragrance	-12.1547
▁tiffany	-12.1547
▁inclusion	-12.1547
▁ibiza	-12.1548
▁sultan	-12.1548
▁spoon	-12.1549
▁evasi	-12.1559
▁amusement	-12.1564
▁lgbt	-12.1564
▁tasmania	-12.1564
▁interven	-12.1564
▁ordinat	-12.1565
▁buckinghamshir	-12.1578
▁dempsey	-12.158
▁miscarriage	-12.158
▁likelihood	-12.158
▁sacred	-12.158
▁donkey	-12.1581
▁hungarian	-12.1596
▁fleming	-12.1596
remy	-12.1608
▁easyjet	-12.1613
tercourse	-12.1613
▁darfur	-12.1613
▁trench	-12.1613
▁dmitr	-12.1613
▁hancock	-12.1613
▁toffee	-12.1614
▁claude	-12.163
▁archaeolog	-12.1635
▁cushion	-12.1645
▁hospice	-12.1645
jasmine	-12.1646
▁blurr	-12.1646
▁gifford	-12.1662
▁spook	-12.1662
▁versatil	-12.1662
▁jellyfish	-12.1678
▁wizard	-12.1678
▁oppress	-12.1679
▁huddl	-12.1694
▁availabilit	-12.1695
▁nuisance	-12.1695
▁debuch	-12.1695
▁thunderstorm	-12.1695
▁systematic	-12.1695
▁atmospheric	-12.1711
▁commend	-12.1711
▁pdf	-12.1712
▁unsuspecting	-12.1728
▁esteem	-12.1728
▁samoa	-12.1741
▁reproduc	-12.1743
▁demolition	-12.1744
▁hairdresser	-12.1744
▁joachim	-12.1744
▁peruvian	-12.1744
▁thwart	-12.1744
▁dessert	-12.1744
▁porch	-12.175
▁gutierr	-12.1761
▁milwauk	-12.1778
▁cholesterol	-12.1778
▁comrade	-12.1778
▁suprem	-12.1786
▁dissolv	-12.1794
▁wilderness	-12.1794
▁sophia	-12.1794
▁cerebra	-12.1811
▁tilt	-12.182
▁browser	-12.1828
▁malfunction	-12.1828
▁rupture	-12.1828
▁snail	-12.1829
grown	-12.1837
▁hawthorn	-12.1844
▁vauxhall	-12.1844
▁clarify	-12.1844
▁suzanne	-12.1844
▁tyneside	-12.1844
▁mortalit	-12.1845
stitution	-12.1859
▁feminist	-12.1861
▁lamborghini	-12.1861
▁lifeguard	-12.1861
▁lazy	-12.1862
▁recep	-12.1863
▁beneficial	-12.1878
▁narrative	-12.1878
▁reminiscen	-12.1878
▁arthriti	-12.1878
▁wholesale	-12.1884
▁despicabl	-12.1895
▁hemisphere	-12.1895
▁lorraine	-12.1895
▁vocabular	-12.1895
▁whistleblower	-12.1895
▁grappl	-12.1895
▁naples	-12.1895
▁ventur	-12.1906
▁refurbish	-12.1911
▁skateboard	-12.1911
▁extravagant	-12.1928
▁simultaneous	-12.1928
▁rigorous	-12.1945
▁specimen	-12.1945
rizon	-12.1954
▁liquor	-12.1962
▁underestimat	-12.1962
▁mayfair	-12.1962
▁adjacen	-12.1963
▁gdp	-12.1963
▁destructive	-12.1996
▁succumb	-12.1996
▁brazen	-12.1996
▁smear	-12.2014
▁adhere	-12.2028
▁abrupt	-12.203
▁chaotic	-12.203
▁sectarian	-12.2047
▁clergy	-12.2064
▁output	-12.2065
▁swerve	-12.2065
▁decapitat	-12.2081
▁disregard	-12.2081
livestock	-12.2087
▁defraud	-12.2098
▁cereal	-12.2099
▁clarence	-12.2099
▁ovari	-12.2106
▁implicat	-12.2111
▁penthouse	-12.2116
▁reckon	-12.2116
▁cheetah	-12.2133
▁irregular	-12.2133
▁litigation	-12.2133
▁mistreat	-12.2133
▁bergdahl	-12.215
▁stuttgart	-12.215
▁subscription	-12.215
assuming	-12.2151
▁extremis	-12.2156
nstable	-12.2178
▁guzm	-12.2178
▁apartheid	-12.2185
▁demographic	-12.2185
▁dzeko	-12.2185
▁injunction	-12.2185
▁doorstep	-12.2185
▁ncaa	-12.2185
uddin	-12.2195
▁ramadan	-12.2202
▁dismay	-12.2202
▁slimming	-12.2202
script	-12.2215
▁songwriter	-12.2219
▁edmonds	-12.222
▁thump	-12.2237
▁bitcoin	-12.2237
bidden	-12.2251
▁solitar	-12.2255
▁confederation	-12.2272
▁scrub	-12.2272
▁angri	-12.2291
▁glorious	-12.2307
▁surrogate	-12.2307
▁kirsty	-12.2307
▁conrad	-12.2308
▁carpenter	-12.2324
▁snapchat	-12.2324
▁thiago	-12.2342
▁arrogan	-12.2342
▁overcrowd	-12.2342
▁interpol	-12.2359
standing	-12.2363
▁marketplace	-12.2377
▁barbecue	-12.2377
▁hewitt	-12.2395
▁migno	-12.2395
▁khedir	-12.2411
▁adventurous	-12.2412
▁philanthrop	-12.2412
▁proxim	-12.2412
▁technological	-12.2413
▁twentie	-12.2414
▁physio	-12.2419
▁moroccan	-12.243
▁surcharge	-12.243
▁painstaking	-12.243
▁rochest	-12.244
children	-12.2444
▁parody	-12.2448
▁swirl	-12.2448
▁migrat	-12.2461
▁hayde	-12.2465
▁exterior	-12.2466
▁inflammation	-12.2466
▁tortoise	-12.2466
▁filthy	-12.2466
▁kendall	-12.2484
▁statute	-12.2484
▁partisan	-12.2501
▁unjust	-12.2519
▁futurist	-12.2519
▁adolf	-12.252
▁tibet	-12.2532
▁frenzy	-12.2537
▁gupta	-12.2537
▁inadvertent	-12.2573
▁zambia	-12.2573
harlem	-12.2591
▁glitch	-12.2591
