<unk>	0
<s>	0
</s>	0
▁the	-3.27649
,	-3.45563
.	-3.59856
▁to	-3.84003
s	-3.93386
▁.	-3.97717
▁a	-3.98585
▁of	-4.03671
▁and	-4.06303
▁in	-4.10501
'	-4.29897
▁was	-4.85202
-	-4.8662
▁for	-4.88384
▁on	-4.93403
▁is	-5.02244
▁The	-5.10205
▁that	-5.10807
▁'	-5.17769
▁with	-5.18566
:	-5.29085
▁said	-5.3045
▁	-5.3259
▁his	-5.33687
▁at	-5.35341
▁he	-5.40209
▁it	-5.49843
▁has	-5.54328
▁from	-5.55617
▁as	-5.56034
▁have	-5.61421
▁by	-5.61621
▁be	-5.65483
▁her	-5.70981
▁are	-5.77391
▁"	-5.77738
▁an	-5.91886
t	-5.92332
▁after	-5.94163
▁had	-5.9564
’	-5.95735
▁who	-5.96086
▁been	-5.97295
▁I	-5.98735
▁were	-6.01223
▁not	-6.01806
▁their	-6.06032
▁will	-6.09356
▁they	-6.10501
▁but	-6.11467
▁she	-6.12016
▁this	-6.20116
▁A	-6.36192
▁which	-6.39204
▁(	-6.39636
▁out	-6.39743
▁up	-6.40349
▁‘	-6.40576
)	-6.4172
▁one	-6.43878
▁when	-6.45424
ing	-6.46173
▁He	-6.46272
▁more	-6.54635
▁about	-6.56509
▁also	-6.57637
▁-	-6.58137
▁two	-6.59503
▁or	-6.64264
▁we	-6.66509
▁him	-6.66669
I	-6.67293
ed	-6.67736
▁can	-6.67849
▁people	-6.68087
▁would	-6.7047
▁over	-6.71312
▁into	-6.72074
▁last	-6.73865
,"	-6.7478
▁you	-6.75568
▁than	-6.77337
▁told	-6.77598
▁time	-6.80841
▁year	-6.81793
▁first	-6.8183
▁all	-6.83435
▁years	-6.8528
year	-6.85294
▁It	-6.85667
▁--	-6.86955
▁says	-6.87719
▁just	-6.88927
old	-6.90686
▁could	-6.93583
.'	-6.93804
d	-6.93986
▁before	-6.95265
"	-6.96552
m	-6.97418
▁being	-6.984
▁them	-6.9983
▁so	-6.99872
▁Mr	-6.99981
▁home	-7.00341
▁new	-7.00615
▁police	-7.00702
▁down	-7.02202
▁But	-7.02412
▁its	-7.03167
▁there	-7.05772
S	-7.06112
▁now	-7.06416
."	-7.06851
▁other	-7.09124
▁found	-7.0978
▁three	-7.1002
▁In	-7.10226
▁back	-7.10328
▁no	-7.12236
▁off	-7.18377
▁what	-7.20705
▁against	-7.21315
▁like	-7.2147
▁She	-7.21801
▁made	-7.25568
▁U	-7.25639
a	-7.25664
▁while	-7.2638
▁my	-7.26455
▁only	-7.26654
▁because	-7.26965
▁during	-7.27433
▁where	-7.28001
▁if	-7.28359
▁some	-7.28482
▁family	-7.31581
re	-7.33479
▁do	-7.3354
▁get	-7.33782
▁New	-7.34171
ly	-7.34827
▁man	-7.35122
The	-7.35327
▁say	-7.36601
er	-7.37496
y	-7.38234
▁left	-7.4091
e	-7.42491
We	-7.42514
▁then	-7.42551
▁EST	-7.4434
▁most	-7.4741
▁around	-7.47606
▁day	-7.47647
▁By	-7.48229
▁week	-7.48258
▁since	-7.49012
▁make	-7.49725
▁our	-7.50077
It	-7.50843
▁world	-7.51416
▁me	-7.53497
▁children	-7.53693
▁take	-7.53707
▁through	-7.54174
▁how	-7.55163
▁four	-7.55667
▁team	-7.56065
▁2013	-7.57653
▁very	-7.58469
▁life	-7.58892
▁any	-7.59789
▁per	-7.59817
▁video	-7.60572
▁work	-7.62035
▁United	-7.6211
▁way	-7.64873
▁well	-7.65361
▁according	-7.65868
▁still	-7.66058
▁did	-7.66109
▁show	-7.68801
▁between	-7.69982
▁go	-7.70207
▁under	-7.70399
▁car	-7.70475
▁used	-7.7073
▁former	-7.70903
▁They	-7.71018
▁took	-7.7185
.’	-7.72075
▁Police	-7.72486
▁mother	-7.72537
▁even	-7.72846
▁five	-7.73009
▁death	-7.73183
▁many	-7.73528
ve	-7.73653
▁part	-7.73987
▁court	-7.74133
th	-7.7415
▁second	-7.74452
▁see	-7.74465
▁next	-7.75754
▁including	-7.75824
▁called	-7.76208
▁going	-7.76668
▁night	-7.76725
▁set	-7.76752
?	-7.76918
▁help	-7.773
in	-7.78491
▁London	-7.7945
▁women	-7.79569
▁10	-7.79671
▁country	-7.79728
▁CNN	-7.7988
▁should	-7.80097
▁those	-7.80697
▁right	-7.81214
▁cent	-7.81605
▁may	-7.81769
▁million	-7.82204
CNN	-7.83567
▁think	-7.84279
▁such	-7.84619
▁later	-7.85035
▁season	-7.85043
▁died	-7.8549
▁report	-7.86177
▁month	-7.86287
▁know	-7.8629
▁government	-7.86714
▁taken	-7.86892
▁woman	-7.86957
▁added	-7.87522
▁your	-7.87882
▁want	-7.87912
▁another	-7.88095
▁school	-7.88253
▁days	-7.88736
▁seen	-7.88757
▁don	-7.88885
▁months	-7.88949
▁away	-7.89761
▁group	-7.89795
▁place	-7.90422
▁World	-7.914
▁much	-7.91458
▁–	-7.91731
▁good	-7.91919
▁top	-7.9244
▁men	-7.92957
▁put	-7.93273
▁long	-7.95131
▁high	-7.95758
▁got	-7.95768
▁game	-7.95919
▁six	-7.96185
▁killed	-7.96214
▁Sunday	-7.96248
▁went	-7.96346
▁England	-7.97041
▁own	-7.97208
▁side	-7.97692
▁came	-7.98136
▁state	-7.98199
▁both	-7.98583
▁case	-7.99023
▁same	-7.99077
▁face	-7.99999
▁come	-8.00154
▁reported	-8.00417
▁public	-8.0079
o	-8.00806
▁City	-8.00811
▁head	-8.00914
▁club	-8.01296
▁League	-8.0184
▁York	-8.02424
▁And	-8.02451
▁win	-8.02909
▁Cup	-8.03021
▁2012	-8.03377
▁never	-8.03819
▁Monday	-8.05096
▁number	-8.05632
▁use	-8.0602
▁wife	-8.06533
▁Saturday	-8.06878
▁hospital	-8.07095
▁won	-8.07114
▁father	-8.07244
▁This	-8.07536
▁today	-8.07938
▁end	-8.08183
▁Tuesday	-8.08501
▁son	-8.08726
▁Friday	-8.0952
▁British	-8.09576
▁company	-8.09619
▁house	-8.10137
▁best	-8.10674
▁us	-8.11184
▁20	-8.11277
es	-8.12112
▁child	-8.12537
▁UPDATED	-8.12838
▁South	-8.13013
▁One	-8.13019
▁play	-8.13777
▁body	-8.1397
▁|	-8.14447
▁attack	-8.15147
n	-8.15165
PUBLISHED	-8.15549
▁hit	-8.15741
▁young	-8.16162
▁money	-8.16309
▁these	-8.16367
▁12	-8.16368
▁hours	-8.16455
▁statement	-8.16601
▁following	-8.16939
▁Wednesday	-8.17001
▁arrested	-8.17036
man	-8.17304
▁until	-8.17867
▁near	-8.18149
▁really	-8.1818
i	-8.18193
▁city	-8.18436
▁didn	-8.1906
▁too	-8.19074
▁need	-8.1911
▁UK	-8.19415
▁having	-8.19523
r	-8.20235
▁We	-8.20679
▁thought	-8.20749
▁look	-8.21577
▁Obama	-8.22212
▁Thursday	-8.22274
▁officials	-8.22646
▁without	-8.22706
▁Manchester	-8.22906
▁David	-8.22958
▁ago	-8.2321
▁shot	-8.23606
▁incident	-8.23717
▁daughter	-8.23809
▁water	-8.24166
▁West	-8.24543
▁couple	-8.25169
▁area	-8.25567
▁known	-8.26109
▁every	-8.26168
▁given	-8.26232
▁each	-8.26467
▁saying	-8.27105
▁move	-8.27557
ll	-8.28058
▁across	-8.28324
▁released	-8.29192
▁asked	-8.29199
▁find	-8.29849
▁President	-8.29972
He	-8.29991
▁spokesman	-8.29992
▁His	-8.302
▁times	-8.3074
▁half	-8.30759
▁behind	-8.30951
▁already	-8.31189
▁claims	-8.31349
▁here	-8.3197
▁John	-8.32623
al	-8.32694
▁using	-8.33264
▁18	-8.33276
▁11	-8.33346
▁players	-8.33635
▁taking	-8.3394
▁local	-8.34026
▁Scroll	-8.34165
▁past	-8.34273
▁support	-8.34351
▁able	-8.34566
▁January	-8.34646
▁15	-8.3489
▁lost	-8.34961
on	-8.353
▁believe	-8.35419
ers	-8.35767
▁again	-8.35965
▁Court	-8.36199
▁American	-8.36824
million	-8.36936
▁outside	-8.37561
▁little	-8.37649
▁few	-8.37695
▁pictured	-8.37922
▁early	-8.38049
▁final	-8.38181
▁working	-8.38297
▁May	-8.38339
▁third	-8.38434
▁started	-8.38762
▁parents	-8.38997
▁shows	-8.39377
▁star	-8.39482
▁least	-8.40608
▁weeks	-8.40685
▁An	-8.40829
▁North	-8.4086
▁several	-8.41097
▁girl	-8.41168
▁dead	-8.41655
▁give	-8.41837
▁charged	-8.42394
▁become	-8.42456
▁Facebook	-8.42464
▁pay	-8.42669
▁minutes	-8.42767
▁friends	-8.42807
▁lot	-8.4306
A	-8.43188
▁making	-8.43192
▁members	-8.43283
▁far	-8.43544
▁news	-8.43703
▁heard	-8.43716
▁start	-8.44014
▁saw	-8.44017
▁run	-8.44078
▁great	-8.44128
▁husband	-8.44283
▁fire	-8.44375
▁official	-8.44392
▁Ms	-8.44409
▁officers	-8.44696
to	-8.44758
▁health	-8.44929
▁match	-8.4516
▁authorities	-8.45196
▁something	-8.45304
▁held	-8.45307
▁On	-8.45506
▁No	-8.4555
▁media	-8.45604
▁accused	-8.45737
▁charges	-8.45743
▁There	-8.45801
▁law	-8.46084
▁president	-8.46187
▁After	-8.46211
▁revealed	-8.46439
▁claimed	-8.46914
▁investigation	-8.47233
▁earlier	-8.47329
▁close	-8.47911
▁due	-8.47917
▁big	-8.47921
▁O	-8.47995
▁30	-8.4803
▁December	-8.48151
▁security	-8.48423
▁looking	-8.48453
up	-8.48653
▁name	-8.48761
▁wanted	-8.48764
▁As	-8.48879
▁trying	-8.48907
▁expected	-8.48931
▁seven	-8.48936
▁full	-8.48973
▁military	-8.4921
▁November	-8.49529
▁September	-8.49625
▁Britain	-8.49628
▁University	-8.49675
▁front	-8.49821
▁deal	-8.50026
▁staff	-8.50043
▁manager	-8.50322
▁whether	-8.50459
▁At	-8.50688
▁always	-8.5076
▁boy	-8.50939
▁food	-8.50944
▁October	-8.50952
This	-8.51139
▁morning	-8.51945
▁When	-8.52003
▁himself	-8.52047
▁murder	-8.52148
▁eight	-8.52749
▁March	-8.52913
▁fans	-8.5303
▁friend	-8.53154
▁sent	-8.53361
▁prison	-8.53376
an	-8.53506
▁1	-8.536
▁keep	-8.53912
▁re	-8.54686
▁person	-8.54729
▁June	-8.54814
▁decision	-8.54842
▁August	-8.5486
▁Michael	-8.55176
▁ever	-8.55535
▁return	-8.55559
▁must	-8.55644
▁among	-8.55677
▁better	-8.55991
▁St	-8.56343
▁care	-8.56428
▁site	-8.56603
▁party	-8.56991
▁13	-8.57015
▁Dr	-8.5708
▁phone	-8.57133
▁record	-8.57151
▁job	-8.57174
▁call	-8.57185
▁played	-8.57635
▁National	-8.57678
▁service	-8.57844
▁However	-8.57969
▁campaign	-8.58249
▁July	-8.58278
▁began	-8.58523
▁baby	-8.59011
▁system	-8.59014
▁international	-8.5913
▁16	-8.59566
▁2	-8.59655
▁Chelsea	-8.59778
▁Liverpool	-8.59803
▁live	-8.59856
▁3	-8.60007
▁love	-8.60024
▁China	-8.60038
▁14	-8.60086
▁different	-8.60157
right	-8.60711
▁information	-8.6082
▁player	-8.61494
▁wrote	-8.61579
▁together	-8.61592
▁change	-8.61655
1	-8.61782
▁S	-8.62175
▁James	-8.62306
▁less	-8.62318
▁County	-8.62382
▁spent	-8.62719
▁Premier	-8.62786
C	-8.62837
▁became	-8.6287
▁sex	-8.62919
▁Her	-8.63094
▁likely	-8.63164
▁comes	-8.63174
▁Twitter	-8.63231
▁might	-8.63256
▁April	-8.63293
▁free	-8.63306
▁does	-8.63487
▁online	-8.63595
▁4	-8.63635
▁along	-8.63816
2	-8.64114
▁leave	-8.64329
▁stop	-8.64411
left	-8.64443
▁late	-8.64576
▁officer	-8.64588
▁tried	-8.64595
▁received	-8.64647
▁old	-8.64701
▁believed	-8.64793
the	-8.64816
▁website	-8.64943
▁recent	-8.65002
am	-8.65175
▁Miss	-8.65293
▁inside	-8.65423
▁office	-8.65623
▁allegedly	-8.65708
▁training	-8.65815
▁scene	-8.65996
▁goal	-8.66135
▁House	-8.66532
▁football	-8.66562
▁summer	-8.66608
▁once	-8.67111
▁enough	-8.67445
▁E	-8.67457
▁happened	-8.67502
▁ahead	-8.67515
▁point	-8.67546
▁dog	-8.67659
▁black	-8.67663
▁lead	-8.67664
com	-8.67812
▁TV	-8.679
▁5	-8.67907
▁reports	-8.68
▁States	-8.68118
▁almost	-8.68297
▁getting	-8.68373
▁air	-8.68518
▁admitted	-8.68858
▁things	-8.69182
k	-8.69212
▁age	-8.69295
▁Mrs	-8.69625
▁small	-8.69729
▁February	-8.69831
▁social	-8.69937
▁film	-8.69951
▁trial	-8.69968
en	-8.70073
▁feel	-8.70147
▁Daily	-8.70494
▁That	-8.70603
▁17	-8.70695
or	-8.71175
▁forward	-8.71175
▁gave	-8.71288
▁involved	-8.71416
▁Park	-8.71435
▁despite	-8.71611
▁hard	-8.71818
▁event	-8.71819
▁Australia	-8.71881
▁line	-8.7211
▁business	-8.72145
▁action	-8.7217
▁victim	-8.72343
▁playing	-8.72435
▁room	-8.72988
▁yet	-8.73009
▁others	-8.73208
▁de	-8.7371
▁guilty	-8.74157
▁clear	-8.7447
▁open	-8.74618
▁hand	-8.74762
▁series	-8.74809
▁Department	-8.74965
▁posted	-8.75077
▁am	-8.75212
▁evidence	-8.75223
▁appeared	-8.75518
▁California	-8.75769
▁2014	-8.75826
▁described	-8.7598
▁State	-8.76274
▁fight	-8.76895
▁done	-8.76968
▁19	-8.76988
▁drug	-8.77124
le	-8.77186
▁doing	-8.77215
▁led	-8.7744
▁heart	-8.77459
▁why	-8.77546
▁future	-8.77614
▁If	-8.77649
▁further	-8.77762
▁announced	-8.7778
5	-8.77912
▁France	-8.78196
▁study	-8.78221
▁forced	-8.78416
▁turned	-8.78533
▁According	-8.78588
▁suffered	-8.78675
▁European	-8.78878
▁driver	-8.78892
▁lives	-8.78956
▁ground	-8.7907
▁order	-8.79153
▁French	-8.80077
▁Mail	-8.80233
▁games	-8.80317
▁currently	-8.80392
▁power	-8.8049
▁For	-8.80548
▁students	-8.80851
▁caused	-8.81048
▁building	-8.81204
4	-8.81428
▁miles	-8.81512
▁picture	-8.81579
▁named	-8.81581
▁control	-8.81795
▁Al	-8.81824
There	-8.81876
▁major	-8.82157
▁director	-8.82333
▁national	-8.82705
▁leader	-8.82735
l	-8.82778
▁Arsenal	-8.82875
▁living	-8.83095
▁cancer	-8.83333
▁large	-8.83485
▁pair	-8.83486
▁hope	-8.83711
▁plans	-8.83835
▁real	-8.83842
▁News	-8.83904
▁2011	-8.84127
▁injuries	-8.84321
▁yesterday	-8.84345
▁thing	-8.84587
▁career	-8.84626
▁Christmas	-8.84788
▁though	-8.84813
▁treatment	-8.84857
▁injury	-8.84942
),	-8.85001
▁missing	-8.85053
▁judge	-8.85072
▁So	-8.85201
▁cost	-8.85313
▁road	-8.85346
▁showed	-8.85372
▁post	-8.85428
▁Paul	-8.85508
▁role	-8.85572
▁often	-8.85652
▁legal	-8.86097
▁within	-8.8612
▁nearly	-8.86183
▁possible	-8.86234
▁claim	-8.86311
▁Minister	-8.86412
▁50	-8.86583
▁flight	-8.86691
▁discovered	-8.86842
▁latest	-8.86851
▁include	-8.86884
▁medical	-8.8704
▁un	-8.87115
▁6	-8.8715
▁Two	-8.87163
p	-8.87299
▁white	-8.87692
▁war	-8.87818
▁injured	-8.87821
▁100	-8.87946
▁community	-8.87978
▁cut	-8.87979
▁alleged	-8.88065
▁recently	-8.88092
▁town	-8.88132
▁try	-8.88213
▁nine	-8.88513
▁worked	-8.88535
▁important	-8.88566
time	-8.88591
g	-8.88611
▁charge	-8.88622
N	-8.88774
They	-8.88993
▁continue	-8.893
3	-8.89652
▁plane	-8.89718
▁co	-8.89933
▁doesn	-8.90039
▁weekend	-8.90273
▁history	-8.90296
▁D	-8.90302
▁US	-8.90485
▁chief	-8.90508
▁points	-8.90739
▁coming	-8.90785
▁B	-8.91087
▁risk	-8.91246
▁someone	-8.91323
▁paid	-8.91327
▁decided	-8.91374
▁Last	-8.91535
▁America	-8.91756
▁25	-8.91938
h	-8.9207
▁T	-8.92206
▁failed	-8.92284
▁C	-8.92403
▁All	-8.92413
▁condition	-8.92527
c	-8.92711
▁Washington	-8.92949
▁race	-8.93008
▁driving	-8.93197
▁popular	-8.93395
▁student	-8.93659
▁break	-8.93693
▁moment	-8.93752
7	-8.94039
▁round	-8.94135
▁book	-8.94254
▁member	-8.94262
▁victory	-8.94396
▁human	-8.94571
▁property	-8.94574
▁caught	-8.94715
▁scored	-8.94719
pictured	-8.94803
▁result	-8.95074
8	-8.95196
▁sexual	-8.95368
▁problem	-8.95432
▁stay	-8.95433
▁brother	-8.95519
▁cause	-8.9584
▁victims	-8.95954
▁De	-8.96121
▁countries	-8.9617
▁met	-8.96254
▁beat	-8.9627
6	-8.96279
▁looked	-8.96437
B	-8.96499
▁safety	-8.96523
▁White	-8.96766
able	-8.96864
▁confirmed	-8.9689
▁photo	-8.96975
▁Some	-8.9707
▁light	-8.97131
▁owner	-8.97144
▁moved	-8.97373
▁watch	-8.97379
▁wasn	-8.9742
▁Florida	-8.97456
▁chance	-8.97579
▁Mark	-8.9767
▁release	-8.9772
▁comments	-8.98113
▁San	-8.98512
▁rights	-8.98524
▁visit	-8.98613
▁9	-8.9873
▁sold	-8.98738
▁F	-8.98742
▁course	-8.98827
▁soon	-8.98883
z	-8.99049
▁crash	-8.99051
▁leaving	-8.9917
D	-8.99187
ton	-8.99465
▁remains	-8.99553
▁brought	-8.99938
▁Madrid	-8.99992
▁red	-9.00125
▁camera	-9.00246
▁issue	-9.00456
▁40	-9.00505
▁story	-9.00522
▁whose	-9.00667
▁problems	-9.00686
▁M	-9.00804
▁political	-9.00812
▁killing	-9.00819
▁title	-9.00821
▁jail	-9.00918
▁BBC	-9.00946
▁wants	-9.00954
▁George	-9.01133
9	-9.01149
▁7	-9.01195
▁striker	-9.01351
▁running	-9.01539
▁plan	-9.01565
▁list	-9.01639
▁Hospital	-9.01727
▁8	-9.01744
▁sure	-9.01942
▁fact	-9.01944
▁station	-9.02015
▁anything	-9.02065
▁let	-9.02105
▁happy	-9.0218
▁shooting	-9.02195
▁hearing	-9.02277
▁arrived	-9.02454
▁returned	-9.02629
▁sign	-9.0266
▁Africa	-9.02835
▁blood	-9.03006
▁Real	-9.03018
▁serious	-9.03038
▁special	-9.03095
▁Europe	-9.03105
▁images	-9.03131
▁abuse	-9.03144
▁available	-9.03178
▁search	-9.03199
▁bit	-9.03234
of	-9.03393
▁girls	-9.03622
ft	-9.0365
▁While	-9.03716
▁short	-9.03755
▁comment	-9.03805
▁Australian	-9.04158
ic	-9.04158
▁store	-9.0437
ley	-9.04694
▁similar	-9.05071
You	-9.05096
▁means	-9.05116
▁research	-9.05145
▁huge	-9.05156
▁nothing	-9.05172
▁La	-9.05173
▁space	-9.05308
▁24	-9.05526
▁force	-9.05527
▁Germany	-9.05536
▁allowed	-9.05686
and	-9.05958
▁al	-9.05999
▁East	-9.0606
▁coach	-9.06159
▁fell	-9.06452
...	-9.06499
▁NEW	-9.06506
▁gun	-9.0652
If	-9.0654
▁K	-9.06565
▁level	-9.06767
▁workers	-9.06843
▁attacks	-9.06844
▁crime	-9.0688
▁hotel	-9.06912
She	-9.06973
▁thousands	-9.0698
▁helped	-9.06992
▁married	-9.0701
▁School	-9.07049
▁International	-9.07303
▁21	-9.0735
▁private	-9.07358
u	-9.07446
▁image	-9.07452
G	-9.07452
▁boss	-9.07585
▁form	-9.07622
▁vehicle	-9.0765
▁interview	-9.07664
▁assault	-9.07767
▁message	-9.07846
▁violence	-9.0806
▁contributed	-9.08265
▁relationship	-9.08323
▁wearing	-9.08413
▁goals	-9.08434
▁capital	-9.08605
▁Smith	-9.08658
▁based	-9.08785
▁created	-9.08851
▁experience	-9.09039
▁average	-9.09418
▁p	-9.09677
▁Royal	-9.09732
▁accident	-9.09743
▁You	-9.0986
▁Day	-9.10103
▁looks	-9.10152
▁2010	-9.10253
pm	-9.10364
▁anyone	-9.10375
▁launched	-9.10547
▁market	-9.10556
▁arrest	-9.10623
▁families	-9.10806
▁Brown	-9.10901
▁Martin	-9.10953
▁More	-9.11161
▁needed	-9.11226
▁Now	-9.11251
▁bring	-9.11319
▁ball	-9.11354
▁board	-9.1136
▁agency	-9.11362
▁page	-9.11433
▁patients	-9.11469
▁federal	-9.11547
▁themselves	-9.11608
▁P	-9.1164
▁forces	-9.11699
▁felt	-9.11835
▁trip	-9.11926
▁Former	-9.12024
▁To	-9.12107
▁sentence	-9.12164
▁difficult	-9.1246
▁gone	-9.12496
▁born	-9.1253
▁calls	-9.12562
▁tax	-9.12563
▁street	-9.12609
▁ex	-9.12846
▁users	-9.12922
▁meeting	-9.12934
▁centre	-9.13077
▁current	-9.13172
▁idea	-9.13183
▁female	-9.13373
▁turn	-9.13604
ia	-9.1363
▁pictures	-9.13854
co	-9.13878
▁cases	-9.14027
▁English	-9.14403
▁worth	-9.14535
▁travel	-9.1463
▁Chris	-9.1475
▁feet	-9.14812
▁low	-9.14826
▁hair	-9.14852
▁model	-9.14926
▁hands	-9.15191
▁test	-9.15312
,’	-9.1542
▁tell	-9.15552
▁squad	-9.1556
▁process	-9.15623
0	-9.15898
▁nation	-9.16007
▁drugs	-9.16159
▁Williams	-9.16407
▁Brazil	-9.16549
▁knew	-9.16606
is	-9.16678
ie	-9.16707
el	-9.1671
▁wrong	-9.16793
▁bad	-9.16855
na	-9.16874
▁Spain	-9.17028
▁makes	-9.17063
▁van	-9.17092
▁single	-9.1716
▁Cameron	-9.17183
▁strong	-9.1742
▁Chinese	-9.17512
▁believes	-9.17634
▁kind	-9.17888
▁Street	-9.17917
▁Iraq	-9.18233
▁G	-9.18282
▁included	-9.18321
▁total	-9.18341
▁Los	-9.18378
▁kept	-9.18457
▁services	-9.18467
▁animal	-9.18532
no	-9.18657
▁Man	-9.18679
ar	-9.18687
▁Texas	-9.18935
▁leading	-9.18956
▁rest	-9.19058
In	-9.19264
▁previous	-9.19329
▁passengers	-9.1935
▁winning	-9.19401
▁criminal	-9.19504
▁firm	-9.19703
▁stage	-9.19862
▁photos	-9.19905
▁everything	-9.19919
▁King	-9.19989
▁situation	-9.19994
▁account	-9.20037
▁remain	-9.20065
▁disease	-9.20178
▁personal	-9.20203
▁joined	-9.20208
▁rather	-9.20216
▁percent	-9.20379
▁longer	-9.20383
▁Russian	-9.20394
▁surgery	-9.20398
▁price	-9.20517
▁minister	-9.20531
▁range	-9.2063
▁convicted	-9.20642
▁Russia	-9.20656
▁German	-9.20715
less	-9.20852
▁previously	-9.20892
▁pressure	-9.21081
▁train	-9.21183
▁With	-9.21183
▁letter	-9.2142
▁hour	-9.21452
▁anti	-9.21454
▁region	-9.21572
▁carried	-9.21717
▁ten	-9.21809
▁Prime	-9.22121
▁sister	-9.22194
▁Reporter	-9.22225
te	-9.2223
st	-9.22254
▁above	-9.22317
▁position	-9.22389
ion	-9.22475
▁High	-9.22546
▁door	-9.22572
▁couldn	-9.22576
▁signed	-9.22601
▁hold	-9.22708
▁customers	-9.22785
▁provide	-9.22835
▁areas	-9.2288
un	-9.2295
F	-9.23131
▁refused	-9.23144
▁stand	-9.23284
▁offer	-9.23291
▁actually	-9.23376
▁warned	-9.23397
son	-9.235
▁takes	-9.23677
▁biggest	-9.23893
▁reportedly	-9.23928
▁immediately	-9.2393
b	-9.23977
▁pre	-9.24172
▁holiday	-9.24238
▁22	-9.24346
▁India	-9.24479
▁weight	-9.24619
▁everyone	-9.24636
▁damage	-9.2464
▁cannot	-9.24657
▁birth	-9.24681
▁Barcelona	-9.2476
But	-9.24985
▁music	-9.25296
▁appear	-9.25529
▁key	-9.25752
▁attorney	-9.25931
▁What	-9.25939
de	-9.25974
▁program	-9.26062
▁meet	-9.26141
us	-9.26358
▁opening	-9.266
▁Apple	-9.26811
▁African	-9.26826
▁Prince	-9.26962
▁senior	-9.27156
T	-9.27183
▁doctors	-9.27319
▁denied	-9.27321
▁park	-9.27709
▁quickly	-9.27843
▁read	-9.27864
▁issues	-9.28093
▁Champions	-9.28122
▁Council	-9.28142
day	-9.28176
▁north	-9.28376
▁south	-9.28397
▁animals	-9.28459
▁Labour	-9.28657
ist	-9.28675
▁Google	-9.28677
▁faces	-9.28686
▁matter	-9.28793
▁billion	-9.28893
▁War	-9.28948
▁residents	-9.29028
▁aged	-9.29072
ta	-9.29077
▁suspect	-9.29121
ling	-9.29319
▁policy	-9.29341
▁Office	-9.29344
▁whole	-9.29438
▁Wales	-9.29449
x	-9.29538
off	-9.29611
▁needs	-9.29674
▁instead	-9.30039
▁loss	-9.30127
▁brain	-9.30134
▁allow	-9.30382
▁leaders	-9.30436
▁partner	-9.3048
based	-9.30486
▁ended	-9.30521
P	-9.30759
▁Italy	-9.3078
▁interest	-9.30784
▁create	-9.30794
▁data	-9.31023
▁ordered	-9.31029
▁project	-9.31052
▁eye	-9.31153
▁Korea	-9.31186
▁cash	-9.31475
▁talk	-9.3154
▁midfielder	-9.31703
▁fourth	-9.31712
▁Angeles	-9.31861
▁emergency	-9.32088
▁continued	-9.32197
▁access	-9.3221
▁land	-9.32266
▁Mexico	-9.32291
▁source	-9.32331
▁jailed	-9.32379
▁giving	-9.32449
▁captain	-9.32592
▁sentenced	-9.32601
it	-9.32668
ch	-9.3275
▁period	-9.32809
▁Secretary	-9.32825
▁W	-9.32826
▁increase	-9.3283
▁stopped	-9.32887
f	-9.32977
▁appears	-9.32978
▁twice	-9.33004
▁buy	-9.33046
L	-9.33076
▁Peter	-9.33085
▁Sir	-9.33139
▁ran	-9.33178
▁Johnson	-9.33241
▁broke	-9.33241
ra	-9.33263
▁opened	-9.33328
▁executive	-9.33567
▁Despite	-9.33689
▁fall	-9.33744
▁operation	-9.33751
▁potential	-9.33783
▁contact	-9.33905
▁however	-9.33971
▁Afghanistan	-9.33991
▁footage	-9.3402
▁offered	-9.34021
▁although	-9.34044
▁built	-9.34128
la	-9.34138
▁treated	-9.34151
▁champion	-9.34163
▁2009	-9.34322
▁contract	-9.3433
▁followed	-9.3444
▁23	-9.34558
▁nearby	-9.3461
▁bought	-9.34655
▁technology	-9.34745
▁fighting	-9.34988
▁details	-9.34988
▁Scotland	-9.34995
▁reach	-9.35123
▁quite	-9.35272
▁attention	-9.3539
▁walk	-9.35442
▁identified	-9.35606
▁Red	-9.35651
▁groups	-9.3576
▁Government	-9.36173
▁afternoon	-9.36251
▁Jones	-9.36316
▁published	-9.36455
▁Italian	-9.36474
▁impact	-9.36497
▁marriage	-9.36513
▁Lee	-9.36595
▁bill	-9.36601
▁Syria	-9.36649
▁results	-9.36708
▁lawyer	-9.36762
▁towards	-9.36885
ne	-9.36896
▁...	-9.36934
▁bus	-9.36952
▁figures	-9.36956
▁vote	-9.36998
E	-9.37057
▁pulled	-9.37072
▁raised	-9.37082
▁act	-9.37177
▁Ben	-9.3721
M	-9.37263
▁floor	-9.3729
▁general	-9.37352
▁Center	-9.37565
▁performance	-9.37696
▁airport	-9.37773
▁Judge	-9.37918
When	-9.3795
▁step	-9.38052
▁safe	-9.38078
▁attacked	-9.38079
one	-9.38127
▁minute	-9.38186
▁charity	-9.38257
▁herself	-9.38306
▁passed	-9.38339
▁winner	-9.38431
il	-9.38543
▁conditions	-9.38555
▁defeat	-9.38769
by	-9.38781
▁Van	-9.38912
▁costs	-9.38965
▁famous	-9.39003
▁managed	-9.39165
▁share	-9.39189
▁conference	-9.39232
▁wedding	-9.39272
▁allegations	-9.39298
land	-9.39301
▁agreed	-9.39338
▁60	-9.39356
▁response	-9.39393
▁competition	-9.39428
▁league	-9.3948
▁issued	-9.39545
▁complete	-9.39694
▁Robert	-9.39726
▁oil	-9.39755
▁leg	-9.39956
▁VIDEO	-9.40033
▁spot	-9.40224
▁Richard	-9.40333
▁lived	-9.40395
▁cars	-9.40398
▁battle	-9.40444
▁evening	-9.40457
ation	-9.40658
be	-9.40749
▁Paris	-9.40763
W	-9.40849
▁unable	-9.40873
▁challenge	-9.40933
▁fine	-9.4102
▁Another	-9.4102
▁sale	-9.41136
▁ban	-9.41225
ty	-9.41234
▁onto	-9.4129
▁girlfriend	-9.41413
▁election	-9.41432
▁crew	-9.41448
▁success	-9.41708
▁showing	-9.41849
▁main	-9.41892
▁council	-9.41965
▁Queen	-9.41988
▁penalty	-9.42081
▁size	-9.42092
▁Thomas	-9.42152
▁weather	-9.42158
▁Health	-9.42206
▁field	-9.42258
▁view	-9.42292
▁shown	-9.4236
’.	-9.4247
▁foreign	-9.42491
▁Jackson	-9.42554
▁Daniel	-9.42675
▁amount	-9.42786
▁struck	-9.42796
▁attempt	-9.42848
▁gold	-9.42965
▁removed	-9.42981
▁homes	-9.43003
at	-9.43054
▁spotted	-9.43154
▁draw	-9.43195
▁sea	-9.43358
▁goes	-9.4337
▁bid	-9.43376
▁host	-9.43386
▁non	-9.43515
▁newspaper	-9.4355
▁Iran	-9.4364
month	-9.43916
▁Crown	-9.43933
▁Spanish	-9.43991
do	-9.44016
▁designed	-9.44204
▁press	-9.44206
▁ready	-9.44273
▁troops	-9.44325
▁television	-9.44405
▁self	-9.44456
▁cover	-9.44465
▁date	-9.44619
▁Open	-9.44642
▁L	-9.44737
▁financial	-9.44742
▁rules	-9.44782
▁companies	-9.44885
▁protect	-9.44923
▁Sydney	-9.45071
▁Pakistan	-9.45124
▁works	-9.45197
▁bank	-9.45225
▁considered	-9.4552
▁kids	-9.45527
▁largest	-9.45527
▁2008	-9.45554
▁states	-9.4557
My	-9.45643
▁Ham	-9.45684
▁suffering	-9.45737
ity	-9.45983
▁spoke	-9.45985
▁track	-9.46028
▁William	-9.46038
▁teacher	-9.46233
▁captured	-9.46299
ness	-9.46416
▁dropped	-9.46417
▁mobile	-9.46681
▁hopes	-9.46751
▁spend	-9.46795
▁dogs	-9.46823
▁reason	-9.46858
K	-9.46921
▁Co	-9.46943
▁El	-9.4698
▁finally	-9.46985
▁question	-9.47012
▁hundreds	-9.47182
▁save	-9.47315
▁industry	-9.47353
▁Japan	-9.47396
ro	-9.47408
▁either	-9.47419
▁fan	-9.47582
▁fashion	-9.47591
▁border	-9.47786
▁Air	-9.478
▁build	-9.47843
▁bar	-9.47845
▁Newcastle	-9.47878
▁fired	-9.47919
▁fellow	-9.48006
▁aircraft	-9.4809
▁R	-9.48104
▁movie	-9.48212
▁26	-9.48283
▁calling	-9.48318
▁dangerous	-9.48374
▁isn	-9.48379
▁N	-9.48567
▁kill	-9.48587
▁tournament	-9.48648
▁Le	-9.48763
ry	-9.48836
▁join	-9.4891
▁suspended	-9.49227
R	-9.49266
▁male	-9.49377
▁rise	-9.4944
▁Americans	-9.49458
▁alone	-9.49458
▁Times	-9.49498
▁extra	-9.49576
▁growing	-9.49769
▁served	-9.49771
▁Re	-9.49774
▁spending	-9.49808
▁doctor	-9.4993
▁threat	-9.50147
▁app	-9.50262
out	-9.50306
▁effort	-9.50312
▁words	-9.50466
▁alcohol	-9.50561
▁moving	-9.50565
▁ice	-9.50635
▁seems	-9.50668
▁carrying	-9.50705
▁economic	-9.50732
▁events	-9.51042
▁launch	-9.51046
▁drive	-9.51248
▁appeal	-9.51309
▁reached	-9.51398
▁pain	-9.51504
▁Three	-9.5156
▁tour	-9.51573
▁sell	-9.51595
▁bed	-9.51765
▁double	-9.5179
▁Clinton	-9.51807
▁term	-9.51809
▁Tom	-9.51868
▁Di	-9.51906
▁Kim	-9.5193
▁H	-9.52083
▁J	-9.52141
▁collection	-9.52278
▁filed	-9.52398
▁avoid	-9.52417
▁includes	-9.52448
▁restaurant	-9.52585
▁happen	-9.52608
▁27	-9.52728
▁probably	-9.52762
▁28	-9.52792
▁boys	-9.52966
▁target	-9.53012
▁custody	-9.53104
ma	-9.53266
▁highest	-9.53317
▁changed	-9.53554
▁experts	-9.53698
▁emerged	-9.53733
▁energy	-9.53808
▁soldiers	-9.53847
▁apartment	-9.54005
▁poor	-9.54056
▁dress	-9.54126
▁appearance	-9.54314
▁placed	-9.54327
▁carry	-9.546
▁Steve	-9.54611
▁suicide	-9.5468
▁blue	-9.54801
▁broken	-9.54816
▁banned	-9.54864
▁eventually	-9.54865
▁higher	-9.54869
as	-9.54884
▁shop	-9.54965
▁art	-9.55174
▁walking	-9.55208
▁rescue	-9.55279
▁defender	-9.55295
▁Sam	-9.55326
▁rate	-9.55328
▁Authorities	-9.55393
▁gas	-9.55658
▁investigating	-9.55714
▁NHS	-9.55786
▁products	-9.5581
▁e	-9.55984
▁pleaded	-9.5611
▁ruled	-9.56135
▁eyes	-9.5634
▁Many	-9.56439
▁straight	-9.56493
▁giant	-9.56501
▁holding	-9.56564
▁ship	-9.56584
▁concerns	-9.5666
▁Both	-9.56695
▁closed	-9.56878
▁features	-9.56894
▁else	-9.56973
▁Alex	-9.56979
▁figure	-9.57019
▁lose	-9.57037
▁central	-9.57082
▁understand	-9.57115
▁raise	-9.57158
▁rape	-9.57166
▁rare	-9.57237
▁especially	-9.57246
▁Harry	-9.57385
▁occurred	-9.57458
▁Service	-9.57556
▁common	-9.57628
▁ensure	-9.57658
ted	-9.57688
▁skin	-9.57723
ur	-9.5777
per	-9.57808
▁storm	-9.57848
▁stars	-9.57863
▁middle	-9.57874
▁adding	-9.57875
▁crowd	-9.58037
▁changes	-9.58131
ke	-9.58202
▁original	-9.58235
▁device	-9.58261
▁Louis	-9.5832
▁network	-9.58351
▁fit	-9.58356
ul	-9.58368
▁parts	-9.58438
▁drink	-9.58441
▁sales	-9.585
▁church	-9.5884
▁department	-9.58852
▁Group	-9.58972
ter	-9.58999
▁linked	-9.59059
▁Mo	-9.59073
▁90	-9.59144
▁global	-9.59227
back	-9.59369
▁class	-9.59405
w	-9.59539
▁Bill	-9.59575
▁opportunity	-9.59577
▁alongside	-9.59577
age	-9.59593
▁boat	-9.59604
▁questions	-9.59624
▁compared	-9.59736
▁asking	-9.59833
▁window	-9.59975
▁Army	-9.60069
▁card	-9.60099
▁center	-9.6011
▁bodies	-9.60111
▁written	-9.60232
▁speech	-9.60242
▁weapons	-9.60431
▁jury	-9.60473
▁responsible	-9.60554
▁style	-9.60684
▁island	-9.60879
▁£1	-9.61009
ive	-9.61011
▁efforts	-9.61098
▁speed	-9.61232
▁Justice	-9.6134
▁teenager	-9.61482
▁speak	-9.6151
▁Andrew	-9.6153
▁claiming	-9.61601
▁illegal	-9.61735
▁Gaal	-9.61747
▁mean	-9.61804
▁population	-9.61819
▁simply	-9.61828
ment	-9.61835
▁waiting	-9.61866
line	-9.61867
▁loan	-9.61911
▁economy	-9.61983
▁design	-9.61991
▁Green	-9.62093
▁schools	-9.62107
▁Israel	-9.62157
▁Palace	-9.62454
▁levels	-9.62497
▁traffic	-9.6265
▁effect	-9.6265
▁ask	-9.62672
▁People	-9.62731
▁fear	-9.62846
▁spokeswoman	-9.62862
▁Olympic	-9.62871
▁planning	-9.62883
▁matches	-9.62999
▁magazine	-9.63014
▁seeing	-9.63017
▁row	-9.63145
▁receive	-9.63244
▁strike	-9.63282
▁causing	-9.63372
▁older	-9.63392
▁beach	-9.63411
▁Murray	-9.63445
▁MP	-9.63551
▁box	-9.63569
est	-9.63592
di	-9.63597
ting	-9.63602
▁deaths	-9.63639
▁successful	-9.63739
▁Old	-9.63751
▁table	-9.63772
▁counts	-9.6384
▁documents	-9.63858
▁planned	-9.63971
▁items	-9.64054
▁gay	-9.64146
▁internet	-9.64164
▁Union	-9.64381
▁completely	-9.64405
ian	-9.64433
se	-9.64438
▁character	-9.64532
▁send	-9.64565
▁losing	-9.6467
▁survey	-9.64703
▁handed	-9.64711
▁attempted	-9.64745
▁wait	-9.64839
▁fast	-9.6499
▁version	-9.65099
▁talks	-9.65122
▁actor	-9.65132
▁concerned	-9.6534
▁200	-9.65454
go	-9.65476
▁address	-9.65542
▁paper	-9.65604
▁crisis	-9.65727
▁First	-9.65763
▁messages	-9.6579
▁starting	-9.65841
▁singer	-9.65842
▁Tottenham	-9.6591
den	-9.65942
▁Association	-9.65955
▁shared	-9.65962
▁facing	-9.65974
▁snow	-9.6601
▁coast	-9.66087
rs	-9.66176
ir	-9.66387
▁prevent	-9.66428
▁FA	-9.66441
▁lack	-9.66446
▁computer	-9.66453
▁mind	-9.66579
▁telling	-9.66585
▁terms	-9.66619
▁throughout	-9.6668
▁expect	-9.66759
▁Post	-9.66821
▁arm	-9.66906
▁wouldn	-9.66944
▁suspected	-9.66957
▁My	-9.67054
▁transfer	-9.67074
▁fun	-9.67086
▁aid	-9.6712
▁FBI	-9.67217
▁reporters	-9.67474
▁positive	-9.67504
▁village	-9.67552
ham	-9.67617
▁meant	-9.67711
▁Scott	-9.6779
▁missed	-9.67863
▁spread	-9.67886
▁$1	-9.68005
▁follow	-9.68021
▁education	-9.68088
field	-9.68279
▁Grand	-9.6828
▁scoring	-9.68378
▁streets	-9.68554
▁base	-9.68561
ner	-9.68578
▁supporters	-9.68595
▁helping	-9.68615
▁hoping	-9.68645
ka	-9.68795
That	-9.68799
▁bag	-9.68877
▁70	-9.68882
▁Jack	-9.68983
da	-9.69013
▁pounds	-9.6906
▁sports	-9.69122
▁During	-9.69123
▁worst	-9.69137
▁civil	-9.69283
▁owners	-9.69349
▁signing	-9.69422
▁General	-9.6952
▁cat	-9.69718
▁eat	-9.69859
▁Island	-9.69879
▁Hall	-9.69923
▁perfect	-9.69925
▁natural	-9.69937
▁loved	-9.69945
▁annual	-9.70151
▁watching	-9.70177
▁birthday	-9.7023
led	-9.70232
▁researchers	-9.70259
O	-9.7029
▁particularly	-9.70309
▁estimated	-9.70393
▁Under	-9.70413
▁check	-9.70427
▁quarter	-9.70453
▁Taylor	-9.70499
▁becoming	-9.70524
▁benefits	-9.70525
ci	-9.70566
▁defense	-9.70817
▁affected	-9.70985
▁display	-9.70986
▁teams	-9.7102
▁hear	-9.71042
▁brand	-9.71071
▁2007	-9.71083
ad	-9.7116
▁development	-9.71164
▁walked	-9.71194
▁warning	-9.71201
▁green	-9.71212
▁numbers	-9.7123
▁Islamic	-9.71259
▁justice	-9.71282
▁finished	-9.7138
ol	-9.71498
▁Other	-9.71518
▁prices	-9.71523
▁heavy	-9.71585
▁cross	-9.71608
As	-9.71631
▁feeling	-9.71635
▁29	-9.71689
▁pilot	-9.71731
▁tweeted	-9.71781
▁piece	-9.71812
▁chairman	-9.71817
▁covered	-9.7183
▁normal	-9.71904
▁hot	-9.71951
▁boyfriend	-9.72012
▁suit	-9.72151
▁truck	-9.72176
ri	-9.7218
▁present	-9.72232
▁artist	-9.72389
▁suggested	-9.72412
▁seat	-9.72438
▁ruling	-9.72486
ey	-9.72531
▁focus	-9.72542
▁wear	-9.72561
▁bottom	-9.72591
▁lower	-9.72631
li	-9.72648
mo	-9.72649
▁Jose	-9.72654
▁entire	-9.72781
▁Bush	-9.72852
▁jobs	-9.72854
▁nuclear	-9.72953
▁bomb	-9.73156
▁hurt	-9.73269
▁Year	-9.73362
▁via	-9.73426
▁true	-9.7348
▁Watch	-9.73504
▁clash	-9.7358
▁fifth	-9.73592
▁Coast	-9.7379
▁Security	-9.73813
▁apparently	-9.73862
▁certain	-9.73873
▁Lord	-9.73891
▁sleep	-9.7392
▁Not	-9.73977
▁actions	-9.74078
▁80	-9.74104
▁Home	-9.74168
ler	-9.7419
▁flying	-9.74205
▁employees	-9.74224
▁continues	-9.74312
▁talking	-9.74332
▁EU	-9.7434
▁Ireland	-9.7445
▁significant	-9.74469
▁fish	-9.74506
▁massive	-9.7469
▁selling	-9.74705
▁Press	-9.74709
me	-9.74732
▁decades	-9.74819
▁pretty	-9.74826
▁tree	-9.74889
▁sense	-9.74896
▁below	-9.74959
▁grand	-9.74996
▁Black	-9.75113
▁request	-9.75198
▁District	-9.75301
▁runs	-9.75328
▁foot	-9.75446
▁Airport	-9.75449
▁armed	-9.75496
ies	-9.75604
▁Earth	-9.75625
▁itself	-9.75658
▁pick	-9.75665
▁Joe	-9.75677
▁signs	-9.75678
▁scheduled	-9.7577
▁word	-9.75772
▁pregnant	-9.75801
▁mission	-9.75837
▁Villa	-9.75876
▁fly	-9.7616
▁score	-9.76188
▁camp	-9.76206
▁district	-9.76228
▁Milan	-9.76271
▁records	-9.76337
▁patient	-9.76447
▁attended	-9.76526
▁Charles	-9.76545
▁scientists	-9.76548
▁die	-9.76574
▁flat	-9.76612
▁Korean	-9.76638
▁investigators	-9.76651
▁professional	-9.76668
▁These	-9.76758
▁worker	-9.76914
▁putting	-9.76995
▁committed	-9.76999
▁Chief	-9.77409
▁tough	-9.77446
▁band	-9.77465
▁initially	-9.77466
▁increased	-9.77471
▁gets	-9.77475
▁visitors	-9.77495
▁eating	-9.7756
▁Christian	-9.77595
▁Jersey	-9.77687
▁Republican	-9.77709
▁YouTube	-9.7781
▁drinking	-9.77952
▁Mike	-9.77959
▁reasons	-9.78092
▁Southampton	-9.7828
▁aware	-9.78321
▁example	-9.78358
▁improve	-9.78415
▁secret	-9.78461
▁visited	-9.78471
▁pass	-9.78492
▁Ed	-9.78507
▁Go	-9.78587
like	-9.78634
▁behaviour	-9.78683
▁majority	-9.78741
▁ceremony	-9.78796
▁Muslim	-9.78966
▁ISIS	-9.78983
▁review	-9.78989
▁university	-9.79051
▁picked	-9.79079
▁Party	-9.79149
ous	-9.79203
▁Ryan	-9.79204
▁shortly	-9.79397
▁Simon	-9.79465
▁watched	-9.79709
▁names	-9.79736
▁Bay	-9.79765
▁Star	-9.79777
▁feature	-9.79823
▁tests	-9.79825
▁Mourinho	-9.79897
▁easy	-9.79912
▁deep	-9.79943
▁Road	-9.79961
▁MailOnline	-9.80064
▁Meanwhile	-9.80064
▁sport	-9.80096
).	-9.80128
▁Tony	-9.80158
▁shock	-9.80179
▁Victoria	-9.80199
▁passenger	-9.80238
▁ill	-9.8026
▁Sea	-9.80305
▁Indian	-9.80324
▁practice	-9.80454
▁finish	-9.8055
▁threatened	-9.80679
▁Congress	-9.80952
▁Since	-9.80979
▁stolen	-9.81027
▁Although	-9.8104
lin	-9.81077
term	-9.81225
?'	-9.81236
▁drivers	-9.81275
▁Maria	-9.81292
id	-9.81394
▁ring	-9.81459
▁bail	-9.81522
▁Argentina	-9.81596
▁alive	-9.81718
▁God	-9.81726
▁seconds	-9.81806
▁pro	-9.81823
et	-9.8184
▁healthy	-9.81872
▁31	-9.81995
▁severe	-9.82001
▁standing	-9.82071
▁Ronaldo	-9.82102
▁Andy	-9.82137
▁Boston	-9.82218
▁Chicago	-9.82286
▁photographer	-9.82343
▁fully	-9.82426
▁Lewis	-9.82446
▁Canada	-9.8245
▁Most	-9.82575
▁Mary	-9.82656
▁Club	-9.82657
▁remove	-9.8268
long	-9.82726
J	-9.82775
▁choice	-9.82801
▁programme	-9.8285
What	-9.82852
▁pitch	-9.82968
▁northern	-9.8298
▁screen	-9.83161
▁Zealand	-9.83198
▁lawsuit	-9.83204
▁cold	-9.83236
▁wall	-9.83257
lo	-9.83362
▁separate	-9.83431
▁Their	-9.83442
▁voice	-9.83487
H	-9.8349
we	-9.83693
▁traditional	-9.83694
ary	-9.83752
▁cell	-9.83781
U	-9.83804
▁drop	-9.83835
▁legs	-9.83872
▁serving	-9.83877
▁Kevin	-9.83902
▁presidential	-9.83964
▁Games	-9.84068
▁Un	-9.84093
▁millions	-9.84113
men	-9.84123
▁debut	-9.84198
▁Stadium	-9.84223
▁Speaking	-9.84254
▁finding	-9.84347
▁provided	-9.84353
▁estate	-9.84399
▁laws	-9.84423
▁developed	-9.84476
▁crimes	-9.84478
▁Kate	-9.84501
▁Hill	-9.84551
▁value	-9.84568
▁recorded	-9.84615
▁usually	-9.84661
▁seeking	-9.84695
▁opposition	-9.84731
▁southern	-9.84812
▁Costa	-9.84845
▁thanks	-9.84871
ful	-9.84914
▁domestic	-9.84915
▁crashed	-9.84927
▁controversial	-9.84958
▁views	-9.84973
▁regular	-9.8508
▁begin	-9.85105
ism	-9.85168
▁Rooney	-9.85306
▁younger	-9.85339
▁learn	-9.85341
▁serve	-9.85385
▁insisted	-9.85403
▁quality	-9.85453
▁Nick	-9.8551
ine	-9.85615
▁arms	-9.85619
▁rain	-9.85772
▁sitting	-9.85874
▁cities	-9.85934
▁diagnosed	-9.86053
▁Georgia	-9.86066
▁decade	-9.86099
▁multiple	-9.86201
▁neck	-9.86235
▁Bank	-9.86436
▁wide	-9.8645
V	-9.86602
▁Barack	-9.8663
▁product	-9.86721
▁type	-9.86722
▁operations	-9.86869
▁violent	-9.86947
▁Tour	-9.87011
▁Mc	-9.87121
▁clearly	-9.87153
▁Everton	-9.872
▁iPhone	-9.87212
▁River	-9.87223
▁Of	-9.87238
ha	-9.87298
▁radio	-9.87329
▁modern	-9.87427
▁Lake	-9.87453
▁east	-9.87503
▁actress	-9.87593
▁gang	-9.87672
▁enjoy	-9.87852
▁college	-9.87903
▁Young	-9.87921
▁explained	-9.87933
▁administration	-9.87951
▁escape	-9.87986
▁prosecutors	-9.88046
▁user	-9.8806
▁agent	-9.88084
ate	-9.88109
Our	-9.88251
▁Wilson	-9.88284
▁extremely	-9.88466
▁individual	-9.88473
▁agreement	-9.88561
▁Senate	-9.88566
▁Adam	-9.88702
▁activity	-9.88797
▁shocked	-9.88836
▁Sarah	-9.88926
▁ability	-9.88957
▁beautiful	-9.88999
way	-9.89006
▁Diego	-9.89078
▁Fox	-9.8908
tic	-9.89239
▁favourite	-9.89256
▁certainly	-9.89367
▁Family	-9.89444
▁Carolina	-9.8951
▁Big	-9.89511
▁myself	-9.89553
▁Ar	-9.89627
And	-9.89726
▁Con	-9.89743
▁addition	-9.89744
▁Super	-9.89762
▁protest	-9.8978
ce	-9.89852
▁Hollywood	-9.89856
▁Fire	-9.8992
▁Steven	-9.89967
les	-9.89974
ah	-9.90043
▁Do	-9.90072
▁connection	-9.90093
▁whom	-9.90312
▁Suarez	-9.90348
▁trust	-9.90437
▁offering	-9.90458
▁responsibility	-9.90473
▁growth	-9.90488
▁determined	-9.90519
▁pool	-9.90527
well	-9.90596
▁sun	-9.90646
▁article	-9.90773
▁vehicles	-9.90784
▁shopping	-9.90927
▁amazing	-9.90937
▁concern	-9.90986
▁places	-9.91008
▁west	-9.91025
ni	-9.91117
▁Beach	-9.91123
▁block	-9.91138
▁mid	-9.91184
▁Me	-9.91216
▁Ali	-9.91281
▁expensive	-9.91337
▁surprise	-9.91371
▁century	-9.91412
▁required	-9.91421
▁Bo	-9.91426
▁mark	-9.91474
▁remained	-9.91514
▁Matt	-9.91544
▁Li	-9.91664
▁garden	-9.91671
▁consider	-9.91684
▁Bridge	-9.9169
▁unit	-9.91713
▁assistant	-9.9176
▁Championship	-9.91895
▁Messi	-9.92145
▁gives	-9.92146
▁clean	-9.92264
▁Just	-9.9227
▁award	-9.9232
▁Great	-9.92401
▁session	-9.92407
▁Church	-9.92423
▁prime	-9.92558
pe	-9.92615
▁touch	-9.92616
▁doubt	-9.92686
▁debate	-9.92687
▁Anthony	-9.92731
▁reality	-9.92776
▁proud	-9.92776
▁subject	-9.92782
▁fuel	-9.92896
▁peace	-9.92937
▁Miami	-9.93099
▁Four	-9.93122
ca	-9.93139
▁sit	-9.93163
▁physical	-9.93211
▁seem	-9.93222
▁beating	-9.93288
▁2006	-9.93351
▁bear	-9.9346
▁sometimes	-9.93481
▁clothes	-9.93534
▁recovery	-9.93534
▁Taliban	-9.9358
▁culture	-9.93788
▁thinking	-9.9386
▁completed	-9.93871
▁remember	-9.93893
▁parties	-9.93918
▁miss	-9.93988
▁Car	-9.94019
▁mental	-9.94113
bo	-9.94145
all	-9.94158
▁Birmingham	-9.94229
▁reveal	-9.94246
▁location	-9.94307
▁Alan	-9.94327
ti	-9.94342
▁attend	-9.94475
▁CEO	-9.94528
▁Attorney	-9.94545
▁celebrate	-9.94574
▁uses	-9.94645
side	-9.9468
▁terrorist	-9.94764
▁V	-9.94767
▁Today	-9.94772
▁Cambridge	-9.94773
▁responded	-9.94837
▁Nations	-9.94863
▁measures	-9.94893
▁beaten	-9.94924
▁speaking	-9.94958
▁filmed	-9.95116
▁seriously	-9.95145
▁Israeli	-9.95209
▁province	-9.95231
▁dark	-9.95313
▁accept	-9.95402
▁rock	-9.95412
▁pet	-9.95531
▁terror	-9.95641
▁Sky	-9.95719
▁tells	-9.95795
▁production	-9.95817
▁winter	-9.95862
▁offers	-9.95868
▁Be	-9.96006
sh	-9.9602
▁amid	-9.96217
▁complaint	-9.96223
▁daily	-9.96318
▁song	-9.96349
▁expert	-9.96384
ford	-9.96414
▁auction	-9.96422
▁journey	-9.96425
▁College	-9.96443
▁note	-9.96462
run	-9.96474
he	-9.965
▁clubs	-9.96569
▁faced	-9.96576
▁Japanese	-9.96606
▁Instagram	-9.96622
▁benefit	-9.96731
▁approach	-9.96799
▁Syrian	-9.96821
billion	-9.96946
▁returning	-9.97002
▁powerful	-9.97132
▁seemed	-9.97164
▁How	-9.97167
ish	-9.97178
ise	-9.97216
▁demand	-9.97241
▁Mar	-9.97286
▁Tim	-9.97288
▁targeted	-9.97317
▁Ebola	-9.97335
▁Stephen	-9.9748
ge	-9.97495
▁equipment	-9.97559
▁budget	-9.97632
▁paying	-9.97635
▁35	-9.97711
▁failing	-9.97748
▁highly	-9.97771
▁falling	-9.97797
▁Eric	-9.97799
▁various	-9.97831
▁critical	-9.97909
▁Sun	-9.97951
▁material	-9.97967
nd	-9.97989
▁semi	-9.97993
▁super	-9.98026
▁rule	-9.98037
▁keeping	-9.9809
▁inspired	-9.98102
▁prove	-9.98121
▁produced	-9.98183
▁shots	-9.98228
▁beginning	-9.98236
▁keen	-9.98286
▁knife	-9.98355
▁respect	-9.98424
▁Virginia	-9.98493
▁suspects	-9.98619
▁scandal	-9.98678
▁funeral	-9.98761
▁Earlier	-9.98806
▁entered	-9.98878
▁struggling	-9.99116
▁Or	-9.99186
▁Tory	-9.99239
▁dream	-9.99259
▁intelligence	-9.99377
▁committee	-9.99405
▁credit	-9.99405
▁conduct	-9.99521
▁sites	-9.99549
▁Lo	-9.99632
ig	-9.99691
▁photographs	-9.99722
▁Central	-9.99781
▁1,000	-9.99805
▁organization	-9.99885
▁nature	-9.99922
▁declined	-9.99933
▁Middle	-9.99981
▁Hamilton	-9.99996
▁Na	-10.001
▁glass	-10.0016
▁Ford	-10.0021
▁survived	-10.004
▁Bayern	-10.004
▁trade	-10.0041
volving	-10.0047
▁dinner	-10.005
▁Medical	-10.005
▁fraud	-10.0053
▁diet	-10.0055
▁species	-10.0055
▁luxury	-10.0059
▁related	-10.0065
▁beauty	-10.0067
▁Men	-10.0067
▁haven	-10.0078
▁champions	-10.0079
▁Jordan	-10.0081
half	-10.0092
▁rushed	-10.0094
▁trouble	-10.0097
ning	-10.0099
▁add	-10.0101
▁receiving	-10.0106
▁protests	-10.0112
▁expressed	-10.0115
▁defence	-10.0124
ak	-10.0134
▁Kelly	-10.0145
▁f	-10.0147
ring	-10.0148
▁airline	-10.0156
For	-10.0161
▁plant	-10.0169
▁criticism	-10.0181
▁Wenger	-10.0182
▁catch	-10.0184
▁duty	-10.0185
ent	-10.0189
▁advice	-10.0191
▁questioned	-10.0197
▁prepared	-10.0199
▁sound	-10.0211
▁wounded	-10.0212
▁shoot	-10.0216
▁Long	-10.022
▁learned	-10.0222
▁Morgan	-10.0227
ger	-10.0228
▁drove	-10.0229
▁movement	-10.0233
▁Agency	-10.0236
▁answer	-10.0238
▁fears	-10.0241
▁worse	-10.0243
▁adults	-10.0249
dy	-10.0251
▁exactly	-10.0254
▁devices	-10.0255
▁knee	-10.0257
▁grow	-10.0258
ant	-10.0259
▁flights	-10.026
▁Northern	-10.0271
▁Gary	-10.0272
▁text	-10.0276
▁horse	-10.0284
▁Force	-10.0288
▁shirt	-10.0294
▁unique	-10.0304
▁surface	-10.0307
▁repeatedly	-10.0317
▁poll	-10.0317
▁Children	-10.0323
▁fled	-10.0324
▁Even	-10.0328
▁Qaeda	-10.0333
▁Frank	-10.0346
▁enforcement	-10.0352
▁unusual	-10.0352
ized	-10.0352
▁machine	-10.0353
▁rates	-10.0355
▁designer	-10.036
▁urged	-10.0362
▁Ministry	-10.037
▁beyond	-10.0374
▁MPs	-10.0374
▁Luis	-10.0376
▁Can	-10.0382
▁Sen	-10.0383
mph	-10.0383
▁kick	-10.0388
hour	-10.0404
▁landing	-10.0406
▁Wayne	-10.0406
▁Navy	-10.0425
▁Davis	-10.0433
▁Western	-10.044
▁immigration	-10.0441
▁helicopter	-10.0441
▁sending	-10.0441
▁secure	-10.0449
▁mass	-10.0452
▁allowing	-10.0466
ised	-10.0468
So	-10.0471
▁en	-10.0471
▁militants	-10.0474
▁Miller	-10.0475
▁FIFA	-10.0476
▁society	-10.0478
▁featured	-10.0479
▁stands	-10.048
▁£2	-10.0488
▁ride	-10.0495
▁Yorkshire	-10.0508
?"	-10.0521
▁upon	-10.0532
ated	-10.0533
▁smoke	-10.0541
▁meaning	-10.0547
▁guy	-10.0554
▁books	-10.0556
ier	-10.0561
▁stadium	-10.0566
▁cuts	-10.0568
▁commercial	-10.0569
ba	-10.0574
20	-10.0576
▁incredible	-10.0577
ard	-10.0577
▁declared	-10.0582
▁Ukraine	-10.0582
▁Internet	-10.0586
au	-10.0588
ating	-10.0595
▁reduce	-10.0596
▁sat	-10.0602
mer	-10.0604
▁upset	-10.0607
▁Scottish	-10.0624
▁fresh	-10.0625
▁sort	-10.0626
os	-10.0627
▁goalkeeper	-10.063
▁Sheriff	-10.0634
▁insists	-10.0637
▁ABC	-10.0648
▁author	-10.0648
▁fair	-10.065
▁confidence	-10.0653
▁sources	-10.067
con	-10.067
▁nice	-10.0671
im	-10.068
▁Hu	-10.0684
▁employee	-10.0684
▁religious	-10.0685
▁guests	-10.0687
▁progress	-10.0689
▁virus	-10.069
▁enjoyed	-10.0692
▁jet	-10.0713
▁retired	-10.0729
▁protesters	-10.0731
▁adult	-10.0732
▁difference	-10.0736
▁saved	-10.0736
▁owned	-10.0744
▁language	-10.0747
▁hasn	-10.0748
va	-10.0748
▁wish	-10.075
▁Arizona	-10.0754
No	-10.0757
um	-10.0761
▁Professor	-10.0769
▁minor	-10.077
▁dressed	-10.0773
▁mouth	-10.0776
▁landed	-10.0785
▁witness	-10.0787
op	-10.0788
▁originally	-10.0789
▁royal	-10.0796
▁simple	-10.0804
▁45	-10.0806
▁ticket	-10.0806
▁Melbourne	-10.0809
▁wore	-10.0811
▁announcement	-10.0811
▁treat	-10.0812
▁damaged	-10.0814
▁Bar	-10.0817
▁Z	-10.082
▁wine	-10.0821
▁lines	-10.0823
▁Ex	-10.0827
▁facility	-10.0827
ja	-10.0831
▁protection	-10.0841
▁tiny	-10.0845
▁Evans	-10.0848
▁Don	-10.0848
▁wake	-10.0852
▁knows	-10.0857
▁teen	-10.0859
▁Act	-10.0876
wood	-10.0891
▁Colorado	-10.0898
ina	-10.0905
▁Kent	-10.0907
▁complex	-10.0909
▁angry	-10.091
▁plastic	-10.0911
▁introduced	-10.0914
born	-10.0914
▁shape	-10.0915
▁additional	-10.0916
▁boost	-10.0927
▁secretary	-10.0947
▁dating	-10.0959
▁Phil	-10.0977
▁corner	-10.098
▁failure	-10.098
mate	-10.0985
▁sparked	-10.0986
▁split	-10.0993
▁Atlanta	-10.0994
▁wild	-10.0998
▁stories	-10.1
▁Ferguson	-10.1
▁models	-10.1002
▁2-1	-10.1003
▁Then	-10.1006
▁contacted	-10.1016
▁recovered	-10.1021
▁Su	-10.1022
▁busy	-10.1023
▁Hull	-10.1032
▁regime	-10.1035
▁confident	-10.104
▁Football	-10.1047
▁quick	-10.1052
not	-10.1052
▁develop	-10.106
▁standards	-10.1062
j	-10.1068
▁scheme	-10.107
▁possession	-10.1071
▁Hong	-10.1073
▁audience	-10.1082
▁cast	-10.1083
ex	-10.1086
▁determine	-10.1087
▁independent	-10.1096
▁stores	-10.1099
▁Commission	-10.1105
▁From	-10.1106
▁tourists	-10.1108
▁exercise	-10.1115
▁conflict	-10.1119
▁decide	-10.1122
▁ways	-10.1125
fi	-10.1127
▁Show	-10.1127
▁Officials	-10.1137
▁pull	-10.1137
▁DNA	-10.1138
▁warm	-10.1138
▁Mexican	-10.1141
▁illness	-10.1142
▁viewers	-10.1144
▁reading	-10.1146
▁Afghan	-10.1151
▁Centre	-10.1159
▁mayor	-10.1162
▁rival	-10.117
▁weapon	-10.117
▁cameras	-10.1176
▁deadly	-10.1177
▁Committee	-10.1178
▁particular	-10.118
▁Ka	-10.1189
ut	-10.12
▁Supreme	-10.1203
▁advantage	-10.1203
▁kitchen	-10.1207
▁500	-10.1212
▁Saudi	-10.1216
ally	-10.1218
▁Kong	-10.1221
▁Hotel	-10.1226
over	-10.1226
▁located	-10.123
▁river	-10.1234
▁danger	-10.1234
▁Ohio	-10.1236
ko	-10.1237
▁dad	-10.1243
▁limit	-10.1247
▁Sunderland	-10.1249
▁army	-10.1252
At	-10.1254
▁allows	-10.1265
▁anniversary	-10.1276
▁Dan	-10.1279
▁parking	-10.1293
▁ambulance	-10.1296
▁Turkey	-10.1302
▁push	-10.1305
▁Du	-10.1309
▁performed	-10.1312
▁worried	-10.1314
▁Women	-10.1321
▁1-0	-10.1329
▁sexually	-10.1333
▁Mother	-10.1333
▁toward	-10.134
▁Over	-10.1344
very	-10.1344
ster	-10.1345
▁con	-10.1349
▁regularly	-10.1359
▁struggled	-10.1363
▁Harris	-10.1371
▁hole	-10.1371
▁false	-10.1372
ck	-10.1374
▁panel	-10.1382
▁marijuana	-10.1384
▁candidate	-10.1392
▁Foreign	-10.1393
▁2005	-10.1397
▁Brian	-10.1398
▁tribute	-10.14
▁suggest	-10.14
▁lucky	-10.1402
bi	-10.1407
▁Francisco	-10.1409
▁300	-10.1412
▁breaking	-10.1418
po	-10.1421
▁travelling	-10.1429
▁accounts	-10.1431
▁Research	-10.1431
▁Dutch	-10.1433
▁Swansea	-10.1436
▁fund	-10.1436
▁turning	-10.1439
▁status	-10.1442
▁agents	-10.1446
▁Democratic	-10.1448
▁Olympics	-10.1452
▁citizens	-10.1453
▁interested	-10.1455
vi	-10.1462
▁guard	-10.1474
▁Also	-10.1474
▁Egypt	-10.1485
▁shut	-10.1485
▁seek	-10.1486
▁sick	-10.1487
foot	-10.149
▁soldier	-10.1491
▁colleagues	-10.1501
▁videos	-10.1501
▁Rodgers	-10.1501
▁chain	-10.151
uk	-10.1513
▁stood	-10.1515
▁complained	-10.1515
▁Will	-10.1517
▁reaction	-10.1529
▁setting	-10.1531
▁suggests	-10.1531
▁bottle	-10.1532
io	-10.1536
▁celebrates	-10.1541
▁Only	-10.1547
▁Ian	-10.1547
▁Those	-10.1548
▁heat	-10.1549
▁Lu	-10.1556
▁absolutely	-10.1562
▁Las	-10.1562
▁stabbed	-10.1567
▁Jo	-10.1572
▁confirm	-10.1585
▁harm	-10.1586
ble	-10.1588
▁bringing	-10.1589
▁blog	-10.159
▁bedroom	-10.1597
▁insurance	-10.1604
▁wind	-10.1607
▁32	-10.1609
▁fallen	-10.1614
To	-10.1615
▁See	-10.1617
▁chest	-10.1617
▁babies	-10.1632
▁bin	-10.165
▁meat	-10.1652
ya	-10.1654
▁Anderson	-10.1662
▁Team	-10.1662
▁destroyed	-10.1672
▁dance	-10.1681
for	-10.1684
▁NBC	-10.1684
za	-10.1688
▁writing	-10.1689
▁perform	-10.1689
▁complaints	-10.1692
▁visiting	-10.1693
▁CCTV	-10.17
▁affair	-10.1703
▁Leicester	-10.1705
▁voters	-10.1709
▁noticed	-10.171
▁golf	-10.1711
▁pushed	-10.1711
▁20-	-10.1712
▁investigate	-10.1715
pa	-10.1716
▁respond	-10.1723
v	-10.1734
▁rivals	-10.1748
▁produce	-10.1749
▁directly	-10.175
▁tie	-10.1765
▁roof	-10.1782
▁Brazilian	-10.1782
▁Cook	-10.1786
▁stuck	-10.1791
▁mistake	-10.1795
▁capture	-10.1797
▁escaped	-10.18
▁management	-10.1802
▁steps	-10.1802
minute	-10.1809
▁wins	-10.1812
▁appearances	-10.1814
▁active	-10.1817
▁inches	-10.1818
▁18-	-10.1823
▁stone	-10.1823
▁moments	-10.1831
▁identify	-10.1835
▁influence	-10.1837
▁NFL	-10.1838
▁2015	-10.1848
▁Institute	-10.1849
▁relatives	-10.1853
▁Wood	-10.1854
▁fat	-10.1856
▁deputy	-10.1862
▁replace	-10.1863
▁lawyers	-10.187
min	-10.1876
▁pieces	-10.1883
▁Canadian	-10.1883
▁2016	-10.1891
▁Human	-10.1891
▁email	-10.1893
▁ongoing	-10.1895
▁admits	-10.1896
mail	-10.1899
ville	-10.1904
wa	-10.191
▁content	-10.1911
▁count	-10.1917
▁metal	-10.1926
▁governor	-10.1927
▁Mayor	-10.1929
▁sides	-10.1931
All	-10.1932
▁emotional	-10.1936
▁initial	-10.1941
▁route	-10.1946
▁£3	-10.1948
▁friendly	-10.1955
▁offences	-10.1958
ana	-10.1959
▁elections	-10.1965
▁2-0	-10.1982
▁Manhattan	-10.1986
ran	-10.1992
▁Pro	-10.1994
▁rejected	-10.1995
▁Airlines	-10.1996
▁compete	-10.2
▁threats	-10.2002
▁photograph	-10.2005
▁Inter	-10.2009
▁circumstances	-10.201
▁experienced	-10.201
▁customer	-10.2012
▁earned	-10.2014
▁blamed	-10.2022
▁Po	-10.2023
ek	-10.2026
▁2011,	-10.2033
▁environment	-10.2036
▁temperatures	-10.2044
▁Elizabeth	-10.2048
▁Se	-10.2056
▁rescued	-10.2063
▁tragedy	-10.2065
▁skills	-10.2067
degree	-10.2072
▁buildings	-10.2073
▁Sports	-10.2079
▁phones	-10.2082
▁testing	-10.2082
so	-10.2083
▁Trafford	-10.2093
▁understood	-10.2095
▁holds	-10.2095
▁pop	-10.2099
▁limited	-10.21
▁discuss	-10.2111
▁providing	-10.2113
▁thrown	-10.2115
▁findings	-10.2117
▁Per	-10.2125
▁Iraqi	-10.2129
▁plays	-10.2139
▁Web	-10.214
mp	-10.2142
▁option	-10.2144
▁proved	-10.2146
▁effects	-10.2148
▁Rio	-10.2148
▁breast	-10.2158
▁acting	-10.2164
▁Watson	-10.2166
▁impressive	-10.2167
▁activities	-10.2173
▁reveals	-10.2178
ga	-10.2179
▁prosecutor	-10.218
ze	-10.2186
▁2004	-10.2186
▁nose	-10.2188
▁bars	-10.2189
▁spoken	-10.2191
▁flag	-10.2197
▁24-	-10.2197
▁joint	-10.2197
▁Allen	-10.22
▁affiliate	-10.22
▁Stoke	-10.221
▁Defense	-10.221
▁identity	-10.2212
▁enter	-10.2216
▁veteran	-10.2218
▁killer	-10.222
▁PM	-10.2225
▁welcome	-10.2225
▁net	-10.2234
▁surrounding	-10.2234
▁resort	-10.2241
▁conducted	-10.2244
▁leaves	-10.2246
▁debt	-10.2252
▁lying	-10.2258
▁Henry	-10.2265
▁witnesses	-10.2276
ver	-10.2291
▁teenage	-10.2295
▁measure	-10.23
▁elderly	-10.2302
▁Officers	-10.2314
▁clothing	-10.2319
▁creating	-10.2319
▁larger	-10.2319
▁Hart	-10.2333
ney	-10.2337
▁swimming	-10.2341
▁income	-10.2343
▁Kennedy	-10.2345
▁memory	-10.2345
▁Republic	-10.235
▁Ray	-10.2351
▁jumped	-10.2354
▁vice	-10.2366
▁£5	-10.2367
▁tennis	-10.2371
▁1990	-10.2372
▁distance	-10.2374
▁youth	-10.2377
▁accepted	-10.2378
▁Munich	-10.238
ned	-10.2381
▁sub	-10.2387
▁seized	-10.2387
▁yellow	-10.2389
▁feels	-10.2396
don	-10.2398
▁criticised	-10.2398
▁grandmother	-10.2398
▁fake	-10.24
▁housing	-10.2404
▁Oscar	-10.2405
▁Terry	-10.2407
▁pupils	-10.241
▁Khan	-10.2414
ee	-10.2414
▁freedom	-10.2416
▁path	-10.2426
Y	-10.2429
ac	-10.2437
▁Pakistani	-10.2441
kin	-10.2445
▁replaced	-10.2448
sen	-10.2463
▁argued	-10.2468
▁Michelle	-10.2471
▁union	-10.2471
▁Lady	-10.2474
▁Matthew	-10.2475
▁bike	-10.2475
▁overall	-10.2477
▁Trust	-10.2478
These	-10.2478
ov	-10.2479
▁proposed	-10.2484
▁choose	-10.2487
▁collapsed	-10.2488
▁causes	-10.2489
▁bigger	-10.2489
▁Moscow	-10.249
head	-10.2491
▁lay	-10.2497
▁trained	-10.2497
▁considering	-10.2499
▁suspicion	-10.25
▁bridge	-10.25
▁dozens	-10.2501
▁Jason	-10.2504
▁journalist	-10.2506
▁attempts	-10.2506
▁Roy	-10.2506
▁rising	-10.2507
▁denies	-10.2511
▁About	-10.2519
00	-10.2519
▁eastern	-10.2523
▁Asia	-10.2524
▁blow	-10.2524
▁Bob	-10.2529
▁awarded	-10.253
▁businesses	-10.2541
ron	-10.2544
▁Ma	-10.2546
▁dis	-10.2554
▁grew	-10.2556
▁perhaps	-10.2559
▁2012,	-10.2564
▁Iranian	-10.2568
▁necessary	-10.257
▁bond	-10.2574
▁Jim	-10.2589
▁Ashley	-10.259
▁edge	-10.2594
▁lights	-10.2594
zi	-10.2594
mates	-10.2594
▁disaster	-10.2601
▁nurse	-10.2604
▁tested	-10.2605
▁Pennsylvania	-10.2606
▁counter	-10.2607
▁£4	-10.2607
▁heading	-10.2611
▁Patrick	-10.2612
law	-10.2616
TV	-10.2618
▁Massachusetts	-10.2634
▁Wall	-10.2643
▁Good	-10.2646
▁Col	-10.2646
▁Rose	-10.2648
▁cards	-10.2651
▁celebrity	-10.2653
▁Putin	-10.2654
mi	-10.2657
▁Abu	-10.2659
▁Vegas	-10.2665
▁intended	-10.2677
▁surprised	-10.2678
▁cocaine	-10.2686
▁remaining	-10.269
▁blame	-10.2696
▁Moore	-10.2699
▁coffee	-10.2711
▁Duchess	-10.2713
▁disappeared	-10.2718
▁greater	-10.2722
▁Rob	-10.2723
▁construction	-10.2728
▁QPR	-10.273
▁plea	-10.2733
▁Holland	-10.2734
▁Before	-10.2734
11	-10.2736
▁tackle	-10.2743
▁stunning	-10.2745
red	-10.2747
▁Princess	-10.2759
▁Foundation	-10.2767
▁Top	-10.277
▁dismissed	-10.2774
▁trees	-10.2776
▁Beijing	-10.2776
▁strength	-10.278
▁Love	-10.2781
▁Federal	-10.2781
▁Test	-10.279
▁tickets	-10.2791
▁aren	-10.2794
▁abandoned	-10.2797
▁Santa	-10.2798
centre	-10.2799
▁unlikely	-10.2806
▁resident	-10.2807
▁worldwide	-10.2813
▁fought	-10.2814
▁behavior	-10.2818
▁sad	-10.2818
▁1,	-10.2823
end	-10.2826
▁knocked	-10.2827
▁Channel	-10.2828
▁funds	-10.2829
▁Ho	-10.2834
▁15-	-10.2836
week	-10.2839
5,000	-10.2848
▁delivered	-10.2849
▁headed	-10.2858
▁presence	-10.2863
▁chances	-10.2865
▁developing	-10.2866
▁profile	-10.2875
▁drunk	-10.2876
▁Francis	-10.288
▁daughters	-10.288
▁follows	-10.2887
▁divorce	-10.2894
▁Valley	-10.2894
▁stress	-10.2896
▁10-	-10.2911
▁cool	-10.2913
▁Houston	-10.2916
▁closer	-10.2918
▁sought	-10.2922
▁mom	-10.2925
▁Sterling	-10.2927
▁Parliament	-10.2934
▁explosion	-10.2936
▁II	-10.294
▁Life	-10.2944
▁exchange	-10.2951
▁farm	-10.2951
▁leadership	-10.2958
▁Democrats	-10.2963
▁incidents	-10.2966
▁Balotelli	-10.2974
▁Graham	-10.2975
▁tied	-10.2975
▁Woods	-10.2976
▁Public	-10.2976
▁easily	-10.2977
▁struggle	-10.2991
▁apart	-10.2998
▁12-	-10.2999
▁$2	-10.3001
▁changing	-10.3004
▁verdict	-10.3007
▁Republicans	-10.3007
▁square	-10.3008
▁fatal	-10.3009
▁USA	-10.3013
▁Romney	-10.3014
▁buying	-10.3015
▁climate	-10.3016
▁festival	-10.3029
▁explain	-10.303
▁sixth	-10.3035
▁section	-10.3035
▁Sa	-10.3037
▁Mario	-10.3042
▁Robinson	-10.3046
▁1980	-10.3051
▁specific	-10.306
▁Instead	-10.3062
hi	-10.3066
▁posting	-10.307
▁dramatic	-10.3077
▁founder	-10.3084
▁mountain	-10.3087
▁guns	-10.3094
▁Atletico	-10.3101
▁hat	-10.3107
▁Aston	-10.3108
▁Asian	-10.3122
▁legend	-10.3126
▁approved	-10.3128
▁unveiled	-10.3131
sex	-10.3136
▁shoes	-10.3138
▁Joseph	-10.3139
▁multi	-10.314
▁brothers	-10.314
▁surveillance	-10.3151
▁detained	-10.3152
▁joining	-10.3153
▁Six	-10.3154
▁teachers	-10.3159
▁presented	-10.316
▁sorry	-10.3161
▁2010,	-10.3163
▁passing	-10.3164
▁funding	-10.3165
▁immediate	-10.3167
▁films	-10.3168
▁operating	-10.3171
▁Pope	-10.3172
der	-10.3173
▁Researchers	-10.3174
▁sky	-10.3177
▁potentially	-10.3178
▁individuals	-10.3178
▁Essex	-10.3179
▁hitting	-10.3182
▁Alexander	-10.3186
ten	-10.3188
▁bags	-10.3188
▁prosecution	-10.3189
▁filled	-10.319
▁tweet	-10.3204
▁engine	-10.321
▁acts	-10.3223
▁fitness	-10.3226
▁increasingly	-10.3228
▁degree	-10.3231
▁Robin	-10.3233
▁Cardiff	-10.3243
▁Danny	-10.3243
▁neighbour	-10.3244
▁voted	-10.3244
▁waste	-10.3251
▁maybe	-10.3255
▁threw	-10.3258
▁buried	-10.3258
▁Sorry	-10.326
▁Leeds	-10.3262
▁$3	-10.3276
▁extreme	-10.3277
▁spring	-10.3281
▁seats	-10.3283
▁symptoms	-10.3283
▁Pe	-10.3289
▁listed	-10.3292
▁approached	-10.3299
▁fruit	-10.3299
▁slow	-10.3304
▁25-	-10.3307
▁Jonathan	-10.3307
house	-10.331
▁pub	-10.3313
▁broadcast	-10.3313
▁23,	-10.3319
▁definitely	-10.332
▁Cooper	-10.3321
▁dollars	-10.3321
▁followers	-10.3327
▁contest	-10.333
lan	-10.3331
▁Miliband	-10.3333
▁gathered	-10.3335
▁learning	-10.3337
▁Ki	-10.3345
ding	-10.3356
▁standard	-10.3358
▁reform	-10.3362
▁Charlie	-10.3365
▁Doctors	-10.3367
▁arrival	-10.3372
▁Cole	-10.3378
▁fee	-10.3379
▁Wimbledon	-10.3382
▁client	-10.3384
▁Christopher	-10.3385
▁investigated	-10.3388
▁150	-10.3393
▁classic	-10.3398
▁historic	-10.3401
▁staying	-10.3402
▁Euro	-10.3402
em	-10.3403
▁hoped	-10.3407
▁25,	-10.3418
▁theft	-10.3421
▁Prosecutors	-10.3422
▁tomorrow	-10.3424
▁infection	-10.3442
▁trapped	-10.3447
▁knowledge	-10.3454
40	-10.3458
▁robbery	-10.3459
▁excited	-10.3462
▁personnel	-10.3464
▁bird	-10.3466
▁investment	-10.3468
▁Ro	-10.3476
si	-10.3479
▁numerous	-10.3486
▁science	-10.3492
▁Five	-10.3492
▁22,	-10.3496
▁Local	-10.3498
▁threatening	-10.35
▁Gerrard	-10.3503
▁granted	-10.3503
▁Tu	-10.3506
▁Michigan	-10.3506
▁Scientists	-10.3508
▁Jr	-10.3514
▁Port	-10.3516
▁Har	-10.3518
▁link	-10.352
▁Jennifer	-10.3522
▁16-	-10.3527
style	-10.3528
▁combat	-10.3535
▁smaller	-10.3535
our	-10.3535
▁driven	-10.3536
▁Up	-10.354
▁jump	-10.3544
▁tragic	-10.3553
▁fighters	-10.3556
▁direct	-10.3558
▁Roma	-10.3561
▁silver	-10.3563
▁flew	-10.3566
▁supposed	-10.3566
▁hero	-10.357
▁planet	-10.357
▁inquest	-10.357
▁compensation	-10.3574
▁string	-10.3581
▁raid	-10.3582
▁colour	-10.3595
▁Cross	-10.3603
▁kicked	-10.361
▁offensive	-10.361
▁prize	-10.3612
▁Mac	-10.3615
▁24,	-10.3617
▁generation	-10.3619
▁remote	-10.3621
▁26,	-10.3624
▁journalists	-10.3633
▁possibility	-10.3635
▁reduced	-10.3637
▁Campbell	-10.3638
▁promised	-10.3642
▁task	-10.3643
▁primary	-10.3646
▁Nigeria	-10.3647
▁inquiry	-10.3651
▁album	-10.3651
▁professor	-10.3665
two	-10.3672
▁stepped	-10.3675
▁posed	-10.3677
▁widely	-10.3678
▁nations	-10.3687
▁defending	-10.3689
▁pose	-10.3698
▁Emma	-10.3699
▁trend	-10.371
▁Pa	-10.371
▁27,	-10.3711
▁locked	-10.3716
▁neighborhood	-10.372
50	-10.3728
▁911	-10.3728
▁native	-10.3729
▁birds	-10.373
▁stayed	-10.3737
▁policies	-10.374
▁Radio	-10.3747
▁Student	-10.3747
rd	-10.3749
▁increasing	-10.3752
▁searching	-10.3756
▁Walker	-10.3756
▁conviction	-10.3758
▁Among	-10.3759
▁c	-10.3772
▁survive	-10.3773
▁rose	-10.3783
que	-10.3785
▁scores	-10.3785
▁Rodriguez	-10.3787
▁Read	-10.3788
▁Experts	-10.3789
▁humans	-10.3793
ber	-10.3793
▁Ha	-10.3795
▁murdered	-10.3802
▁Time	-10.3807
▁unclear	-10.3811
▁30-	-10.3813
Z	-10.3817
▁2003	-10.382
▁episode	-10.3825
▁unknown	-10.3827
▁Jamie	-10.3834
▁bright	-10.3835
▁notice	-10.3836
▁discovery	-10.3841
▁NASA	-10.3851
ence	-10.3852
▁Back	-10.3855
▁offence	-10.3856
People	-10.3857
▁v	-10.386
low	-10.3865
▁Out	-10.3867
gan	-10.3869
▁75	-10.3871
▁stomach	-10.3878
▁permission	-10.3879
▁Hernandez	-10.3885
▁cells	-10.389
▁agree	-10.3899
▁systems	-10.3904
ick	-10.3904
▁blast	-10.3906
ker	-10.3908
▁background	-10.3908
▁Portugal	-10.3909
file	-10.3912
▁privacy	-10.3914
▁teeth	-10.3916
▁drama	-10.3922
▁stole	-10.3925
▁outbreak	-10.3932
mon	-10.3935
▁mostly	-10.3935
▁politics	-10.3936
▁attacking	-10.3937
▁controversy	-10.3939
▁focused	-10.3946
▁spokesperson	-10.3961
▁letters	-10.3961
▁houses	-10.3962
▁medal	-10.3966
▁grown	-10.3966
star	-10.3974
▁noted	-10.3977
▁moon	-10.3978
▁gain	-10.3982
ow	-10.3983
▁cup	-10.3985
▁Space	-10.3992
▁Gordon	-10.3994
▁17-	-10.3998
▁shark	-10.4
▁Second	-10.4002
▁Jean	-10.4002
▁33	-10.4005
▁suffer	-10.4008
▁Chi	-10.4011
10	-10.4028
▁abroad	-10.4029
▁enjoying	-10.4031
▁options	-10.4032
▁zone	-10.4034
▁backed	-10.404
▁21,	-10.4042
▁code	-10.4043
▁Justin	-10.4044
▁Za	-10.405
▁supply	-10.405
han	-10.4051
ab	-10.4051
▁heavily	-10.4052
▁feared	-10.4057
▁Rock	-10.4061
▁iconic	-10.4062
life	-10.4068
related	-10.4077
▁Ne	-10.4077
▁Luke	-10.4079
▁faith	-10.408
▁lady	-10.4081
▁Gar	-10.4085
▁dispute	-10.4087
▁sight	-10.4092
▁Gulf	-10.4094
▁Brooklyn	-10.4097
▁28,	-10.41
▁prompted	-10.4102
▁19,	-10.4105
▁chose	-10.4108
▁Amazon	-10.4108
▁winds	-10.4111
▁Martinez	-10.4114
▁presenter	-10.4115
▁hidden	-10.4122
▁Bell	-10.4124
▁meal	-10.4124
▁lift	-10.4125
▁arrive	-10.413
▁prior	-10.4132
▁deliver	-10.4134
▁Irish	-10.4136
▁Arab	-10.4136
season	-10.4141
▁parent	-10.4142
▁cap	-10.4143
▁mis	-10.4143
▁Duke	-10.4145
▁prisoners	-10.4149
▁Each	-10.4155
American	-10.4156
▁joke	-10.4156
▁Ke	-10.4157
▁Little	-10.4157
▁Square	-10.4161
▁feed	-10.4163
▁affect	-10.4165
ny	-10.4165
▁Rights	-10.4175
▁GOP	-10.4175
▁cleared	-10.4176
more	-10.4183
▁seed	-10.4184
▁Crystal	-10.4187
ize	-10.4188
▁aimed	-10.4195
▁Federer	-10.4195
▁Belgium	-10.4198
▁negative	-10.4199
▁remarks	-10.4204
▁wave	-10.4205
▁2011.	-10.4205
▁accepting	-10.4219
▁gift	-10.4223
▁exposed	-10.4226
▁rebels	-10.4226
▁Anna	-10.4239
▁Celtic	-10.424
▁Dubai	-10.4246
▁publicly	-10.4249
▁preparing	-10.4251
▁reputation	-10.4251
▁Investigators	-10.4251
▁Roger	-10.4256
▁sons	-10.4259
▁recover	-10.426
▁properly	-10.4265
▁Da	-10.4266
▁referee	-10.4271
gen	-10.4275
▁Thompson	-10.4276
▁civilians	-10.4279
ance	-10.4287
▁battery	-10.4292
▁doors	-10.4296
▁associated	-10.4298
▁plot	-10.4298
▁Live	-10.4299
▁flu	-10.43
▁realised	-10.4305
▁naked	-10.4306
▁fantastic	-10.4306
▁transport	-10.4308
▁vulnerable	-10.4309
▁basis	-10.4311
▁McDonald	-10.4314
▁Once	-10.4315
hu	-10.4316
▁honor	-10.4319
▁drawn	-10.4321
gu	-10.4325
▁Marine	-10.4327
▁$5	-10.4328
▁legislation	-10.4328
▁critics	-10.4329
▁Hughes	-10.4329
▁Video	-10.433
▁Neil	-10.4332
▁starts	-10.4332
▁smoking	-10.4333
▁Zoo	-10.4333
▁calm	-10.434
▁Here	-10.434
▁Bristol	-10.4343
▁shoulder	-10.4349
car	-10.4358
ou	-10.4361
▁metres	-10.4363
▁Jay	-10.4366
▁mum	-10.4373
▁adds	-10.438
▁encourage	-10.4382
▁Guard	-10.4383
▁Dallas	-10.439
▁opinion	-10.4394
▁proposal	-10.4397
▁29,	-10.4402
▁Rangers	-10.4406
▁Edward	-10.4409
▁23-	-10.441
ite	-10.4413
▁Law	-10.4416
king	-10.4416
▁comfortable	-10.4418
▁obviously	-10.4427
▁attempting	-10.4431
▁editor	-10.4435
▁possibly	-10.4439
▁d	-10.4443
▁balance	-10.4444
▁coverage	-10.4463
▁tears	-10.4464
▁earn	-10.4465
▁warrant	-10.4471
▁400	-10.4472
▁22-	-10.4477
▁Hodgson	-10.4478
▁Stewart	-10.4481
▁Philip	-10.4482
▁marks	-10.4485
▁write	-10.4489
air	-10.4489
▁Jessica	-10.449
▁targets	-10.4493
▁Juan	-10.4495
▁effective	-10.4498
▁bills	-10.4505
▁zoo	-10.4508
▁happening	-10.4511
▁Museum	-10.4522
▁tea	-10.4531
▁Clark	-10.4534
if	-10.4537
▁£6	-10.4541
gar	-10.4542
▁beer	-10.4543
▁racing	-10.4543
▁19-	-10.4551
▁agencies	-10.456
▁Am	-10.4562
che	-10.4574
free	-10.4574
▁vessel	-10.4575
▁dozen	-10.458
▁quiet	-10.4583
▁Ra	-10.4583
ho	-10.4584
25	-10.4585
▁Switzerland	-10.4589
▁sheriff	-10.459
▁continuing	-10.4593
▁happens	-10.4594
▁Head	-10.4603
▁lunch	-10.4605
▁thank	-10.4605
▁talent	-10.4611
ping	-10.4617
▁waters	-10.4629
▁quit	-10.4633
ino	-10.4634
▁Ja	-10.4635
▁punishment	-10.4637
▁terrorism	-10.4638
▁Father	-10.4639
▁Sha	-10.4645
▁Ross	-10.4647
▁chemical	-10.4647
▁western	-10.4648
▁raising	-10.4648
▁document	-10.465
ins	-10.4651
ru	-10.4658
▁consumers	-10.4659
▁Ko	-10.4659
▁1970	-10.4661
▁greatest	-10.4662
▁chocolate	-10.4666
▁maximum	-10.4666
▁Bruce	-10.4666
ang	-10.4671
vo	-10.4674
▁conversation	-10.4689
lb	-10.4703
▁Far	-10.4705
▁map	-10.4705
▁Academy	-10.471
▁begins	-10.4725
▁scenes	-10.4725
▁heads	-10.4728
▁Hunt	-10.4734
▁argument	-10.4735
down	-10.4735
▁lifestyle	-10.4737
▁badly	-10.474
▁Oklahoma	-10.474
▁pink	-10.474
▁31,	-10.4741
▁bench	-10.4744
▁Fort	-10.4749
▁2012.	-10.4752
▁rich	-10.4758
▁taxi	-10.4763
▁di	-10.4768
▁21-	-10.4769
▁Catholic	-10.4769
▁relations	-10.4773
▁authority	-10.4774
▁iPad	-10.4778
▁fined	-10.478
▁Hampshire	-10.4782
▁Davies	-10.4786
▁Beckham	-10.4794
▁alert	-10.4796
▁34	-10.4799
▁communities	-10.48
▁tall	-10.48
▁36	-10.4802
▁cutting	-10.4802
wing	-10.481
▁challenges	-10.481
▁Met	-10.4812
ett	-10.4817
▁Spurs	-10.4818
▁$4	-10.4821
▁abused	-10.4826
▁sets	-10.4828
▁afford	-10.4829
▁Associated	-10.4831
▁desperate	-10.4832
▁Director	-10.4836
▁prepare	-10.4841
▁drew	-10.4842
▁Sport	-10.4844
▁milk	-10.4844
▁Swiss	-10.4854
ped	-10.4859
▁plus	-10.486
▁Wright	-10.4866
▁firefighters	-10.4866
▁routine	-10.4869
ani	-10.487
▁shocking	-10.487
▁resources	-10.4871
om	-10.4872
▁dealing	-10.4873
▁pregnancy	-10.4873
▁sleeping	-10.4877
▁Has	-10.4878
▁memorial	-10.4881
▁14-	-10.4887
▁2,000	-10.489
▁Sanchez	-10.489
▁Gold	-10.4898
▁direction	-10.4906
▁Laura	-10.4907
▁delighted	-10.4912
▁Garcia	-10.4914
▁stuff	-10.4917
mar	-10.4917
▁Pi	-10.4919
ward	-10.4931
,500	-10.4933
▁describes	-10.4933
▁promote	-10.4935
▁apology	-10.4942
▁2010.	-10.4943
ries	-10.4945
▁Christie	-10.4947
▁drone	-10.495
▁rooms	-10.4953
▁internal	-10.4954
▁digital	-10.4957
▁Sean	-10.4958
▁Land	-10.4962
▁Pre	-10.4962
▁Best	-10.4963
▁welfare	-10.4963
▁museum	-10.4969
▁Jan	-10.4973
▁gym	-10.4975
▁empty	-10.4981
▁Aaron	-10.4981
▁favorite	-10.4982
ray	-10.4986
▁appropriate	-10.4986
▁En	-10.4987
▁Ri	-10.4987
▁structure	-10.4988
▁Te	-10.4988
▁Philadelphia	-10.499
▁performing	-10.4993
▁Bre	-10.4998
tz	-10.4998
▁Society	-10.5009
▁raped	-10.5011
▁tourist	-10.5012
▁pointed	-10.5021
30	-10.5023
▁stock	-10.5025
▁truth	-10.5026
▁drinks	-10.5034
▁politicians	-10.5036
▁Seattle	-10.5036
▁48	-10.5037
▁leads	-10.5037
▁bathroom	-10.5038
▁Bull	-10.5043
▁Wi	-10.5045
tor	-10.5045
▁celebrities	-10.5046
▁CBS	-10.5049
▁ski	-10.5049
▁easier	-10.5052
▁Mars	-10.506
▁procedure	-10.5065
▁banks	-10.5066
▁bizarre	-10.5069
▁defend	-10.507
▁Free	-10.5073
▁established	-10.5079
▁plenty	-10.5083
▁hate	-10.509
▁2009,	-10.5096
▁2002	-10.5097
▁Craig	-10.5098
qui	-10.51
▁painting	-10.5103
▁studies	-10.5104
lu	-10.5104
▁scale	-10.5112
▁bombing	-10.5114
▁Gen	-10.5117
port	-10.5121
▁wounds	-10.5125
▁notes	-10.5132
▁toilet	-10.5136
her	-10.5139
▁exit	-10.5143
▁stable	-10.5154
▁permanent	-10.5156
▁Djokovic	-10.5166
▁updated	-10.517
▁Was	-10.5175
▁tries	-10.5177
▁Officer	-10.5181
tra	-10.5184
▁vital	-10.5185
▁cream	-10.5185
▁arrests	-10.5186
▁racist	-10.5189
▁clip	-10.5191
▁taste	-10.5192
▁tight	-10.5192
▁wheel	-10.5194
▁weren	-10.5195
▁Like	-10.5201
dis	-10.5212
▁30,	-10.5221
▁couples	-10.5221
▁aboard	-10.5222
▁engaged	-10.5223
▁Greece	-10.5225
▁anger	-10.5228
hand	-10.5228
tro	-10.5233
▁referred	-10.5238
▁spell	-10.5241
▁normally	-10.5249
▁collect	-10.5251
▁Helen	-10.5268
▁grabbed	-10.5276
▁mile	-10.5281
▁collision	-10.5282
▁likes	-10.5285
▁wonderful	-10.5294
▁Town	-10.5296
▁Thailand	-10.5311
ung	-10.5318
▁disappearance	-10.532
▁Magistrates	-10.5321
▁winners	-10.5321
▁Pacific	-10.5321
▁conspiracy	-10.5329
▁Perry	-10.533
▁Lane	-10.5335
▁handle	-10.5338
▁Mercedes	-10.5339
▁titles	-10.534
▁pleased	-10.5341
▁Jeremy	-10.5342
▁smile	-10.5343
▁filming	-10.5346
▁suspicious	-10.5349
▁blaze	-10.5361
ists	-10.5366
▁petition	-10.5368
▁supported	-10.537
▁require	-10.5375
▁probe	-10.5376
▁Cristiano	-10.5378
▁grounds	-10.5382
▁specialist	-10.5385
ji	-10.5386
▁unless	-10.5392
▁roads	-10.5397
▁AC	-10.5397
ik	-10.5398
▁largely	-10.5399
▁branch	-10.5399
▁activists	-10.5407
▁featuring	-10.5412
▁willing	-10.5414
▁chosen	-10.5415
▁pushing	-10.5419
▁Blair	-10.5422
▁closely	-10.5427
▁Angel	-10.5432
▁supporting	-10.5435
▁fill	-10.5436
▁Che	-10.5436
▁corruption	-10.5446
▁brown	-10.5447
▁strikes	-10.5453
ship	-10.5455
box	-10.5455
▁apparent	-10.546
▁platform	-10.5463
▁ambassador	-10.5466
▁software	-10.5466
▁concluded	-10.5468
▁impressed	-10.5471
▁moves	-10.5471
▁Illinois	-10.5472
final	-10.5473
▁Jeff	-10.5474
▁attracted	-10.5474
▁parliament	-10.5475
▁Russell	-10.5482
▁invited	-10.5482
bar	-10.5488
▁overseas	-10.5489
▁officially	-10.5489
sha	-10.5491
▁fees	-10.55
▁vast	-10.5502
▁Y	-10.5506
▁reporter	-10.551
▁Why	-10.5511
ki	-10.5512
▁stealing	-10.5525
ong	-10.5528
▁trophy	-10.5531
▁Egyptian	-10.5532
▁mine	-10.5532
▁Who	-10.5536
▁defendant	-10.5536
▁contained	-10.5538
▁aim	-10.5538
▁payments	-10.5541
▁minimum	-10.5547
▁poses	-10.555
▁Turkish	-10.555
▁Brendan	-10.555
▁basic	-10.5555
▁celebrating	-10.5556
Ma	-10.5565
▁Manuel	-10.5566
▁none	-10.5572
▁Missouri	-10.5573
point	-10.5575
One	-10.5581
▁Roman	-10.5591
▁Atlantic	-10.5599
▁Gov	-10.5599
▁gap	-10.5599
▁outfit	-10.5602
▁1.	-10.5602
▁throw	-10.5603
▁Roberts	-10.5606
▁characters	-10.5608
▁2000	-10.5608
▁Mohammed	-10.5608
▁decisions	-10.5611
▁turns	-10.5616
▁coalition	-10.5618
▁tip	-10.5618
▁suddenly	-10.5619
▁defended	-10.5621
▁Nadal	-10.5628
▁demanded	-10.563
▁viral	-10.5634
▁extended	-10.5636
▁commit	-10.5642
▁package	-10.5646
▁devastated	-10.5647
▁spirit	-10.5647
▁Britons	-10.5647
water	-10.5649
▁stick	-10.5653
▁teenagers	-10.5654
▁Mitchell	-10.5656
▁arriving	-10.566
▁Glasgow	-10.5663
▁adopted	-10.5677
▁26-	-10.5677
▁Camp	-10.5678
▁facilities	-10.568
▁chair	-10.5681
▁Jimmy	-10.5686
ions	-10.5686
▁attending	-10.5696
▁favour	-10.57
▁Following	-10.5704
▁Lisa	-10.5705
▁campus	-10.571
▁contain	-10.5716
▁guys	-10.5717
▁documentary	-10.5726
▁nor	-10.5727
▁Rep	-10.573
▁Bowl	-10.5732
▁Kerry	-10.5735
▁informed	-10.5737
▁20,	-10.5737
ial	-10.5739
▁county	-10.5741
pi	-10.5746
▁dying	-10.5749
▁connected	-10.5751
▁18,	-10.5751
▁Libya	-10.5752
▁Utah	-10.5752
▁Colombia	-10.5754
▁Devon	-10.5764
▁elected	-10.5765
▁everybody	-10.5766
▁solar	-10.5768
▁dubbed	-10.5769
▁file	-10.5769
▁slightly	-10.5777
▁Stone	-10.5778
▁paint	-10.5778
▁ministry	-10.5779
▁web	-10.578
▁alternative	-10.5786
▁Administration	-10.5788
my	-10.5789
▁planes	-10.5791
ren	-10.5796
▁atmosphere	-10.5798
▁registered	-10.5799
ay	-10.5799
▁delay	-10.5801
15	-10.5801
▁celebrated	-10.581
▁candidates	-10.581
▁reporting	-10.5816
▁Disney	-10.5828
▁sees	-10.5833
▁behalf	-10.5834
▁demanding	-10.5837
▁Jane	-10.5843
ub	-10.5848
▁horrific	-10.5851
▁Ferrari	-10.5852
▁riding	-10.5853
▁surrounded	-10.5855
▁Abbott	-10.5857
mm	-10.5869
▁Stuart	-10.5875
▁praised	-10.5877
▁garage	-10.5878
▁provides	-10.5879
▁relief	-10.5888
▁aggressive	-10.5889
▁sector	-10.5892
▁disappointed	-10.5893
▁error	-10.5896
▁Anne	-10.59
▁obtained	-10.5901
▁travelled	-10.5901
▁collected	-10.5905
pping	-10.5905
▁scared	-10.5909
ising	-10.5918
▁rugby	-10.5918
▁shares	-10.5924
▁assistance	-10.5925
▁Oxford	-10.5928
▁sacked	-10.5929
▁somebody	-10.5934
▁Mel	-10.5935
▁recovering	-10.5937
▁smashed	-10.5937
▁sharing	-10.5942
▁overnight	-10.5944
▁Several	-10.5944
work	-10.5945
▁Oregon	-10.5945
▁McIlroy	-10.5949
▁65	-10.5951
▁represent	-10.5965
▁Ward	-10.5967
▁Somalia	-10.597
▁laid	-10.5974
ach	-10.5974
▁dry	-10.5977
▁Carter	-10.5977
▁ocean	-10.5978
ice	-10.598
ez	-10.5985
▁kidnapping	-10.5986
▁solution	-10.5989
▁Ocean	-10.5989
called	-10.5997
▁hired	-10.5998
▁assaulted	-10.6002
▁Muslims	-10.6007
▁whatever	-10.6016
▁Jewish	-10.6016
▁studio	-10.602
▁alarm	-10.6029
▁neighbours	-10.6031
▁searched	-10.6031
▁properties	-10.6033
▁delivery	-10.6034
▁traveling	-10.6041
▁hanging	-10.6046
▁writes	-10.6052
▁plants	-10.6054
▁Commons	-10.6055
▁Kenya	-10.6059
gi	-10.6062
▁commission	-10.6062
▁winger	-10.6065
berg	-10.6066
▁Sheffield	-10.6067
▁terrorists	-10.6073
pro	-10.6073
▁windows	-10.6076
▁helps	-10.6078
▁maintain	-10.6079
▁Follow	-10.6082
tion	-10.6084
▁formed	-10.6084
ap	-10.6085
▁hide	-10.6086
▁variety	-10.6091
▁rural	-10.6091
▁involvement	-10.6091
▁Edwards	-10.6092
▁channel	-10.6092
▁depression	-10.6098
▁ancient	-10.6105
▁rocket	-10.6106
▁disorder	-10.6107
▁reaching	-10.6109
▁Connecticut	-10.6111
▁shouldn	-10.6111
▁felony	-10.6112
▁Howard	-10.6113
▁Ban	-10.6113
▁orders	-10.6115
▁Amanda	-10.6129
▁sand	-10.6131
▁5.	-10.6134
▁27-	-10.6146
▁crossing	-10.6153
▁LA	-10.6154
▁Adams	-10.6156
▁Food	-10.6161
▁Flight	-10.6164
▁Alabama	-10.6166
worth	-10.6167
▁Deputy	-10.617
▁yards	-10.6171
▁teaching	-10.6173
▁pace	-10.6173
▁smell	-10.6175
▁crucial	-10.6177
▁flames	-10.6177
▁burned	-10.6179
▁hunt	-10.6183
▁ear	-10.6186
▁mansion	-10.6188
fer	-10.6189
▁probation	-10.619
▁guest	-10.6194
▁Ken	-10.6194
▁Power	-10.6195
▁hunting	-10.6199
▁Dave	-10.6203
▁Friends	-10.6204
▁clinic	-10.6206
bb	-10.6208
▁2008,	-10.621
under	-10.6211
▁partners	-10.6211
▁Gaza	-10.6219
▁worry	-10.6219
▁Southern	-10.6219
ven	-10.6219
▁licence	-10.6225
▁sweet	-10.6225
▁innocent	-10.623
▁port	-10.6233
▁gained	-10.6233
▁achieve	-10.6234
▁toddler	-10.6235
▁waves	-10.6237
▁shops	-10.6239
class	-10.6239
▁2001	-10.6249
▁Education	-10.6249
▁oldest	-10.6257
cha	-10.6262
▁Susan	-10.6263
▁exhibition	-10.6264
▁Cha	-10.6265
▁38	-10.6266
ane	-10.6267
▁ending	-10.6268
▁bosses	-10.6274
room	-10.6283
▁Amy	-10.6286
▁Staff	-10.6288
▁Secret	-10.6293
▁Burnley	-10.6294
▁sustained	-10.6296
80	-10.6301
▁gender	-10.6301
har	-10.6301
town	-10.6306
▁firms	-10.6306
▁checked	-10.6308
▁Arsene	-10.6308
▁cricket	-10.6308
▁seventh	-10.631
▁application	-10.6314
▁smart	-10.6315
▁NATO	-10.6315
▁brief	-10.6316
▁peak	-10.632
▁hospitals	-10.6322
▁homeless	-10.6322
▁Palestinian	-10.6335
▁describe	-10.6336
▁Board	-10.634
▁fewer	-10.6343
▁funny	-10.635
▁Juventus	-10.6351
▁hits	-10.6353
▁Brom	-10.6353
▁retirement	-10.6354
▁dedicated	-10.6356
inch	-10.6356
mile	-10.6373
▁youngest	-10.6375
▁neighbor	-10.6377
▁wing	-10.6381
▁advertising	-10.6382
▁posts	-10.6384
▁Seven	-10.6386
▁Cor	-10.639
▁Liga	-10.6394
▁Osborne	-10.6396
▁settlement	-10.6397
light	-10.6399
▁judges	-10.64
▁resigned	-10.64
▁cruise	-10.6406
▁sanctions	-10.6406
▁worn	-10.6409
▁occasion	-10.6411
▁finger	-10.6412
▁stated	-10.6413
▁burst	-10.6415
ph	-10.6417
je	-10.6419
▁Blue	-10.642
▁wound	-10.6421
▁fighter	-10.6423
▁comedy	-10.6423
▁guide	-10.6424
▁attached	-10.6426
▁shelter	-10.6431
ev	-10.6439
▁Crime	-10.6439
▁marked	-10.6442
▁strategy	-10.6445
▁talked	-10.6446
▁wildlife	-10.6449
▁improved	-10.6454
▁locations	-10.646
▁smartphone	-10.6461
▁HIV	-10.6463
▁Art	-10.6464
tu	-10.647
▁Islam	-10.6479
▁concert	-10.6479
▁Austin	-10.6481
▁capable	-10.6482
▁Dean	-10.6486
▁CIA	-10.6488
60	-10.6489
▁Lambert	-10.6491
▁Prix	-10.6495
▁factor	-10.6495
chi	-10.6499
▁infected	-10.65
▁ankle	-10.65
▁fishing	-10.6504
▁Mount	-10.6512
▁awareness	-10.6514
▁patrol	-10.652
▁impossible	-10.6522
▁Queensland	-10.6528
▁ties	-10.6531
▁tape	-10.6531
▁vision	-10.6532
▁mix	-10.6535
▁hosts	-10.6541
▁lots	-10.6543
▁Lionel	-10.6545
ette	-10.6546
ep	-10.6547
▁tonight	-10.6549
▁parked	-10.6551
▁10,000	-10.6551
▁sentencing	-10.6555
▁encounter	-10.6558
▁Emirates	-10.6559
▁opportunities	-10.6559
▁collapse	-10.656
▁Formula	-10.6566
▁supermarket	-10.6574
▁championship	-10.6575
▁hadn	-10.6575
▁Ba	-10.6576
▁37	-10.6579
▁cats	-10.6585
▁ministers	-10.6588
▁Services	-10.659
▁Gu	-10.659
▁flood	-10.6591
▁Around	-10.6598
▁terrible	-10.6599
▁extend	-10.6599
▁Ku	-10.66
known	-10.6606
▁apply	-10.661
▁purchase	-10.6611
▁fence	-10.6613
▁Neymar	-10.6616
▁deeply	-10.6618
▁yourself	-10.6625
▁Bond	-10.6628
▁newly	-10.6631
▁tracks	-10.6635
▁temperature	-10.6635
▁risks	-10.6637
▁Cornwall	-10.6638
▁closing	-10.6641
▁mention	-10.6644
▁Work	-10.6649
▁replied	-10.6652
wi	-10.6653
▁lifted	-10.6661
▁Still	-10.6662
▁youngster	-10.6662
▁earthquake	-10.6666
ff	-10.6668
▁Antonio	-10.6671
▁replacement	-10.6672
▁regarding	-10.6684
▁grass	-10.6687
▁Pat	-10.6693
▁conservative	-10.6694
▁truly	-10.6696
▁priority	-10.6707
▁Del	-10.6708
▁Hillary	-10.6711
▁producer	-10.6716
ova	-10.6721
▁Safety	-10.6721
▁Sportsmail	-10.6722
▁Shaw	-10.6724
▁joy	-10.6726
▁widespread	-10.6728
99	-10.6731
▁ITV	-10.6734
▁basketball	-10.6736
▁switch	-10.6741
▁Jon	-10.6742
▁containing	-10.6745
nce	-10.6746
set	-10.6751
▁object	-10.6757
▁exciting	-10.6759
▁pronounced	-10.6759
With	-10.6768
▁thinks	-10.6768
▁temporary	-10.677
▁factory	-10.6772
▁Authority	-10.6772
▁Tri	-10.6772
▁lung	-10.6773
▁Cuba	-10.6774
▁Sweden	-10.6776
▁Care	-10.6776
▁crying	-10.6783
▁£10	-10.6785
▁honour	-10.6786
▁recording	-10.6791
▁headquarters	-10.6791
izing	-10.6792
▁tweets	-10.6792
▁formal	-10.6794
▁Journal	-10.6796
▁sharp	-10.6798
▁Conservative	-10.68
▁pot	-10.6802
▁ordeal	-10.6808
▁restaurants	-10.6808
▁grandfather	-10.681
▁lie	-10.6811
▁Fernando	-10.6816
made	-10.6819
▁Station	-10.6821
▁Lib	-10.6824
uff	-10.6828
▁combined	-10.6829
ct	-10.6832
▁throwing	-10.6833
▁interviewed	-10.6841
▁detectives	-10.6848
▁Anfield	-10.6848
▁condemned	-10.6848
▁Chancellor	-10.6856
▁colleague	-10.6858
▁speculation	-10.686
▁shift	-10.6862
▁33,	-10.6863
▁Rome	-10.6864
▁celebration	-10.6866
▁papers	-10.6873
▁Bi	-10.6877
▁Winter	-10.688
▁3-1	-10.6881
▁g	-10.6886
▁taught	-10.6886
▁appointed	-10.6887
▁stunt	-10.6887
stone	-10.6887
▁vs	-10.6897
▁chicken	-10.6897
▁42	-10.6898
▁athletes	-10.6899
▁controlled	-10.6903
▁climb	-10.6909
▁32,	-10.6915
par	-10.6916
▁Asked	-10.6916
len	-10.6918
ell	-10.6923
Re	-10.6923
▁Inc	-10.6924
▁Dortmund	-10.6926
▁NBA	-10.6927
▁Edinburgh	-10.693
▁writer	-10.6932
▁totally	-10.6935
▁Jong	-10.6936
▁Barclays	-10.6938
▁recalled	-10.6943
▁monitor	-10.6943
▁guards	-10.6944
▁bone	-10.6944
▁branded	-10.6946
▁links	-10.695
▁exclusive	-10.695
▁strange	-10.6961
▁Water	-10.6962
fa	-10.6962
▁incredibly	-10.6964
pl	-10.6964
▁grave	-10.6967
▁£8	-10.6969
▁length	-10.6969
After	-10.6971
▁sugar	-10.6971
▁approval	-10.6975
▁3-0	-10.6976
▁decline	-10.6976
▁stroke	-10.6979
▁mixed	-10.698
▁representative	-10.6983
▁lies	-10.6985
▁successfully	-10.6986
▁commitment	-10.6988
▁Bur	-10.6989
▁immigrants	-10.699
can	-10.6993
▁advised	-10.6995
▁anywhere	-10.6995
▁breach	-10.6996
▁Sergio	-10.6997
▁disabled	-10.6998
▁safely	-10.6999
▁Grant	-10.6999
▁knowing	-10.7002
▁Ca	-10.7004
▁sporting	-10.7006
▁Bra	-10.7018
▁intent	-10.702
▁competitive	-10.7021
▁movies	-10.7031
▁breathing	-10.7034
▁Detroit	-10.7035
above	-10.7035
▁forget	-10.7035
▁Sandy	-10.7037
▁delayed	-10.7037
▁license	-10.7039
▁28-	-10.7041
▁degrees	-10.7041
use	-10.7049
▁chef	-10.7049
▁founded	-10.7052
▁Pan	-10.7055
▁Sgt	-10.7061
▁Midlands	-10.7065
▁burning	-10.7066
▁entirely	-10.7069
▁height	-10.7071
▁Greg	-10.7071
▁Warren	-10.7073
vin	-10.7074
▁striking	-10.7076
▁awards	-10.7078
▁teens	-10.7079
▁summit	-10.708
mb	-10.7084
▁entering	-10.7086
▁GP	-10.709
▁2.	-10.7091
▁screaming	-10.7091
▁deny	-10.7094
▁Chile	-10.7098
▁analysis	-10.7099
▁stages	-10.71
▁Welsh	-10.7107
▁Golden	-10.711
▁walls	-10.711
▁1960	-10.7111
▁votes	-10.7113
▁occasions	-10.7117
▁skull	-10.7121
▁master	-10.7129
▁Singapore	-10.7133
▁cited	-10.7134
.1	-10.7143
▁marry	-10.7148
van	-10.7148
▁contains	-10.7151
▁Clegg	-10.7152
▁mothers	-10.7152
▁warn	-10.7153
▁posing	-10.7155
▁Capital	-10.7155
▁covering	-10.7157
▁Collins	-10.7159
▁booked	-10.7163
lbs	-10.7165
▁Samsung	-10.7167
tin	-10.7174
▁demands	-10.7178
▁interesting	-10.7182
▁Sony	-10.7183
▁Arabia	-10.7184
bra	-10.7187
▁desire	-10.7188
▁Mu	-10.719
▁thoughts	-10.7191
▁crews	-10.7199
▁correct	-10.7199
▁43	-10.7202
ile	-10.7202
▁relatively	-10.7204
▁departure	-10.7205
▁migrants	-10.7207
ging	-10.7208
▁classes	-10.721
▁entry	-10.7211
▁resulted	-10.7212
▁Alaska	-10.7216
▁comfort	-10.7218
▁Ni	-10.722
▁firing	-10.722
▁fix	-10.7227
▁admitting	-10.7232
▁flooding	-10.7233
▁Rescue	-10.7235
ot	-10.7242
▁Bale	-10.7242
▁regional	-10.7244
▁meals	-10.7244
ns	-10.7248
▁Our	-10.7253
▁pulling	-10.7256
▁17,	-10.7258
▁organisation	-10.7261
▁Ru	-10.7263
▁manage	-10.7263
▁Ron	-10.7266
▁accidentally	-10.7267
▁roll	-10.727
▁commander	-10.7271
▁Carl	-10.7273
▁express	-10.7273
▁Wembley	-10.7274
▁Forest	-10.7274
▁Nelson	-10.7274
▁bears	-10.7274
▁admit	-10.7279
▁Tokyo	-10.7285
▁blocked	-10.729
▁intense	-10.7291
▁Greek	-10.7297
▁childhood	-10.7302
▁suspension	-10.7304
▁applied	-10.7312
▁era	-10.7317
▁Monaco	-10.732
▁satellite	-10.732
▁selection	-10.7322
▁Berlin	-10.7328
▁Oliver	-10.7329
▁equal	-10.7338
dale	-10.7343
▁throat	-10.7345
▁detail	-10.7351
▁Poland	-10.7352
▁Tesco	-10.7355
▁pending	-10.7355
▁advert	-10.7359
▁Ann	-10.7361
ably	-10.7362
▁horror	-10.7362
▁tend	-10.7365
▁Moyes	-10.7366
▁Maryland	-10.7368
▁artists	-10.7371
▁motion	-10.7372
▁checks	-10.7372
▁Mi	-10.7376
▁expecting	-10.738
▁appearing	-10.7383
ara	-10.7383
▁soft	-10.7387
▁regulations	-10.7388
▁opponent	-10.739
▁promise	-10.7392
▁packed	-10.7392
On	-10.7392
▁interests	-10.7394
▁designs	-10.7396
▁manslaughter	-10.7397
az	-10.7402
▁Entertainment	-10.7403
▁manner	-10.7404
▁gunman	-10.7404
▁hiding	-10.7413
ai	-10.7414
▁blind	-10.7415
▁eggs	-10.7415
▁inspiration	-10.7417
▁Emily	-10.7417
▁bombs	-10.742
cy	-10.7422
▁becomes	-10.7422
▁Nazi	-10.7427
▁transferred	-10.7429
▁concept	-10.743
▁otherwise	-10.7432
▁Simpson	-10.7432
▁residence	-10.7436
▁materials	-10.7437
▁Pardew	-10.7444
▁household	-10.7449
▁fame	-10.7449
▁aggravated	-10.745
▁Tennessee	-10.7456
▁upcoming	-10.7458
▁duo	-10.7458
▁tech	-10.7464
fire	-10.7468
▁2009.	-10.7471
▁Sri	-10.7475
let	-10.7475
▁acted	-10.7476
▁Max	-10.7478
45	-10.7478
▁hall	-10.7479
▁understanding	-10.748
▁proper	-10.7482
▁popularity	-10.7484
▁sits	-10.749
▁13-	-10.7491
▁Down	-10.7493
board	-10.7497
▁battling	-10.7499
▁imagine	-10.75
▁noise	-10.75
▁Indonesia	-10.7503
▁wealth	-10.7504
▁inmates	-10.7505
▁Defence	-10.7511
▁55	-10.7512
▁motor	-10.7513
▁clients	-10.7515
ski	-10.7516
▁3.	-10.7517
▁Android	-10.7522
▁44	-10.7527
▁apologised	-10.7527
▁vowed	-10.7528
▁apps	-10.7531
▁brutal	-10.7538
▁partnership	-10.7543
▁Castro	-10.7544
▁chase	-10.7544
▁picking	-10.7544
winning	-10.7548
▁lake	-10.7557
▁usual	-10.7558
▁Bailey	-10.7558
▁flowers	-10.756
▁songs	-10.7562
▁belt	-10.7566
▁footballer	-10.7569
▁Westminster	-10.757
▁Though	-10.7571
▁taxes	-10.7573
▁Netherlands	-10.7578
▁Hawaii	-10.7588
▁Bu	-10.759
▁civilian	-10.7592
▁transplant	-10.7594
▁Qatar	-10.7594
nes	-10.7594
▁bull	-10.7595
▁typically	-10.7599
▁strip	-10.7599
▁Leon	-10.76
war	-10.7602
▁homicide	-10.7613
▁absence	-10.7613
▁horses	-10.7614
▁environmental	-10.7615
▁outrage	-10.7616
▁Report	-10.7623
▁encouraged	-10.7627
▁kid	-10.7627
▁Commissioner	-10.7629
▁projects	-10.7632
▁Business	-10.7636
▁PC	-10.7637
second	-10.7649
▁34,	-10.765
▁Boy	-10.7653
▁Keith	-10.7655
gg	-10.7659
▁1998	-10.7662
▁runway	-10.7662
▁Uruguay	-10.7663
ative	-10.7664
▁Hi	-10.7665
▁bullet	-10.7665
▁Clarke	-10.7666
du	-10.7666
▁waited	-10.7671
▁rear	-10.7673
▁shoppers	-10.7674
▁Bolton	-10.7679
▁pilots	-10.768
▁1994	-10.769
▁mystery	-10.7701
▁execution	-10.7702
▁Ver	-10.7703
▁breath	-10.7703
▁types	-10.7708
▁destination	-10.7709
▁tank	-10.7709
are	-10.7709
▁Q	-10.771
▁heroin	-10.7711
▁gear	-10.7711
▁highway	-10.7718
▁witnessed	-10.7718
▁Sussex	-10.7721
ini	-10.7723
▁flown	-10.7728
▁criminals	-10.7729
▁Minnesota	-10.7729
▁Persie	-10.7729
▁tradition	-10.7731
▁drawing	-10.7731
▁procedures	-10.7732
▁Light	-10.7736
▁29-	-10.7736
▁Murphy	-10.7737
▁predicted	-10.7738
▁Eve	-10.7745
▁burns	-10.7748
fe	-10.7753
▁salary	-10.7753
▁Hundreds	-10.7755
ever	-10.7756
▁uniform	-10.7758
▁Social	-10.7762
▁slammed	-10.7766
▁fitted	-10.7768
▁Darren	-10.777
▁faster	-10.7774
▁bottles	-10.7775
▁killings	-10.7779
▁fault	-10.7783
▁announce	-10.7783
▁donated	-10.7784
▁Barbara	-10.779
▁purpose	-10.7791
▁Bad	-10.7796
▁resolution	-10.7802
▁supplies	-10.7806
era	-10.7808
▁volunteers	-10.781
▁Kansas	-10.781
▁11-	-10.7813
▁existing	-10.7814
▁Captain	-10.7818
▁ad	-10.7818
▁electricity	-10.7819
▁£7	-10.7822
▁Commonwealth	-10.7822
▁afraid	-10.7822
▁Detective	-10.7828
▁twin	-10.7833
▁consequences	-10.7833
▁Media	-10.7837
▁accusations	-10.7838
▁creative	-10.7838
▁requires	-10.7839
▁independence	-10.784
▁Vi	-10.7842
▁photographed	-10.7843
▁1-1	-10.7845
ku	-10.7846
kg	-10.7849
▁please	-10.785
▁McC	-10.7851
▁monitoring	-10.7855
Do	-10.7858
▁Surrey	-10.7863
▁hip	-10.7866
▁Cal	-10.7876
▁Rick	-10.7879
▁Rafael	-10.7882
▁Charlotte	-10.7887
ery	-10.789
▁cannabis	-10.7891
▁represents	-10.7893
▁dancing	-10.7895
▁tail	-10.7897
▁principal	-10.7899
▁Nigel	-10.7903
▁porn	-10.7907
▁defensive	-10.7908
▁detention	-10.7908
▁Louisiana	-10.7908
▁Duncan	-10.7908
▁forcing	-10.7909
▁opponents	-10.7915
▁Microsoft	-10.7916
▁unconscious	-10.792
profile	-10.7921
▁loves	-10.7925
▁twins	-10.7926
▁Baghdad	-10.7927
▁bra	-10.7931
▁clock	-10.7936
▁Yemen	-10.7936
ano	-10.7938
▁swim	-10.794
▁cloud	-10.7941
top	-10.7943
▁stunned	-10.7945
▁viewed	-10.7948
▁secured	-10.7948
km	-10.7951
ip	-10.7952
▁contrast	-10.7953
▁Baker	-10.7953
▁capacity	-10.7956
▁division	-10.7958
▁crack	-10.7958
▁crown	-10.7963
▁pit	-10.7966
▁trail	-10.7966
▁command	-10.7967
▁equivalent	-10.7969
14	-10.797
ical	-10.7973
▁Julie	-10.7979
▁visible	-10.7986
▁Fair	-10.7986
▁6-3	-10.7988
▁eighth	-10.799
fo	-10.7991
▁entitled	-10.7994
▁Bradley	-10.7995
▁jacket	-10.7995
▁Carlos	-10.7996
▁label	-10.7996
▁par	-10.8
▁medication	-10.8004
▁Roberto	-10.8004
▁Denver	-10.8011
▁elsewhere	-10.8011
▁extraordinary	-10.8011
▁fed	-10.8017
▁purchased	-10.8017
▁Gunners	-10.8019
▁races	-10.8023
▁religion	-10.8027
▁Lawrence	-10.8031
▁flow	-10.8033
▁stronger	-10.8034
▁Norway	-10.8036
▁aims	-10.8036
▁familiar	-10.8039
▁youngsters	-10.8042
▁Ad	-10.8048
▁Because	-10.8049
▁venue	-10.8058
jo	-10.8062
ball	-10.807
▁kit	-10.8072
▁coroner	-10.8073
▁pack	-10.8074
▁explains	-10.8076
▁Telegraph	-10.8077
▁UEFA	-10.8081
▁39	-10.8081
▁1995	-10.8082
ities	-10.8087
▁undergo	-10.8087
▁protected	-10.8087
▁Call	-10.8088
▁indicated	-10.8096
▁Pellegrini	-10.8106
▁visits	-10.8109
▁Cabinet	-10.811
▁Lopez	-10.8112
▁electric	-10.8118
▁brilliant	-10.8124
▁marketing	-10.8124
▁Yesterday	-10.8126
▁punched	-10.8127
▁46	-10.8127
▁Margaret	-10.8127
▁thick	-10.8139
▁ultimately	-10.814
▁Wal	-10.814
▁baseball	-10.814
▁inappropriate	-10.8141
ide	-10.8143
▁sisters	-10.8146
▁holidays	-10.815
▁radical	-10.8151
▁grey	-10.8152
▁100,000	-10.8153
▁affairs	-10.8155
▁territory	-10.8156
ther	-10.8159
▁Sal	-10.816
▁Spencer	-10.8161
▁schedule	-10.8163
▁Cleveland	-10.8165
▁cope	-10.8172
▁qualifying	-10.8173
▁programs	-10.8173
▁devastating	-10.8176
▁4.	-10.8184
▁brave	-10.8187
▁luck	-10.8193
▁Ta	-10.8193
▁strict	-10.8195
▁dressing	-10.8199
▁rail	-10.8199
▁convinced	-10.8199
gue	-10.8202
▁opposite	-10.8211
ola	-10.8214
▁acknowledged	-10.8219
bs	-10.8219
▁Knight	-10.8223
▁ships	-10.8225
▁Well	-10.8227
▁Reid	-10.8234
▁offenders	-10.8243
▁Child	-10.8243
▁cabin	-10.8244
▁debris	-10.8245
▁matters	-10.8246
ration	-10.8248
▁7.	-10.8249
▁suggesting	-10.825
▁Marc	-10.825
▁businessman	-10.8251
▁lowest	-10.8252
▁performances	-10.8255
▁listen	-10.8255
sch	-10.8259
▁deemed	-10.8259
▁emails	-10.8262
▁substitute	-10.8269
▁wrapped	-10.827
▁Thousands	-10.827
▁touched	-10.8271
▁Serie	-10.8273
▁foundation	-10.8287
ack	-10.8291
▁citing	-10.8291
▁profit	-10.8292
ure	-10.8293
▁Valencia	-10.8295
▁hosted	-10.8299
▁objects	-10.83
▁slowly	-10.8306
▁deals	-10.8308
▁ranked	-10.8309
▁foul	-10.8309
▁estimates	-10.8309
▁toll	-10.8311
▁Eastern	-10.8311
▁Brisbane	-10.8312
▁Company	-10.8313
▁targeting	-10.8318
▁retail	-10.8324
▁engagement	-10.8326
▁Lin	-10.8327
▁powers	-10.833
▁trains	-10.833
▁uncle	-10.8337
90	-10.8341
vis	-10.8344
▁Awards	-10.8346
▁factors	-10.8349
cho	-10.835
▁Fe	-10.835
▁Gareth	-10.8351
▁keeper	-10.8356
art	-10.8357
▁Gi	-10.836
▁rebel	-10.8361
▁laugh	-10.8367
▁finds	-10.8367
▁barely	-10.8376
▁advance	-10.8377
▁stretch	-10.8379
▁quoted	-10.8384
17	-10.8384
▁Price	-10.8385
▁earth	-10.8386
▁carbon	-10.839
▁rent	-10.8393
▁illegally	-10.8394
▁41	-10.8395
▁Jesus	-10.8397
▁Said	-10.8398
▁odds	-10.84
▁Pentagon	-10.8402
ible	-10.8403
▁begun	-10.8404
▁Fund	-10.8404
▁Barry	-10.8407
▁pen	-10.8409
▁bound	-10.8409
▁handling	-10.841
ob	-10.8411
▁Gra	-10.8411
▁Dis	-10.8411
▁frame	-10.8413
▁landscape	-10.8415
▁del	-10.8417
▁cake	-10.8422
▁enormous	-10.8423
▁Ahmed	-10.8424
▁Douglas	-10.8424
▁Rice	-10.8426
▁Redknapp	-10.8428
▁i	-10.8429
▁Let	-10.8429
▁prefer	-10.8429
▁Indiana	-10.8431
▁16,	-10.8436
▁association	-10.8437
▁Rachel	-10.8437
▁welcomed	-10.8437
▁ideas	-10.8439
▁headlines	-10.8445
▁burglary	-10.8448
▁passion	-10.8455
▁treating	-10.8457
▁b	-10.8457
▁$6	-10.8459
▁spectacular	-10.846
▁bones	-10.8464
▁Ferdinand	-10.8471
▁warns	-10.8473
▁afterwards	-10.8474
▁Fabregas	-10.8476
▁Brand	-10.8476
▁activist	-10.8482
▁Nearly	-10.8485
▁militant	-10.8486
ious	-10.8486
▁Sara	-10.8491
▁Argentine	-10.8493
▁underwent	-10.8494
ill	-10.8494
▁Every	-10.8497
▁cousin	-10.8497
▁49	-10.8497
▁Lampard	-10.8497
▁Major	-10.85
▁dumped	-10.8502
▁Hope	-10.8502
zo	-10.8504
▁criticized	-10.8504
▁bite	-10.8506
▁Belgian	-10.8506
▁Brighton	-10.8507
▁Ti	-10.8509
▁$7	-10.8509
▁OK	-10.8514
▁rush	-10.8517
▁singing	-10.8517
▁suing	-10.852
▁testified	-10.852
▁2007,	-10.8523
▁Click	-10.8524
▁End	-10.8524
wan	-10.8527
▁entertainment	-10.8537
▁pole	-10.8541
▁Armstrong	-10.8541
▁statements	-10.8542
▁accompanied	-10.8543
▁reward	-10.8546
▁represented	-10.8552
▁Owen	-10.8553
▁stations	-10.8556
▁selected	-10.8558
▁achieved	-10.8562
▁novel	-10.8564
q	-10.8565
▁Animal	-10.857
▁Mississippi	-10.8576
▁Sudan	-10.8576
▁dragged	-10.858
▁citizen	-10.8581
▁dates	-10.8583
▁Ten	-10.8588
bedroom	-10.8589
▁crossed	-10.8593
▁finishing	-10.8602
▁asks	-10.8604
▁traveled	-10.8605
▁6-4	-10.8606
▁rounds	-10.8606
▁Malaysia	-10.8608
book	-10.8608
▁plate	-10.8609
▁fastest	-10.8613
▁85	-10.8614
▁Boeing	-10.8615
▁Civil	-10.8617
▁payment	-10.862
but	-10.8621
▁ages	-10.8621
rie	-10.8623
▁appointment	-10.8625
▁mini	-10.8628
▁relative	-10.8631
▁Katie	-10.8634
▁detailed	-10.8634
▁breakfast	-10.8642
▁anybody	-10.8644
2,000	-10.8645
▁tablet	-10.8646
▁fortune	-10.8647
▁rally	-10.8648
▁directed	-10.8653
▁managing	-10.8654
▁Phillips	-10.8659
▁communications	-10.8664
▁Night	-10.8664
▁goods	-10.8665
▁weighed	-10.8667
▁Morning	-10.8668
▁slam	-10.867
▁Parker	-10.8671
▁proceedings	-10.8673
▁bride	-10.8674
▁saving	-10.8675
cent	-10.8675
Some	-10.8676
▁reflect	-10.8677
▁Saint	-10.8678
▁tips	-10.8679
▁recall	-10.8682
▁crazy	-10.8683
ology	-10.8685
▁confessed	-10.8689
▁evacuated	-10.8689
▁harassment	-10.869
▁effectively	-10.8691
gate	-10.8691
▁la	-10.8694
▁therefore	-10.8695
▁racial	-10.87
▁establish	-10.8702
yn	-10.8704
▁Snowden	-10.8704
▁Kar	-10.8705
rated	-10.8705
▁Webb	-10.8706
▁whale	-10.8706
▁toys	-10.8708
▁Democrat	-10.8709
▁kidnapped	-10.8712
▁wheelchair	-10.8717
▁combination	-10.8717
▁requests	-10.8721
▁Fa	-10.8727
ened	-10.8729
oc	-10.8731
▁Had	-10.8733
cher	-10.8737
bit	-10.8737
three	-10.8738
▁5,000	-10.8742
▁UN	-10.8743
▁Avenue	-10.8743
tal	-10.8744
▁technical	-10.8745
▁2008.	-10.8745
tan	-10.8759
▁Han	-10.8762
round	-10.8763
▁Vatican	-10.8766
▁entrance	-10.8766
▁walks	-10.8767
level	-10.8769
▁importance	-10.877
▁mainly	-10.8771
▁obesity	-10.8775
▁repair	-10.8776
▁snake	-10.878
▁guess	-10.8784
ala	-10.8784
▁pets	-10.8788
gin	-10.8788
▁register	-10.8791
▁9.	-10.8795
▁fail	-10.8795
▁shadow	-10.8795
▁Donald	-10.8801
Now	-10.8801
▁brings	-10.8802
▁representing	-10.8804
▁Project	-10.8808
▁Stamford	-10.881
▁negotiations	-10.8814
▁recommended	-10.8816
▁meetings	-10.8817
▁approximately	-10.8818
▁damages	-10.8824
▁electronic	-10.8833
▁Festival	-10.8833
▁Virgin	-10.8833
▁tattoo	-10.8834
▁Lt	-10.8834
▁600	-10.8834
His	-10.8836
med	-10.8837
▁positions	-10.884
▁wealthy	-10.884
▁35,	-10.8841
▁uploaded	-10.8843
▁generally	-10.8844
▁Hills	-10.8846
▁remarkable	-10.8846
▁prospect	-10.8851
nie	-10.8851
▁Emergency	-10.8852
▁Hollande	-10.8852
▁Investigation	-10.8855
▁festive	-10.8855
▁ethnic	-10.8859
▁comedian	-10.886
▁Tiger	-10.8862
▁restrictions	-10.8866
▁Cu	-10.8867
▁Brady	-10.8867
▁anonymous	-10.8867
ens	-10.8869
was	-10.887
▁ideal	-10.8872
▁realise	-10.8872
uck	-10.8872
▁donations	-10.8881
▁Yet	-10.8881
▁alerted	-10.8883
▁solid	-10.8887
▁Laden	-10.8891
ud	-10.8891
▁neither	-10.8891
▁hotels	-10.8892
eh	-10.8895
▁kilometers	-10.8896
▁soccer	-10.89
▁3,000	-10.8902
▁beneath	-10.8905
▁attacker	-10.8905
▁Iowa	-10.8905
nan	-10.8905
▁units	-10.8909
▁Spaniard	-10.8909
▁liquid	-10.8909
▁poverty	-10.8909
▁Andre	-10.8915
▁Fashion	-10.892
▁Turner	-10.8921
▁apologise	-10.8922
▁Bel	-10.8923
▁studying	-10.8923
af	-10.8926
▁wonder	-10.8929
▁Mandela	-10.8929
▁keeps	-10.8931
▁steal	-10.8933
▁cultural	-10.8933
▁substance	-10.8934
▁freed	-10.8936
ington	-10.8939
▁Manager	-10.8941
▁discussed	-10.8943
▁Si	-10.8943
▁markets	-10.8946
▁boasts	-10.8949
▁memories	-10.895
▁Part	-10.8957
hy	-10.8957
▁significantly	-10.8961
▁nobody	-10.8963
▁frozen	-10.8964
▁Nine	-10.8968
▁dust	-10.8971
▁discrimination	-10.8972
▁pound	-10.8973
nu	-10.8973
▁industrial	-10.8975
▁painted	-10.8978
▁coat	-10.898
▁Online	-10.898
bin	-10.8984
ella	-10.8986
▁opposed	-10.8986
▁1999	-10.8991
▁deployed	-10.8999
70	-10.9
▁trafficking	-10.9
▁Game	-10.9004
▁Ukrainian	-10.9005
some	-10.9006
▁Falcao	-10.9009
▁nervous	-10.9009
▁roughly	-10.9019
▁Inspector	-10.9023
ng	-10.9026
burn	-10.9027
▁Alonso	-10.9028
▁telephone	-10.9028
▁Key	-10.904
▁missile	-10.9041
▁diabetes	-10.9041
▁Silva	-10.9043
▁relationships	-10.9045
▁loud	-10.9047
aw	-10.905
▁nurses	-10.9054
▁Philippines	-10.9055
▁NSW	-10.9055
▁extensive	-10.9056
▁computers	-10.9056
▁taxpayers	-10.9058
▁favor	-10.9064
▁Sturridge	-10.9064
▁Masters	-10.9065
▁requested	-10.9071
▁exact	-10.9071
▁Special	-10.9072
▁valuable	-10.9073
▁strongly	-10.9077
▁ends	-10.9078
▁Biden	-10.9079
▁penalties	-10.9083
▁Network	-10.9092
ps	-10.9094
▁king	-10.9099
▁therapy	-10.911
▁snapped	-10.9111
▁starring	-10.9111
▁Lancashire	-10.9115
▁Bal	-10.912
▁pride	-10.9121
match	-10.9124
▁Memorial	-10.9124
▁Control	-10.9124
▁Greater	-10.9127
▁Derby	-10.9129
▁reference	-10.913
▁suffers	-10.9136
▁opener	-10.9137
▁edition	-10.9138
▁reception	-10.9139
▁Residents	-10.914
▁journal	-10.9144
▁thin	-10.9147
▁newborn	-10.9149
▁Torres	-10.9153
▁rolled	-10.9153
▁Ash	-10.9157
▁selfie	-10.9158
ters	-10.9158
▁outcome	-10.9161
▁Josh	-10.9163
▁shed	-10.9164
▁Ve	-10.9165
▁symbol	-10.917
▁Ball	-10.9172
▁operate	-10.9178
▁Islands	-10.9181
▁consumer	-10.9183
▁employment	-10.9185
▁Louise	-10.9185
While	-10.9187
▁slip	-10.9189
▁rocks	-10.9193
▁Islamist	-10.9194
▁loose	-10.9199
lay	-10.9201
ris	-10.9201
▁repeated	-10.9203
▁reserved	-10.9215
▁actual	-10.9216
▁painful	-10.9216
▁Toronto	-10.9217
▁burn	-10.9218
▁Yo	-10.9218
▁exposure	-10.9219
▁puts	-10.923
▁studied	-10.9231
▁unidentified	-10.9231
▁Alexis	-10.9235
▁veterans	-10.9237
sky	-10.9246
▁Vincent	-10.925
▁gather	-10.925
▁sounds	-10.9251
▁carries	-10.9256
▁Ronald	-10.9259
▁cheap	-10.9262
▁warnings	-10.9262
▁separated	-10.9264
mann	-10.9271
▁Zimmerman	-10.9274
▁Tre	-10.9279
▁labor	-10.928
▁Parents	-10.929
▁participants	-10.9292
▁cheese	-10.9292
mal	-10.9293
▁involves	-10.9293
▁dropping	-10.9298
▁1993	-10.9302
▁torture	-10.9305
▁Portuguese	-10.9315
▁medicine	-10.9316
▁leaked	-10.9321
election	-10.9321
▁engineer	-10.9323
▁soil	-10.9324
▁settled	-10.9324
▁facial	-10.9325
▁Travel	-10.933
▁jumping	-10.9332
▁knock	-10.9333
rin	-10.9334
▁gifts	-10.9338
▁Karl	-10.9338
▁survival	-10.9339
▁1996	-10.934
▁Dar	-10.9342
▁color	-10.9344
▁Thai	-10.9347
▁suburb	-10.9347
▁personality	-10.9348
▁referring	-10.9349
▁ease	-10.9349
▁politician	-10.9349
ita	-10.9351
▁Bishop	-10.9353
▁Czech	-10.9363
▁Airways	-10.9363
tter	-10.9365
ye	-10.9365
▁8.	-10.9368
▁lessons	-10.9368
night	-10.9369
▁6.	-10.937
high	-10.9374
▁ET	-10.9376
▁Kyle	-10.9377
▁Tower	-10.9384
▁Blake	-10.9385
▁elite	-10.9386
▁producing	-10.9387
ched	-10.939
▁beloved	-10.9392
▁speaks	-10.9393
▁excellent	-10.9395
▁cancelled	-10.9396
▁Weekly	-10.9406
▁triumph	-10.9407
▁cycle	-10.9407
▁Nicole	-10.9409
rich	-10.9409
▁Rosberg	-10.941
▁bread	-10.9411
▁assaulting	-10.9414
▁trips	-10.9415
▁Brad	-10.9415
▁graduate	-10.9416
▁$10	-10.9416
▁returns	-10.9418
▁discover	-10.9419
▁pocket	-10.9422
▁seal	-10.9422
▁vacation	-10.9424
▁networks	-10.9426
▁narrow	-10.9427
▁genetic	-10.9429
▁assist	-10.9431
▁Girl	-10.9434
▁widow	-10.9435
▁tower	-10.9437
Mr	-10.9438
▁realized	-10.9441
▁grateful	-10.9441
▁guidelines	-10.9443
▁Arena	-10.9446
▁McCain	-10.9448
▁orange	-10.9448
wife	-10.9449
▁menu	-10.9449
▁Sch	-10.945
▁Others	-10.9451
ston	-10.9453
▁deadline	-10.9463
▁lover	-10.9464
bed	-10.9465
▁Holmes	-10.9468
▁honest	-10.9468
12	-10.947
▁SUV	-10.9472
▁silence	-10.9472
▁2,	-10.9473
ual	-10.9474
▁mph	-10.9478
▁lawmakers	-10.9478
▁consecutive	-10.9482
▁dresses	-10.9484
▁voting	-10.9486
▁harder	-10.9487
▁referendum	-10.9496
▁boxes	-10.9498
▁Shi	-10.9503
▁testimony	-10.9506
▁meters	-10.9506
▁airlines	-10.9507
▁encouraging	-10.951
▁typical	-10.9513
▁upper	-10.9515
▁hopeful	-10.9515
▁muscle	-10.9519
▁defeated	-10.9521
▁Play	-10.9521
▁values	-10.9526
ks	-10.9527
list	-10.9529
▁machines	-10.9531
▁Grace	-10.9532
▁obvious	-10.9533
▁Nottingham	-10.9539
▁Vice	-10.954
▁owns	-10.9541
▁courts	-10.9542
bel	-10.9543
▁neighbors	-10.9544
▁Caroline	-10.9544
▁Downing	-10.9545
▁Prosecutor	-10.9548
▁sensitive	-10.9549
▁Bureau	-10.955
▁addressed	-10.9551
▁attract	-10.9553
▁Baby	-10.9559
pre	-10.9564
▁1992	-10.9569
▁paramedics	-10.9569
▁2007.	-10.9572
▁competing	-10.9573
▁attitude	-10.9573
nt	-10.9574
▁Catherine	-10.9578
▁CDC	-10.9579
▁FC	-10.9584
▁Caribbean	-10.9592
▁nationwide	-10.9593
▁executed	-10.9594
▁unnamed	-10.9602
▁indictment	-10.9602
▁hammer	-10.9604
▁intention	-10.9608
ER	-10.961
▁wage	-10.9611
▁diplomatic	-10.9613
act	-10.9621
▁Metropolitan	-10.9621
▁roles	-10.9626
▁extent	-10.9626
▁Potter	-10.9627
ue	-10.9628
▁36,	-10.9631
▁Mayweather	-10.9631
▁trigger	-10.9633
ified	-10.9634
▁Powell	-10.9637
▁personally	-10.9639
▁parole	-10.9641
ky	-10.965
▁theory	-10.9655
▁creature	-10.9657
▁physically	-10.9659
ign	-10.9659
bu	-10.966
▁asylum	-10.966
▁Critics	-10.9661
▁imposed	-10.967
▁Pen	-10.967
▁Phoenix	-10.967
▁questioning	-10.9671
▁wood	-10.9672
▁comeback	-10.9673
▁Cancer	-10.9675
▁chat	-10.9677
▁breaks	-10.9677
▁pages	-10.9678
▁Singh	-10.968
▁nightclub	-10.968
kick	-10.9684
ari	-10.969
shirt	-10.9694
▁250	-10.9697
▁pursue	-10.97
▁mood	-10.97
▁clashes	-10.9705
▁egg	-10.9705
▁abortion	-10.9708
How	-10.9708
bury	-10.9709
▁advanced	-10.971
▁47	-10.9712
▁Aguero	-10.9714
▁midnight	-10.9715
▁77	-10.9717
▁rely	-10.9719
▁frequently	-10.9719
▁33-	-10.9721
▁trainer	-10.9723
▁Samuel	-10.9724
▁Rev	-10.9725
▁classroom	-10.9735
lock	-10.9737
▁disappointing	-10.9738
7,000	-10.9739
4,000	-10.9739
▁delays	-10.974
▁Orlando	-10.9743
▁asleep	-10.9745
▁Dem	-10.9747
▁Kentucky	-10.9748
▁yacht	-10.9753
▁Embassy	-10.9753
▁Swedish	-10.9753
▁Ze	-10.9756
▁Adrian	-10.9756
▁essential	-10.9764
▁Blues	-10.9764
▁murdering	-10.9765
▁gate	-10.9765
▁exploded	-10.9771
▁passport	-10.9773
▁print	-10.9774
▁amounts	-10.9774
▁Cape	-10.9778
rate	-10.9781
▁passes	-10.9783
ok	-10.9792
▁Off	-10.9796
▁Morris	-10.98
▁sudden	-10.9801
▁interior	-10.9802
▁reads	-10.9802
▁desert	-10.9803
▁compound	-10.9806
▁mo	-10.9808
▁craft	-10.981
▁feeding	-10.9812
▁calendar	-10.9813
▁stabbing	-10.9813
▁installed	-10.9815
▁watchdog	-10.9818
▁promotion	-10.982
▁reforms	-10.9823
▁Penn	-10.9824
▁occur	-10.9827
▁appeals	-10.983
▁SC	-10.9836
▁survivors	-10.9837
▁ignored	-10.9838
▁investors	-10.9842
▁Libyan	-10.9844
▁Cho	-10.9844
▁Diana	-10.9845
▁offices	-10.9845
▁Ya	-10.9851
▁32-	-10.986
▁experiences	-10.9861
▁screening	-10.9861
▁trauma	-10.9862
lit	-10.9864
▁ho	-10.9865
▁holes	-10.9866
▁sentences	-10.9866
illa	-10.9868
lon	-10.9869
▁brands	-10.987
▁bath	-10.9872
▁tear	-10.9876
▁bacteria	-10.9876
▁tag	-10.9877
pan	-10.9879
▁resulting	-10.9885
▁mail	-10.9886
▁lifetime	-10.9889
▁expand	-10.9889
▁Julian	-10.989
su	-10.9894
▁refusing	-10.9897
▁globe	-10.9902
▁st	-10.9913
▁Galaxy	-10.9917
▁Witnesses	-10.9918
▁weekly	-10.9919
▁argue	-10.992
ju	-10.992
▁Toure	-10.992
bound	-10.9925
▁hostage	-10.9927
▁websites	-10.9928
▁retire	-10.9932
▁£20	-10.9936
▁romantic	-10.9937
▁forever	-10.9937
▁musical	-10.9938
▁everywhere	-10.9938
▁trio	-10.9938
▁offender	-10.994
gle	-10.9946
▁answers	-10.9959
des	-10.9961
▁explosives	-10.9962
cing	-10.9966
▁athlete	-10.9967
▁Nevada	-10.9967
▁repeat	-10.997
▁airports	-10.9972
▁organizations	-10.9972
▁falls	-10.9977
▁tourism	-10.9985
▁Queens	-10.9985
▁Europa	-10.999
▁assessment	-10.999
▁Mad	-10.9991
▁adviser	-10.9992
pen	-10.9996
▁publication	-10.9998
▁specifically	-10.9998
▁lit	-11
▁Ab	-11.0001
▁yes	-11.0001
▁stream	-11.0002
▁shore	-11.0002
▁Henderson	-11.0002
▁embassy	-11.0002
▁bleeding	-11.0005
▁hundred	-11.0006
▁Yu	-11.0006
cu	-11.0015
▁climbing	-11.0018
pper	-11.0019
▁Lucy	-11.002
lia	-11.0021
▁copy	-11.0029
▁concrete	-11.0029
▁item	-11.0029
▁6-2	-11.0032
▁finance	-11.0033
▁fixed	-11.0034
▁Lauren	-11.0042
▁analyst	-11.0042
▁profits	-11.0046
▁furious	-11.0047
▁smiles	-11.0047
▁£9	-11.0048
▁letting	-11.0048
ming	-11.0049
▁Carr	-11.0055
▁awaiting	-11.0057
▁Cruz	-11.0057
gy	-11.0057
▁Columbia	-11.0063
▁explosive	-11.0069
▁tool	-11.0072
▁billionaire	-11.0079
▁Delhi	-11.0079
▁midfield	-11.008
▁confronted	-11.0084
▁settle	-11.0085
▁salt	-11.0086
▁strain	-11.0086
▁graphic	-11.0088
▁Ly	-11.0094
▁Cat	-11.0096
▁longest	-11.0097
▁sued	-11.0097
▁examination	-11.0098
▁qualify	-11.0099
▁Next	-11.01
▁Drug	-11.0101
▁43,	-11.0105
▁autopsy	-11.0109
▁boats	-11.0111
ock	-11.0112
▁Wisconsin	-11.0114
▁slipped	-11.0114
▁perfectly	-11.0117
▁method	-11.012
▁constantly	-11.012
▁creation	-11.012
lar	-11.0122
▁Ted	-11.0136
▁triggered	-11.0137
lee	-11.0139
▁Somerset	-11.014
▁liver	-11.014
▁pizza	-11.0145
▁Bradford	-11.015
▁Perez	-11.015
ena	-11.0152
▁Country	-11.0155
▁technique	-11.0156
▁mall	-11.016
▁Scene	-11.016
De	-11.0163
▁experiment	-11.0164
▁gathering	-11.0165
▁giants	-11.0166
▁Marie	-11.0167
▁cleaning	-11.017
▁42,	-11.0173
▁tools	-11.0174
▁regret	-11.0176
▁rarely	-11.0177
▁minority	-11.0177
▁maintained	-11.0179
ked	-11.018
▁boots	-11.0182
▁Ger	-11.0183
page	-11.0184
▁yard	-11.0188
▁launching	-11.0189
▁glasses	-11.0189
▁38,	-11.0192
▁tensions	-11.0194
▁coma	-11.0194
▁revenue	-11.0199
▁Tories	-11.0199
▁Saints	-11.02
▁affects	-11.0204
▁discussion	-11.0206
▁anchor	-11.0206
▁assets	-11.0207
▁speeding	-11.0207
▁convictions	-11.0209
▁120	-11.0212
▁colours	-11.0213
▁kidney	-11.0215
▁Book	-11.0216
▁trailer	-11.022
▁investigations	-11.0221
▁petrol	-11.0222
▁signal	-11.0222
▁poster	-11.0231
ization	-11.0237
▁tired	-11.0241
▁Claire	-11.0241
▁Tragic	-11.0242
▁Death	-11.0243
iest	-11.0244
▁Your	-11.0244
▁wooden	-11.0244
▁Sophie	-11.0248
▁undergoing	-11.0249
py	-11.0252
▁Global	-11.0253
▁forest	-11.0253
▁hospitalized	-11.0256
▁retain	-11.0258
▁1989	-11.0259
▁Independent	-11.0259
▁locals	-11.026
▁Middleton	-11.0261
▁Abbey	-11.0263
▁samples	-11.0269
▁spin	-11.0277
▁Wildlife	-11.0279
▁peaceful	-11.0279
rant	-11.0283
▁Pochettino	-11.0284
▁swept	-11.0284
od	-11.0286
▁violation	-11.0288
▁Week	-11.0288
▁zero	-11.029
▁watches	-11.0297
▁72	-11.0299
▁Va	-11.0299
▁backing	-11.0307
▁examined	-11.0308
▁Samantha	-11.031
6,000	-11.031
iv	-11.0315
▁Angela	-11.0316
▁desk	-11.0318
▁broadcaster	-11.0318
▁humanitarian	-11.0322
▁800	-11.0324
▁Hitler	-11.0326
▁organised	-11.0328
▁ourselves	-11.0331
▁carrier	-11.0332
▁introduce	-11.0333
▁grab	-11.0336
▁attorneys	-11.0341
▁shame	-11.0343
▁Whit	-11.0345
▁Fulham	-11.0346
▁orbit	-11.0351
▁calories	-11.0352
▁Em	-11.0353
▁cry	-11.0354
tri	-11.0354
▁unemployment	-11.0357
▁Wigan	-11.0358
ug	-11.0362
▁queen	-11.0362
▁aside	-11.0363
▁31-	-11.0365
▁Karen	-11.0366
▁button	-11.0366
▁revolution	-11.0367
▁communication	-11.0368
four	-11.0369
▁misconduct	-11.0378
▁Kingdom	-11.0378
try	-11.0379
▁1991	-11.0383
▁apologized	-11.0386
▁scam	-11.0387
▁laughing	-11.0387
▁opinions	-11.0388
▁forms	-11.039
eb	-11.039
▁Age	-11.039
▁37,	-11.0393
▁revealing	-11.0398
▁interviews	-11.0398
▁Fer	-11.0401
▁joked	-11.0401
▁glad	-11.0404
▁meanwhile	-11.0404
▁duties	-11.0404
▁savings	-11.0408
▁pledged	-11.0411
▁scientific	-11.0411
▁uncovered	-11.0413
▁storage	-11.0414
▁snap	-11.0415
Mo	-11.0416
▁Music	-11.0418
▁spy	-11.0425
▁Mohamed	-11.043
zy	-11.0431
▁Pictured	-11.0433
▁Way	-11.0436
▁belief	-11.0436
away	-11.0439
▁employed	-11.044
▁Albert	-11.0442
▁Film	-11.0443
▁39,	-11.0444
▁overcome	-11.0447
▁$100	-11.0447
▁Cur	-11.0447
▁challenging	-11.0448
▁52	-11.0449
▁outstanding	-11.0449
▁Having	-11.0451
▁Vladimir	-11.0456
▁highlight	-11.0457
▁runner	-11.0458
▁hopefully	-11.046
▁promises	-11.046
▁Senior	-11.0462
▁farmers	-11.0463
▁pension	-11.0466
▁HERE	-11.0472
▁whilst	-11.0472
▁Nathan	-11.0473
▁Wa	-11.0475
▁Rebecca	-11.0478
isation	-11.048
▁Tan	-11.0483
▁Senator	-11.049
▁urging	-11.0499
▁40-	-11.0501
▁mentioned	-11.0501
▁lab	-11.0502
▁Treasury	-11.0504
▁trading	-11.0504
▁prayers	-11.0505
▁forecast	-11.0505
qua	-11.0507
amp	-11.0507
▁resignation	-11.0511
▁parade	-11.0512
▁Savile	-11.0515
▁Affairs	-11.052
▁marine	-11.0521
▁recognise	-11.0523
▁indecent	-11.0524
▁motive	-11.0525
▁teammate	-11.0526
▁1950	-11.0528
hill	-11.0528
▁Protection	-11.0531
▁$8	-11.0533
▁constant	-11.0534
▁cable	-11.0536
▁Ci	-11.0536
▁continent	-11.054
▁crowds	-11.0542
▁Science	-11.0546
▁legally	-11.0547
▁impression	-11.0548
far	-11.0552
▁rifle	-11.0556
▁Couple	-11.0557
pp	-11.0557
▁improving	-11.0558
▁underground	-11.056
▁harsh	-11.0563
▁infant	-11.0563
▁theme	-11.0564
▁shower	-11.0565
▁Lincoln	-11.0565
▁underwear	-11.0566
▁mistakes	-11.0567
▁statue	-11.0568
▁opt	-11.0571
An	-11.0583
▁Ce	-11.0584
35	-11.0585
▁sealed	-11.0585
?’	-11.0586
▁Lions	-11.0587
▁Herald	-11.059
▁weak	-11.0594
▁Cuban	-11.0599
▁halt	-11.0601
▁donate	-11.0601
▁teach	-11.0602
ada	-11.0608
▁Sierra	-11.0611
▁intervention	-11.0611
▁severely	-11.0611
piece	-11.0612
▁hailed	-11.0612
▁deserve	-11.0612
▁kiss	-11.0614
▁Spring	-11.0615
▁exist	-11.0616
▁41,	-11.0616
However	-11.0616
▁Mid	-11.0618
▁relaxed	-11.0618
sized	-11.0619
▁increases	-11.0619
too	-11.0621
▁cooking	-11.0626
ium	-11.0629
▁bitter	-11.0631
▁terminal	-11.0631
▁boot	-11.0634
▁Ukip	-11.0638
▁Almost	-11.0638
▁Val	-11.0641
▁Blackpool	-11.0643
▁lovely	-11.0648
▁attractive	-11.0649
▁operated	-11.065
ight	-11.065
ix	-11.0652
▁extension	-11.0654
▁Kirk	-11.0654
▁Wil	-11.0658
▁0	-11.0659
▁climbed	-11.0661
▁explore	-11.0662
▁44,	-11.0662
75	-11.0664
▁cafe	-11.0665
▁buyers	-11.0669
▁Larry	-11.0671
▁initiative	-11.0682
▁converted	-11.0683
ator	-11.0683
▁cliff	-11.069
▁Heathrow	-11.0692
iz	-11.0692
▁feelings	-11.0694
▁deck	-11.0694
▁protective	-11.0695
▁tissue	-11.0697
▁raping	-11.0697
▁tablets	-11.0698
▁frustrated	-11.0699
▁creatures	-11.07
▁Heart	-11.0701
▁starred	-11.0702
▁Castle	-11.0705
▁mosque	-11.0708
▁mess	-11.071
mel	-11.0711
▁Bieber	-11.0713
▁NYPD	-11.0713
▁notorious	-11.0718
▁Je	-11.0719
▁1997	-11.0721
▁Award	-11.0723
▁Nancy	-11.0724
▁3-	-11.0727
rk	-11.0729
yl	-11.073
▁disciplinary	-11.0731
▁intensive	-11.0732
▁siblings	-11.0733
▁mortgage	-11.0735
▁sessions	-11.0735
▁Mal	-11.0735
▁woke	-11.0737
▁flee	-11.0738
▁wanting	-11.0739
▁prominent	-11.0739
oz	-11.074
▁Foster	-11.0746
▁Billy	-11.0749
▁Farm	-11.0752
▁Victor	-11.0759
▁elephant	-11.0759
▁explanation	-11.0767
▁Fans	-11.0768
▁cook	-11.0768
▁scan	-11.0771
▁invasion	-11.0773
▁TSA	-11.0773
▁expenses	-11.0776
▁dementia	-11.0778
▁Bon	-11.0779
ties	-11.0779
▁15,	-11.078
▁Andrea	-11.0782
▁labour	-11.0784
▁underwater	-11.0786
▁Orleans	-11.0789
▁Ryder	-11.0789
▁doubled	-11.0791
▁somewhere	-11.0793
▁Brussels	-11.0795
▁tipped	-11.0795
range	-11.0797
19	-11.0801
▁liked	-11.0805
▁quake	-11.0806
▁cinema	-11.0806
▁consent	-11.0806
ving	-11.0808
▁Haiti	-11.0809
▁representatives	-11.081
▁Ge	-11.0811
had	-11.0816
▁Guinea	-11.0817
▁addiction	-11.0817
▁reunited	-11.0819
13	-11.082
▁shouting	-11.0822
▁prompting	-11.0822
▁displayed	-11.0827
▁Governor	-11.0827
▁lock	-11.0828
▁Hannah	-11.083
▁function	-11.0833
▁64	-11.0833
▁spray	-11.0833
▁loving	-11.0839
▁46,	-11.084
▁nightmare	-11.0842
▁defendants	-11.0843
▁chaos	-11.0844
▁Sta	-11.0846
▁swing	-11.0852
▁69	-11.0857
▁Bundesliga	-11.086
▁highlights	-11.0864
▁appealing	-11.0864
▁Somali	-11.0864
▁Summer	-11.0866
▁78	-11.0871
▁controls	-11.0871
▁Lloyd	-11.0871
▁boxing	-11.0871
▁Harrison	-11.0872
▁cheaper	-11.0873
avi	-11.0875
▁Cara	-11.0876
▁stopping	-11.088
▁destroy	-11.0884
▁Soviet	-11.0885
org	-11.0886
▁DJ	-11.0887
▁Par	-11.0893
▁smiling	-11.0893
▁lorry	-11.0899
▁operator	-11.0899
▁organ	-11.0902
▁distress	-11.0903
▁rough	-11.0903
▁Gun	-11.0907
ath	-11.0909
▁promoting	-11.091
▁regions	-11.0913
▁signature	-11.0917
8,000	-11.0917
▁lap	-11.0918
ria	-11.092
▁Vo	-11.0922
get	-11.0924
▁Joshua	-11.0927
▁bullying	-11.0929
▁45,	-11.0934
▁Barca	-11.0937
▁describing	-11.0938
▁rid	-11.0938
▁covers	-11.094
La	-11.094
▁expects	-11.0941
▁lengthy	-11.0941
▁costume	-11.0945
Me	-11.0946
▁diamond	-11.095
▁Fo	-11.095
▁wishes	-11.0952
▁printed	-11.0952
▁Neville	-11.0955
▁Woman	-11.0956
▁foods	-11.0957
hard	-11.0958
▁Norwich	-11.096
▁iron	-11.096
tel	-11.0961
▁14,	-11.0962
▁carefully	-11.0962
▁tracked	-11.0963
▁deficit	-11.0965
▁gallery	-11.0965
kh	-11.0966
▁click	-11.0967
▁Thatcher	-11.0967
▁Operation	-11.0967
▁Bobby	-11.0968
ering	-11.0968
▁robot	-11.097
▁Orange	-11.0973
▁Bath	-11.0976
▁massacre	-11.0977
▁Ty	-11.0978
will	-11.0979
▁appealed	-11.0981
ali	-11.0982
▁Keane	-11.0983
▁storms	-11.0985
▁category	-11.0988
▁preliminary	-11.0988
▁damaging	-11.0988
▁managers	-11.0989
▁Dennis	-11.0993
▁abusing	-11.0993
▁Happy	-11.0996
ations	-11.0997
▁Victim	-11.1003
fully	-11.1004
▁shoe	-11.1005
▁Yard	-11.1007
▁Dorset	-11.101
bn	-11.1013
▁crackdown	-11.1016
▁Interior	-11.1017
1,000	-11.1018
▁Says	-11.1019
ula	-11.1019
▁franchise	-11.1021
east	-11.1021
▁except	-11.1023
▁View	-11.1023
sey	-11.1024
sic	-11.1026
▁Austria	-11.1029
▁commissioner	-11.1031
▁Members	-11.1033
95	-11.1035
▁marathon	-11.1035
▁76	-11.1036
▁succeed	-11.1037
▁Freedom	-11.1038
▁surge	-11.1042
▁seasons	-11.1043
▁pornography	-11.1043
▁flash	-11.1045
▁header	-11.1045
▁leak	-11.1046
bal	-11.1048
▁thigh	-11.1049
ura	-11.1052
▁Tar	-11.1052
▁praise	-11.1054
▁aired	-11.1055
▁resign	-11.106
cm	-11.1061
▁fur	-11.1064
▁pants	-11.1069
▁dock	-11.1069
▁Palmer	-11.107
▁percentage	-11.107
▁everyday	-11.1071
▁earning	-11.1071
▁prevented	-11.1073
▁erupted	-11.1074
▁indicate	-11.1077
▁puppy	-11.1077
▁Eight	-11.1078
▁Point	-11.108
placed	-11.108
▁weighs	-11.108
▁Benjamin	-11.1083
▁Sharapova	-11.1083
▁frustration	-11.1083
▁spots	-11.1084
just	-11.1086
▁kicking	-11.1088
▁Model	-11.1088
▁Polish	-11.1089
▁scrap	-11.1093
▁RSPCA	-11.1094
▁phase	-11.1094
▁Later	-11.1094
▁Get	-11.1099
▁medals	-11.1099
▁Welbeck	-11.11
▁proposals	-11.11
▁Transportation	-11.11
▁Study	-11.1101
▁Lanka	-11.1102
▁dreams	-11.1103
▁leather	-11.1105
▁submitted	-11.1106
rick	-11.1106
Co	-11.1112
Ro	-11.1112
▁hang	-11.1116
▁stressed	-11.1116
▁Liberal	-11.1116
▁balls	-11.1118
▁carpet	-11.112
▁wages	-11.1121
▁54	-11.1126
▁Hard	-11.113
▁Hamas	-11.1136
▁filing	-11.1139
▁proof	-11.1141
▁solely	-11.1144
▁Weather	-11.1145
▁Anti	-11.1147
▁Maine	-11.115
▁staggering	-11.115
gra	-11.1156
▁oxygen	-11.1156
▁20,000	-11.1158
▁dealt	-11.1159
▁arguing	-11.1162
▁ratings	-11.1162
▁qualified	-11.1164
▁battled	-11.1164
▁mirror	-11.1169
▁travellers	-11.1169
▁Attack	-11.1169
und	-11.117
▁40,	-11.1173
▁PGA	-11.1175
ec	-11.1178
▁trick	-11.1181
▁destruction	-11.1185
▁surgeon	-11.1187
▁risen	-11.1187
▁inter	-11.1188
▁towns	-11.119
▁motorists	-11.1192
▁tens	-11.1192
▁blocks	-11.1192
▁Mur	-11.1193
▁polls	-11.1194
▁fate	-11.1194
▁Hunter	-11.1195
▁Hurricane	-11.1196
▁ninth	-11.1196
▁boom	-11.1198
net	-11.12
lor	-11.1207
▁Energy	-11.1207
▁recognition	-11.1209
▁celebrations	-11.1209
▁ripped	-11.1212
▁Right	-11.1226
▁currency	-11.123
owned	-11.1231
▁rubbish	-11.1232
stock	-11.1234
▁talented	-11.1237
cul	-11.1239
▁Highway	-11.1239
▁rating	-11.1241
Q	-11.1246
▁wet	-11.125
▁l	-11.1251
▁2006,	-11.1254
▁recognize	-11.1255
▁consultant	-11.1255
▁islands	-11.1255
cl	-11.1256
▁bombings	-11.1256
▁heels	-11.1256
▁lasted	-11.1258
▁consumption	-11.1264
▁junior	-11.1264
▁practices	-11.1265
▁fixture	-11.1266
▁47,	-11.1269
▁Vietnam	-11.127
▁Information	-11.127
▁description	-11.127
win	-11.127
▁11,	-11.1272
▁portrait	-11.1272
▁protecting	-11.1278
▁cops	-11.1278
▁weighing	-11.1282
▁sum	-11.1288
▁Kane	-11.1292
▁Rogers	-11.1292
▁da	-11.1297
▁ranks	-11.1298
▁statistics	-11.1299
▁isolated	-11.1302
▁Richardson	-11.1306
▁beaches	-11.1307
▁Ber	-11.1307
▁thief	-11.131
▁pattern	-11.1313
▁diving	-11.1315
▁railway	-11.1316
▁acres	-11.1317
▁hell	-11.1319
▁FAA	-11.132
▁Where	-11.1322
▁jewellery	-11.1323
▁Community	-11.1324
▁Ga	-11.1325
▁du	-11.1326
▁Fred	-11.1327
▁Mas	-11.1328
ero	-11.1336
▁transition	-11.1337
▁difficulties	-11.1338
▁lion	-11.1339
▁Fri	-11.1339
▁treatments	-11.1343
▁haul	-11.1345
▁challenged	-11.1347
▁Bin	-11.1347
threatening	-11.1348
▁Wilshere	-11.135
▁canceled	-11.1351
▁Nigerian	-11.1354
▁steel	-11.1362
▁violated	-11.1362
▁briefly	-11.1367
▁realize	-11.1367
▁Kardashian	-11.1368
▁Pistorius	-11.1368
▁literally	-11.1368
▁Prison	-11.1369
▁stripped	-11.1374
ima	-11.1374
▁grade	-11.1374
new	-11.1376
▁predict	-11.1377
▁Too	-11.1378
▁Alzheimer	-11.1379
▁Chavez	-11.1379
▁coaching	-11.1386
team	-11.1388
ade	-11.1391
▁PSG	-11.1391
▁Hugo	-11.1393
▁circuit	-11.1394
bridge	-11.1395
▁losses	-11.1398
▁searches	-11.1398
▁respectively	-11.1399
▁67	-11.14
▁gesture	-11.1401
▁Allardyce	-11.1402
▁Carroll	-11.1403
▁£12	-11.1404
▁urban	-11.1405
▁troubled	-11.1407
▁Moss	-11.1408
▁Sebastian	-11.1408
▁Nasa	-11.1412
▁forensic	-11.1415
▁proportion	-11.1419
▁56	-11.142
good	-11.1424
▁Carlo	-11.1425
▁recognised	-11.1426
▁estimate	-11.1427
▁w	-11.1431
ken	-11.1432
▁82	-11.1434
▁RAF	-11.1438
▁vanished	-11.1438
▁Sp	-11.1439
▁dominated	-11.1441
▁Lucas	-11.1442
▁helmet	-11.1443
▁infrastructure	-11.1443
▁recession	-11.1445
▁Rory	-11.1445
hr	-11.1447
3,000	-11.145
▁relation	-11.1451
Just	-11.1454
24	-11.1454
Every	-11.1454
lic	-11.1456
▁Sar	-11.1457
zer	-11.1457
▁methods	-11.146
pin	-11.1462
▁caps	-11.1462
▁bloody	-11.1465
▁Golf	-11.1466
▁Coroner	-11.1466
nk	-11.1467
▁tons	-11.1467
▁Bennett	-11.1467
▁Warner	-11.1471
▁eligible	-11.1472
▁jeans	-11.1472
has	-11.1475
▁spirits	-11.1478
form	-11.148
Not	-11.1481
▁Brooks	-11.1481
▁pan	-11.1483
▁cab	-11.1493
▁Ram	-11.1495
▁volunteer	-11.1497
▁Cro	-11.1503
▁aunt	-11.1507
▁CLICK	-11.1507
▁Federation	-11.1507
▁remembered	-11.1514
▁touching	-11.1515
▁lets	-11.1516
▁hacking	-11.1516
▁Palm	-11.1524
▁Peace	-11.1525
▁fever	-11.1526
Don	-11.1533
▁unaware	-11.1537
▁vet	-11.1538
▁logo	-11.1541
▁complain	-11.1542
▁trash	-11.1543
▁legacy	-11.1543
ene	-11.1547
▁adopt	-11.1553
▁mask	-11.1556
tur	-11.1558
▁actors	-11.1559
▁Lancaster	-11.156
▁QC	-11.1563
▁jurors	-11.1563
▁Ch	-11.1566
▁cyber	-11.1566
▁Den	-11.1568
▁pupil	-11.1571
▁Lebanon	-11.1572
▁Nicholas	-11.1572
istic	-11.1577
ew	-11.1578
▁scare	-11.1581
▁Novak	-11.1582
maker	-11.1583
▁electrical	-11.1583
▁coup	-11.1585
▁networking	-11.1586
▁tunnel	-11.1586
▁protein	-11.1592
▁Boris	-11.1597
▁taxpayer	-11.1598
▁urge	-11.1598
▁Forces	-11.1601
▁57	-11.1601
▁Min	-11.1601
▁attackers	-11.1602
▁Jerry	-11.1602
gal	-11.1603
▁Bou	-11.1608
▁Guardian	-11.1613
▁refugees	-11.1613
▁Tyler	-11.1614
▁apologize	-11.1616
▁solve	-11.1617
▁pensioner	-11.1617
▁bronze	-11.1619
▁feedback	-11.1621
▁resume	-11.1622
ged	-11.1624
▁underneath	-11.1625
▁51	-11.1627
▁autumn	-11.1631
▁prestigious	-11.1631
▁thieves	-11.1631
▁Are	-11.1631
▁Glen	-11.1633
▁McLaren	-11.1637
▁speeds	-11.164
▁ordinary	-11.1641
▁Gray	-11.1641
row	-11.1648
▁scientist	-11.1648
you	-11.1648
▁unacceptable	-11.165
▁topped	-11.1653
▁shake	-11.1654
▁frequent	-11.1659
die	-11.1662
▁Ju	-11.1662
▁fatally	-11.1665
▁ceiling	-11.1667
▁diagnosis	-11.1673
▁corporate	-11.1677
▁terrified	-11.1677
▁Bernard	-11.1679
▁furniture	-11.1685
▁Mata	-11.1685
▁movements	-11.169
▁Number	-11.1691
▁spill	-11.1693
▁tactics	-11.1694
finals	-11.1695
▁cancel	-11.1695
▁Chan	-11.1699
▁transported	-11.1699
▁anymore	-11.1708
▁Comes	-11.1709
▁Phillip	-11.1709
▁Croatia	-11.1712
tte	-11.1713
▁handgun	-11.1716
▁judgment	-11.1716
▁cargo	-11.1717
▁Peru	-11.1719
▁sing	-11.1719
▁Knox	-11.1721
▁responding	-11.1721
▁appreciate	-11.1723
strong	-11.1727
nic	-11.1727
▁comic	-11.1729
▁Rush	-11.173
▁Rica	-11.1734
▁avoided	-11.1737
▁rapidly	-11.1738
▁presents	-11.1738
▁examine	-11.1742
▁governing	-11.1742
▁affidavit	-11.1745
▁fleeing	-11.175
ory	-11.1752
▁wider	-11.1755
▁racism	-11.1756
▁subsequently	-11.1756
▁Border	-11.1757
▁Nicolas	-11.1758
▁Norman	-11.1767
▁Pet	-11.1768
tch	-11.1769
▁Disease	-11.1769
21	-11.1771
▁dive	-11.1771
▁Todd	-11.1775
▁£100	-11.1775
iya	-11.1777
▁nursing	-11.1781
▁elements	-11.1784
▁Bri	-11.1786
▁fingers	-11.1786
ich	-11.179
▁Pra	-11.1792
▁Ghana	-11.1793
▁aftermath	-11.1793
key	-11.1793
▁Low	-11.1798
ple	-11.18
▁democracy	-11.1802
▁discussions	-11.1803
▁Baltimore	-11.1805
▁Fi	-11.1811
▁Colin	-11.1811
▁deliberately	-11.1814
▁Rod	-11.1816
▁eBay	-11.1817
ctor	-11.1818
▁Colombian	-11.1821
ening	-11.1823
▁79	-11.1823
▁residential	-11.1824
▁ultimate	-11.1827
▁84	-11.1829
oni	-11.1829
▁Er	-11.1833
cker	-11.1836
▁Ay	-11.1836
▁stranded	-11.1839
▁insist	-11.184
▁nude	-11.1841
▁automatically	-11.1842
▁engage	-11.1848
▁66	-11.1851
▁fines	-11.1851
▁Photographer	-11.1855
▁34-	-11.1857
▁50-	-11.1858
▁syndrome	-11.1859
▁3,	-11.186
▁cigarette	-11.1863
ati	-11.1863
▁lightning	-11.1864
sk	-11.1864
▁Casey	-11.1864
▁Arthur	-11.1866
yo	-11.1868
▁boxer	-11.1871
▁Championships	-11.1871
▁Durham	-11.1872
▁reduction	-11.1872
▁removing	-11.1872
▁cruelty	-11.1872
▁formation	-11.1875
▁euros	-11.1877
Or	-11.1882
▁Jail	-11.1883
▁overweight	-11.1887
▁Detectives	-11.1887
▁Perth	-11.189
▁Delta	-11.1891
▁Wild	-11.1896
▁update	-11.1897
making	-11.1904
▁Linda	-11.1908
▁FDA	-11.1909
▁£50	-11.191
▁listening	-11.1913
▁Ice	-11.1915
▁III	-11.1917
▁surprising	-11.1919
▁reserve	-11.192
▁Mitt	-11.1931
▁balloon	-11.1932
▁grandchildren	-11.1934
▁Kay	-11.1935
▁icon	-11.194
▁laser	-11.194
▁vaccine	-11.1942
trick	-11.1944
tes	-11.1946
sley	-11.1947
▁competitions	-11.1948
▁tongue	-11.1951
MA	-11.1952
▁supporter	-11.1954
▁withdraw	-11.1955
▁Marco	-11.1959
▁comparison	-11.1961
▁Christ	-11.1963
▁www	-11.1963
ability	-11.1964
▁slept	-11.1969
▁promising	-11.197
▁Morrison	-11.197
Be	-11.1971
▁Win	-11.1975
▁rapper	-11.1976
▁floating	-11.1977
▁facts	-11.198
▁detect	-11.1981
▁seemingly	-11.1982
▁trademark	-11.1982
▁Latin	-11.1988
yard	-11.1989
▁Change	-11.1992
ei	-11.1993
▁deputies	-11.2
▁£1,000	-11.2001
breaking	-11.2001
▁shooter	-11.2001
▁coaches	-11.2007
▁diseases	-11.2009
▁spare	-11.2009
▁Staffordshire	-11.2013
▁beef	-11.2014
▁Diamond	-11.2019
▁81	-11.2026
▁ads	-11.2028
game	-11.2029
▁odd	-11.2031
▁Garden	-11.2032
shot	-11.2032
▁participate	-11.2034
▁stranger	-11.2034
▁ma	-11.2035
▁83	-11.2037
▁Ancelotti	-11.2037
▁washed	-11.2037
▁Nico	-11.2041
ants	-11.2042
▁acid	-11.2043
▁Denmark	-11.2043
▁Palin	-11.2046
▁downtown	-11.2047
▁Jews	-11.2049
▁Shanghai	-11.205
▁beside	-11.2051
del	-11.2051
▁mate	-11.2053
ire	-11.2054
ado	-11.2055
▁4,000	-11.2055
▁63	-11.2055
▁handful	-11.2056
▁bomber	-11.2057
▁Berry	-11.2057
▁Ivan	-11.2058
▁limits	-11.206
looking	-11.206
▁core	-11.2065
▁academy	-11.2068
she	-11.2072
tain	-11.2072
▁Char	-11.2073
▁cop	-11.2079
▁pin	-11.2081
Le	-11.2081
▁firearms	-11.2084
▁divorced	-11.2086
▁Vettel	-11.2087
▁formally	-11.2089
▁95	-11.2092
▁grant	-11.2092
▁tribunal	-11.2093
▁custom	-11.2093
▁Jill	-11.2093
▁famously	-11.2095
wick	-11.2096
hal	-11.2097
with	-11.2099
▁prisoner	-11.21
▁gunshot	-11.2101
▁48,	-11.2101
▁Hot	-11.2103
▁Liam	-11.2106
▁dining	-11.2106
▁charging	-11.2107
▁breed	-11.2107
▁mud	-11.2108
▁Support	-11.2109
cal	-11.2109
▁removal	-11.2112
▁Portland	-11.2114
▁cycling	-11.2114
▁bo	-11.2114
▁careful	-11.2115
▁fleet	-11.2117
▁chemotherapy	-11.2118
▁costing	-11.2119
▁Farage	-11.2119
▁campaigners	-11.212
▁camps	-11.2123
▁49,	-11.2125
ira	-11.2128
▁62	-11.2128
▁panic	-11.2131
ison	-11.2132
▁clinical	-11.2134
cut	-11.2135
▁Gates	-11.2136
▁Arkansas	-11.2137
▁accusing	-11.2137
▁Prize	-11.2137
▁imp	-11.2138
▁Gill	-11.214
▁lane	-11.2141
nell	-11.2142
dra	-11.2143
▁freezing	-11.2144
▁arranged	-11.2145
oli	-11.2147
▁dangers	-11.2148
▁Mason	-11.2149
▁alleges	-11.2153
▁commentary	-11.2154
▁700	-11.2154
▁Felipe	-11.2155
▁hurricane	-11.2155
▁Frenchman	-11.2156
▁Hand	-11.2156
▁Barnes	-11.2157
til	-11.2157
▁Venezuela	-11.2158
▁Mor	-11.2162
▁commissioned	-11.2162
▁Class	-11.2165
▁der	-11.2167
▁Jeffrey	-11.2168
cra	-11.2169
rry	-11.2173
▁Battle	-11.2173
▁Borussia	-11.2174
▁caption	-11.2175
▁permit	-11.2176
▁Mountain	-11.2178
west	-11.2179
lli	-11.218
▁rises	-11.218
▁attraction	-11.2183
▁vegetables	-11.2184
▁te	-11.2184
▁grandson	-11.2185
▁endured	-11.2186
▁35-	-11.2186
▁punch	-11.2188
▁Bor	-11.2189
▁Thames	-11.2191
▁gross	-11.2193
▁Ye	-11.2197
▁sc	-11.2199
▁Gadhafi	-11.2203
▁Transport	-11.2205
▁patent	-11.2206
▁indeed	-11.2207
▁golden	-11.2208
▁rolling	-11.2212
▁Ramsey	-11.2212
▁Stanley	-11.2213
▁employers	-11.2213
▁FOR	-11.2215
▁rider	-11.2216
▁crushed	-11.2217
▁Match	-11.222
▁tap	-11.222
▁senator	-11.222
▁Organization	-11.2224
▁3-2	-11.2226
▁Fu	-11.2232
▁habits	-11.2236
Why	-11.224
▁retailers	-11.2243
▁Bloomberg	-11.2243
▁organized	-11.2244
▁commonly	-11.2245
▁flooded	-11.2246
▁Mat	-11.2246
▁detective	-11.2246
▁abducted	-11.2251
▁tumour	-11.2253
▁stake	-11.2254
▁organs	-11.2255
▁fierce	-11.2256
▁micro	-11.2256
▁spotlight	-11.2257
▁Stevens	-11.2258
ridge	-11.2258
▁highlighted	-11.2258
▁prey	-11.2266
▁wrist	-11.2269
Today	-11.2273
▁overturned	-11.2274
Even	-11.2275
▁Harvard	-11.2275
▁Express	-11.2276
▁instance	-11.2278
▁consistent	-11.2281
Fi	-11.2284
▁fires	-11.2286
oon	-11.2287
▁Claims	-11.2289
▁Criminal	-11.229
▁Norfolk	-11.2294
▁obese	-11.2294
▁dig	-11.2297
▁shell	-11.23
▁Trade	-11.2302
▁embarrassing	-11.2306
▁jersey	-11.2307
Un	-11.2307
▁Corp	-11.2308
▁Cox	-11.2308
▁53	-11.2313
▁unbeaten	-11.2313
▁Ivory	-11.2313
▁retailer	-11.2313
▁terrifying	-11.2316
din	-11.2318
▁mentally	-11.2323
Oh	-11.2325
▁dollar	-11.2329
▁genuine	-11.2331
cat	-11.2333
▁Made	-11.2333
▁Mon	-11.2335
▁elaborate	-11.2338
▁opens	-11.2339
▁Abdullah	-11.2345
▁Search	-11.2345
▁sensation	-11.2346
▁Fish	-11.235
▁allies	-11.2351
▁cub	-11.2352
▁inspire	-11.2354
▁tin	-11.2355
▁sharks	-11.2356
▁Executive	-11.2358
▁NSA	-11.2358
▁58	-11.2359
▁hire	-11.2359
tech	-11.2362
▁arrives	-11.2363
▁Pearson	-11.2364
▁App	-11.2366
equ	-11.2367
▁Cre	-11.2368
Neill	-11.2369
▁excessive	-11.2372
▁superb	-11.2374
▁accommodation	-11.2377
zz	-11.2378
▁producers	-11.238
▁confused	-11.2385
▁caring	-11.2387
▁cave	-11.2388
▁tracking	-11.2391
▁68	-11.2392
wear	-11.2393
▁Stan	-11.2393
lie	-11.2394
▁soul	-11.2395
▁emerging	-11.2396
▁amateur	-11.2396
▁Dun	-11.2397
▁nominated	-11.24
▁draft	-11.2403
▁anxiety	-11.2406
▁smartphones	-11.2406
▁library	-11.2414
▁blonde	-11.2416
▁mountains	-11.2421
▁charities	-11.2422
▁undercover	-11.2423
Ha	-11.2426
▁Halloween	-11.2428
▁bat	-11.243
ib	-11.2432
vers	-11.2434
▁Prevention	-11.2435
▁openly	-11.2441
▁Etihad	-11.2441
▁cr	-11.2441
▁1.5	-11.2446
▁qualifier	-11.2448
▁Dor	-11.2455
▁sheet	-11.246
▁Armed	-11.2462
pur	-11.2463
shi	-11.2463
▁mad	-11.2464
acre	-11.2467
▁unpaid	-11.2468
▁contribute	-11.247
▁march	-11.2471
▁collecting	-11.2473
▁copies	-11.2474
▁agenda	-11.2474
ROLL	-11.248
▁Ozil	-11.248
▁cartoon	-11.2481
▁academic	-11.2482
▁answered	-11.2483
table	-11.2483
▁vessels	-11.2485
▁Bryan	-11.2485
▁52,	-11.2485
▁basement	-11.2491
mor	-11.2492
▁Shiite	-11.2493
▁lesson	-11.2493
▁Victorian	-11.2496
▁Cameroon	-11.2499
▁wire	-11.2504
▁Pu	-11.2507
▁jokes	-11.2508
▁classified	-11.2509
▁hosting	-11.251
▁expectations	-11.2511
▁generations	-11.2515
ros	-11.2516
ction	-11.2516
▁improvement	-11.2516
▁missiles	-11.2519
▁loaded	-11.252
▁communicate	-11.2522
state	-11.253
▁excess	-11.2531
▁£15	-11.2531
▁caution	-11.2531
▁bucket	-11.2532
Ho	-11.2543
23	-11.2544
▁unfair	-11.2545
ag	-11.2548
▁revenge	-11.2549
▁viewing	-11.2549
▁Des	-11.2551
xi	-11.2551
▁closure	-11.2552
ram	-11.2559
▁applications	-11.256
av	-11.256
▁select	-11.256
▁Il	-11.2562
▁restore	-11.2564
pt	-11.2566
▁satisfied	-11.2578
▁pointing	-11.2578
▁cord	-11.2579
▁Carol	-11.2585
▁indicted	-11.2594
▁leap	-11.2594
▁Robertson	-11.2595
▁Political	-11.2597
▁wreckage	-11.2597
itt	-11.26
▁crashing	-11.2603
▁Mall	-11.2603
▁enemy	-11.2603
▁Speaker	-11.2603
▁Eddie	-11.2604
▁courtroom	-11.2605
▁Liz	-11.2605
▁indication	-11.2607
▁Tsarnaev	-11.261
▁Harvey	-11.261
▁Sunni	-11.2611
▁barrier	-11.2613
▁relat	-11.2618
▁naturally	-11.262
▁Division	-11.2623
▁Julia	-11.2625
lum	-11.263
▁Coleman	-11.263
▁Hal	-11.2632
▁stance	-11.2635
ough	-11.2636
▁Rugby	-11.2636
▁coastal	-11.2636
▁Kenyan	-11.2639
▁preparation	-11.264
▁conclusion	-11.264
▁drunken	-11.264
▁readers	-11.2643
▁Stephanie	-11.2643
▁subjected	-11.2643
▁Christine	-11.2644
▁Pictures	-11.2645
▁51,	-11.2647
▁toxic	-11.2649
▁deciding	-11.2649
▁motorcycle	-11.2649
ute	-11.2651
▁Sarkozy	-11.2651
▁completing	-11.2656
▁radiation	-11.2656
▁Australians	-11.2657
▁hearts	-11.2657
▁Son	-11.2658
▁stem	-11.2659
▁Dog	-11.2664
▁demonstrators	-11.2665
▁ferry	-11.2669
▁neglect	-11.267
▁Lang	-11.2671
▁cigarettes	-11.2671
▁Mag	-11.2673
▁Hazard	-11.2675
▁Sh	-11.2677
▁Mer	-11.2683
▁Body	-11.2685
▁volcano	-11.2692
oo	-11.2692
▁photography	-11.2693
▁6,	-11.2697
pound	-11.2697
▁differences	-11.2698
▁hometown	-11.2699
▁conceded	-11.2699
▁Zi	-11.27
Bo	-11.27
ama	-11.2702
▁involve	-11.2703
▁raw	-11.2704
▁engines	-11.2705
▁Jobs	-11.2705
▁donor	-11.2706
▁n	-11.2706
▁Wars	-11.2707
▁eaten	-11.271
▁refuse	-11.2711
▁prince	-11.2713
▁4-0	-11.2716
▁sample	-11.272
▁reducing	-11.2722
▁resolve	-11.2726
▁Military	-11.2728
▁instructions	-11.2729
▁violations	-11.273
▁underway	-11.2733
▁wheels	-11.2734
coming	-11.2735
▁guidance	-11.2735
▁Target	-11.2735
▁handled	-11.2736
▁trace	-11.2738
▁restored	-11.2738
▁Glass	-11.2741
▁connect	-11.2741
▁funded	-11.2743
▁2006.	-11.2744
▁chemicals	-11.2744
size	-11.2746
▁Snow	-11.2749
▁ridiculous	-11.2749
▁guarantee	-11.2752
▁Thanksgiving	-11.2755
▁households	-11.2756
▁drones	-11.2757
▁Tam	-11.2757
▁Tampa	-11.2762
▁Ana	-11.2764
▁maker	-11.2764
elle	-11.2766
Everyone	-11.2767
▁gunmen	-11.2767
▁twist	-11.277
▁motivated	-11.2774
selling	-11.2774
▁$9	-11.2775
▁Dhabi	-11.2775
▁murders	-11.2776
▁tiger	-11.2782
▁priest	-11.2782
▁announcing	-11.2783
▁friendship	-11.2786
een	-11.2791
▁forgotten	-11.2791
▁lottery	-11.2795
▁donation	-11.2796
▁paintings	-11.2798
▁Take	-11.2799
▁reverse	-11.28
▁Norwegian	-11.2801
▁jets	-11.2809
▁transcript	-11.2809
cr	-11.281
▁engineering	-11.281
▁chased	-11.2811
▁embrace	-11.2812
▁6-1	-11.2816
ates	-11.2819
▁volume	-11.2821
▁choices	-11.2825
▁Audi	-11.283
ox	-11.2831
▁techniques	-11.2833
▁Mills	-11.2835
mber	-11.2835
▁legendary	-11.2836
▁landmark	-11.2837
▁conducting	-11.2837
ona	-11.2844
▁BMW	-11.2848
▁depth	-11.2849
fish	-11.2851
▁biological	-11.2855
ika	-11.2856
▁endangered	-11.2858
▁Brits	-11.2858
view	-11.2859
▁recognized	-11.2859
▁Guy	-11.2862
▁companion	-11.2862
▁cage	-11.2863
▁mu	-11.2866
▁researcher	-11.2866
▁files	-11.2867
▁fields	-11.2868
▁Blackburn	-11.2876
▁pile	-11.2876
att	-11.2877
▁manufacturer	-11.2878
▁Development	-11.2882
▁Editor	-11.2882
▁proven	-11.2887
▁Salt	-11.2888
▁Tehran	-11.2888
▁unexpected	-11.2889
Car	-11.289
▁prescription	-11.2891
▁Cruise	-11.2894
▁hungry	-11.2896
▁belonging	-11.2896
▁jaw	-11.2898
▁successive	-11.2899
▁Jacob	-11.29
▁lethal	-11.2902
▁Management	-11.2902
ban	-11.2902
non	-11.2904
▁Reed	-11.2908
▁historical	-11.2908
▁Athletic	-11.2909
▁foster	-11.2909
▁disturbing	-11.291
ification	-11.2913
▁raided	-11.2913
▁regarded	-11.2915
▁drought	-11.2915
▁conversations	-11.2916
kar	-11.2916
▁firearm	-11.2919
▁psychological	-11.2922
▁Survey	-11.2922
▁shouted	-11.2928
▁McCarthy	-11.2929
▁temporarily	-11.2929
▁1988	-11.293
▁unrest	-11.2932
▁Zimbabwe	-11.2934
▁sh	-11.2934
▁boarding	-11.2943
▁Song	-11.2944
▁subway	-11.2944
lam	-11.2945
▁ingredients	-11.2946
that	-11.2947
▁Buckingham	-11.2949
▁perspective	-11.2949
▁sp	-11.295
▁Come	-11.2952
▁gotten	-11.2952
▁Ros	-11.2959
▁brush	-11.2959
▁adoption	-11.296
▁pig	-11.2961
▁o	-11.2963
▁checking	-11.2964
▁peer	-11.2965
▁Unit	-11.2968
▁unfortunate	-11.2969
▁1986	-11.297
front	-11.2973
▁longtime	-11.2975
▁Coalition	-11.2976
cious	-11.2978
▁stops	-11.2981
ture	-11.2983
▁Heather	-11.2985
▁Reading	-11.2985
▁arch	-11.2986
Con	-11.2987
ore	-11.299
▁Silver	-11.2992
▁phenomenon	-11.2997
Ra	-11.2997
▁unhappy	-11.2997
▁Leader	-11.2998
▁stormed	-11.2998
▁extremists	-11.2999
▁Reports	-11.3001
▁4,	-11.3002
▁chasing	-11.3004
▁derby	-11.3005
▁venture	-11.3008
▁broad	-11.3008
▁analysts	-11.3011
-1	-11.3012
hit	-11.3014
part	-11.3016
▁slim	-11.3016
▁blew	-11.3017
▁dramatically	-11.3018
▁po	-11.302
▁tornado	-11.3021
▁plain	-11.3021
▁casualties	-11.3024
▁surviving	-11.3031
wo	-11.3032
▁Field	-11.3033
▁Yes	-11.3034
▁Melissa	-11.3038
▁Pop	-11.3041
there	-11.3041
▁DC	-11.3042
▁concentration	-11.3045
▁relegation	-11.3045
▁banking	-11.3049
ups	-11.3049
▁infamous	-11.3051
▁Assistant	-11.3051
▁Boxing	-11.3054
▁lavish	-11.3058
▁visa	-11.306
▁Anyone	-11.3062
▁Province	-11.3065
▁luggage	-11.3065
▁86	-11.3066
ica	-11.3072
founder	-11.3073
▁commented	-11.3074
face	-11.3075
cur	-11.3078
mark	-11.3079
▁contracts	-11.308
▁£16	-11.3082
▁Sand	-11.3082
▁Haram	-11.3085
▁Merkel	-11.3093
val	-11.3094
▁Romanian	-11.3094
▁13,	-11.3099
▁valued	-11.31
▁generate	-11.3104
▁closest	-11.3104
▁Walsh	-11.3106
▁£30	-11.3107
▁Marshall	-11.3107
▁iReport	-11.3112
▁prosecuting	-11.3113
▁abusive	-11.3116
▁stupid	-11.3118
▁suits	-11.3118
▁desperately	-11.3121
▁stab	-11.3123
▁wash	-11.3124
▁instantly	-11.3125
▁DOWN	-11.3127
▁Suffolk	-11.3127
eg	-11.313
▁Final	-11.3131
▁infections	-11.3132
▁heritage	-11.3134
▁designers	-11.3134
▁Rihanna	-11.3141
▁polar	-11.3141
▁virtual	-11.3141
▁Buck	-11.3143
▁88	-11.3143
▁demonstrations	-11.3144
▁hostages	-11.3145
▁lesbian	-11.3148
▁Lennon	-11.3148
▁elephants	-11.3151
▁angle	-11.3153
▁aviation	-11.3155
▁Aviation	-11.3155
▁Preston	-11.3156
Go	-11.3156
▁spa	-11.3158
sur	-11.3162
Then	-11.3166
▁2005,	-11.3167
▁disability	-11.3169
▁inspector	-11.317
▁Ruth	-11.3172
▁Lance	-11.3172
ches	-11.3176
▁approaching	-11.3186
▁Girls	-11.3186
yan	-11.3191
▁patterns	-11.3192
▁Please	-11.3193
ea	-11.3194
▁1982	-11.3197
▁Corps	-11.321
▁Gardner	-11.321
▁universities	-11.321
▁Cairo	-11.3211
▁bump	-11.3211
▁promoted	-11.3211
▁deer	-11.3218
▁spreading	-11.322
▁institutions	-11.3223
▁nephew	-11.3224
▁wreck	-11.3225
cus	-11.3229
▁prostitution	-11.3231
▁Say	-11.3232
▁Financial	-11.3234
▁Gabriel	-11.3236
▁Pur	-11.3238
▁99	-11.3244
▁Command	-11.3247
▁teammates	-11.3249
▁audio	-11.3251
▁random	-11.3253
▁Lawson	-11.3254
▁inspection	-11.3255
▁confrontation	-11.3255
▁tube	-11.3257
▁Chairman	-11.326
▁Shane	-11.3261
▁crystal	-11.3261
Po	-11.3263
▁portion	-11.3263
▁trousers	-11.3264
▁exhibit	-11.3265
▁lists	-11.3267
▁chronic	-11.3268
▁premiere	-11.3269
▁poisoning	-11.327
mis	-11.327
▁ha	-11.3271
▁northwest	-11.3272
hn	-11.3275
▁transformed	-11.3277
▁nowhere	-11.3278
▁Mali	-11.328
▁opted	-11.3283
▁Leone	-11.3285
▁ward	-11.3287
▁unlike	-11.3287
▁cabinet	-11.3289
▁weigh	-11.3292
▁Cap	-11.3296
ata	-11.3298
Shabaab	-11.3301
▁discharged	-11.3306
Star	-11.3308
▁Sharon	-11.3311
▁demonstration	-11.3311
▁pleading	-11.3312
▁campaigns	-11.3314
▁airplane	-11.3315
▁existence	-11.3322
▁Valentine	-11.3323
▁complaining	-11.3326
hood	-11.3334
▁pistol	-11.3336
▁Have	-11.3337
▁Pay	-11.3338
▁bullets	-11.3339
▁log	-11.334
mat	-11.3341
▁difficulty	-11.3342
▁whales	-11.3346
▁Abdul	-11.3355
▁bug	-11.3356
▁subsequent	-11.3358
▁Easter	-11.3358
▁belonged	-11.3361
▁Rich	-11.3361
▁modest	-11.3362
▁bowl	-11.3363
▁sheep	-11.3364
▁releasing	-11.3364
▁1984	-11.3365
lla	-11.3367
▁prank	-11.3368
▁radar	-11.3371
▁Horse	-11.3372
▁Franklin	-11.3373
▁dated	-11.3373
▁parks	-11.3376
▁Dakota	-11.3378
▁59	-11.338
oy	-11.338
NA	-11.338
▁disputed	-11.3381
▁Nor	-11.3381
▁Enrique	-11.3385
▁Hudson	-11.3385
▁misdemeanor	-11.3385
By	-11.3388
9,000	-11.3391
▁fabric	-11.3392
▁horrible	-11.3398
▁bodily	-11.3399
elli	-11.3401
▁creates	-11.3401
▁constitutional	-11.3406
▁Boko	-11.3411
▁impose	-11.3411
▁juvenile	-11.3414
▁History	-11.3414
▁struggles	-11.3414
▁awful	-11.3415
From	-11.3415
▁loyal	-11.3423
▁delivering	-11.3424
▁5,	-11.3425
▁Brook	-11.3426
▁detected	-11.3428
▁soap	-11.3432
▁executives	-11.3433
▁Nu	-11.3434
▁shootings	-11.3434
▁Raheem	-11.3435
▁evil	-11.3437
▁laptop	-11.3442
▁spends	-11.3442
▁refund	-11.3444
▁screens	-11.3444
▁Len	-11.3445
▁subjects	-11.3445
▁Holder	-11.3446
ister	-11.3446
▁Romania	-11.3446
▁notified	-11.3449
rr	-11.3454
▁87	-11.3454
ora	-11.3459
▁cure	-11.3459
▁Eden	-11.346
▁Hor	-11.3461
▁respected	-11.3462
▁Bangkok	-11.3463
▁reckless	-11.3464
ered	-11.3467
▁knot	-11.3471
▁Shah	-11.3472
▁relevant	-11.3474
▁Close	-11.3479
▁Gal	-11.3482
▁Trump	-11.3485
▁MI	-11.3488
ending	-11.3489
▁thrilled	-11.3491
▁53,	-11.3493
Assad	-11.3494
host	-11.3495
▁Rad	-11.3497
▁Marathon	-11.3499
▁explaining	-11.35
Of	-11.3502
▁stored	-11.3502
▁Half	-11.3504
▁neighboring	-11.3509
▁Harper	-11.3511
▁ammunition	-11.3513
▁obtain	-11.3514
▁institution	-11.3515
pon	-11.3516
▁Hay	-11.3516
▁Page	-11.3516
ied	-11.3521
RE	-11.3521
ric	-11.3527
▁superstar	-11.3529
▁rage	-11.3531
▁em	-11.3532
vy	-11.3532
dic	-11.3532
Yes	-11.3533
▁Kurdish	-11.3535
▁certificate	-11.3535
▁Patrol	-11.3535
▁travelers	-11.3535
▁Sullivan	-11.3535
iff	-11.3536
▁tropical	-11.3539
▁Sim	-11.3541
▁makers	-11.3543
▁passage	-11.3545
▁musician	-11.3546
▁ID	-11.3548
▁Paulo	-11.3551
Lo	-11.3551
▁1,500	-11.3554
lly	-11.3563
▁Guardiola	-11.3564
▁Challenge	-11.3565
▁parliamentary	-11.3565
▁auto	-11.3569
ese	-11.3572
▁Shu	-11.3572
great	-11.3573
▁Fast	-11.3574
flight	-11.3575
▁plunged	-11.3577
▁Schumacher	-11.3578
▁tsunami	-11.3585
▁trials	-11.3586
▁accurate	-11.3589
▁engineers	-11.3592
most	-11.3593
▁divided	-11.3593
▁thanked	-11.3596
ami	-11.3596
▁contracted	-11.3598
▁silent	-11.36
▁50,	-11.3603
▁Serena	-11.3607
▁publicity	-11.3608
cia	-11.361
▁reviews	-11.3612
▁dirty	-11.3614
▁accidents	-11.3614
▁latter	-11.3615
▁helicopters	-11.3617
▁preventing	-11.3619
▁wears	-11.362
▁cruel	-11.362
▁slide	-11.3621
▁Arctic	-11.3622
▁rubber	-11.3622
▁Sporting	-11.3622
▁MH	-11.3623
▁countryside	-11.3631
▁cared	-11.3633
Let	-11.3633
▁Joan	-11.3636
▁50,000	-11.3639
▁Santos	-11.3644
▁Tea	-11.3645
▁Gonzalez	-11.3645
▁Cam	-11.3646
lyn	-11.3648
▁rumours	-11.3652
▁waist	-11.3657
▁palace	-11.3658
▁sauce	-11.3658
▁bi	-11.366
▁breathe	-11.3661
▁situations	-11.3661
▁bonus	-11.3662
▁hugely	-11.3664
▁allegation	-11.3668
▁duck	-11.3671
ON	-11.3674
▁assess	-11.3676
▁Campaign	-11.3677
uc	-11.3677
▁Maj	-11.3678
eu	-11.3679
▁arts	-11.3682
hold	-11.3683
▁Economic	-11.3687
▁complications	-11.3688
▁BP	-11.3689
▁Singer	-11.3689
Most	-11.3689
▁Joel	-11.369
ily	-11.3691
▁download	-11.3693
▁Cohen	-11.3695
▁fetch	-11.3697
▁column	-11.37
▁Merseyside	-11.3702
▁Design	-11.3702
▁attendance	-11.3703
▁displays	-11.3704
▁fractured	-11.3705
▁chip	-11.3708
▁Village	-11.3708
▁Passengers	-11.371
▁heated	-11.3711
▁drag	-11.3712
▁rankings	-11.3714
▁(2	-11.3716
▁enable	-11.3723
▁console	-11.3724
▁fairly	-11.3725
▁36-	-11.3726
dia	-11.3731
▁Taiwan	-11.3738
ef	-11.3739
put	-11.3739
▁Actor	-11.3741
▁Der	-11.3742
mmer	-11.3745
▁comply	-11.375
gram	-11.3752
▁Standards	-11.3752
▁navy	-11.3753
▁complicated	-11.3757
anna	-11.3759
▁theatre	-11.3762
▁lined	-11.3764
▁extremist	-11.3767
▁Com	-11.3772
▁alter	-11.3773
▁magistrates	-11.3774
▁unprecedented	-11.3774
▁cease	-11.3775
▁hacked	-11.3776
▁Hispanic	-11.3782
▁presidency	-11.3782
▁confidential	-11.3782
▁Official	-11.3783
▁toy	-11.3789
▁tobacco	-11.379
▁retreat	-11.3791
▁collided	-11.3792
▁Peterson	-11.3792
▁Dame	-11.3792
▁rope	-11.3793
▁aide	-11.3793
▁powder	-11.3797
▁expression	-11.3798
▁Beck	-11.3799
▁Students	-11.38
▁partly	-11.3802
▁Jenkins	-11.3802
▁rehabilitation	-11.3804
▁anyway	-11.3804
▁Comp	-11.3805
real	-11.3806
▁embarrassed	-11.381
▁Drogba	-11.3812
▁Floyd	-11.3812
▁regardless	-11.3813
▁wings	-11.3813
▁insight	-11.3816
▁newspapers	-11.3817
▁texts	-11.3818
▁Ren	-11.3818
▁1979	-11.382
▁passionate	-11.3825
▁speaker	-11.3827
itz	-11.3829
▁theater	-11.3829
▁2-2	-11.383
ddle	-11.3836
uri	-11.384
▁tune	-11.384
▁Cou	-11.3843
▁Grey	-11.3843
▁calf	-11.3844
▁staged	-11.3846
▁punished	-11.3848
▁Mumbai	-11.3849
▁consideration	-11.3849
▁Danish	-11.3851
▁k	-11.3855
▁aerial	-11.3857
▁requirements	-11.386
▁vocal	-11.3863
▁secretly	-11.3865
▁Francois	-11.3866
▁beard	-11.3871
▁Pass	-11.3873
▁ownership	-11.3874
▁Workers	-11.3876
▁casino	-11.3878
▁bicycle	-11.3878
▁nicknamed	-11.3879
,600	-11.3881
▁whistle	-11.3881
▁inner	-11.3883
▁Bournemouth	-11.3886
▁Broad	-11.3887
▁prepares	-11.3888
▁Moon	-11.3888
▁purse	-11.3893
▁Ramos	-11.3894
dom	-11.3895
▁Richards	-11.3896
▁receives	-11.3896
▁rat	-11.3898
▁Natalie	-11.3901
▁BT	-11.3901
▁excuse	-11.3902
▁Theresa	-11.3903
stop	-11.3905
ggy	-11.3906
▁deserved	-11.3908
▁Guinness	-11.3908
▁maintenance	-11.3908
▁Sergeant	-11.3908
▁1987	-11.3909
▁northeast	-11.3909
▁Sally	-11.3912
▁Hussein	-11.3913
▁estranged	-11.3916
▁feat	-11.3916
▁Honda	-11.3916
▁Fisher	-11.392
▁washing	-11.3921
▁versions	-11.3921
▁immune	-11.3923
▁nerve	-11.3924
▁pills	-11.3927
▁Metro	-11.3928
▁stability	-11.3931
inhua	-11.3935
▁stamp	-11.3936
CA	-11.3937
▁pledge	-11.3937
▁Reagan	-11.3938
▁woods	-11.3938
▁mysterious	-11.3939
▁shipping	-11.394
▁ranging	-11.3942
▁trucks	-11.3945
▁Madison	-11.3946
cer	-11.3946
▁coin	-11.3946
▁Bru	-11.3949
mond	-11.3949
▁Cold	-11.3949
▁replica	-11.395
bert	-11.395
door	-11.3951
lip	-11.3952
▁measured	-11.3954
who	-11.3954
▁Cra	-11.3954
▁reasonable	-11.3956
▁liberal	-11.396
▁Toyota	-11.396
▁generous	-11.3961
▁Rosie	-11.3965
26	-11.397
▁hardly	-11.3971
▁ditch	-11.3972
▁membership	-11.3972
▁Jake	-11.3974
▁Jerusalem	-11.3975
▁excitement	-11.3976
government	-11.3977
▁Manning	-11.3977
▁Holly	-11.3977
▁suggestion	-11.3981
▁Poll	-11.3981
▁champagne	-11.3983
▁injuring	-11.3983
▁Gas	-11.3984
▁distribution	-11.3985
▁Action	-11.3985
▁Logan	-11.3985
▁serial	-11.399
friendly	-11.3991
▁Technology	-11.3993
▁generated	-11.3993
▁preferred	-11.3993
50,000	-11.3993
▁equally	-11.3995
▁bow	-11.3997
▁Marines	-11.3998
▁Tor	-11.3998
▁switched	-11.4001
▁moderate	-11.4001
▁titled	-11.4001
▁partially	-11.4001
▁advocate	-11.4002
▁catching	-11.4002
▁raises	-11.4003
▁pursuit	-11.4005
▁Dozens	-11.4006
▁strengthen	-11.4008
▁Glenn	-11.4008
▁Mick	-11.401
▁slot	-11.4013
▁Congo	-11.4014
▁joins	-11.4015
▁horrified	-11.4016
▁rap	-11.4017
▁Left	-11.4021
▁basically	-11.4022
▁addresses	-11.4023
▁Kings	-11.4023
▁allege	-11.4025
▁solo	-11.4025
▁ears	-11.4027
ically	-11.4028
▁premium	-11.4028
▁ladies	-11.4029
▁brace	-11.4029
▁policeman	-11.4029
▁shirts	-11.4032
▁Dec	-11.4038
▁Istanbul	-11.4043
▁Button	-11.4044
▁Montana	-11.4044
▁doll	-11.4047
▁pipe	-11.4054
▁gene	-11.4057
shaped	-11.4058
▁investigator	-11.4062
▁Wang	-11.4063
▁manufacturers	-11.4064
▁enjoys	-11.4066
▁$100,000	-11.4066
▁Berlusconi	-11.4066
▁Firefighters	-11.4066
▁burial	-11.4066
▁glamorous	-11.4066
▁paedophile	-11.4066
▁Footage	-11.4066
▁x	-11.4067
▁Homeland	-11.407
ces	-11.4071
▁Liberty	-11.4073
▁serves	-11.4073
▁Pitt	-11.4076
▁61	-11.4077
▁insisting	-11.4078
▁outdoor	-11.4079
▁greeted	-11.4082
▁pastor	-11.4082
nick	-11.4082
▁nest	-11.4084
▁Bus	-11.4086
▁somehow	-11.4087
65	-11.409
▁Sharp	-11.409
▁netted	-11.4091
Because	-11.4093
▁acceptable	-11.4094
▁sue	-11.4095
▁Murdoch	-11.4096
▁instructor	-11.4096
▁renowned	-11.4096
dent	-11.4097
▁react	-11.4097
▁rehab	-11.4097
▁bout	-11.41
take	-11.4101
▁cow	-11.4103
▁handing	-11.4103
▁Dawn	-11.4107
▁discipline	-11.4107
▁Sochi	-11.4107
▁Liberia	-11.4108
▁explicit	-11.4108
boy	-11.4109
▁2018	-11.4114
sim	-11.4115
cept	-11.4115
▁Use	-11.4116
▁bust	-11.4116
hl	-11.4118
▁artwork	-11.4118
▁evacuation	-11.4119
▁scrutiny	-11.4119
▁congressional	-11.4119
▁Cosby	-11.4119
▁Globe	-11.4119
▁Chambers	-11.412
▁Nobel	-11.4122
▁unions	-11.4123
▁observed	-11.4125
▁Benedict	-11.4127
▁55,	-11.4127
▁surveyed	-11.413
ition	-11.4132
▁Mini	-11.4133
▁bold	-11.4133
▁Indonesian	-11.4134
▁blogger	-11.4136
▁30,000	-11.4139
▁Gibson	-11.4142
▁Sol	-11.4143
▁drowned	-11.4145
girlfriend	-11.4147
▁Rolling	-11.4147
▁courage	-11.4151
▁Monte	-11.4155
▁Mass	-11.4157
▁Dublin	-11.4157
▁deserves	-11.4157
▁modelling	-11.4158
▁Sao	-11.416
▁Hayes	-11.4162
▁Hy	-11.4163
▁Factor	-11.4167
▁governments	-11.4169
▁Barr	-11.4169
tti	-11.4171
▁Record	-11.4171
▁hamstring	-11.4172
▁outlets	-11.4176
▁Small	-11.4177
aged	-11.4178
wer	-11.4179
▁Ecuador	-11.4179
▁imprisonment	-11.418
▁Without	-11.4181
▁7-6	-11.4181
▁Capt	-11.4184
▁contribution	-11.4186
bon	-11.4188
▁Cesc	-11.4188
▁relieved	-11.4188
▁Reds	-11.419
powered	-11.4195
log	-11.4195
▁fundraising	-11.4196
▁Seoul	-11.4196
▁buyer	-11.4197
▁gown	-11.4197
▁Pippa	-11.4203
▁southwest	-11.4204
▁finals	-11.4205
ax	-11.4205
▁farmer	-11.4206
▁legitimate	-11.4208
▁2017	-11.4209
▁discussing	-11.4209
▁blasted	-11.4215
▁54,	-11.4216
▁miracle	-11.422
▁brawl	-11.4226
▁overdose	-11.4226
▁adapt	-11.4227
▁dealer	-11.4227
▁Mia	-11.4229
▁banning	-11.423
▁Ser	-11.423
ida	-11.423
▁Place	-11.4233
▁bikini	-11.4234
▁cartel	-11.424
▁Iceland	-11.4242
▁2004,	-11.4243
lis	-11.4248
▁structures	-11.4249
▁inmate	-11.4249
▁destinations	-11.425
lf	-11.4251
wide	-11.4256
▁pollution	-11.4257
▁Kabul	-11.4257
▁delight	-11.426
▁span	-11.4261
▁launches	-11.4262
▁bedrooms	-11.4263
▁Bolt	-11.4263
▁cyclist	-11.4265
▁disappointment	-11.4265
og	-11.4265
▁divers	-11.4268
▁competitors	-11.4269
▁emotions	-11.427
▁centuries	-11.4272
▁Opinion	-11.4273
▁Roll	-11.4275
fu	-11.4275
▁thousand	-11.428
▁Consumer	-11.428
▁experiencing	-11.428
▁Side	-11.428
▁bay	-11.4281
100	-11.4286
▁nail	-11.4288
▁lighting	-11.4289
gh	-11.429
▁Luiz	-11.4291
▁Room	-11.4292
▁flags	-11.4293
▁tan	-11.4294
▁cute	-11.4294
▁freeze	-11.4294
▁hub	-11.4304
▁Dream	-11.4309
▁Pri	-11.4311
▁fights	-11.4312
▁associate	-11.4315
▁riot	-11.4315
▁purposes	-11.4316
▁Raymond	-11.4319
▁achievement	-11.4321
▁focusing	-11.4326
▁2020	-11.4331
▁substantial	-11.4334
▁monthly	-11.4334
▁Cricket	-11.4335
▁clever	-11.4335
▁glimpse	-11.4335
▁$20	-11.4337
▁shaking	-11.4342
▁Bahrain	-11.4342
▁Koeman	-11.4342
▁Christians	-11.4345
▁Sex	-11.4348
speed	-11.4349
▁Serbia	-11.4355
▁Alice	-11.4356
▁Pacquiao	-11.4358
▁intimate	-11.4358
▁examiner	-11.4359
▁administrative	-11.436
▁rapid	-11.436
▁breasts	-11.4361
▁developers	-11.4362
rus	-11.4363
▁EW	-11.4366
▁reaches	-11.4367
16	-11.4367
▁Try	-11.4367
▁Dick	-11.4367
▁71	-11.4368
▁refugee	-11.4371
▁reacted	-11.4371
▁Fletcher	-11.4374
▁Myanmar	-11.4374
world	-11.4374
▁spacecraft	-11.4374
▁Rat	-11.4375
:45	-11.4377
▁Series	-11.4379
▁convince	-11.438
▁Storm	-11.4384
▁urgent	-11.4385
▁possessing	-11.4389
▁stairs	-11.4389
:00	-11.4389
▁(£1	-11.439
▁Hook	-11.4396
▁extradition	-11.4397
▁Mauricio	-11.4397
▁inflation	-11.4397
▁Wells	-11.4397
▁crocodile	-11.44
▁bio	-11.4402
shaw	-11.4402
▁grief	-11.4405
▁pirates	-11.4406
▁Lohan	-11.4406
▁monitored	-11.4407
▁transform	-11.441
only	-11.4412
▁shelves	-11.4413
Her	-11.4414
▁outfits	-11.4414
▁Napoli	-11.4415
▁bidding	-11.4415
Man	-11.4416
27	-11.4417
▁Jackie	-11.4419
▁formula	-11.4419
▁Omar	-11.4422
▁labelled	-11.4422
▁Javier	-11.4423
▁lions	-11.4425
▁Sto	-11.4425
▁Boyle	-11.4426
jan	-11.4429
▁committing	-11.443
▁Lar	-11.443
▁Earl	-11.4432
▁compatriot	-11.4436
▁hashtag	-11.4436
▁necessarily	-11.4436
▁glory	-11.4436
▁Elementary	-11.4444
▁Dylan	-11.4444
▁unnecessary	-11.4444
▁Wallace	-11.4444
▁humanity	-11.4446
ux	-11.4452
▁manufacturing	-11.4452
oid	-11.4453
mes	-11.4455
▁Gay	-11.4457
▁Bet	-11.4457
tive	-11.4458
▁Pyongyang	-11.446
▁Ibrahimovic	-11.446
mont	-11.4462
woman	-11.4468
rum	-11.4468
adi	-11.4471
▁rescuers	-11.4472
▁steam	-11.4477
ral	-11.4479
▁script	-11.4479
▁signals	-11.448
49	-11.448
▁Isle	-11.4481
▁dish	-11.4481
▁goodbye	-11.4484
▁Vogue	-11.4484
▁Bryant	-11.4485
rn	-11.4487
Brien	-11.4491
▁Such	-11.4491
▁hung	-11.4492
▁7,	-11.4495
▁useful	-11.4498
word	-11.4498
▁choosing	-11.4499
▁Ste	-11.4499
▁Alexandra	-11.45
▁Capitol	-11.4507
▁approve	-11.4513
▁lovers	-11.4515
▁curb	-11.4517
▁blanket	-11.452
▁poured	-11.4521
▁ignore	-11.4521
▁Got	-11.4525
▁revelations	-11.4527
▁prosecuted	-11.4529
▁burden	-11.4531
▁timing	-11.4531
▁rob	-11.4531
▁worrying	-11.4532
▁mode	-11.4535
▁Any	-11.4536
:15	-11.4537
▁Jorge	-11.4539
▁Forbes	-11.4539
▁muscles	-11.454
▁contractor	-11.4541
cle	-11.4542
▁im	-11.4542
▁Mubarak	-11.4547
▁Poyet	-11.4547
▁Walmart	-11.4547
▁lingerie	-11.4547
▁shy	-11.4549
85	-11.4553
▁mice	-11.4555
▁devoted	-11.4558
tar	-11.4559
metre	-11.4561
▁Gove	-11.4562
▁stepping	-11.4565
▁Look	-11.4565
▁golfer	-11.4569
▁Kit	-11.4569
▁Nolan	-11.457
▁Chen	-11.4571
▁reminder	-11.4571
▁Swift	-11.4571
white	-11.4573
▁astonishing	-11.4574
rous	-11.4577
▁asteroid	-11.4579
▁Herrera	-11.4579
▁Gil	-11.4579
▁aisle	-11.458
▁demonstrate	-11.4583
▁restricted	-11.4586
▁74	-11.4586
▁2014.	-11.4586
▁romance	-11.4587
▁wrongdoing	-11.4587
home	-11.459
ua	-11.4591
▁credited	-11.4592
▁clouds	-11.4594
nny	-11.4598
eau	-11.4599
▁Fra	-11.4602
▁dancer	-11.4603
▁Wind	-11.4607
▁sells	-11.4608
▁adventure	-11.4609
▁Appeal	-11.461
▁shoulders	-11.461
▁Kensington	-11.4611
▁database	-11.4611
▁Kenneth	-11.4612
▁gloves	-11.4612
▁artificial	-11.4612
▁Intelligence	-11.4612
▁alien	-11.4615
▁6-	-11.4616
▁rented	-11.4618
▁Parkinson	-11.4619
tas	-11.4626
▁Olivia	-11.4627
▁balcony	-11.4627
▁happiness	-11.4627
▁placing	-11.4627
▁Until	-11.4632
▁matching	-11.4634
▁Amnesty	-11.4635
▁suburban	-11.4638
Mar	-11.4639
▁Malaysian	-11.464
▁chapter	-11.4643
▁sprint	-11.4646
▁Base	-11.4649
▁Yahoo	-11.4651
▁tide	-11.4652
▁Kat	-11.4657
▁Brit	-11.4661
▁bare	-11.4661
▁Wolf	-11.4666
ching	-11.4667
▁habitat	-11.4667
▁raids	-11.4669
▁affecting	-11.4671
▁Doctor	-11.4671
▁Sheikh	-11.4672
▁Line	-11.4675
▁pepper	-11.4675
▁Adelaide	-11.4683
▁euro	-11.4683
▁circle	-11.4685
▁Yaya	-11.4692
,800	-11.4694
▁invest	-11.4695
▁Row	-11.4696
▁45-	-11.4697
▁$10,000	-11.4699
▁UKIP	-11.47
▁Ashton	-11.4701
▁reign	-11.4703
▁Newton	-11.4703
ius	-11.4704
ets	-11.4707
▁Bali	-11.4711
▁r	-11.4713
▁Ellis	-11.4714
▁8,	-11.4715
▁exam	-11.4717
▁Card	-11.4719
▁Jen	-11.472
▁Ambulance	-11.4723
▁shield	-11.4723
eng	-11.4724
▁runners	-11.4729
power	-11.4729
▁somewhat	-11.4729
▁Spa	-11.4731
▁robbed	-11.4731
▁Cheryl	-11.4731
▁Prior	-11.4732
▁Motor	-11.4734
▁resolved	-11.4735
▁tent	-11.4738
▁specially	-11.474
play	-11.474
▁cubs	-11.4742
▁999	-11.4742
▁Shaun	-11.4747
▁granddaughter	-11.4748
▁pleasure	-11.4748
▁sends	-11.4751
▁depending	-11.4751
▁layer	-11.4755
ink	-11.4756
▁Corporation	-11.4756
▁tribal	-11.4756
▁stray	-11.4756
▁constitution	-11.4756
▁god	-11.4756
scale	-11.4763
▁shuttle	-11.4764
▁Records	-11.4766
▁IT	-11.4767
▁Jesse	-11.4768
▁unfortunately	-11.4771
▁sole	-11.4775
▁hid	-11.4777
▁updates	-11.4778
▁Hero	-11.478
▁smuggling	-11.4783
▁hike	-11.4785
▁unlawful	-11.4786
▁PR	-11.4787
▁assassination	-11.4789
-16	-11.479
▁56,	-11.4793
▁insurgents	-11.4793
▁2015.	-11.4794
▁moral	-11.4794
▁Portsmouth	-11.4796
▁Fellow	-11.4796
22	-11.4799
▁Chu	-11.4799
▁earnings	-11.4801
▁lip	-11.4801
▁whereabouts	-11.4804
▁Celebrity	-11.4807
watch	-11.4808
▁crashes	-11.4808
▁Tra	-11.481
▁Hugh	-11.4811
▁grace	-11.4813
▁flies	-11.4813
▁Bee	-11.4813
Al	-11.4815
▁Labor	-11.4816
▁gangs	-11.4818
fin	-11.4819
▁Natural	-11.4821
▁nomination	-11.4824
▁workplace	-11.4826
▁battles	-11.4826
ges	-11.4826
▁blown	-11.4826
bank	-11.4827
▁Reynolds	-11.4829
ground	-11.4829
▁survivor	-11.4837
▁grandparents	-11.4837
▁Chapman	-11.4838
ras	-11.484
▁drain	-11.4841
uch	-11.4842
▁Plymouth	-11.4845
▁ranking	-11.4846
▁rings	-11.4847
five	-11.4848
▁Mis	-11.485
▁Brandon	-11.485
ld	-11.485
▁believing	-11.4853
▁Cheshire	-11.4854
▁regard	-11.4854
▁motorway	-11.4854
▁Dark	-11.4858
▁hunger	-11.486
ments	-11.4861
Pa	-11.4862
▁borders	-11.4863
▁transportation	-11.4864
▁Bible	-11.4865
▁mob	-11.4867
▁beds	-11.4867
▁safer	-11.4868
▁submarine	-11.487
▁spree	-11.487
▁unemployed	-11.487
▁contaminated	-11.487
▁130	-11.4871
▁condolences	-11.4874
bad	-11.4875
weight	-11.4876
place	-11.4877
▁visual	-11.488
▁Share	-11.4883
▁sophisticated	-11.4883
▁treats	-11.4884
▁Store	-11.4885
▁butter	-11.4886
▁Timothy	-11.4886
▁Palestinians	-11.4888
▁Sk	-11.4888
▁patch	-11.4888
▁lungs	-11.489
▁strangers	-11.489
▁pope	-11.489
▁180	-11.4892
▁loans	-11.4892
▁Cer	-11.4893
▁assumed	-11.4895
▁programmes	-11.4896
▁Fernandez	-11.4903
▁enclosure	-11.4903
gger	-11.4904
tta	-11.4909
▁Amber	-11.4909
▁pray	-11.4911
▁2014,	-11.4915
▁sink	-11.4918
▁Front	-11.4919
▁dictator	-11.4919
▁2.5	-11.4921
▁se	-11.4922
nar	-11.4924
igan	-11.4924
▁errors	-11.4925
▁quarterback	-11.4925
▁missions	-11.4925
▁Gus	-11.4926
▁gambling	-11.4927
▁£100,000	-11.4927
any	-11.4928
▁virtually	-11.4943
▁shorts	-11.4944
dal	-11.4945
▁fireworks	-11.4946
▁shotgun	-11.4946
▁filling	-11.4951
▁Pin	-11.4952
▁epidemic	-11.4952
▁temple	-11.4952
▁motorbike	-11.4952
▁abduction	-11.4953
▁overwhelming	-11.4953
Although	-11.4953
ender	-11.4954
▁deceased	-11.4955
▁vest	-11.4955
▁container	-11.4956
mus	-11.4959
▁Katherine	-11.496
▁reluctant	-11.496
▁suitcase	-11.4961
▁Market	-11.4962
▁fitting	-11.4963
▁4-1	-11.4966
▁89	-11.4967
▁Andrews	-11.4968
▁Amsterdam	-11.4969
▁Tommy	-11.4971
▁stuffed	-11.4978
▁warming	-11.4978
▁73	-11.4978
▁ATP	-11.4979
leg	-11.498
▁assisted	-11.4988
bre	-11.4991
ffer	-11.4992
▁debts	-11.4993
app	-11.4994
▁Lou	-11.4995
burg	-11.4997
▁Users	-11.4998
▁bitten	-11.4998
▁Dale	-11.4998
▁chips	-11.5
▁Jar	-11.5002
▁Mirror	-11.5002
▁innocence	-11.5002
▁coal	-11.5002
kov	-11.5002
▁displaced	-11.5003
▁Help	-11.5004
▁escort	-11.5006
grade	-11.5009
▁supervisor	-11.501
▁Miranda	-11.501
▁93	-11.5011
ient	-11.5011
▁tooth	-11.5013
▁arguments	-11.5016
▁freak	-11.5017
▁realistic	-11.5019
about	-11.5019
▁Winston	-11.5021
▁belong	-11.5022
▁Twenty	-11.5022
▁identification	-11.5027
▁prototype	-11.5027
▁Scholes	-11.5027
▁breeding	-11.5028
▁richest	-11.5029
miss	-11.5035
▁Heritage	-11.5035
screen	-11.5035
▁citizenship	-11.5036
▁absolute	-11.5037
ott	-11.504
▁Area	-11.504
▁phrase	-11.5043
▁crop	-11.5045
ons	-11.5046
▁Private	-11.5046
▁2001,	-11.5051
▁ritual	-11.5052
▁siege	-11.5052
▁crowned	-11.5052
▁Standard	-11.5053
▁inch	-11.5054
▁6,000	-11.5055
aff	-11.5055
▁Sandra	-11.5055
sson	-11.5056
Di	-11.5056
▁Run	-11.5058
▁Rover	-11.506
▁posters	-11.5066
going	-11.5073
bri	-11.5075
▁Hol	-11.5076
▁influential	-11.5077
▁Airbus	-11.5078
▁scorer	-11.5079
▁chiefs	-11.5082
▁catwalk	-11.5086
running	-11.5088
▁millionaire	-11.509
▁backlash	-11.5092
▁suspend	-11.5092
how	-11.5094
▁surfaced	-11.5094
▁Wen	-11.5095
▁emissions	-11.5097
▁mild	-11.5097
aki	-11.5099
▁Clare	-11.51
▁preserve	-11.5102
▁replacing	-11.5102
▁corporation	-11.5103
▁Doug	-11.5105
▁outraged	-11.5106
▁biting	-11.5106
▁overhaul	-11.5107
▁suggestions	-11.511
▁inspectors	-11.511
▁Walter	-11.511
▁acquitted	-11.5111
▁steep	-11.5111
▁Gre	-11.5111
▁Sel	-11.5112
▁semifinal	-11.5113
▁meets	-11.5113
▁Tara	-11.5117
▁lump	-11.5119
dell	-11.512
shire	-11.512
▁Dutchman	-11.5122
▁Owner	-11.5122
▁expanded	-11.5123
-20	-11.5125
▁professionals	-11.5125
▁aiming	-11.5127
▁predecessor	-11.5128
lle	-11.5128
▁keys	-11.5129
▁Garner	-11.5129
▁coins	-11.513
▁grip	-11.5131
▁weird	-11.5134
▁1985	-11.5138
▁reviewed	-11.5138
▁routes	-11.5141
hor	-11.5142
ED	-11.5142
▁Champion	-11.5144
▁Wozniacki	-11.5144
▁Giggs	-11.5144
28	-11.5146
▁narrowly	-11.5147
▁withdrawal	-11.5148
agh	-11.5148
▁riders	-11.5149
▁singles	-11.515
▁Sue	-11.5152
▁trunk	-11.5153
▁Building	-11.5153
las	-11.5154
qu	-11.5156
▁Lan	-11.5157
▁lifting	-11.5157
▁argues	-11.5158
08	-11.5158
▁conservation	-11.5168
▁wardrobe	-11.517
▁Neither	-11.5175
▁sketch	-11.5175
pac	-11.5178
▁Hilton	-11.5179
show	-11.5184
▁Samaritans	-11.5186
▁Found	-11.5186
▁vintage	-11.5187
▁pipeline	-11.5187
▁precious	-11.5188
CC	-11.5189
▁smooth	-11.5189
▁Inside	-11.5189
abi	-11.5193
cross	-11.5193
▁prayer	-11.5195
▁92	-11.5196
▁Band	-11.5196
▁Hassan	-11.5197
▁chart	-11.5199
▁distributed	-11.5201
▁rated	-11.5202
▁Springs	-11.5202
▁creator	-11.5202
▁skipper	-11.5204
▁AM	-11.5205
love	-11.5207
▁ESPN	-11.5212
▁spectators	-11.5212
▁Porto	-11.5214
▁Cru	-11.5214
▁automatic	-11.5214
▁harmful	-11.5215
▁Chad	-11.5215
▁smash	-11.5215
hurst	-11.5218
▁flower	-11.5221
▁equipped	-11.5223
▁gig	-11.5223
party	-11.5227
▁Constable	-11.5229
▁matched	-11.5231
▁accidental	-11.5232
▁punching	-11.5233
▁habit	-11.5233
▁Mai	-11.5235
▁recommendations	-11.5237
ique	-11.5241
AL	-11.5243
▁Mediterranean	-11.5246
▁Move	-11.5246
▁context	-11.5246
▁Gregory	-11.5247
▁4-	-11.5248
New	-11.525
▁driveway	-11.525
dar	-11.5252
▁wallet	-11.5254
▁Berkshire	-11.5255
▁convert	-11.5261
rest	-11.5263
▁Election	-11.5263
▁altercation	-11.5263
▁magic	-11.5266
▁140	-11.527
▁combine	-11.5271
▁Actress	-11.5272
▁emotion	-11.5272
▁healthcare	-11.5274
▁ruined	-11.5274
▁Eto	-11.5276
▁Mah	-11.528
▁Bianca	-11.528
▁determination	-11.528
aging	-11.5283
▁expense	-11.5284
▁bruises	-11.5284
▁Above	-11.5289
▁£10,000	-11.5289
▁villages	-11.5289
goers	-11.5295
▁Zuckerberg	-11.5297
▁blend	-11.5298
▁guitar	-11.5304
▁arrangements	-11.5305
▁hilarious	-11.5306
▁operators	-11.5306
▁psychiatric	-11.5306
▁traditionally	-11.5307
bie	-11.5308
husband	-11.5309
controlled	-11.5309
gent	-11.531
▁Laurent	-11.5316
▁equality	-11.5317
▁floods	-11.5317
▁cheer	-11.5325
▁eruption	-11.5325
▁Bear	-11.5326
▁Chase	-11.5327
fall	-11.5329
▁Kris	-11.5329
▁plates	-11.5331
▁uncomfortable	-11.5332
▁politically	-11.5334
▁eager	-11.5334
▁channels	-11.5336
▁accuses	-11.5338
▁Starbucks	-11.534
▁expansion	-11.534
▁Superior	-11.534
▁pageant	-11.534
ovic	-11.5341
▁Katy	-11.5342
▁pill	-11.5342
mas	-11.5343
▁Tur	-11.5345
▁Suspect	-11.5345
stra	-11.5345
▁privately	-11.5346
▁Boehner	-11.5349
▁Pittsburgh	-11.5349
▁(1	-11.535
▁drives	-11.535
▁hill	-11.5353
▁1981	-11.5358
▁rep	-11.5359
▁merely	-11.5362
▁Austrian	-11.5362
▁Plus	-11.5363
▁innovation	-11.5366
▁captive	-11.5366
▁buses	-11.5367
▁tanks	-11.5368
illo	-11.5371
▁submit	-11.5373
▁victories	-11.5375
▁Discovery	-11.5376
▁Money	-11.5376
▁Radamel	-11.5383
▁Megan	-11.5384
▁forum	-11.5384
▁sailing	-11.5389
▁monster	-11.5392
▁Mun	-11.5397
▁Lynn	-11.5398
uring	-11.5401
▁Creek	-11.5401
▁seeks	-11.5404
Many	-11.5404
pet	-11.5405
iro	-11.5406
▁scary	-11.5407
▁lucrative	-11.5409
-3	-11.5411
▁compiled	-11.5411
US	-11.5412
▁developer	-11.5415
▁Johnny	-11.5417
▁Did	-11.5418
▁Blatter	-11.5418
▁Conference	-11.5418
▁proving	-11.5419
cast	-11.5421
▁exception	-11.5421
late	-11.5422
▁origin	-11.5424
▁Dani	-11.5424
▁Beth	-11.5425
▁cemetery	-11.5427
▁dialogue	-11.5427
▁(19	-11.5431
▁differently	-11.5434
▁Netanyahu	-11.5435
▁Travis	-11.5436
,200	-11.5436
▁Jenny	-11.5436
▁showcase	-11.5438
▁Kra	-11.5443
▁divide	-11.5443
▁Archbishop	-11.5444
▁Ajax	-11.5444
▁TMZ	-11.5444
▁interim	-11.5445
▁withdrawn	-11.5446
▁conscious	-11.5448
▁backpack	-11.5448
▁mat	-11.5451
▁Player	-11.5453
▁Dead	-11.5454
verse	-11.5456
▁impress	-11.5457
▁42-	-11.5458
▁Make	-11.546
▁roadside	-11.546
▁200,000	-11.5461
▁allowance	-11.5464
▁Kam	-11.5468
▁Youth	-11.5469
▁lips	-11.5469
▁flick	-11.547
▁Butler	-11.5472
▁Tro	-11.5473
rat	-11.548
▁Cost	-11.5481
▁tone	-11.5483
care	-11.5484
turn	-11.5486
▁episodes	-11.5486
aries	-11.5489
▁2005.	-11.5493
fan	-11.5496
▁lace	-11.5496
▁Junior	-11.5496
▁identical	-11.5496
▁dirt	-11.5499
▁Riley	-11.55
▁Within	-11.5501
▁headline	-11.5501
▁renewed	-11.5504
▁laughed	-11.5504
▁Jam	-11.5506
▁employer	-11.5508
▁Tech	-11.551
▁Nou	-11.551
▁inquiries	-11.5523
▁cooperation	-11.5523
▁breakthrough	-11.5523
oma	-11.5523
▁premises	-11.5524
▁Bat	-11.5524
▁trans	-11.5525
▁firefighter	-11.5525
▁bargain	-11.5525
▁distraught	-11.5526
▁famed	-11.5527
▁costumes	-11.553
▁leopard	-11.5531
▁Asda	-11.5532
▁Martha	-11.5532
▁fa	-11.5533
▁demonstrated	-11.5533
▁hardest	-11.5534
▁Zara	-11.5534
▁mounted	-11.5535
etti	-11.5536
roy	-11.5538
▁List	-11.5538
▁Scot	-11.5539
▁Iron	-11.5539
▁Looking	-11.5541
suit	-11.5541
▁affordable	-11.5544
▁Arnold	-11.5545
▁donors	-11.5553
▁Which	-11.5555
▁knives	-11.5558
▁stint	-11.5558
▁juice	-11.5558
▁Dawson	-11.5558
▁hug	-11.556
▁assaults	-11.556
▁testify	-11.5561
being	-11.5566
▁streak	-11.5566
▁skiing	-11.5567
▁Hague	-11.5567
boo	-11.5568
imp	-11.5572
▁supports	-11.5573
-10	-11.5575
▁Kha	-11.5577
▁Ground	-11.5577
▁Lego	-11.5578
ello	-11.5578
▁tee	-11.558
▁beliefs	-11.5581
▁centers	-11.5583
sec	-11.5583
▁Muhammad	-11.5584
▁GPS	-11.5587
human	-11.559
▁Sources	-11.559
▁Middlesbrough	-11.5593
▁Blind	-11.5593
hole	-11.5593
▁distinctive	-11.5593
▁Hammond	-11.5594
▁princess	-11.5596
▁judicial	-11.5601
▁monkey	-11.5603
iti	-11.5608
rey	-11.5609
▁bunch	-11.5609
vel	-11.561
▁Janeiro	-11.5611
▁permanently	-11.5611
▁councillor	-11.5613
▁clues	-11.5614
▁sting	-11.5616
▁Netflix	-11.5619
▁Gilbert	-11.5621
▁barred	-11.5622
have	-11.5624
▁Janet	-11.5625
29	-11.5627
▁accomplice	-11.5628
▁purple	-11.5628
▁Lindsay	-11.5628
▁Talk	-11.5632
▁racially	-11.5632
▁booking	-11.5633
rim	-11.5634
▁Case	-11.5634
▁37-	-11.5636
▁Arch	-11.5637
▁powered	-11.5639
storey	-11.5639
gs	-11.5642
ify	-11.5642
ular	-11.5643
▁Patriots	-11.5646
▁airlifted	-11.5646
▁knocking	-11.5648
▁consist	-11.5649
▁decent	-11.5649
▁relax	-11.565
▁Yang	-11.5653
-19	-11.5653
▁suitable	-11.5654
▁assume	-11.5655
▁privilege	-11.5657
▁decorated	-11.5657
vol	-11.5658
person	-11.5662
▁prop	-11.5664
▁bullied	-11.5664
▁chamber	-11.5666
▁sa	-11.5667
▁Beyonce	-11.5669
▁Mission	-11.5669
▁groom	-11.5672
▁intruder	-11.5673
▁violating	-11.5673
zen	-11.5673
▁spider	-11.5675
▁hackers	-11.5676
▁Race	-11.5678
▁recalls	-11.5678
▁Mir	-11.5679
ann	-11.5679
▁sexy	-11.5681
▁Dev	-11.5682
▁prohibit	-11.5684
▁Sur	-11.5685
▁entrepreneur	-11.5686
▁instant	-11.5687
▁strongest	-11.5689
▁Exeter	-11.569
▁Robben	-11.5691
kan	-11.5693
▁Born	-11.5695
▁collaboration	-11.5699
▁skeleton	-11.5699
▁Yemeni	-11.57
▁5-	-11.5701
▁tougher	-11.5701
▁Estate	-11.5702
▁flip	-11.5708
▁pavement	-11.5709
▁boarded	-11.5709
▁indicates	-11.5712
▁mar	-11.5713
▁Monroe	-11.5717
▁Kieran	-11.5717
▁Alliance	-11.5717
▁Daley	-11.5719
▁successor	-11.5722
▁turkey	-11.5726
post	-11.5726
▁resistance	-11.5726
▁boycott	-11.5728
▁Fan	-11.5733
▁draws	-11.5733
▁Tomas	-11.5734
▁Bart	-11.5734
▁ensur	-11.5735
▁Wiltshire	-11.5735
▁engaging	-11.5735
▁Wo	-11.5737
▁element	-11.5738
fit	-11.5739
▁Nike	-11.574
▁sandwich	-11.5741
bil	-11.5742
Hu	-11.5742
▁supermarkets	-11.5743
▁introduction	-11.5744
▁Sutton	-11.5744
▁sofa	-11.5747
El	-11.575
Once	-11.5752
▁participating	-11.5753
▁prosthetic	-11.5753
▁betting	-11.5755
▁backyard	-11.5756
▁Robson	-11.5757
ifi	-11.576
▁Bangladesh	-11.576
▁graduated	-11.5762
▁Christina	-11.5763
▁disruption	-11.5764
▁Obamacare	-11.5765
▁Customs	-11.5765
▁lied	-11.5768
▁murderer	-11.577
▁cardiac	-11.5771
▁sacrifice	-11.5773
▁Unlike	-11.5774
▁tension	-11.5774
▁breakdown	-11.5775
ert	-11.5778
▁penis	-11.5778
▁pundit	-11.578
▁0-0	-11.578
▁rubble	-11.578
▁dishes	-11.5783
▁spine	-11.5783
▁shortage	-11.5784
▁km	-11.5784
▁maintains	-11.5785
▁lodged	-11.5787
▁Shar	-11.5787
ash	-11.5787
▁correspondent	-11.5789
▁arson	-11.579
▁Maybe	-11.5795
▁disc	-11.5796
▁championships	-11.5797
▁Mohammad	-11.5798
▁physician	-11.5798
▁Paula	-11.5803
▁2003,	-11.5806
▁confusion	-11.5807
▁deported	-11.5811
▁architect	-11.5812
osa	-11.5814
▁cheating	-11.5819
dan	-11.582
▁Perhaps	-11.5821
bing	-11.5821
▁packages	-11.5823
▁tattoos	-11.5825
▁Communist	-11.5825
▁Madonna	-11.5825
▁accompany	-11.5825
▁coffin	-11.5826
▁insects	-11.5827
▁Coventry	-11.5834
▁Derek	-11.5834
▁Chuck	-11.5835
▁£200	-11.5835
fra	-11.5835
▁battered	-11.5837
▁Fat	-11.584
▁VA	-11.5841
▁cockpit	-11.5843
och	-11.5844
ess	-11.5847
▁confession	-11.5847
▁Blanc	-11.5847
▁critically	-11.5848
▁40,000	-11.5849
story	-11.5849
▁Wade	-11.585
▁pad	-11.585
▁Pete	-11.5851
▁convention	-11.5852
£	-11.5854
▁torn	-11.5855
▁undergone	-11.5855
TA	-11.5856
▁£25	-11.586
▁Ibrahim	-11.5861
▁Wing	-11.5861
▁medics	-11.5867
nal	-11.5867
▁maps	-11.5868
▁Reuters	-11.587
▁triple	-11.587
▁practical	-11.5873
▁Diane	-11.5874
▁halfway	-11.5875
▁interact	-11.5878
▁Patricia	-11.5879
▁ballot	-11.588
ila	-11.588
phone	-11.5884
▁rip	-11.5884
▁fiscal	-11.5888
▁Popular	-11.5888
▁exchanged	-11.5891
lot	-11.5893
bla	-11.5896
▁Much	-11.59
aud	-11.5902
▁Venezuelan	-11.5903
▁assured	-11.5903
school	-11.5904
did	-11.5905
▁stylish	-11.5907
▁Cahill	-11.5907
▁schoolgirl	-11.5907
▁57,	-11.591
▁Boys	-11.591
ologist	-11.5912
▁improvements	-11.5914
▁Tha	-11.5915
▁Shadow	-11.5916
▁1983	-11.5917
▁Oakland	-11.5917
▁Nicola	-11.5918
▁illnesses	-11.592
mu	-11.5923
▁sensors	-11.5926
▁southeast	-11.5929
▁dip	-11.5934
▁8-	-11.5934
una	-11.5938
▁Idaho	-11.5943
▁pure	-11.5945
▁fox	-11.595
▁injection	-11.5951
▁Ivanovic	-11.5953
▁Kor	-11.5954
thirds	-11.5955
press	-11.5955
▁marriages	-11.5956
▁Everyone	-11.5957
saving	-11.5959
card	-11.5961
▁dismissal	-11.5963
▁ultra	-11.597
▁Assembly	-11.597
▁Third	-11.5971
▁ash	-11.5971
mun	-11.5972
▁Qua	-11.5972
pped	-11.5974
▁Early	-11.5976
▁array	-11.598
ien	-11.598
▁12,	-11.598
▁£60	-11.5983
▁Brother	-11.5984
▁tremendous	-11.5984
▁skill	-11.5986
▁consumed	-11.5987
▁wrap	-11.5987
stein	-11.5989
▁Hopkins	-11.5989
▁Tracy	-11.5989
▁sticks	-11.599
sel	-11.599
than	-11.5991
▁$50	-11.5991
▁detainees	-11.5994
▁Northampton	-11.5996
▁Stock	-11.5996
▁Peninsula	-11.5998
▁Medicine	-11.5998
▁quarters	-11.5998
hir	-11.5999
▁Previous	-11.6001
▁mandatory	-11.6007
▁Rossi	-11.6008
AT	-11.6009
▁roots	-11.601
▁organizers	-11.601
▁Briton	-11.6011
31	-11.6013
▁emerge	-11.6014
▁premier	-11.6015
▁Cher	-11.6015
▁plug	-11.6016
▁admission	-11.6017
cap	-11.6019
▁salon	-11.6022
▁litter	-11.6025
▁accent	-11.6026
▁Charlton	-11.6026
▁blocking	-11.6026
▁Fame	-11.6027
▁stones	-11.603
▁unbelievable	-11.6031
sville	-11.6033
▁Ever	-11.6034
ES	-11.6035
▁Griffin	-11.6035
▁Sevilla	-11.6035
▁ambitious	-11.6035
▁Reserve	-11.6035
▁Kan	-11.6037
▁58,	-11.6038
▁Greene	-11.604
▁hook	-11.604
Can	-11.6044
▁Monica	-11.6044
▁grid	-11.6045
▁1978	-11.6045
▁shaken	-11.6048
▁understands	-11.6049
▁descend	-11.605
Vi	-11.6053
▁McCartney	-11.6053
▁comprehensive	-11.6053
▁solicitor	-11.6054
▁reviewing	-11.6055
18	-11.6056
▁bearing	-11.6062
ele	-11.6063
wise	-11.6063
▁Bashar	-11.6063
▁Lynch	-11.6064
▁Taking	-11.6065
▁panels	-11.6066
▁fiancee	-11.6069
▁Chester	-11.6072
teen	-11.6073
Ba	-11.6077
bell	-11.608
▁Cast	-11.6081
gui	-11.6086
▁spiritual	-11.6087
▁intervene	-11.609
▁Windsor	-11.609
▁Primary	-11.609
▁Gaga	-11.6093
▁Lyon	-11.6093
▁strangled	-11.6093
▁breached	-11.6093
mbo	-11.6093
▁consultation	-11.6101
▁Classic	-11.6102
▁gardens	-11.6103
▁attendant	-11.6104
▁escorted	-11.6104
▁Muller	-11.6106
▁AT	-11.6107
▁pump	-11.6107
▁nickname	-11.6109
▁violate	-11.6109
▁Lallana	-11.6109
▁Osama	-11.6109
▁lighter	-11.6111
▁skirt	-11.6111
hum	-11.6112
▁sail	-11.6118
▁pursuing	-11.6118
▁Fraser	-11.6118
▁Curtis	-11.6118
▁Stars	-11.612
▁mega	-11.6122
▁($1	-11.6123
▁gates	-11.6125
▁Superintendent	-11.6127
nor	-11.6132
var	-11.6134
▁banner	-11.6135
▁skies	-11.6137
▁Grammy	-11.6137
spec	-11.614
▁airstrikes	-11.6141
▁360	-11.6141
lands	-11.6143
▁Gea	-11.6143
▁Jolie	-11.6147
▁snack	-11.6149
▁deleted	-11.615
▁tri	-11.6152
bur	-11.6154
▁Morocco	-11.6155
▁lounge	-11.6155
▁rang	-11.6158
▁Pie	-11.6158
gel	-11.616
▁visitor	-11.6162
LL	-11.6163
▁Sid	-11.6164
▁occurs	-11.6164
▁91	-11.6165
Sha	-11.6167
▁Lily	-11.6168
▁tonnes	-11.6168
▁Liu	-11.617
▁Barkley	-11.6175
▁Pair	-11.6178
▁Remy	-11.6178
▁regulation	-11.6183
▁educational	-11.6183
▁Schalke	-11.6183
▁anxious	-11.6184
▁threaten	-11.6184
▁Sound	-11.6185
▁sculpture	-11.6187
▁publish	-11.6188
▁Leo	-11.6191
▁signings	-11.6191
▁j	-11.6192
▁Lisbon	-11.6193
▁sank	-11.6193
▁1969	-11.6194
▁travels	-11.6194
(	-11.6195
44	-11.6196
▁rebuild	-11.6197
▁Gerard	-11.6199
▁Families	-11.6202
▁makeshift	-11.6203
▁38-	-11.6204
▁McG	-11.6206
,400	-11.6206
▁operates	-11.6208
▁Plan	-11.6211
▁heroes	-11.6213
▁Ol	-11.6217
▁Marcos	-11.6218
▁£500	-11.6219
▁Sainsbury	-11.6221
▁retiring	-11.6221
zing	-11.6222
dle	-11.6224
▁hi	-11.6225
bat	-11.6226
▁inform	-11.6229
boyfriend	-11.6229
▁cheek	-11.6237
▁Common	-11.6238
▁locate	-11.624
▁rhino	-11.624
▁Didier	-11.624
ean	-11.6246
▁Brooke	-11.6246
▁101	-11.6246
▁regain	-11.6247
▁requir	-11.6247
▁bang	-11.6248
▁Chloe	-11.6249
zu	-11.6249
▁Set	-11.6252
▁wives	-11.6253
▁neighbourhood	-11.6259
▁Bol	-11.6259
▁sneak	-11.626
▁Neighbours	-11.626
▁counterparts	-11.6265
▁brick	-11.6266
▁Mill	-11.6266
▁anticipated	-11.6267
eck	-11.6267
▁Bla	-11.627
▁memo	-11.6271
▁farms	-11.6275
▁Bloom	-11.6277
▁margin	-11.6277
▁medium	-11.6277
▁invitation	-11.6278
▁contend	-11.6279
▁colourful	-11.6279
▁peers	-11.6282
▁collar	-11.6284
▁Gloucestershire	-11.6287
race	-11.6289
St	-11.6289
▁nursery	-11.629
force	-11.6292
▁treasure	-11.6293
eastern	-11.6294
▁Dunn	-11.6295
▁flesh	-11.6296
▁psychologist	-11.6296
▁reactions	-11.6297
▁doubles	-11.6297
▁Burton	-11.6299
▁Cri	-11.6302
▁Eventually	-11.6303
▁Bird	-11.6303
▁Holy	-11.6304
▁naval	-11.6306
▁Order	-11.6309
▁Conservatives	-11.6312
▁departments	-11.6314
▁convoy	-11.6315
▁landlord	-11.6315
▁Catalan	-11.6315
▁sweeping	-11.6319
▁Richmond	-11.6325
-2	-11.6327
38	-11.6329
▁gaining	-11.633
▁Auto	-11.6332
▁ghost	-11.6333
gie	-11.6333
▁compromise	-11.6334
▁elbow	-11.6334
▁160	-11.6335
▁load	-11.6336
▁elder	-11.6339
▁Fabio	-11.6339
mir	-11.6341
▁spark	-11.6343
▁Oak	-11.6346
▁rice	-11.6348
▁Serbian	-11.6348
▁parachute	-11.6353
▁saddened	-11.6353
lea	-11.6353
▁ladder	-11.6354
▁cult	-11.6355
▁Benghazi	-11.6363
▁Giroud	-11.6363
▁fundraiser	-11.6363
▁Hammers	-11.6363
▁streaming	-11.6363
▁vicious	-11.6366
▁para	-11.6367
▁soared	-11.6371
▁Pla	-11.6371
may	-11.6372
▁Century	-11.6372
▁perception	-11.6372
▁Environment	-11.6373
▁Gro	-11.6373
▁campaigning	-11.6373
▁GM	-11.6374
▁refuses	-11.6374
▁installation	-11.6375
▁ca	-11.6375
kind	-11.6376
▁rig	-11.6379
▁secondary	-11.6379
horn	-11.638
▁Yan	-11.638
▁trends	-11.6382
▁Circuit	-11.6382
▁Magazine	-11.6382
▁recommend	-11.6389
▁Toni	-11.639
▁branches	-11.6391
▁capsule	-11.6392
▁drum	-11.6392
▁proceeds	-11.6392
▁adjust	-11.6395
▁photographers	-11.6396
▁principle	-11.6399
▁reflected	-11.6399
▁tortured	-11.6401
roo	-11.6402
▁Guantanamo	-11.6411
▁cottage	-11.6411
oh	-11.6411
▁magnitude	-11.6419
owner	-11.642
▁stall	-11.642
▁favourites	-11.6423
ache	-11.6425
▁Az	-11.6426
▁surgeries	-11.643
▁Gross	-11.6432
▁Lea	-11.6434
▁Ring	-11.6434
▁invite	-11.6434
▁Mus	-11.6435
ela	-11.6437
dict	-11.6439
▁concentrate	-11.6439
▁Karzai	-11.6439
▁cried	-11.644
▁deportation	-11.644
▁minds	-11.6441
▁Westwood	-11.6442
▁playground	-11.6443
▁spared	-11.6445
ska	-11.6446
▁segment	-11.6449
▁iOS	-11.6449
▁Tripoli	-11.6449
▁males	-11.6451
ale	-11.6453
▁Rey	-11.6453
▁tally	-11.6455
▁sufficient	-11.6455
▁raced	-11.6458
▁mutual	-11.6459
▁slice	-11.6459
▁fortnight	-11.6459
▁sweat	-11.6462
▁exercises	-11.6462
▁Blood	-11.6467
▁supportive	-11.6467
▁FREE	-11.6468
▁Monk	-11.6469
▁Robbie	-11.6469
▁fancy	-11.6471
▁rumors	-11.6472
▁authors	-11.6472
▁tale	-11.6477
▁warehouse	-11.6478
▁voices	-11.6478
▁expanding	-11.6479
▁Tyson	-11.648
▁snakes	-11.6481
Ja	-11.6483
▁110	-11.6483
els	-11.6484
▁occupied	-11.6485
▁Assad	-11.6486
▁Fre	-11.6486
▁invented	-11.6488
iness	-11.6489
▁fossil	-11.6489
▁immigrant	-11.6491
▁59,	-11.6492
▁sizes	-11.6492
▁Train	-11.6494
▁Joint	-11.6494
aj	-11.6496
ced	-11.6499
rio	-11.65
▁Burns	-11.6502
▁Dominic	-11.6503
▁uprising	-11.6505
▁Face	-11.6506
▁CPR	-11.6508
▁Les	-11.651
▁Thank	-11.6511
yne	-11.6511
▁Alberto	-11.6514
▁aspects	-11.6514
▁hiring	-11.6517
hearted	-11.6518
▁mentor	-11.6519
Well	-11.6521
▁negotiate	-11.6526
▁takeaway	-11.6526
▁Mut	-11.6529
▁shootout	-11.6531
inger	-11.6533
▁Elsewhere	-11.6536
▁steady	-11.6536
▁u	-11.6539
▁trusted	-11.6539
▁Sil	-11.6541
los	-11.6545
▁chunk	-11.6546
▁eagle	-11.6546
▁memorable	-11.6546
▁revive	-11.6546
▁gadget	-11.6546
▁kicks	-11.6547
▁Southwest	-11.6553
ware	-11.6554
▁happier	-11.6555
▁tweeting	-11.6556
▁Protesters	-11.6556
▁rental	-11.6561
▁belongings	-11.6562
action	-11.6564
▁accessible	-11.6567
rit	-11.6572
▁AIDS	-11.6572
AP	-11.6573
▁integrity	-11.6575
▁Churchill	-11.6576
▁hanged	-11.6577
▁okay	-11.6585
▁Puerto	-11.6585
▁1974	-11.6585
chan	-11.6588
▁Currently	-11.659
▁finances	-11.6594
▁Nebraska	-11.6594
▁Strauss	-11.6594
▁isolation	-11.6594
▁stating	-11.6595
▁Spe	-11.6597
berry	-11.6597
▁Cambodia	-11.66
▁60-	-11.66
▁Players	-11.6601
▁Immigration	-11.6604
▁optimistic	-11.6604
▁Connor	-11.6613
▁documented	-11.6614
▁Beverly	-11.6614
▁universe	-11.6614
▁Nepal	-11.6614
themed	-11.6614
▁scar	-11.6616
from	-11.6616
▁Mann	-11.6617
inder	-11.6619
▁intelligent	-11.662
▁ruin	-11.662
aunt	-11.6623
▁unharmed	-11.6623
▁surgeons	-11.6624
▁1972	-11.6625
test	-11.6627
ffe	-11.663
▁exclusively	-11.663
meter	-11.6631
▁slashed	-11.6631
▁floors	-11.6631
,300	-11.6633
▁astronauts	-11.6635
▁connections	-11.6636
▁reflects	-11.664
▁accuse	-11.6641
32	-11.6641
▁owed	-11.6642
▁Deborah	-11.6643
▁Pietersen	-11.6643
▁Karim	-11.6644
▁marking	-11.6645
Fa	-11.6648
▁2004.	-11.6649
▁urges	-11.665
▁formerly	-11.665
▁pal	-11.6652
▁pond	-11.6652
▁Ipswich	-11.6653
▁Madeleine	-11.6653
▁cleric	-11.6653
▁Drive	-11.6653
▁unarmed	-11.6654
nn	-11.6654
▁Rosa	-11.6657
▁Heath	-11.6659
▁None	-11.666
▁Upton	-11.6662
▁doubts	-11.6662
▁Malcolm	-11.6663
▁39-	-11.6667
BA	-11.667
backed	-11.6671
▁Brotherhood	-11.6673
▁Resort	-11.6673
▁produces	-11.6673
standing	-11.6673
▁amongst	-11.6676
▁Eye	-11.6677
▁reply	-11.668
▁Zoe	-11.6681
▁fianc	-11.6684
:20	-11.6686
pu	-11.6687
▁rank	-11.6689
▁underage	-11.6691
▁sheets	-11.6691
▁Accused	-11.6692
▁recruited	-11.6694
VI	-11.6695
▁billions	-11.6695
▁Barton	-11.6695
▁fond	-11.6702
▁beast	-11.6704
▁Self	-11.6705
▁topic	-11.6705
vey	-11.6709
▁kinds	-11.671
stand	-11.6711
▁consistently	-11.6712
ase	-11.6714
▁Joy	-11.6715
▁Kil	-11.6717
▁approaches	-11.6719
▁masks	-11.6719
▁Beatles	-11.672
▁Tigers	-11.6721
▁Hertfordshire	-11.6722
▁Mugabe	-11.6722
▁trap	-11.6722
▁Dam	-11.6724
▁Regional	-11.6725
what	-11.6728
▁considerable	-11.6729
▁Sin	-11.6732
▁Brewer	-11.6732
▁96	-11.6736
active	-11.6737
▁Kompany	-11.6742
▁heavyweight	-11.6742
▁shutdown	-11.6743
▁Rand	-11.6744
▁frog	-11.6752
▁payout	-11.6752
33	-11.6752
▁vary	-11.6754
▁oral	-11.6754
▁establishment	-11.6755
▁burger	-11.6757
▁flock	-11.676
▁disclosed	-11.6761
▁1977	-11.6763
▁organisations	-11.6764
▁invested	-11.6767
▁tycoon	-11.6771
▁throne	-11.6771
dress	-11.6772
▁chains	-11.6772
▁USS	-11.6773
▁Leonardo	-11.6775
▁revelation	-11.6777
▁firmly	-11.6778
▁filmmaker	-11.6778
▁Unfortunately	-11.6779
▁Fiona	-11.6782
▁Spi	-11.6782
social	-11.6783
▁advocates	-11.6786
▁Mont	-11.6787
▁Kin	-11.6787
▁Statistics	-11.6791
▁(3	-11.6793
▁Mack	-11.6797
▁extract	-11.6798
lies	-11.6798
▁Deep	-11.68
▁7-	-11.68
uz	-11.68
▁Constitution	-11.6801
▁nuts	-11.6801
▁Pablo	-11.6801
handed	-11.6802
▁imprisoned	-11.6803
▁fails	-11.6803
▁setback	-11.6805
▁Smart	-11.6806
ald	-11.6806
▁41-	-11.6811
▁Full	-11.6812
▁Kenny	-11.6812
▁badge	-11.6814
▁1,200	-11.6814
now	-11.6816
Pro	-11.6816
▁annually	-11.6817
aba	-11.6818
▁mock	-11.6818
▁securing	-11.6821
▁Wendy	-11.6822
▁recruitment	-11.6822
▁organic	-11.6823
▁Foley	-11.6823
look	-11.6824
▁altitude	-11.6827
member	-11.6827
rt	-11.683
▁Delaware	-11.6831
▁cleaner	-11.6833
▁castle	-11.6833
▁bush	-11.684
▁nonprofit	-11.6842
▁Wu	-11.6845
▁Holiday	-11.6848
▁scratch	-11.685
▁advances	-11.6851
▁cattle	-11.6851
▁Courtois	-11.6853
▁Coll	-11.6855
▁Ry	-11.6856
▁rapist	-11.6857
▁identifying	-11.686
▁Getting	-11.6862
▁confirms	-11.6865
▁recruit	-11.6866
▁Premiership	-11.6867
▁Transcript	-11.6871
▁niece	-11.6871
▁rats	-11.6872
▁Ran	-11.6872
▁Griffiths	-11.6873
▁suite	-11.6874
▁assigned	-11.6874
▁ramp	-11.6877
hol	-11.6877
▁meteor	-11.6881
▁innovative	-11.6881
▁Tracey	-11.6881
▁respondents	-11.6881
▁angered	-11.6881
▁drank	-11.6881
▁2-	-11.6882
▁WHO	-11.6882
▁Reddit	-11.6882
▁poison	-11.6883
where	-11.6884
▁drops	-11.6885
▁gut	-11.6889
▁Aberdeen	-11.6891
▁gaming	-11.6891
▁urine	-11.6891
▁motorist	-11.6901
▁transgender	-11.6901
▁mining	-11.6902
▁1976	-11.6902
Since	-11.6903
▁BA	-11.6903
▁Stra	-11.6904
▁Medal	-11.6905
▁explosions	-11.6905
▁Boyd	-11.6912
▁lease	-11.6912
serious	-11.6914
▁hail	-11.6915
▁shattered	-11.6915
▁sparking	-11.6917
▁Algeria	-11.6918
▁sticking	-11.6919
▁Shan	-11.6921
▁discovering	-11.6924
▁Worth	-11.6924
▁flats	-11.6926
▁propaganda	-11.6926
▁Nan	-11.6927
▁prostitutes	-11.6927
ense	-11.6928
big	-11.6931
▁elevator	-11.6931
▁equaliser	-11.6932
▁intend	-11.6935
▁Dems	-11.6936
▁worries	-11.6941
▁Lincolnshire	-11.6942
▁bolt	-11.6942
significant	-11.6944
▁Duell	-11.6944
▁Friend	-11.6945
▁acquired	-11.6946
▁disgusting	-11.6947
eur	-11.6949
▁Alison	-11.695
rian	-11.6951
▁Pedro	-11.6952
ole	-11.6953
▁profession	-11.6959
▁declare	-11.6961
▁Mobile	-11.6962
▁upstairs	-11.6962
▁clay	-11.6962
▁Roland	-11.6965
Te	-11.6965
kle	-11.6967
tie	-11.6967
▁Coach	-11.6969
▁15,000	-11.697
▁cocktail	-11.6971
▁councils	-11.6972
▁contestants	-11.6972
nis	-11.6973
▁Sham	-11.6973
security	-11.6974
▁tours	-11.6975
▁foreigners	-11.6975
pit	-11.6976
▁Cyprus	-11.6982
▁females	-11.6982
rating	-11.6983
▁implement	-11.6984
esh	-11.6985
▁smashing	-11.699
▁canal	-11.6991
▁Sherwood	-11.6992
▁spike	-11.6993
▁guided	-11.6994
▁bonuses	-11.6996
▁Lock	-11.6999
▁Kiev	-11.7004
▁Hood	-11.7006
▁slight	-11.7008
best	-11.7013
▁crane	-11.7013
uni	-11.7013
▁Marcus	-11.7015
▁Hamburg	-11.7018
lt	-11.702
▁pressed	-11.7021
▁primarily	-11.7023
▁Klein	-11.7023
▁Broadway	-11.7023
▁disclose	-11.7023
▁fiance	-11.7024
▁fluid	-11.7025
▁resist	-11.7025
▁gunfire	-11.7026
▁cur	-11.7026
duty	-11.7027
▁authorized	-11.7027
ome	-11.703
▁motivation	-11.703
▁offense	-11.703
▁riots	-11.7032
▁permitted	-11.7036
▁Leonard	-11.7036
▁conventional	-11.7036
pel	-11.7038
▁tables	-11.704
bird	-11.7047
▁Between	-11.7048
▁homeland	-11.705
▁Inn	-11.7054
▁$500	-11.7055
▁mill	-11.7057
LE	-11.7058
master	-11.7058
▁Gam	-11.706
▁surrender	-11.7061
▁holidaymakers	-11.7062
▁arena	-11.7062
kill	-11.7064
▁index	-11.7064
after	-11.7065
47	-11.7066
▁perceived	-11.7066
covered	-11.7068
▁Pain	-11.7069
▁regrets	-11.707
▁Start	-11.707
ili	-11.7071
olo	-11.7071
▁Bentley	-11.7074
▁cosmetic	-11.7075
mic	-11.7076
Unfortunately	-11.7076
Qu	-11.7078
▁priced	-11.708
▁assessed	-11.7081
▁blasts	-11.7082
used	-11.7084
▁Salvador	-11.7084
▁craze	-11.7084
▁crowded	-11.7085
$	-11.7085
extremely	-11.7089
▁SS	-11.7091
▁metre	-11.7093
▁Bernabeu	-11.7094
▁sunshine	-11.7094
▁Ellie	-11.7095
▁Ag	-11.7101
▁withdrew	-11.7104
▁tackling	-11.7105
▁shook	-11.7105
▁holder	-11.7106
▁embarrassment	-11.7107
▁Thi	-11.7108
rrell	-11.7108
▁43-	-11.711
ake	-11.711
▁Uganda	-11.7111
▁tense	-11.7112
▁uniforms	-11.7113
▁exotic	-11.7115
bling	-11.7115
▁bankruptcy	-11.7115
▁Gan	-11.7115
▁Ble	-11.7115
▁unsuccessful	-11.7119
▁sufferers	-11.7119
sea	-11.7124
▁lawn	-11.7124
▁Podolski	-11.7125
▁Windows	-11.7125
▁Photos	-11.7125
tine	-11.7127
▁Net	-11.7128
pack	-11.7129
fl	-11.713
NE	-11.7131
▁limbs	-11.7134
▁Albion	-11.7135
rou	-11.7135
▁defenders	-11.7135
▁Boo	-11.7136
▁lens	-11.7137
37	-11.7139
▁Artist	-11.7139
▁ribs	-11.7139
▁premature	-11.7139
▁Banks	-11.714
▁Less	-11.714
dor	-11.7141
▁Shortly	-11.7141
▁Fry	-11.7142
▁Could	-11.7143
▁Pole	-11.7143
▁Amendment	-11.7145
▁Islamabad	-11.7146
▁fare	-11.7146
▁Raul	-11.7148
▁GPs	-11.7148
nger	-11.7154
▁Becky	-11.7154
▁Buy	-11.7155
▁Kal	-11.7155
▁blunt	-11.7156
▁grabs	-11.7156
▁salad	-11.7156
▁epic	-11.7157
▁Late	-11.7159
court	-11.716
▁halted	-11.7169
▁lyrics	-11.7172
ST	-11.7174
▁wrongly	-11.7175
▁CA	-11.7176
▁Lukaku	-11.7176
stead	-11.7177
▁attracting	-11.7178
▁Bony	-11.7179
FA	-11.718
▁periods	-11.718
▁guilt	-11.7181
▁Gr	-11.7183
struct	-11.7186
▁Shannon	-11.7187
▁$50,000	-11.7187
ucci	-11.7189
▁sponsor	-11.7189
▁Master	-11.719
walk	-11.719
▁IS	-11.7191
▁Short	-11.7192
▁Reilly	-11.7197
▁Finn	-11.7203
▁pickup	-11.7204
▁Donna	-11.7204
▁Fur	-11.7204
▁hack	-11.7206
▁surf	-11.7207
▁Empire	-11.7207
▁trophies	-11.7207
▁Rojo	-11.7208
▁expose	-11.7209
▁objective	-11.7209
filled	-11.7214
vit	-11.7216
▁Lowe	-11.7218
▁Crawford	-11.7218
▁podium	-11.7218
▁Visit	-11.722
▁rant	-11.722
▁secrets	-11.722
▁essentially	-11.7221
▁Cowell	-11.7223
▁oppose	-11.7223
▁350	-11.7226
▁workout	-11.7227
▁playoff	-11.723
▁wished	-11.723
▁Elvis	-11.723
▁Ryanair	-11.723
▁killers	-11.723
▁traumatic	-11.7232
▁preparations	-11.7233
floor	-11.7233
▁Petr	-11.7234
kel	-11.7237
▁Newark	-11.7239
▁gr	-11.7239
▁Swa	-11.7241
zar	-11.7241
▁refer	-11.7242
feld	-11.7247
▁Ellen	-11.7247
▁centres	-11.725
▁pat	-11.725
▁Pulis	-11.7252
▁gonna	-11.7253
▁Tina	-11.7255
▁Var	-11.7259
▁dash	-11.7259
▁diversity	-11.726
▁Tunisia	-11.7263
▁pleas	-11.7263
▁rampage	-11.7264
cca	-11.7264
loss	-11.7266
▁disagree	-11.7268
▁accommodate	-11.727
▁yoga	-11.727
▁Mackay	-11.727
▁Anton	-11.7272
▁£14	-11.7278
▁robber	-11.7279
▁Racing	-11.728
▁Convention	-11.728
▁empire	-11.728
▁receipt	-11.728
▁sympathy	-11.728
▁curious	-11.7281
▁wireless	-11.7282
▁Cable	-11.7283
lift	-11.7284
eva	-11.7284
▁manages	-11.7284
▁villagers	-11.7286
▁fundamental	-11.7288
▁efficient	-11.7288
str	-11.729
▁Range	-11.7291
tten	-11.7292
▁Bro	-11.7294
Obviously	-11.7295
▁exists	-11.7295
▁scenario	-11.7296
▁graffiti	-11.7301
▁fist	-11.7302
▁Sy	-11.7303
Who	-11.7305
▁Cle	-11.7308
▁migration	-11.7312
▁bureau	-11.7312
▁eurozone	-11.7312
▁healthier	-11.7313
▁SA	-11.7313
▁busiest	-11.7313
▁Upper	-11.7318
TE	-11.732
▁Shepherd	-11.7322
▁bulk	-11.7322
▁Porter	-11.7324
gno	-11.7328
▁Ur	-11.7329
▁Canterbury	-11.7333
▁frustrating	-11.7333
▁credits	-11.7334
lton	-11.7338
seat	-11.7342
▁vigil	-11.7343
▁Montgomery	-11.7343
▁toilets	-11.7343
▁till	-11.7344
▁holy	-11.7346
▁Supporters	-11.7347
tha	-11.735
▁Miley	-11.735
▁shorter	-11.7351
▁Ker	-11.7352
▁reopen	-11.7352
▁Gomez	-11.7354
▁Memphis	-11.7354
▁Burgess	-11.7354
▁Tin	-11.7354
▁Data	-11.7355
▁Tests	-11.7356
NC	-11.7356
▁IVF	-11.7365
▁Review	-11.7365
▁trainers	-11.7366
▁prescribed	-11.7366
▁lasting	-11.7367
▁Tel	-11.7369
▁Figures	-11.737
▁momentum	-11.7371
▁locally	-11.7374
▁el	-11.7375
▁Bag	-11.7375
▁amazed	-11.7375
▁AFP	-11.7375
▁adorable	-11.7375
Mu	-11.7377
▁Heat	-11.7377
▁Flor	-11.7377
▁designated	-11.7378
▁unveil	-11.7379
▁destroying	-11.7383
66	-11.7386
▁Journalist	-11.7388
▁monarch	-11.739
got	-11.7391
▁Along	-11.7391
Mart	-11.7392
▁clashed	-11.7392
▁vomiting	-11.7393
MP	-11.7394
▁Fiorentina	-11.7396
▁Incident	-11.7396
▁WASHINGTON	-11.7396
▁captivity	-11.7396
▁persuade	-11.7397
▁knees	-11.7399
▁Gor	-11.7399
faced	-11.7403
cor	-11.7404
▁depend	-11.7404
▁happily	-11.7406
▁sanctuary	-11.7406
▁footsteps	-11.7406
▁selfies	-11.7409
▁labels	-11.7412
▁antibiotics	-11.7413
▁Images	-11.7415
ori	-11.7417
▁economist	-11.7417
▁nasty	-11.7417
▁Main	-11.7419
▁Saleh	-11.7423
▁root	-11.7423
▁critic	-11.7424
▁Evan	-11.7424
▁Brett	-11.7425
▁sensor	-11.7426
zza	-11.7426
pri	-11.7427
▁delicate	-11.7428
gay	-11.7428
▁flagship	-11.7429
▁rides	-11.7429
▁overwhelmed	-11.7433
sign	-11.7433
shirts	-11.7434
▁Finally	-11.7435
▁remorse	-11.7438
▁op	-11.7438
▁Pink	-11.7441
iver	-11.7443
▁strap	-11.7444
▁ordering	-11.7446
▁vets	-11.7446
▁Trans	-11.7447
paid	-11.7448
▁Bronx	-11.7449
▁listing	-11.745
▁Vale	-11.7451
▁remind	-11.7452
▁Ji	-11.7454
▁planted	-11.7455
▁diverse	-11.7458
▁Kir	-11.7459
▁Abraham	-11.7459
▁Cumbria	-11.7459
▁clause	-11.7459
▁mechanism	-11.7459
▁autism	-11.7459
▁vent	-11.7461
▁Amir	-11.7462
▁1930	-11.7465
▁resting	-11.7467
▁Wei	-11.7468
▁Safe	-11.7469
▁reunion	-11.747
▁shipped	-11.7473
▁sang	-11.7474
wed	-11.7474
▁relay	-11.7475
▁Tribune	-11.7476
▁Wor	-11.7476
eth	-11.7477
▁publishing	-11.7477
▁mainland	-11.7479
▁seizure	-11.7479
▁audiences	-11.748
▁Television	-11.7481
▁Estonia	-11.7481
▁acute	-11.7481
enberg	-11.7486
ees	-11.7487
▁Rudd	-11.7487
stick	-11.7489
▁8,000	-11.7489
▁Program	-11.7489
tall	-11.749
▁recipe	-11.749
▁Box	-11.7491
▁enemies	-11.7491
▁Dee	-11.7494
▁drill	-11.7496
▁pulls	-11.7496
▁Slam	-11.7496
▁restraining	-11.7497
▁jam	-11.7497
▁2003.	-11.7501
▁semifinals	-11.7502
▁thus	-11.7502
▁Au	-11.7503
▁Gang	-11.7505
edge	-11.7505
▁imminent	-11.7506
▁Lamb	-11.7511
▁Bruno	-11.7512
▁dolphins	-11.7513
▁bailed	-11.7513
▁providers	-11.7518
▁exams	-11.7523
▁Environmental	-11.7523
▁barrister	-11.7523
▁MLS	-11.7523
▁animated	-11.7523
▁sperm	-11.7523
▁ugly	-11.7524
▁Lip	-11.7525
▁Brothers	-11.7529
▁captures	-11.753
▁Shore	-11.7533
▁texting	-11.7535
▁Carney	-11.7536
core	-11.7536
▁briefing	-11.7539
▁Fall	-11.754
▁Barker	-11.7541
05	-11.7542
▁snatched	-11.7542
▁Scots	-11.7543
55	-11.7543
▁nominee	-11.7545
▁Prosecution	-11.7545
▁exploring	-11.7545
▁Describ	-11.7545
▁instructed	-11.7545
eri	-11.7546
nov	-11.755
body	-11.7552
▁ranch	-11.7555
▁rode	-11.7555
▁convenience	-11.7556
▁fantasy	-11.7556
▁Lindsey	-11.7556
▁supervision	-11.7556
lash	-11.7557
▁honored	-11.7559
tting	-11.7561
▁Ricky	-11.7561
▁sustainable	-11.7561
▁Ralph	-11.7566
▁bounce	-11.7567
▁wounding	-11.7571
▁Current	-11.7571
▁Shocking	-11.7571
▁jar	-11.7573
▁Rh	-11.7574
▁Dur	-11.7576
▁jewelry	-11.7577
▁Geneva	-11.7578
▁counties	-11.758
▁austerity	-11.7581
▁scans	-11.7582
▁spaces	-11.7582
▁Arts	-11.7583
,700	-11.7588
▁Holocaust	-11.7588
▁attributed	-11.7588
▁introducing	-11.7588
▁jackpot	-11.7588
▁deeper	-11.7589
Over	-11.759
▁occasionally	-11.7593
▁folks	-11.7594
brook	-11.7595
▁accessories	-11.7599
▁fugitive	-11.7599
▁Cyrus	-11.7599
▁Whether	-11.76
▁Lucky	-11.7601
anda	-11.7603
▁Driver	-11.7604
boat	-11.7605
nation	-11.7607
cott	-11.7608
tier	-11.7608
▁Vancouver	-11.7609
▁mainstream	-11.761
gun	-11.761
▁£11	-11.761
▁churches	-11.7614
▁seeds	-11.7616
▁Deal	-11.7617
▁Gran	-11.7619
▁advise	-11.7619
▁Hoffman	-11.762
▁outskirts	-11.762
77	-11.7621
▁concerning	-11.7621
▁Luther	-11.7621
▁Sanders	-11.7622
▁locks	-11.7623
▁Living	-11.7624
▁nights	-11.7626
▁shine	-11.7628
▁lanes	-11.7631
▁angel	-11.7637
▁Sad	-11.7638
▁bands	-11.7639
this	-11.7642
▁Darwin	-11.7642
Ar	-11.7644
▁implemented	-11.7644
ille	-11.7646
▁disappear	-11.7646
mie	-11.7649
▁jumps	-11.7649
▁prevention	-11.765
▁Ph	-11.7652
logy	-11.7656
▁plead	-11.7661
▁charts	-11.7661
▁Going	-11.7664
▁tasks	-11.7664
▁bans	-11.7665
▁Nature	-11.7665
▁Pilot	-11.7666
▁Save	-11.7667
▁Making	-11.7669
▁democratic	-11.7669
▁Jamaica	-11.7671
▁frightened	-11.7674
▁Salford	-11.7676
▁crops	-11.7676
▁implants	-11.7678
▁Cash	-11.7678
▁yelling	-11.768
ological	-11.7684
▁participation	-11.7685
▁naming	-11.7685
▁deployment	-11.7686
▁sword	-11.7687
▁Cut	-11.7687
▁Downton	-11.7689
▁contractors	-11.7689
▁2002,	-11.769
▁poorly	-11.769
▁sweep	-11.7691
▁burglar	-11.7692
OR	-11.7694
▁Olivier	-11.7696
▁evaluation	-11.7696
▁backwards	-11.7696
▁Tell	-11.7699
▁strategic	-11.7699
▁Never	-11.7701
▁participated	-11.7702
▁discount	-11.7703
▁representation	-11.7704
rad	-11.7705
▁landslide	-11.7707
▁Nov	-11.7708
▁sailors	-11.7708
date	-11.7709
▁milestone	-11.7709
▁plotting	-11.771
▁prohibited	-11.7711
▁fictional	-11.7712
zan	-11.7713
▁diverted	-11.7714
▁Author	-11.7717
▁Honduras	-11.7718
▁luxurious	-11.7718
▁pigs	-11.7723
utter	-11.7723
▁greet	-11.7723
▁Kas	-11.7724
Kahn	-11.7725
usion	-11.7726
▁fog	-11.7728
▁Conservation	-11.7729
▁silk	-11.7729
▁Story	-11.7736
▁Massa	-11.7737
▁instrument	-11.7737
▁adverts	-11.7738
▁Dixon	-11.774
▁jockey	-11.774
▁examining	-11.774
▁uncertain	-11.774
▁commuters	-11.7743
▁Questions	-11.7745
inspired	-11.7746
▁Sales	-11.7748
▁costly	-11.7748
▁whenever	-11.775
▁volley	-11.7751
▁Cincinnati	-11.7751
▁Rigby	-11.7751
▁Walk	-11.7751
▁dug	-11.7753
▁onlookers	-11.7756
▁schoolboy	-11.7756
▁16.	-11.7756
▁Dad	-11.7757
CE	-11.7761
▁Watkins	-11.7762
▁eldest	-11.7762
▁intends	-11.7763
▁Eva	-11.7765
▁vows	-11.777
88	-11.777
-21	-11.7772
sum	-11.7772
bor	-11.7773
come	-11.7773
▁Paralympic	-11.7773
▁tumor	-11.7773
▁portrayed	-11.7773
▁1968	-11.7774
▁gradually	-11.7774
funded	-11.7775
▁dies	-11.7775
▁sore	-11.7776
▁presentation	-11.7776
▁lining	-11.7778
▁Danielle	-11.7778
▁pockets	-11.7779
dog	-11.7783
Your	-11.7783
▁youths	-11.7783
▁surgical	-11.7784
▁Oxlade	-11.7784
▁implications	-11.7784
▁expressing	-11.7784
▁grabbing	-11.7784
▁£5,000	-11.7784
▁Kids	-11.7784
▁Lyn	-11.7785
itis	-11.7788
break	-11.7789
▁62,	-11.779
▁Myers	-11.7791
loved	-11.7791
▁transit	-11.7795
▁Blasio	-11.7795
▁directions	-11.7802
rid	-11.7802
▁hoax	-11.7806
▁Thor	-11.7807
▁Roth	-11.7807
▁Johan	-11.7808
worthy	-11.781
▁postponed	-11.781
▁sounded	-11.7811
▁98	-11.7813
▁shapes	-11.7813
▁spat	-11.7813
ifying	-11.7814
▁absent	-11.7815
▁Ahmadinejad	-11.7817
mming	-11.7817
▁Fowler	-11.7817
▁prostate	-11.7818
▁dental	-11.7819
▁voluntary	-11.7821
lk	-11.7822
▁acknowledge	-11.7823
eye	-11.7827
▁corn	-11.7828
▁Oprah	-11.7828
▁Kai	-11.7828
▁containers	-11.7828
▁depressed	-11.7829
▁Whitehall	-11.7829
▁defect	-11.7831
▁System	-11.7833
▁dual	-11.7834
via	-11.7834
▁lobby	-11.7836
▁screamed	-11.7837
▁Gloucester	-11.7839
▁Visitors	-11.7839
▁crude	-11.7839
▁Zhang	-11.7839
▁Striker	-11.7842
▁villa	-11.7842
▁holders	-11.7843
▁confront	-11.7843
▁ousted	-11.7845
▁contents	-11.7845
LA	-11.7846
▁tire	-11.7848
▁Emmanuel	-11.785
▁fatigue	-11.785
▁comp	-11.7852
stic	-11.7852
▁dose	-11.7853
▁Rickie	-11.7853
▁Dia	-11.7853
▁decisive	-11.7854
▁brutally	-11.7857
▁900	-11.7858
▁Moor	-11.7859
▁casual	-11.786
nge	-11.786
▁finest	-11.786
pat	-11.786
▁Indianapolis	-11.7861
▁categories	-11.7861
▁fraternity	-11.7861
fighting	-11.7862
▁Burger	-11.7862
▁sooner	-11.7863
▁Shop	-11.7864
▁dump	-11.7867
▁7,000	-11.787
▁Wy	-11.787
▁boasted	-11.7871
:01	-11.7871
▁Tragedy	-11.7872
▁basket	-11.7872
▁Sab	-11.7874
Da	-11.7876
▁gunned	-11.7877
▁Horn	-11.7881
▁Hussain	-11.7883
▁ligament	-11.7883
iao	-11.7883
▁icy	-11.7884
▁tub	-11.7889
▁belongs	-11.789
▁kissing	-11.7893
▁Studies	-11.7894
▁carriers	-11.7894
▁enforce	-11.7895
:40	-11.7896
taking	-11.7899
▁sin	-11.7903
▁dominate	-11.7907
▁define	-11.7907
▁applying	-11.7909
▁fortunate	-11.791
▁planets	-11.7911
▁Mil	-11.7912
sbury	-11.7912
pass	-11.7912
68	-11.7913
▁toast	-11.7913
▁robots	-11.7913
▁ashamed	-11.7914
▁intoxicated	-11.7916
▁bolster	-11.7916
▁Bueno	-11.7916
▁Michel	-11.7917
super	-11.7917
▁1963	-11.7918
▁examples	-11.7919
▁Lawyers	-11.7919
▁tricks	-11.792
wen	-11.7921
Chamberlain	-11.7923
Ex	-11.7926
▁corrupt	-11.7926
▁contributing	-11.7927
▁propose	-11.7929
even	-11.7933
flo	-11.7933
▁Rain	-11.7936
▁mandate	-11.7939
▁Culture	-11.7939
▁supermodel	-11.7939
▁Leslie	-11.7939
▁poised	-11.7939
▁unwanted	-11.7939
▁Sub	-11.794
▁awake	-11.7944
▁Warning	-11.7944
wall	-11.7946
▁actively	-11.7948
stage	-11.7949
▁Controversial	-11.795
▁Sandusky	-11.795
▁scooter	-11.795
▁£50,000	-11.795
▁Customers	-11.795
▁Moreno	-11.7954
▁spinal	-11.7955
▁(4	-11.7956
▁Denise	-11.7956
borne	-11.7957
▁Germans	-11.7957
▁hormone	-11.7958
▁Florence	-11.7961
▁300,000	-11.7961
▁lone	-11.7961
▁paperwork	-11.7963
▁greatly	-11.7964
▁plight	-11.7964
▁9,	-11.7965
▁observers	-11.7966
▁wearer	-11.7966
▁finale	-11.7972
ui	-11.7973
▁amendment	-11.7973
▁1975	-11.7975
▁exceptional	-11.7975
▁upgrade	-11.7976
▁defined	-11.7976
aro	-11.7977
▁Parish	-11.7978
▁Falls	-11.798
ature	-11.7981
square	-11.7981
▁wipe	-11.7982
link	-11.7983
▁sunglasses	-11.7983
▁canvas	-11.7986
RC	-11.7987
PA	-11.7989
▁pressing	-11.7989
▁sights	-11.7991
Any	-11.7992
▁Matthews	-11.7994
DA	-11.7994
▁Porsche	-11.7995
▁Winner	-11.7996
▁parish	-11.7996
64	-11.7996
tis	-11.7998
▁rockets	-11.7999
Those	-11.8002
General	-11.8002
▁Allan	-11.8003
▁sorts	-11.8003
▁Wiggins	-11.8006
▁earliest	-11.8006
▁Newport	-11.8006
▁Eagles	-11.8007
atory	-11.8012
ato	-11.8014
▁Dancing	-11.8016
▁Hotspur	-11.8017
▁vodka	-11.8017
▁Bulger	-11.8017
▁Ferrer	-11.8018
▁rover	-11.8018
▁Murder	-11.8018
▁audit	-11.8019
▁Chanel	-11.8021
deep	-11.8023
▁Indeed	-11.8023
▁broker	-11.8024
▁£20,000	-11.8028
▁Fresh	-11.8029
▁standings	-11.803
▁offended	-11.803
fat	-11.8031
▁processing	-11.8031
HA	-11.8033
07	-11.8033
▁Check	-11.8037
▁CO	-11.8038
▁astronaut	-11.8038
▁Newtown	-11.8038
bro	-11.8039
▁contemporary	-11.804
▁appalling	-11.8041
▁reject	-11.8042
▁Legal	-11.8044
▁showdown	-11.8046
▁7-5	-11.8046
▁genes	-11.8048
▁honeymoon	-11.8051
▁Quinn	-11.8051
▁Kasem	-11.8051
▁fridge	-11.8052
wal	-11.8052
risk	-11.8054
▁Ter	-11.8055
▁1940	-11.8057
▁daylight	-11.8058
▁qualification	-11.8061
▁Assange	-11.8062
▁dignity	-11.8062
▁groin	-11.8062
▁Doyle	-11.8062
▁Future	-11.8062
isha	-11.8063
▁format	-11.8065
▁bell	-11.8066
▁Scha	-11.807
rigg	-11.8072
▁Ambassador	-11.8073
▁Fellaini	-11.8073
▁registration	-11.8073
▁compare	-11.8074
▁Vas	-11.8074
▁routinely	-11.8075
▁tallest	-11.8076
eon	-11.8077
pha	-11.8078
36	-11.8078
▁contention	-11.8079
▁48-	-11.8082
▁finishes	-11.8084
▁Cathedral	-11.8085
▁Belfast	-11.8085
▁maths	-11.8087
▁avoiding	-11.8089
▁Groves	-11.8089
▁Ministers	-11.809
▁barriers	-11.809
▁Temple	-11.8093
▁install	-11.8102
▁Arm	-11.8105
▁valid	-11.8107
▁ambition	-11.8107
▁repairs	-11.8107
▁Lebanese	-11.8107
▁Ecclestone	-11.8107
▁scattered	-11.8111
rc	-11.8111
rap	-11.8113
▁Med	-11.8114
▁anonymity	-11.8119
▁GB	-11.812
▁Tibetan	-11.812
EW	-11.8122
ree	-11.8122
rine	-11.8124
▁veto	-11.8126
gna	-11.8128
▁teamed	-11.8129
▁Sociedad	-11.813
▁Rupert	-11.813
▁necklace	-11.813
▁Clarkson	-11.8134
▁laying	-11.8136
▁substances	-11.8136
rel	-11.8137
▁analysed	-11.8137
▁2001.	-11.8141
▁Johannesburg	-11.8141
▁needing	-11.8143
▁knockout	-11.8144
rop	-11.8146
ben	-11.8146
▁screams	-11.8147
▁offending	-11.815
▁fertility	-11.8153
▁Mesut	-11.8153
▁ambitions	-11.8153
▁sidelines	-11.8153
▁Caught	-11.8154
▁manhunt	-11.8157
▁Heroes	-11.8157
▁Nice	-11.816
▁collective	-11.816
▁constructed	-11.8161
▁wig	-11.8162
▁Baldwin	-11.8164
▁memoir	-11.8165
▁Walters	-11.8167
:05	-11.8169
▁sponsors	-11.8171
▁Dogs	-11.8171
09	-11.8174
▁linking	-11.8174
▁predators	-11.8175
▁jungle	-11.8176
▁athletic	-11.8177
▁Gardens	-11.8177
▁cows	-11.8178
▁reopened	-11.8178
▁cart	-11.8179
▁94	-11.8181
34	-11.8182
▁Pep	-11.8182
▁asthma	-11.8183
▁Millions	-11.8185
▁thorough	-11.8186
▁Fifty	-11.8186
▁mouse	-11.8188
▁Carey	-11.8188
▁nearest	-11.8189
▁torch	-11.8189
▁Bulgarian	-11.8193
▁Victims	-11.8194
gon	-11.8196
▁fascinating	-11.8198
▁McCann	-11.8199
▁slain	-11.8199
▁raft	-11.82
call	-11.8201
self	-11.8205
▁Nation	-11.8205
▁crater	-11.8207
▁stark	-11.8208
▁deter	-11.8208
▁meth	-11.8209
▁salaries	-11.821
▁Batman	-11.8211
▁stitches	-11.8211
▁tributes	-11.8211
hall	-11.8211
▁1964	-11.8212
▁distressed	-11.8213
▁Rivera	-11.8214
▁Dominican	-11.8214
▁Large	-11.8217
food	-11.822
▁Prof	-11.822
▁Mancini	-11.8221
▁telescope	-11.8221
▁Townsend	-11.8221
▁transparent	-11.8221
▁architecture	-11.8222
▁Judy	-11.8222
▁kills	-11.8222
▁Aid	-11.8224
▁mocked	-11.8224
▁$15	-11.8225
eli	-11.8226
▁Cats	-11.8228
▁lean	-11.8228
▁Uber	-11.8229
▁Bern	-11.8229
▁Mak	-11.823
▁fold	-11.823
▁Sale	-11.8231
▁swelling	-11.8232
▁Library	-11.8233
▁blames	-11.8235
▁Pierre	-11.8237
rod	-11.8243
▁sinking	-11.8243
▁caravan	-11.8244
▁Ski	-11.8245
ying	-11.8246
rac	-11.8246
▁Bas	-11.8248
▁guaranteed	-11.825
▁traced	-11.825
▁Sher	-11.825
ators	-11.8252
▁Elliott	-11.8253
imi	-11.8254
▁expedition	-11.8256
▁Defender	-11.8256
▁grocery	-11.8257
▁abandon	-11.8262
▁Vir	-11.8264
▁unborn	-11.8264
▁Given	-11.8264
▁glamour	-11.8268
▁shallow	-11.8268
▁Gallery	-11.8268
▁sentiment	-11.8269
▁Payne	-11.8269
▁quietly	-11.8269
isa	-11.827
▁64,	-11.827
hot	-11.827
▁buzz	-11.8273
▁Sign	-11.8275
▁Tru	-11.8277
▁definition	-11.8279
▁elegant	-11.8279
▁nanny	-11.8279
▁touchdown	-11.8281
▁63,	-11.8282
rra	-11.8282
▁banana	-11.8283
arian	-11.8284
▁counsel	-11.8284
▁wise	-11.8287
would	-11.8288
wash	-11.8289
▁export	-11.8289
▁Hit	-11.829
▁Saunders	-11.8291
▁Sakho	-11.8291
▁aspect	-11.8294
▁countless	-11.8296
▁Berg	-11.8298
0)	-11.8299
▁mourning	-11.8303
▁reef	-11.8305
▁Source	-11.8305
rock	-11.8306
▁undermine	-11.8309
▁relate	-11.8309
ency	-11.8309
▁Carson	-11.831
▁measuring	-11.8314
▁soaring	-11.8314
▁1973	-11.8315
start	-11.8317
poli	-11.8317
▁sidewalk	-11.8317
▁provider	-11.8318
onic	-11.8319
▁Mountains	-11.8321
kers	-11.8321
▁burnt	-11.8323
▁economies	-11.8325
▁bacon	-11.8325
▁Policy	-11.8325
▁Morales	-11.8326
▁advertisement	-11.8327
▁deliberate	-11.8329
▁AS	-11.8329
▁MS	-11.833
▁snaps	-11.8333
▁dolls	-11.8337
▁classmates	-11.8337
▁Jaguar	-11.8337
▁external	-11.8337
▁Urban	-11.8337
▁Venus	-11.8338
▁Turn	-11.8338
▁protesting	-11.8339
▁severed	-11.8339
▁assisting	-11.834
▁Cla	-11.8342
band	-11.8348
▁cement	-11.8349
▁Beat	-11.8349
AN	-11.835
mad	-11.835
▁upheld	-11.8352
owski	-11.8354
▁swimmer	-11.8354
▁cheat	-11.8356
▁Hasan	-11.8357
62	-11.8357
heart	-11.8359
▁sack	-11.836
▁satisfaction	-11.836
▁packaging	-11.836
▁consciousness	-11.8361
▁$12	-11.8362
▁Leigh	-11.8362
▁prostitute	-11.8365
▁processed	-11.8365
▁confirmation	-11.8365
etta	-11.8366
▁Enforcement	-11.8372
▁peanut	-11.8372
▁Finland	-11.8372
▁chin	-11.8373
▁prom	-11.8375
▁cooked	-11.8377
▁layers	-11.838
ullah	-11.8381
▁gentle	-11.8381
▁Gavin	-11.8382
▁Jun	-11.8383
▁clerk	-11.8383
▁su	-11.8384
▁Malala	-11.8385
▁£40	-11.8387
ear	-11.8387
cru	-11.8388
▁unrelated	-11.8389
ace	-11.8392
▁Miguel	-11.8395
▁dwarf	-11.8395
▁surprisingly	-11.8396
▁Beauty	-11.8396
▁wickets	-11.8396
▁agreeing	-11.8402
▁requirement	-11.8403
▁correctly	-11.8403
▁Aires	-11.8405
makers	-11.8405
▁gadgets	-11.8406
▁Ruby	-11.8409
▁rains	-11.841
ault	-11.8413
cro	-11.8415
▁chairs	-11.8417
▁gains	-11.8417
PS	-11.8418
▁portray	-11.8418
▁Nixon	-11.8418
▁Canyon	-11.8418
▁Centers	-11.8418
▁Naval	-11.842
▁Marsh	-11.8422
▁Question	-11.8425
▁printer	-11.8427
mouth	-11.8428
▁pouring	-11.8429
▁Budget	-11.843
ded	-11.8432
▁zones	-11.8434
char	-11.8434
▁maintaining	-11.8437
▁merit	-11.8437
▁wasted	-11.8439
▁panda	-11.844
▁junk	-11.844
▁Wanted	-11.8441
▁swap	-11.8441
▁superior	-11.8442
lop	-11.8443
▁picks	-11.8443
▁smallest	-11.8445
chu	-11.8445
▁Barrett	-11.8446
▁upside	-11.8446
▁bubble	-11.8448
kins	-11.8448
GB	-11.845
▁fixtures	-11.845
▁tournaments	-11.8453
▁Mahmoud	-11.8454
▁disastrous	-11.8454
▁Harriet	-11.8454
▁stash	-11.8454
▁minimal	-11.8454
▁performers	-11.8457
▁reflection	-11.846
▁Gate	-11.8463
▁bombers	-11.8464
▁Tal	-11.8465
▁solutions	-11.8466
acy	-11.8466
▁hut	-11.8468
vent	-11.8471
gor	-11.8473
▁Magic	-11.8473
cc	-11.8474
shan	-11.8474
▁digging	-11.8478
▁Joyce	-11.8478
▁collector	-11.8478
nna	-11.8481
▁provoked	-11.8482
wind	-11.8482
▁drilling	-11.8482
bid	-11.8483
they	-11.8486
plus	-11.8486
▁honey	-11.8487
emi	-11.8487
▁auctioned	-11.8488
▁roommate	-11.8488
▁Gemma	-11.8489
▁hockey	-11.8489
▁Watford	-11.8489
▁Lorenzo	-11.8489
▁Theatre	-11.8489
▁Double	-11.849
▁Fl	-11.849
▁Led	-11.849
▁controlling	-11.8496
▁smoked	-11.85
▁Stein	-11.8501
mine	-11.8502
▁influenced	-11.8504
▁persistent	-11.8505
▁seaside	-11.8506
▁skier	-11.8507
▁concussion	-11.8512
▁WTA	-11.8514
ians	-11.8514
▁transformation	-11.8514
▁Twin	-11.8516
▁offshore	-11.8518
▁vitamin	-11.852
sell	-11.8522
kie	-11.8522
▁Op	-11.8522
mortem	-11.8523
▁dawn	-11.8523
▁operational	-11.8524
▁clinch	-11.8524
▁eliminate	-11.8524
▁humour	-11.8524
▁sequence	-11.8524
▁suburbs	-11.8534
▁190	-11.8534
▁Tweet	-11.8536
hel	-11.8538
▁developments	-11.8538
▁educated	-11.8538
▁Hansen	-11.8538
▁Speed	-11.8539
▁Stefan	-11.8541
▁homosexual	-11.8541
outs	-11.8544
▁Oz	-11.8547
▁financially	-11.8548
▁harbour	-11.8548
▁na	-11.855
▁1966	-11.855
▁occupation	-11.8552
▁Hindu	-11.8557
psycho	-11.8557
▁Nazis	-11.8557
▁entertaining	-11.8559
Germain	-11.8559
▁2,500	-11.8559
▁convincing	-11.856
▁declaring	-11.856
▁cracked	-11.856
▁Katrina	-11.856
▁masked	-11.8561
ici	-11.8564
rea	-11.8565
acher	-11.8566
▁verge	-11.857
▁Pearce	-11.8572
▁mogul	-11.8572
▁garbage	-11.8572
▁Voice	-11.8572
▁homosexuality	-11.8572
▁float	-11.858
AR	-11.858
▁leaking	-11.8581
author	-11.8583
CO	-11.8583
▁curriculum	-11.8584
▁televised	-11.8584
▁slapped	-11.8584
▁confiscated	-11.8585
▁prosecute	-11.8586
▁£1.5	-11.8587
▁bravery	-11.8587
94	-11.859
▁sections	-11.8591
▁Sho	-11.8591
▁wiped	-11.8594
▁NTSB	-11.8595
▁technician	-11.8595
▁Sinclair	-11.8596
▁44-	-11.8598
▁billboard	-11.8598
▁stag	-11.8598
ord	-11.8599
▁obsessed	-11.8601
▁bowler	-11.8601
▁purchases	-11.8603
took	-11.8604
▁ageing	-11.8605
▁militia	-11.8605
▁Vince	-11.8605
control	-11.8606
bol	-11.8606
Please	-11.8607
▁Donetsk	-11.8607
▁capabilities	-11.8607
▁Venice	-11.8608
▁journalism	-11.8609
▁dispatcher	-11.8609
▁outspoken	-11.8611
▁Drew	-11.8613
92	-11.8614
▁performer	-11.8616
▁65,	-11.8617
▁Lille	-11.8617
OL	-11.8618
▁Damascus	-11.8619
▁£30,000	-11.862
▁Jefferson	-11.862
▁Walcott	-11.862
▁Tennis	-11.862
▁mixture	-11.862
▁mounting	-11.8621
▁hats	-11.8622
▁Would	-11.8624
▁encountered	-11.8625
▁Kh	-11.8628
▁Pearl	-11.8628
▁hazard	-11.863
▁ref	-11.8631
▁Bosnia	-11.8641
▁populations	-11.8643
▁Shakespeare	-11.8643
▁capturing	-11.8643
▁genocide	-11.8643
▁identities	-11.8643
▁uncertainty	-11.8644
▁dentist	-11.8645
▁prints	-11.8645
▁breaching	-11.8645
▁jumper	-11.8645
aid	-11.8646
▁gl	-11.8648
▁pensions	-11.8649
▁accountable	-11.8649
▁eco	-11.865
▁candy	-11.865
▁Webber	-11.8654
▁tackled	-11.8655
▁stays	-11.8655
▁falsely	-11.8655
▁Holloway	-11.8655
▁safeguard	-11.8656
▁Wilkinson	-11.8656
black	-11.8658
▁pie	-11.8659
western	-11.866
Ka	-11.8663
▁Missing	-11.8665
▁monument	-11.8666
▁mature	-11.8667
▁Columbus	-11.8667
▁Noble	-11.8668
▁supplied	-11.8669
▁diplomat	-11.867
▁comb	-11.867
▁tar	-11.8673
▁altogether	-11.868
▁Emmy	-11.868
▁1.2	-11.868
▁1967	-11.868
▁denying	-11.868
▁couch	-11.8682
▁£18	-11.8684
▁organisers	-11.8685
▁$200	-11.8685
▁intake	-11.8687
profit	-11.869
▁harness	-11.8691
▁womb	-11.8691
▁limp	-11.8691
its	-11.8692
▁Scar	-11.8693
▁Ltd	-11.8693
▁Goals	-11.8694
▁Representatives	-11.8695
God	-11.8701
▁£300	-11.8701
Day	-11.8702
▁persuaded	-11.8702
Where	-11.8703
▁Details	-11.8703
▁Derbyshire	-11.8704
▁Desert	-11.8704
▁elementary	-11.8704
▁airspace	-11.8704
sexual	-11.8704
▁cartels	-11.8704
▁bowel	-11.8705
clo	-11.8706
▁outlet	-11.8707
▁defeats	-11.8708
nel	-11.871
▁Bulgaria	-11.871
working	-11.8712
▁Mom	-11.8713
iev	-11.8715
▁handcuffed	-11.8715
▁technologies	-11.8715
▁UAE	-11.8715
▁indicating	-11.8715
▁$5,000	-11.8716
▁Nashville	-11.8716
▁depends	-11.8719
▁Sl	-11.872
▁Kon	-11.872
llo	-11.8722
▁Shin	-11.8723
▁Levy	-11.8725
▁Bed	-11.8726
▁heroic	-11.8731
open	-11.8732
▁tomb	-11.8732
met	-11.8732
89	-11.8735
:25	-11.8738
▁blaming	-11.8739
▁£2,000	-11.874
▁newest	-11.874
▁HBO	-11.874
▁surely	-11.8741
▁magnificent	-11.8742
▁Thanks	-11.8743
Two	-11.8744
:02	-11.8747
▁canine	-11.8748
▁WA	-11.8748
▁praying	-11.875
▁invention	-11.8752
▁Athens	-11.8752
▁competed	-11.8754
▁Para	-11.8755
▁Copa	-11.8756
▁reversed	-11.8758
▁enhance	-11.8761
▁Argentinian	-11.8764
▁Parsons	-11.8764
▁Damien	-11.8764
▁batteries	-11.8764
▁outrageous	-11.8765
bomb	-11.8769
▁exile	-11.8769
guard	-11.8769
▁Pine	-11.877
▁addressing	-11.8772
craft	-11.8774
aught	-11.8775
AS	-11.8776
▁borough	-11.8776
▁courtesy	-11.8776
▁quest	-11.8777
Good	-11.8777
▁kitten	-11.8778
▁Kindle	-11.8778
pir	-11.8779
▁Bun	-11.8783
▁Miles	-11.8783
▁directors	-11.8785
▁clips	-11.8785
▁martial	-11.8788
▁Autumn	-11.8788
▁Baroness	-11.8788
Jo	-11.8789
▁reminded	-11.8792
Ad	-11.8793
aka	-11.8798
▁stretched	-11.8799
▁Lieutenant	-11.88
▁Clooney	-11.88
:10	-11.8801
ico	-11.8802
sharing	-11.8804
▁le	-11.8807
▁sadly	-11.8807
▁61,	-11.8808
▁Commander	-11.881
▁opera	-11.881
cock	-11.881
▁bruising	-11.8812
▁Marilyn	-11.8812
▁Strong	-11.8813
▁Vermont	-11.8813
plagued	-11.8813
▁Gibbs	-11.8814
ml	-11.8815
▁brains	-11.8818
▁Carrie	-11.882
rif	-11.8821
▁particles	-11.8821
▁earns	-11.8823
▁Nairobi	-11.8824
▁dominant	-11.8824
store	-11.8825
▁Isaac	-11.8825
▁respiratory	-11.8825
46	-11.8826
:08	-11.8826
▁Being	-11.8829
perfect	-11.883
▁advertised	-11.8832
▁Santiago	-11.8837
▁laboratory	-11.8837
aya	-11.8837
cial	-11.8837
AM	-11.8838
▁musicians	-11.884
▁Lind	-11.8841
ingham	-11.8842
▁awkward	-11.8842
▁awesome	-11.8843
▁mechanical	-11.8847
wai	-11.8848
▁Benfica	-11.8849
▁Juarez	-11.8849
▁distant	-11.8849
▁Panama	-11.8849
▁rounded	-11.885
▁Sn	-11.885
stress	-11.8851
▁checkpoint	-11.8853
▁joking	-11.8855
▁trim	-11.8856
▁neutral	-11.8859
▁publisher	-11.8859
Maybe	-11.8861
▁Referee	-11.8861
▁salute	-11.8861
▁cellphone	-11.8862
▁fury	-11.8863
▁scent	-11.8864
▁handbag	-11.8865
▁warmer	-11.8867
▁Ballon	-11.8868
cate	-11.8868
une	-11.8868
keeper	-11.8869
hat	-11.8871
▁disposal	-11.8873
▁robust	-11.8873
▁mobility	-11.8873
▁Camilla	-11.8874
▁spells	-11.8874
▁scout	-11.8874
▁heartbroken	-11.8874
48	-11.8874
▁caretaker	-11.8875
▁Din	-11.8876
▁axe	-11.8877
▁Qui	-11.8879
▁tele	-11.8882
iel	-11.8882
▁presenting	-11.8885
▁offenses	-11.8885
▁circus	-11.8886
▁Rivers	-11.8886
Qaeda	-11.8886
▁Fac	-11.8887
▁hedge	-11.8889
▁detonated	-11.8889
▁12,000	-11.8891
track	-11.8893
▁glow	-11.8894
▁Curriculum	-11.8898
▁mascot	-11.8898
▁brink	-11.8898
▁Montreal	-11.8898
▁Nasri	-11.8898
▁neuro	-11.8899
ounce	-11.89
▁chill	-11.89
▁Freeman	-11.89
▁mi	-11.89
▁descended	-11.8902
▁Veterans	-11.8904
case	-11.891
▁Writing	-11.891
▁vacuum	-11.891
▁Debbie	-11.891
length	-11.8911
▁Cech	-11.8913
▁retained	-11.8915
▁gravity	-11.8918
▁Erin	-11.8918
goal	-11.8921
▁publicist	-11.8921
ssa	-11.8924
▁kilo	-11.8925
▁squeeze	-11.8925
hen	-11.8927
▁blessing	-11.8927
▁charm	-11.8929
▁Chilean	-11.8929
▁flowing	-11.8931
▁Vol	-11.8932
▁spying	-11.8934
▁Cliff	-11.8935
▁Mickelson	-11.8935
▁baggage	-11.8935
▁delegation	-11.8935
▁Malaga	-11.8935
▁47-	-11.8935
▁surfing	-11.8937
▁plunge	-11.8937
▁Randy	-11.8943
eyed	-11.8943
DC	-11.8945
AC	-11.8946
▁alligator	-11.8947
▁Watts	-11.8952
▁Schu	-11.8954
▁Barbie	-11.8954
▁reigning	-11.8958
▁9-	-11.8959
▁electronics	-11.8959
▁Phelps	-11.8959
▁Balls	-11.8959
▁Lukas	-11.896
cel	-11.896
tered	-11.8961
▁diplomats	-11.8961
eal	-11.8961
▁distraction	-11.8962
▁eliminated	-11.8962
▁getaway	-11.8962
▁Flo	-11.8963
▁advisers	-11.8964
▁slogan	-11.8964
▁justify	-11.8965
mini	-11.8967
▁bailout	-11.8969
▁ally	-11.897
▁lowered	-11.8971
▁Shot	-11.8971
▁coloured	-11.8971
▁Spirit	-11.8972
▁Valerie	-11.8972
▁Gear	-11.8972
▁insider	-11.8973
▁unsure	-11.8973
▁Sami	-11.8974
▁Farah	-11.8974
▁principles	-11.8974
▁massage	-11.8977
▁Pac	-11.8982
▁aides	-11.8982
ssel	-11.8982
roll	-11.8982
ddy	-11.8983
▁worship	-11.8984
▁WikiLeaks	-11.8984
▁biography	-11.8984
▁1971	-11.8985
Su	-11.8987
rist	-11.8991
▁judgement	-11.8994
▁Style	-11.8995
pic	-11.8995
▁gruesome	-11.8997
▁intersection	-11.8997
▁sworn	-11.8997
Na	-11.8997
▁overhead	-11.8998
offs	-11.8998
▁bracelet	-11.8999
▁veil	-11.9
▁engulfed	-11.9
▁supplier	-11.9002
▁convict	-11.9004
ema	-11.9006
tun	-11.9006
tant	-11.9006
▁fin	-11.9007
▁puppies	-11.9009
first	-11.901
▁miners	-11.9012
▁disorders	-11.9013
▁handset	-11.9016
▁Rovers	-11.9017
▁Kara	-11.9018
▁processes	-11.9019
▁blunder	-11.9021
▁Daisy	-11.9021
Sometimes	-11.9023
▁focuses	-11.9023
▁blowing	-11.9027
▁controller	-11.9027
▁verbal	-11.9028
▁courses	-11.9029
▁Previously	-11.903
▁staple	-11.9034
▁Vienna	-11.9034
▁heir	-11.9034
▁Branson	-11.9035
▁Newman	-11.9041
▁lured	-11.9043
nia	-11.9045
▁Hungary	-11.9046
▁forehead	-11.9046
▁Noah	-11.9049
▁Pepe	-11.905
▁antics	-11.905
▁stroll	-11.9053
pple	-11.9056
▁Electric	-11.9059
▁interrogation	-11.9059
▁maternity	-11.9059
still	-11.9059
▁repay	-11.9061
▁MTV	-11.9065
▁Rhode	-11.9069
▁rocked	-11.9071
▁Benzema	-11.9071
▁Collection	-11.9071
figure	-11.9074
▁dancers	-11.9077
▁blade	-11.9078
lah	-11.908
▁bikes	-11.9083
▁strapped	-11.9083
▁GCSE	-11.9084
▁wrestling	-11.9084
▁alleging	-11.9084
▁Township	-11.9085
▁prizes	-11.9087
▁3.5	-11.9087
hm	-11.909
▁minors	-11.9094
▁Tree	-11.9094
▁sheer	-11.9096
▁evolution	-11.9096
▁respects	-11.9096
▁negligence	-11.9096
▁cheque	-11.9096
▁Nash	-11.9099
▁pest	-11.91
▁Cas	-11.9102
ander	-11.9104
▁Rail	-11.9104
yer	-11.9105
▁creations	-11.9106
▁spiral	-11.9107
▁embroiled	-11.9109
▁Irvine	-11.9109
▁descent	-11.9109
fly	-11.9109
▁Milton	-11.911
▁styles	-11.9111
▁Pal	-11.9112
absolutely	-11.9112
▁Skype	-11.9113
▁Ship	-11.9114
▁Joey	-11.9115
Bar	-11.9117
▁Slovenia	-11.9118
▁wherever	-11.9118
iva	-11.9119
▁Arabic	-11.9119
▁Soon	-11.912
Ju	-11.9121
▁curfew	-11.9121
▁opposing	-11.9121
▁heaven	-11.9121
▁tractor	-11.9122
rup	-11.9123
▁clot	-11.9123
▁Dodge	-11.9123
lou	-11.9123
▁AP	-11.9124
▁Grade	-11.9127
▁Lau	-11.9127
39	-11.913
dder	-11.913
NS	-11.9131
Thank	-11.9132
▁gum	-11.9133
▁tanker	-11.9133
▁(7	-11.9134
▁Ridge	-11.9134
▁Wellington	-11.9134
▁Betty	-11.9135
read	-11.9136
IA	-11.9138
▁caller	-11.914
suing	-11.914
▁whoever	-11.914
▁68,	-11.9142
▁judged	-11.9142
▁Season	-11.9143
▁snacks	-11.9143
▁Mathieu	-11.9146
▁Ontario	-11.9146
▁grieving	-11.9146
▁mistress	-11.9146
▁tricky	-11.9147
▁magazines	-11.9148
▁sprayed	-11.915
▁111	-11.915
▁remark	-11.9153
▁insult	-11.9154
▁quarterfinals	-11.9155
▁DA	-11.9157
▁Qa	-11.9157
▁encourages	-11.9158
▁transmission	-11.9159
▁£500,000	-11.9159
▁apartments	-11.9159
▁Helmand	-11.916
▁Hagel	-11.916
century	-11.9161
▁6-0	-11.9161
arm	-11.9167
▁banker	-11.9167
▁playmaker	-11.9168
▁lifts	-11.9168
▁barrel	-11.9169
▁Baptist	-11.9172
▁Tanzania	-11.9172
fold	-11.9172
▁Morsy	-11.9172
▁intact	-11.9173
▁6.5	-11.9174
▁sleeve	-11.9178
Mi	-11.9178
▁resumed	-11.9179
▁relaxing	-11.9181
▁bend	-11.9184
▁pursued	-11.9184
▁botched	-11.9184
▁Organisation	-11.9184
combe	-11.9186
▁loses	-11.9186
▁sham	-11.9187
▁Grove	-11.919
vie	-11.919
▁deposit	-11.9191
▁stun	-11.9193
▁portraits	-11.9193
▁slaying	-11.9193
▁surround	-11.9194
▁consume	-11.9195
▁Sche	-11.9196
▁trillion	-11.9196
▁Thierry	-11.9197
▁cancellation	-11.9197
▁Dana	-11.9197
▁$1,000	-11.9198
▁ransom	-11.9198
ried	-11.9198
ern	-11.92
▁challenger	-11.92
tron	-11.9201
fight	-11.9202
▁Ap	-11.9205
▁Hoy	-11.9208
turned	-11.9209
▁tr	-11.9209
▁shaped	-11.9211
▁Mull	-11.9211
clear	-11.9212
▁carriage	-11.9212
road	-11.9219
city	-11.9221
▁$500,000	-11.9222
▁Graeme	-11.9222
▁silly	-11.9222
▁Heavy	-11.9222
▁Jailed	-11.9223
▁globally	-11.9224
▁Milner	-11.9224
▁shoots	-11.9225
because	-11.9225
▁sadness	-11.9226
▁homeowners	-11.923
▁Mine	-11.9231
▁collections	-11.9233
▁Lower	-11.9233
▁Casillas	-11.9235
▁avalanche	-11.9235
▁floral	-11.9235
▁terrain	-11.9235
▁convey	-11.9235
▁Farrell	-11.9236
▁pinned	-11.9236
▁Think	-11.9236
▁Blu	-11.9237
▁contributions	-11.9237
98	-11.9238
▁Dy	-11.9238
▁Kos	-11.9238
▁Seth	-11.9239
▁Sat	-11.9243
▁Clinic	-11.9244
▁Poole	-11.9244
▁mistaken	-11.9245
workers	-11.9245
▁mimic	-11.9247
▁Trent	-11.9248
▁independently	-11.9249
▁dependent	-11.9249
▁rivers	-11.925
Police	-11.925
trained	-11.9252
▁instruments	-11.9256
▁Clo	-11.9259
hin	-11.9261
▁Against	-11.9261
▁Sugar	-11.9262
▁Fallon	-11.9263
▁camping	-11.9267
▁Oh	-11.9267
:03	-11.9269
▁courthouse	-11.9269
[...]
