<unk>	0
<s>	0
</s>	0
▁the	-3.3807
s	-3.38239
,	-3.53671
.	-3.69113
▁to	-3.93783
▁a	-4.04839
▁.	-4.09158
▁of	-4.14589
▁and	-4.1732
▁in	-4.17981
'	-4.40766
▁	-4.83322
-	-4.89639
▁was	-4.95755
▁for	-4.97453
▁on	-5.03942
▁is	-5.13095
▁The	-5.2054
▁that	-5.21772
▁with	-5.29344
▁'	-5.29385
:	-5.31635
▁said	-5.41416
ing	-5.41842
▁his	-5.44664
ed	-5.45054
t	-5.45981
▁at	-5.46744
▁he	-5.48151
▁it	-5.59032
▁has	-5.65146
▁from	-5.66583
▁be	-5.69629
▁as	-5.72266
▁have	-5.72294
▁by	-5.72455
d	-5.76899
▁her	-5.8167
▁are	-5.88324
▁"	-5.88644
▁I	-5.97868
▁an	-6.0024
▁after	-6.04908
▁had	-6.05709
▁who	-6.06548
’	-6.06833
▁been	-6.08298
▁not	-6.09447
▁were	-6.12128
▁A	-6.12246
▁their	-6.17373
y	-6.18838
▁will	-6.20088
▁she	-6.20854
▁but	-6.21317
er	-6.23294
▁they	-6.23834
ly	-6.29035
▁this	-6.3108
e	-6.35171
▁(	-6.4171
▁out	-6.45256
▁up	-6.46748
▁He	-6.48851
▁which	-6.50172
)	-6.51009
▁‘	-6.51543
a	-6.53328
▁one	-6.55469
▁when	-6.55901
m	-6.56186
I	-6.61725
n	-6.6202
▁more	-6.65627
▁about	-6.6748
re	-6.67496
▁also	-6.68604
▁two	-6.70477
▁-	-6.71069
▁we	-6.72234
▁or	-6.72574
S	-6.74357
▁can	-6.7448
▁over	-6.75049
▁him	-6.77638
▁people	-6.79051
▁would	-6.81334
al	-6.81384
▁into	-6.82662
▁last	-6.8293
,"	-6.85568
▁you	-6.86412
▁than	-6.87903
r	-6.88569
▁told	-6.88624
▁time	-6.89879
es	-6.90273
▁all	-6.90478
▁year	-6.91594
▁so	-6.92575
▁first	-6.92798
old	-6.94409
year	-6.95968
▁It	-6.96933
▁years	-6.97778
▁--	-6.97893
▁just	-6.98328
▁says	-6.99591
in	-6.99622
o	-7.00337
.'	-7.01008
▁In	-7.04067
▁could	-7.0445
"	-7.05577
▁before	-7.05827
▁home	-7.07544
th	-7.08833
▁new	-7.08934
▁Mr	-7.09573
▁police	-7.09874
▁But	-7.10473
▁being	-7.10559
▁down	-7.11318
▁them	-7.12454
▁back	-7.12641
▁now	-7.17189
▁found	-7.1739
."	-7.17589
▁no	-7.17904
▁other	-7.18678
▁U	-7.18943
▁there	-7.19109
▁three	-7.20993
▁its	-7.21019
ve	-7.2252
i	-7.23212
ers	-7.24924
▁She	-7.25034
▁like	-7.25753
▁off	-7.26272
▁what	-7.31029
▁against	-7.32289
▁do	-7.33992
▁some	-7.35563
on	-7.35662
▁my	-7.35812
▁S	-7.36156
▁made	-7.36559
▁New	-7.37021
▁where	-7.37194
▁re	-7.37324
▁while	-7.37344
le	-7.37357
▁because	-7.37933
▁during	-7.38401
▁only	-7.38874
▁if	-7.39386
▁man	-7.40471
▁get	-7.4235
▁family	-7.42544
The	-7.43113
▁say	-7.45842
▁me	-7.48708
We	-7.50105
▁left	-7.51507
or	-7.51715
man	-7.52632
an	-7.53903
l	-7.53903
▁week	-7.54817
▁day	-7.54868
▁EST	-7.55304
▁make	-7.56761
▁By	-7.5752
▁most	-7.58289
▁around	-7.58623
▁since	-7.58655
▁car	-7.59364
▁take	-7.59589
▁then	-7.59842
ic	-7.60976
▁per	-7.6104
▁our	-7.61253
It	-7.62074
▁world	-7.62387
▁de	-7.6363
A	-7.64159
▁team	-7.64179
▁children	-7.64661
g	-7.64852
▁through	-7.65122
▁work	-7.65519
▁life	-7.66114
▁how	-7.66171
▁four	-7.66614
▁under	-7.66877
▁2013	-7.67926
p	-7.68262
▁video	-7.68818
▁any	-7.68837
▁very	-7.69473
c	-7.69774
k	-7.70546
ll	-7.70623
▁go	-7.7256
h	-7.72609
▁United	-7.73084
▁part	-7.73338
▁show	-7.7376
▁E	-7.74617
▁way	-7.74735
ation	-7.74755
5	-7.75712
▁well	-7.75901
ne	-7.76445
f	-7.76627
▁according	-7.76833
▁un	-7.77011
▁still	-7.77021
el	-7.77055
▁did	-7.77087
▁court	-7.77503
u	-7.7782
▁mother	-7.78099
▁set	-7.78565
ro	-7.78683
ch	-7.78847
▁see	-7.79026
ion	-7.79044
▁help	-7.791
en	-7.79542
▁former	-7.8015
la	-7.8042
▁10	-7.80863
▁between	-7.80946
ton	-7.81281
.’	-7.81583
li	-7.81734
▁second	-7.81993
lo	-7.82022
▁used	-7.82118
▁death	-7.82757
▁took	-7.82947
▁even	-7.83391
▁Police	-7.83457
ar	-7.83623
C	-7.83672
▁They	-7.83981
▁five	-7.83994
?	-7.84325
it	-7.84572
▁p	-7.84575
▁many	-7.84718
▁night	-7.85917
to	-7.86061
▁O	-7.86654
▁next	-7.86718
▁including	-7.86781
▁called	-7.8734
na	-7.87506
▁country	-7.87904
▁going	-7.87971
▁London	-7.89161
▁think	-7.8924
▁million	-7.89455
▁don	-7.89803
▁right	-7.90142
▁should	-7.90357
▁cent	-7.90447
▁women	-7.90531
▁season	-7.90909
▁head	-7.91004
▁CNN	-7.9114
▁B	-7.91505
▁those	-7.91661
▁may	-7.91974
ri	-7.92141
il	-7.9273
able	-7.92822
▁month	-7.93035
▁want	-7.93063
CNN	-7.94228
w	-7.94368
▁school	-7.94796
▁government	-7.94823
ul	-7.94895
P	-7.94915
▁report	-7.94932
▁know	-7.9549
▁such	-7.95592
▁later	-7.96043
ra	-7.96103
▁died	-7.9663
▁K	-7.96636
▁good	-7.96916
▁woman	-7.97946
0	-7.97954
▁f	-7.97987
▁taken	-7.98001
ive	-7.98109
▁C	-7.98178
▁place	-7.98219
▁men	-7.98253
▁added	-7.98515
▁your	-7.98789
▁another	-7.99055
▁group	-7.99341
▁put	-7.9941
de	-7.99725
▁seen	-7.99852
te	-8.01151
▁long	-8.01176
▁side	-8.01273
▁World	-8.01317
▁away	-8.01403
▁T	-8.01473
▁own	-8.01476
▁months	-8.01528
▁days	-8.02049
▁much	-8.02426
▁–	-8.027
▁top	-8.03062
▁end	-8.03339
2	-8.04199
▁game	-8.04312
b	-8.04446
am	-8.04925
▁P	-8.04979
▁Re	-8.05701
▁public	-8.06174
▁got	-8.06266
▁both	-8.06342
▁high	-8.06462
▁20	-8.06583
▁came	-8.06703
ma	-8.06873
▁state	-8.06961
▁six	-8.07107
▁Sunday	-8.07212
▁killed	-8.07253
▁went	-8.07347
▁come	-8.07468
▁hospital	-8.07635
son	-8.07665
T	-8.07785
▁19	-8.07883
▁We	-8.07961
▁England	-8.08003
D	-8.08089
▁De	-8.08254
▁case	-8.08559
x	-8.08577
▁And	-8.08758
▁W	-8.08762
us	-8.09029
ity	-8.09145
▁G	-8.09283
▁face	-8.09376
O	-8.09727
▁F	-8.10017
ry	-8.10025
▁same	-8.10048
se	-8.10153
st	-8.10604
▁club	-8.10865
▁D	-8.11235
▁use	-8.11433
1	-8.11589
▁reported	-8.11619
▁win	-8.11787
▁City	-8.11809
at	-8.11895
et	-8.11905
▁York	-8.12003
up	-8.12014
▁play	-8.12401
ir	-8.12577
▁League	-8.12803
6	-8.12882
est	-8.13007
ta	-8.13237
ck	-8.1335
co	-8.13573
▁Cup	-8.1365
▁2012	-8.13872
B	-8.13959
▁never	-8.14105
ling	-8.1422
▁An	-8.14851
▁number	-8.15185
▁house	-8.15578
▁Monday	-8.16064
4	-8.16126
▁South	-8.16223
3	-8.16283
▁wife	-8.17533
▁hit	-8.17609
▁11	-8.17624
▁Saturday	-8.1784
▁won	-8.18078
▁father	-8.18206
▁us	-8.18388
▁This	-8.18605
ty	-8.18623
ate	-8.18806
▁today	-8.19018
▁Tuesday	-8.19466
▁son	-8.19478
ur	-8.19481
▁water	-8.19611
▁12	-8.19683
N	-8.20057
ia	-8.20114
▁Friday	-8.20484
▁British	-8.20537
z	-8.20573
▁company	-8.20585
▁child	-8.20737
▁best	-8.20942
ie	-8.20974
▁statement	-8.21028
ist	-8.21118
ment	-8.21286
7	-8.21318
▁need	-8.21663
▁body	-8.21824
E	-8.21864
ley	-8.2228
ter	-8.2244
▁Al	-8.22642
▁thought	-8.23041
▁attack	-8.23055
▁co	-8.23093
▁UPDATED	-8.23804
▁One	-8.24153
un	-8.24519
▁|	-8.25414
ce	-8.2572
is	-8.25794
▁1	-8.25971
go	-8.26105
▁couple	-8.26308
▁near	-8.26389
8	-8.26435
PUBLISHED	-8.26515
L	-8.26911
▁young	-8.26987
ine	-8.27073
▁money	-8.27275
ated	-8.27582
▁hours	-8.27934
▁Wednesday	-8.27966
▁following	-8.2797
▁look	-8.28012
▁arrested	-8.28128
▁No	-8.2831
▁West	-8.28351
ent	-8.28394
▁move	-8.28483
ke	-8.28736
▁until	-8.2884
▁18	-8.29091
▁really	-8.29244
▁too	-8.29307
ted	-8.29341
F	-8.29357
▁city	-8.29419
▁Obama	-8.29738
id	-8.30046
▁didn	-8.30189
▁UK	-8.30398
▁having	-8.30487
um	-8.30534
▁these	-8.31021
M	-8.3106
mo	-8.31076
▁David	-8.31472
▁La	-8.31611
ge	-8.3185
be	-8.31861
▁support	-8.32095
▁ago	-8.3222
me	-8.32769
He	-8.32774
▁find	-8.32906
▁shot	-8.3322
▁Thursday	-8.33239
▁c	-8.33253
▁incident	-8.33296
▁daughter	-8.33383
▁St	-8.33427
▁M	-8.3351
no	-8.33735
▁Manchester	-8.33865
▁without	-8.33959
age	-8.34317
com	-8.34792
▁officials	-8.34798
▁star	-8.35027
▁local	-8.35306
▁half	-8.35548
▁Dr	-8.35668
9	-8.35703
▁John	-8.35807
▁final	-8.36125
▁area	-8.36295
▁past	-8.36752
ner	-8.36999
▁every	-8.37219
▁Le	-8.37229
▁known	-8.37261
▁given	-8.37281
▁each	-8.3744
ian	-8.37543
▁15	-8.3791
ci	-8.37977
the	-8.38202
ies	-8.38438
▁Mo	-8.38644
▁May	-8.38764
▁saying	-8.38793
ol	-8.38859
▁President	-8.38927
▁across	-8.39308
▁2	-8.39772
ous	-8.40095
R	-8.40143
▁released	-8.40268
▁Co	-8.40331
▁asked	-8.40359
▁spokesman	-8.40959
▁fire	-8.41028
▁His	-8.41317
ni	-8.41563
▁behind	-8.41915
▁already	-8.42155
▁con	-8.42749
▁claims	-8.43225
▁pay	-8.43337
G	-8.4349
ting	-8.43522
ba	-8.4363
▁lot	-8.43743
▁Court	-8.43881
▁murder	-8.44007
▁become	-8.44045
out	-8.44061
million	-8.44518
▁deal	-8.44519
▁using	-8.446
▁Pa	-8.44625
▁Ra	-8.4471
▁believe	-8.44727
▁taking	-8.44969
▁Scroll	-8.45131
▁North	-8.45576
▁here	-8.45592
▁January	-8.45609
▁players	-8.45785
▁13	-8.45787
ti	-8.4587
▁lost	-8.45916
▁American	-8.46488
tic	-8.4671
ance	-8.46849
▁again	-8.46878
▁match	-8.46961
▁9	-8.46979
▁health	-8.46986
▁law	-8.47084
▁able	-8.47248
▁campaign	-8.47603
▁start	-8.47713
▁N	-8.47718
▁So	-8.47934
less	-8.482
▁times	-8.48248
▁few	-8.48554
▁little	-8.48604
▁outside	-8.48631
ga	-8.48821
▁early	-8.49038
▁pictured	-8.49201
as	-8.49246
▁third	-8.49417
per	-8.49649
▁Sa	-8.49821
▁run	-8.49885
▁working	-8.49932
ant	-8.50044
▁started	-8.50069
▁close	-8.50074
▁parents	-8.50316
▁investigation	-8.50677
▁girl	-8.50702
▁dead	-8.50848
ary	-8.50875
▁far	-8.51167
▁give	-8.51296
▁great	-8.51521
▁least	-8.51576
▁L	-8.51732
▁At	-8.51808
▁16	-8.52053
▁several	-8.52058
▁manager	-8.52432
▁love	-8.52506
▁decision	-8.53261
▁front	-8.533
▁Facebook	-8.53426
▁charged	-8.53494
▁H	-8.53508
▁shows	-8.53613
▁official	-8.53803
▁making	-8.54185
▁minutes	-8.54301
▁media	-8.54405
▁less	-8.54497
▁On	-8.54605
▁food	-8.54669
▁After	-8.54753
▁boy	-8.54956
▁saw	-8.55008
▁heard	-8.55024
▁keep	-8.55034
▁president	-8.5508
▁members	-8.55132
▁friends	-8.55152
▁husband	-8.55264
▁prison	-8.55448
pe	-8.55551
▁weeks	-8.55602
ha	-8.55622
right	-8.55858
▁authorities	-8.56165
▁something	-8.56258
▁held	-8.56401
▁As	-8.56543
▁4	-8.56614
▁accused	-8.56729
▁st	-8.56745
ster	-8.56855
▁officers	-8.56878
▁To	-8.57118
▁return	-8.57122
▁3	-8.57383
▁staff	-8.5746
led	-8.57479
▁revealed	-8.57508
▁charges	-8.57736
▁big	-8.57801
▁There	-8.57816
▁hand	-8.57901
▁Ca	-8.57973
▁name	-8.58082
▁claimed	-8.58097
▁14	-8.58242
▁earlier	-8.58295
po	-8.58471
▁Ms	-8.58599
▁news	-8.58742
00	-8.58876
▁30	-8.5903
▁due	-8.59049
▁December	-8.59113
▁security	-8.59401
▁air	-8.59773
▁full	-8.59788
▁looking	-8.59857
▁seven	-8.59861
▁Na	-8.60011
▁expected	-8.60049
im	-8.6005
▁trying	-8.60067
▁military	-8.60171
▁b	-8.6025
▁wanted	-8.60322
time	-8.60432
▁November	-8.60492
▁September	-8.60587
▁Britain	-8.60588
▁University	-8.6064
ful	-8.60797
▁ex	-8.60971
▁call	-8.61034
land	-8.61059
▁friend	-8.6106
di	-8.61074
▁Ho	-8.61259
▁whether	-8.61423
▁17	-8.61544
▁always	-8.61719
op	-8.61797
This	-8.61807
▁October	-8.61915
▁hard	-8.61964
▁among	-8.62287
▁care	-8.62582
side	-8.62624
▁When	-8.62731
der	-8.62807
▁morning	-8.62906
▁himself	-8.63014
▁Ta	-8.63189
▁lead	-8.63214
▁person	-8.63327
▁sex	-8.634
▁Her	-8.63422
▁Me	-8.63466
▁live	-8.63515
▁March	-8.63547
▁phone	-8.63567
▁eight	-8.63681
▁August	-8.63779
▁e	-8.63786
▁sent	-8.64357
▁stop	-8.64459
▁Ma	-8.64475
▁free	-8.64508
rs	-8.64755
▁fans	-8.64758
▁service	-8.64809
ad	-8.64971
▁different	-8.65263
▁party	-8.65352
W	-8.65429
▁dis	-8.65564
▁must	-8.65619
▁job	-8.657
▁June	-8.65789
▁record	-8.66077
▁Michael	-8.66131
▁site	-8.66226
▁system	-8.66316
▁international	-8.66722
▁website	-8.66739
▁ever	-8.66773
▁Miss	-8.66776
▁better	-8.67093
▁office	-8.67224
pa	-8.67374
ca	-8.675
▁For	-8.67536
▁baby	-8.67735
ft	-8.67868
line	-8.67893
va	-8.67914
ard	-8.68218
▁Ba	-8.68235
▁age	-8.68248
vi	-8.68321
▁open	-8.68427
▁heart	-8.68512
▁National	-8.68639
min	-8.6869
▁Be	-8.68741
▁However	-8.68962
▁pre	-8.69118
▁played	-8.69142
▁Premier	-8.69163
▁ground	-8.69201
▁July	-8.69325
▁line	-8.69388
▁point	-8.69425
▁began	-8.69609
▁Man	-8.70035
▁war	-8.70072
▁order	-8.70485
way	-8.70691
▁Chelsea	-8.70734
▁Liverpool	-8.70761
▁power	-8.70771
▁post	-8.70935
▁change	-8.70959
▁China	-8.71006
▁player	-8.71245
▁road	-8.71256
▁goal	-8.71612
▁information	-8.7178
▁inside	-8.71924
▁Mar	-8.72426
▁wrote	-8.7254
▁together	-8.72554
ness	-8.72678
▁judge	-8.7281
▁trial	-8.72847
one	-8.7297
▁Ka	-8.73154
do	-8.73244
▁James	-8.73265
▁2014	-8.73265
▁County	-8.73362
▁scene	-8.73562
▁black	-8.73583
▁spent	-8.73701
▁late	-8.73828
▁became	-8.73831
▁film	-8.73857
▁leave	-8.73878
▁officer	-8.74186
▁Twitter	-8.74194
▁might	-8.74223
▁April	-8.74255
▁pro	-8.74261
▁House	-8.74482
▁Con	-8.74578
▁am	-8.74579
▁does	-8.7466
sh	-8.74683
▁likely	-8.74685
▁social	-8.74942
▁online	-8.74984
▁along	-8.74992
left	-8.75175
▁dog	-8.75186
▁tried	-8.75559
▁5	-8.75657
▁received	-8.75717
▁recent	-8.75877
▁clear	-8.75908
▁believed	-8.76049
▁small	-8.76342
▁allegedly	-8.76771
ho	-8.76784
▁football	-8.76949
▁training	-8.77003
▁comes	-8.7706
ka	-8.7716
▁risk	-8.77242
and	-8.77431
▁summer	-8.7757
▁old	-8.77571
▁Park	-8.77701
▁study	-8.77738
▁6	-8.77914
H	-8.78047
ver	-8.78194
▁room	-8.7828
▁enough	-8.7842
▁event	-8.78533
▁happened	-8.78601
▁control	-8.78636
den	-8.7887
▁ahead	-8.78942
▁once	-8.78944
▁TV	-8.79001
ating	-8.79009
▁Bo	-8.79099
▁race	-8.79215
▁almost	-8.79254
lu	-8.79315
▁Paul	-8.79331
▁business	-8.79339
▁getting	-8.79397
▁feel	-8.79415
les	-8.79578
▁admitted	-8.79825
ud	-8.80165
▁Da	-8.80185
▁Ro	-8.80278
da	-8.8055
▁States	-8.80587
▁fight	-8.80732
▁February	-8.80795
▁Di	-8.80803
▁cost	-8.8082
▁State	-8.80922
▁Daily	-8.8096
▁national	-8.81016
▁£1	-8.81115
▁50	-8.81186
▁things	-8.81408
▁Ha	-8.8146
ut	-8.81673
▁That	-8.81703
▁8	-8.81838
▁real	-8.81853
▁victim	-8.81857
hi	-8.82175
▁gave	-8.8225
▁reports	-8.82349
▁action	-8.82384
▁involved	-8.82429
▁French	-8.82475
▁forward	-8.82557
▁despite	-8.82577
▁sh	-8.82631
▁Australia	-8.82715
ham	-8.82825
▁legal	-8.82862
▁France	-8.83129
nd	-8.83412
▁Li	-8.83476
▁California	-8.83636
▁plane	-8.83863
▁yet	-8.83979
▁playing	-8.84003
he	-8.84285
▁v	-8.84318
▁Vi	-8.84382
▁All	-8.84382
▁break	-8.84459
our	-8.84462
▁drug	-8.84541
▁round	-8.84798
▁title	-8.84848
▁light	-8.85061
▁role	-8.85063
▁guilty	-8.85127
▁series	-8.85771
▁pair	-8.85857
▁Department	-8.85931
off	-8.85986
con	-8.86117
▁treatment	-8.86146
▁evidence	-8.86187
▁town	-8.86227
K	-8.86378
▁posted	-8.86427
ee	-8.86493
ler	-8.86495
▁appeared	-8.86647
▁cut	-8.86737
▁visit	-8.86873
▁described	-8.86973
▁R	-8.87019
▁led	-8.87206
gu	-8.87728
▁done	-8.88402
▁driver	-8.88469
red	-8.88506
▁why	-8.88539
▁future	-8.8858
ak	-8.88599
▁Mrs	-8.8866
▁director	-8.88697
▁further	-8.8873
▁announced	-8.88793
▁US	-8.88802
▁If	-8.89058
▁40	-8.89167
▁en	-8.89233
mp	-8.8933
▁Po	-8.89401
▁San	-8.89514
▁According	-8.89545
▁doing	-8.89581
em	-8.89721
▁suffered	-8.89786
▁forced	-8.89791
▁turned	-8.89793
▁European	-8.89863
▁short	-8.90256
gg	-8.90472
▁Do	-8.90533
),	-8.90539
▁picture	-8.90874
▁building	-8.90905
ah	-8.91036
▁leader	-8.9108
▁Mail	-8.91269
▁War	-8.91294
▁ma	-8.91364
▁currently	-8.91446
▁7	-8.91519
▁career	-8.91578
▁hope	-8.91601
There	-8.91649
▁others	-8.91779
fa	-8.91822
▁result	-8.91829
▁miles	-8.91896
▁lives	-8.91915
by	-8.92018
▁station	-8.92042
▁coach	-8.92107
▁caused	-8.92201
▁Minister	-8.92249
bi	-8.92313
▁El	-8.92313
▁cancer	-8.92408
tra	-8.92515
▁crash	-8.9261
ig	-8.92785
ally	-8.92799
▁claim	-8.92815
▁named	-8.92838
▁met	-8.92846
▁comment	-8.92893
▁major	-8.93087
▁students	-8.9311
▁Go	-8.93255
ang	-8.93288
▁book	-8.93675
▁Gu	-8.9369
wa	-8.93692
▁100	-8.93721
▁bar	-8.93746
▁ten	-8.93765
▁Arsenal	-8.93834
▁Ga	-8.94005
▁living	-8.94047
▁2011	-8.94108
▁human	-8.94112
▁thing	-8.94128
▁large	-8.94281
ex	-8.94289
▁chief	-8.94312
▁News	-8.94403
▁medical	-8.94736
▁games	-8.94742
▁trip	-8.94887
▁charge	-8.94982
▁bit	-8.95096
▁turn	-8.95269
▁injuries	-8.95288
▁yesterday	-8.95311
▁mo	-8.95321
▁Fa	-8.95449
dy	-8.95462
▁though	-8.95623
▁important	-8.95735
▁Christmas	-8.95744
ding	-8.95748
▁blood	-8.95873
▁injury	-8.95908
▁missing	-8.96141
▁plans	-8.96168
▁include	-8.96194
▁flight	-8.9621
▁killing	-8.96225
▁moment	-8.96375
▁condition	-8.96524
▁Su	-8.96646
mon	-8.96709
▁po	-8.96833
▁assault	-8.96971
▁list	-8.97042
ip	-8.97044
ning	-8.97178
▁possible	-8.97196
▁white	-8.97317
▁showed	-8.97388
▁nearly	-8.97399
▁often	-8.97476
▁weekend	-8.97683
▁latest	-8.97858
▁discovered	-8.97881
▁special	-8.98056
▁Two	-8.98118
▁gun	-8.98185
lin	-8.98374
▁Lo	-8.9844
▁continue	-8.98604
▁$1	-8.98633
▁rest	-8.98719
▁injured	-8.98785
▁community	-8.98942
▁alleged	-8.98957
▁within	-8.99032
▁fact	-8.99065
▁try	-8.99145
▁Some	-8.99169
▁recently	-8.99211
we	-8.99271
ct	-8.99369
▁nine	-8.99466
fi	-8.9958
ab	-8.9958
ite	-8.99649
▁East	-8.99665
mi	-8.99699
▁ball	-9.00036
vo	-9.00267
▁interview	-9.00294
They	-9.00332
▁let	-9.00437
▁stay	-9.00498
▁page	-9.00564
▁market	-9.00599
▁worked	-9.00681
v	-9.0072
za	-9.00952
▁process	-9.00965
▁red	-9.00967
▁board	-9.00988
▁doesn	-9.01127
▁Mi	-9.01149
▁history	-9.01264
▁Mark	-9.01269
▁sexual	-9.0149
▁app	-9.01764
of	-9.01846
▁coming	-9.01931
ence	-9.02016
▁form	-9.02102
▁paid	-9.02265
mer	-9.02265
▁someone	-9.02336
▁decided	-9.02421
▁track	-9.0249
▁America	-9.02582
▁Last	-9.02591
▁beat	-9.02706
ney	-9.02728
▁You	-9.02748
▁firm	-9.02802
▁hotel	-9.02882
ward	-9.0295
▁problem	-9.02982
▁read	-9.03041
▁Mc	-9.03092
▁accident	-9.03105
▁student	-9.03171
▁25	-9.03214
▁photo	-9.03246
▁failed	-9.03314
▁host	-9.0335
▁stage	-9.03355
▁research	-9.03383
▁release	-9.03672
▁chance	-9.03747
▁member	-9.03867
▁store	-9.03897
▁points	-9.03909
▁Washington	-9.03911
▁shooting	-9.03989
▁political	-9.04057
▁driving	-9.0414
▁relationship	-9.04287
▁soon	-9.04301
▁popular	-9.04333
▁course	-9.04565
▁travel	-9.04742
U	-9.04807
▁White	-9.04993
▁Australian	-9.05006
▁brother	-9.05047
▁cause	-9.05159
▁ran	-9.05184
▁similar	-9.05307
▁victory	-9.05358
pictured	-9.05463
▁Chris	-9.05471
▁property	-9.05544
▁caught	-9.05688
▁experience	-9.05799
▁scored	-9.05812
▁Hu	-9.05846
▁al	-9.05935
V	-9.05966
▁Car	-9.06059
▁Ri	-9.06187
▁bring	-9.06211
▁account	-9.06266
▁watch	-9.06328
▁camera	-9.06596
▁plan	-9.06611
▁huge	-9.06708
▁space	-9.06782
ina	-9.06931
▁J	-9.06936
▁owner	-9.07019
▁sc	-9.07038
▁countries	-9.07139
▁Jo	-9.07308
▁idea	-9.07432
▁safety	-9.07501
▁sure	-9.07543
You	-9.07721
▁Bar	-9.07722
ring	-9.07745
ator	-9.07755
qui	-9.0776
▁story	-9.0789
▁confirmed	-9.08018
▁looked	-9.08082
▁meeting	-9.08159
▁striker	-9.08169
▁Florida	-9.08418
▁sentence	-9.08509
▁model	-9.08583
ped	-9.08757
▁victims	-9.08782
▁moved	-9.08823
▁minister	-9.08826
▁train	-9.08957
▁di	-9.09261
▁hearing	-9.0974
▁issue	-9.09765
▁level	-9.09786
▁sold	-9.09876
king	-9.09879
well	-9.10014
▁private	-9.10122
▁leaving	-9.10136
▁Pro	-9.10247
▁George	-9.10312
all	-9.1033
▁provide	-9.10356
ble	-9.10363
...	-9.10462
ey	-9.10489
▁Day	-9.10561
▁abuse	-9.10602
men	-9.10714
ki	-9.10721
▁serious	-9.10814
▁brought	-9.10904
od	-9.10946
▁Madrid	-9.10958
▁comments	-9.1119
▁With	-9.11408
▁sign	-9.1147
mb	-9.1153
▁jail	-9.11582
▁criminal	-9.11713
▁remains	-9.11907
▁BBC	-9.11912
ng	-9.1194
om	-9.1207
▁whose	-9.12217
que	-9.12279
▁Real	-9.12293
▁position	-9.12382
▁image	-9.12544
▁running	-9.12548
▁School	-9.1263
▁appeal	-9.12659
▁Hospital	-9.12693
▁hair	-9.12717
ow	-9.12805
▁difficult	-9.12982
▁anything	-9.13028
ot	-9.13034
▁program	-9.13093
▁happy	-9.13124
tu	-9.13239
▁problems	-9.13266
▁kind	-9.13474
▁search	-9.13489
▁arrived	-9.13508
▁Africa	-9.13694
bb	-9.13727
▁21	-9.13729
▁test	-9.13883
▁£2	-9.13901
▁Europe	-9.14041
▁available	-9.14141
day	-9.14144
▁returned	-9.14146
She	-9.14322
▁rights	-9.14356
▁24	-9.14357
ac	-9.14435
ru	-9.1446
▁strong	-9.14464
ber	-9.14469
ther	-9.14529
▁wasn	-9.14552
und	-9.14559
ations	-9.14609
▁van	-9.14629
hu	-9.14633
▁sister	-9.1465
ving	-9.1468
▁While	-9.14727
end	-9.14751
j	-9.14765
▁goals	-9.14772
▁force	-9.14865
▁More	-9.14877
▁holiday	-9.14961
In	-9.15005
ial	-9.15023
ten	-9.15037
▁single	-9.15072
▁project	-9.15139
os	-9.15145
ger	-9.15173
ise	-9.15263
20	-9.15293
▁Ar	-9.15319
▁partner	-9.15372
▁arrest	-9.15624
▁images	-9.15653
▁bad	-9.15706
▁w	-9.15761
▁wrong	-9.15839
tion	-9.15952
▁King	-9.1609
▁nothing	-9.16125
ism	-9.16331
▁share	-9.16366
▁crime	-9.16418
▁contract	-9.16539
▁Germany	-9.16628
▁Peter	-9.16781
▁female	-9.16912
▁wants	-9.16915
▁allowed	-9.16925
▁Smith	-9.17001
▁means	-9.17075
▁centre	-9.17171
▁vehicle	-9.17173
▁walk	-9.1732
▁girls	-9.17334
▁message	-9.17376
▁NEW	-9.17472
▁price	-9.17486
▁fell	-9.17509
▁buy	-9.17543
▁damage	-9.17584
If	-9.17643
tri	-9.17732
▁Brown	-9.17809
▁battle	-9.17948
▁married	-9.1797
▁thousands	-9.18085
ven	-9.18101
▁region	-9.18172
▁Du	-9.18246
ier	-9.18267
▁International	-9.18269
▁Ben	-9.18328
▁sp	-9.18423
▁disease	-9.18438
▁boss	-9.18571
▁workers	-9.18743
ny	-9.18821
▁worth	-9.18873
▁vote	-9.18902
▁violence	-9.1902
▁hands	-9.19072
▁helped	-9.19216
▁contributed	-9.19256
▁Ham	-9.19315
ay	-9.19491
lan	-9.19502
▁Martin	-9.19531
▁capital	-9.19562
▁wearing	-9.19615
▁interest	-9.19695
bo	-9.19818
▁key	-9.19864
▁defeat	-9.19897
▁created	-9.20013
ging	-9.20022
▁access	-9.20099
▁2010	-9.20104
▁situation	-9.20106
▁based	-9.20131
▁Ex	-9.20238
▁matter	-9.20283
▁Se	-9.2029
5,000	-9.20332
▁average	-9.20377
,’	-9.20419
▁English	-9.20436
ious	-9.20579
ker	-9.20657
▁Royal	-9.20722
▁anti	-9.20895
▁ho	-9.2103
▁attorney	-9.21234
▁anyone	-9.21382
▁stand	-9.2156
▁attacks	-9.21633
ough	-9.21652
▁Ja	-9.21724
▁Now	-9.21751
▁families	-9.21773
▁launched	-9.21821
▁pictures	-9.21823
pm	-9.21943
ish	-9.22027
▁street	-9.22114
lic	-9.22115
▁agency	-9.22326
ice	-9.22401
▁cr	-9.22437
▁federal	-9.22513
ever	-9.22518
▁themselves	-9.22574
ions	-9.22615
▁bank	-9.22619
▁Williams	-9.2267
▁felt	-9.2279
▁range	-9.22807
▁remain	-9.22852
▁High	-9.22878
▁2009	-9.22988
▁Former	-9.23003
▁needed	-9.23026
fe	-9.231
▁patients	-9.23203
ned	-9.23309
▁born	-9.23325
▁tax	-9.23375
ill	-9.23393
▁south	-9.23482
▁Bu	-9.23505
▁personal	-9.23529
▁date	-9.23532
▁shop	-9.23563
▁gone	-9.23619
tro	-9.23722
▁ship	-9.23845
ide	-9.23855
▁current	-9.24004
▁fall	-9.24024
che	-9.24174
▁squad	-9.24244
▁German	-9.24294
ized	-9.24422
▁Che	-9.24451
▁forces	-9.24607
▁tell	-9.24773
ford	-9.2478
▁Sha	-9.24795
▁users	-9.24823
▁door	-9.24892
▁looks	-9.24945
▁nation	-9.25235
▁ban	-9.25255
▁cat	-9.25569
ett	-9.25662
▁feet	-9.25828
▁comp	-9.25851
▁Russian	-9.25888
ised	-9.2593
▁low	-9.25939
▁prevent	-9.2603
▁park	-9.2617
ron	-9.26208
▁sea	-9.26379
▁calls	-9.2643
ub	-9.2653
field	-9.26835
▁Red	-9.26905
▁meet	-9.26916
▁challenge	-9.27061
io	-9.27067
▁Ko	-9.27208
▁increase	-9.27296
▁total	-9.27343
▁Los	-9.2738
tal	-9.27394
▁Brazil	-9.27492
▁performance	-9.27557
▁knew	-9.27573
▁birth	-9.27739
▁safe	-9.27758
tor	-9.2778
ja	-9.27783
nt	-9.27866
▁Spain	-9.27996
▁Pe	-9.28001
▁animal	-9.28052
▁Cameron	-9.28146
ping	-9.28397
▁22	-9.28407
▁fine	-9.28414
▁g	-9.28422
▁crew	-9.28424
▁Chinese	-9.2847
50	-9.28508
gi	-9.2854
▁design	-9.28585
ell	-9.2872
au	-9.28743
▁brain	-9.28819
▁pressure	-9.2883
▁drugs	-9.28852
▁Street	-9.28878
▁art	-9.28899
▁land	-9.28977
▁speed	-9.29091
▁allow	-9.29112
▁Iraq	-9.29134
▁create	-9.29209
▁spot	-9.29238
▁kept	-9.2941
▁Cor	-9.29434
▁question	-9.29474
▁included	-9.29583
▁cases	-9.29643
▁bus	-9.29657
▁Texas	-9.29895
pi	-9.29909
▁view	-9.29934
wi	-9.3006
ze	-9.30163
▁previous	-9.30173
▁bill	-9.30249
▁Ne	-9.30285
▁launch	-9.30301
▁north	-9.30396
▁winning	-9.3046
▁leading	-9.30503
si	-9.30603
▁V	-9.30659
▁airport	-9.30681
▁everything	-9.30874
▁Or	-9.30886
▁letter	-9.30989
▁eye	-9.30998
▁hold	-9.31022
▁passengers	-9.31116
▁hour	-9.31135
▁rather	-9.31185
▁network	-9.31193
▁billion	-9.3121
▁What	-9.31266
▁percent	-9.31352
▁surgery	-9.31363
▁joined	-9.31451
▁Russia	-9.31498
▁convicted	-9.31629
▁success	-9.31721
▁Pi	-9.31811
▁longer	-9.31843
▁photos	-9.31899
▁executive	-9.31919
▁believes	-9.31959
tter	-9.31969
▁previously	-9.31981
▁services	-9.32294
pp	-9.32334
▁Ad	-9.32362
val	-9.32636
▁carried	-9.32701
▁storm	-9.32745
av	-9.32829
ture	-9.32957
ged	-9.3297
ship	-9.3302
▁Prime	-9.33096
▁step	-9.3319
▁amount	-9.33252
▁Reporter	-9.33252
▁period	-9.3331
▁contact	-9.33311
▁movie	-9.3333
▁above	-9.33354
▁la	-9.33527
▁Council	-9.33617
▁sub	-9.33619
▁offer	-9.33698
▁main	-9.33715
back	-9.3372
gan	-9.33735
▁avoid	-9.33798
▁reach	-9.33872
▁60	-9.33923
▁signed	-9.33932
▁cover	-9.34095
▁Ru	-9.34098
▁check	-9.3411
▁double	-9.3415
▁refused	-9.34167
▁Queen	-9.34194
▁Prince	-9.34194
▁customers	-9.34321
▁actually	-9.34364
▁appear	-9.34409
ach	-9.3443
▁couldn	-9.34515
▁warned	-9.3453
▁2008	-9.34533
▁2007	-9.34622
ko	-9.34846
▁biggest	-9.34849
ran	-9.34899
▁famous	-9.34918
▁immediately	-9.34938
▁suit	-9.34956
▁r	-9.3498
▁Si	-9.3506
ap	-9.3506
▁competition	-9.351
mar	-9.35148
ren	-9.35257
▁reportedly	-9.35314
▁operation	-9.3533
▁India	-9.35352
row	-9.35569
▁everyone	-9.35625
▁cannot	-9.35628
But	-9.35701
▁Barcelona	-9.35719
van	-9.3572
▁bo	-9.35749
▁weight	-9.35826
▁broke	-9.35972
▁press	-9.36115
▁restaurant	-9.36157
▁music	-9.36161
▁Sam	-9.36214
▁makes	-9.36365
▁captain	-9.36443
▁mis	-9.36448
▁Ed	-9.36576
▁Lu	-9.36807
▁whole	-9.36814
▁Cha	-9.3686
▁marriage	-9.37261
▁Air	-9.37266
▁crowd	-9.37332
nk	-9.37418
▁floor	-9.37438
▁box	-9.37675
▁Ti	-9.37703
▁paper	-9.37742
▁$2	-9.37761
▁Apple	-9.37837
▁African	-9.37916
▁screen	-9.38044
▁senior	-9.38116
▁Sir	-9.38163
ities	-9.38171
▁sell	-9.38172
▁opening	-9.38172
like	-9.38193
▁areas	-9.38263
▁denied	-9.38287
▁suspect	-9.3833
▁protect	-9.38404
▁Richard	-9.38409
▁drive	-9.3851
ize	-9.38721
Y	-9.38776
air	-9.38805
▁draw	-9.38859
▁23	-9.38876
▁reason	-9.38879
▁quickly	-9.3888
▁cash	-9.38925
▁bomb	-9.3915
▁talk	-9.39177
▁Te	-9.39229
▁Champions	-9.39246
▁size	-9.39343
▁display	-9.39367
▁Service	-9.39369
▁field	-9.39372
▁leg	-9.39441
▁doctors	-9.39458
▁Labour	-9.39614
▁Google	-9.39632
so	-9.40175
▁Office	-9.40226
▁policy	-9.40307
▁Center	-9.40372
▁Wales	-9.40473
▁residents	-9.4054
▁Un	-9.40582
ph	-9.40718
▁Van	-9.40739
ou	-9.40802
▁expect	-9.40819
▁gas	-9.40875
▁loss	-9.40979
ag	-9.40995
▁issues	-9.41006
▁Paris	-9.41025
▁bid	-9.41029
▁animals	-9.41048
pl	-9.41056
▁newspaper	-9.41162
based	-9.4117
▁act	-9.41197
▁instead	-9.41226
▁pain	-9.41378
▁source	-9.41568
▁Green	-9.41691
▁Italy	-9.41753
▁data	-9.42005
▁Korea	-9.4204
mate	-9.42167
▁Gi	-9.42381
▁aged	-9.42385
wood	-9.42451
▁impact	-9.42506
▁clean	-9.42566
light	-9.4264
▁ordered	-9.42645
▁midfielder	-9.42699
▁ended	-9.42739
30	-9.42741
ns	-9.42792
▁Angeles	-9.42866
▁fourth	-9.42908
▁emergency	-9.43044
over	-9.43062
ign	-9.43085
▁council	-9.4316
▁spend	-9.43203
▁Mexico	-9.43242
▁response	-9.43242
▁coast	-9.43255
cent	-9.43314
ical	-9.43318
▁takes	-9.43388
▁giving	-9.43393
▁present	-9.43421
▁continued	-9.43495
▁foreign	-9.43639
▁champion	-9.43676
▁poor	-9.43752
▁fan	-9.43761
▁jailed	-9.43761
▁review	-9.43793
▁Secretary	-9.43796
▁Har	-9.43803
▁stopped	-9.43872
▁sentenced	-9.43886
▁leaders	-9.43962
▁twice	-9.4397
▁rise	-9.44066
▁wall	-9.44264
▁Johnson	-9.44268
ure	-9.44436
▁Daniel	-9.44486
▁Tom	-9.4458
▁potential	-9.44615
▁Despite	-9.44673
▁Health	-9.44763
ants	-9.44763
▁Ju	-9.44872
▁Afghanistan	-9.44953
▁opened	-9.44964
▁however	-9.44983
▁footage	-9.45001
▁although	-9.4501
▁faces	-9.45016
▁brand	-9.45131
▁built	-9.45148
▁join	-9.45261
▁treated	-9.45342
for	-9.45351
▁wedding	-9.45357
▁offered	-9.45373
▁appears	-9.45546
▁...	-9.45549
▁nearby	-9.45594
▁bought	-9.45617
▁followed	-9.45627
▁Ge	-9.45656
▁technology	-9.45703
ib	-9.45716
▁needs	-9.45858
▁Hi	-9.45871
▁tr	-9.45947
▁Scotland	-9.45959
▁class	-9.46014
ight	-9.46062
’.	-9.46123
▁border	-9.46139
har	-9.46145
▁artist	-9.46217
▁quite	-9.46264
▁lawyer	-9.46291
▁attention	-9.46353
▁giant	-9.46422
▁gr	-9.46452
▁Ke	-9.46467
▁fighting	-9.4648
▁identified	-9.46567
▁details	-9.4657
When	-9.46637
cing	-9.46685
▁fashion	-9.4683
ible	-9.46872
tan	-9.47043
▁financial	-9.47075
▁Government	-9.47133
▁fit	-9.47143
port	-9.47149
▁afternoon	-9.47213
▁term	-9.47227
▁Jones	-9.47305
▁Italian	-9.47438
ec	-9.47467
▁Syria	-9.47495
▁published	-9.47552
▁build	-9.47598
▁My	-9.47756
▁Jackson	-9.47772
▁speak	-9.47785
▁minute	-9.4783
▁Can	-9.47956
▁winner	-9.48013
du	-9.48157
▁general	-9.48163
▁common	-9.48173
▁Sch	-9.48188
▁self	-9.48215
▁pulled	-9.48223
▁Fi	-9.4825
▁raised	-9.48263
▁bed	-9.48381
bu	-9.48475
▁Lee	-9.48543
▁towards	-9.48577
▁26	-9.48607
▁touch	-9.48688
chi	-9.48722
▁Sal	-9.48728
▁understand	-9.48803
▁Judge	-9.48887
▁boat	-9.49016
▁Kim	-9.49194
▁Robert	-9.492
▁tour	-9.49205
▁charity	-9.49223
▁herself	-9.49282
▁figures	-9.4929
▁kill	-9.49346
▁save	-9.49492
han	-9.49512
▁male	-9.49526
gen	-9.49581
head	-9.49586
▁passed	-9.49591
ov	-9.49903
▁wear	-9.49926
▁ask	-9.49929
▁35	-9.50033
▁attacked	-9.50124
qua	-9.50194
▁conference	-9.50198
▁managed	-9.5023
▁sun	-9.50235
▁Star	-9.50238
tin	-9.50279
▁alcohol	-9.504
▁complete	-9.50403
ai	-9.50416
▁league	-9.5042
▁agreed	-9.50432
▁allegations	-9.50469
mph	-9.5052
▁results	-9.50559
▁tournament	-9.50572
▁sale	-9.50693
▁oil	-9.50775
▁non	-9.50795
▁issued	-9.50823
▁value	-9.50949
▁VIDEO	-9.50999
▁card	-9.51003
▁election	-9.51026
▁bear	-9.51043
▁0	-9.51215
▁address	-9.51271
▁Open	-9.51272
gar	-9.51353
▁extra	-9.51366
▁receive	-9.51664
ue	-9.51728
▁loan	-9.51738
▁attempt	-9.51772
▁fear	-9.51779
▁lived	-9.5186
ep	-9.51868
cu	-9.51946
▁request	-9.51966
▁Another	-9.51972
▁rescue	-9.51995
▁computer	-9.52013
▁unable	-9.52025
▁gold	-9.52105
▁conditions	-9.52161
▁secret	-9.5226
▁Wi	-9.52284
▁girlfriend	-9.52424
▁rock	-9.5257
▁arm	-9.52603
▁snow	-9.52611
vis	-9.52612
▁island	-9.52649
▁pilot	-9.52673
▁camp	-9.5268
use	-9.52767
▁raise	-9.52896
▁consider	-9.52903
▁evening	-9.52961
▁penalty	-9.53047
▁groups	-9.53066
▁Thomas	-9.53109
▁weather	-9.5311
ists	-9.53211
▁dangerous	-9.53239
▁costs	-9.53296
▁d	-9.53435
▁27	-9.53439
▁village	-9.53457
▁William	-9.53501
▁Mac	-9.53658
▁32	-9.53708
▁struck	-9.53746
▁onto	-9.53837
▁Bill	-9.53861
▁shown	-9.53916
▁se	-9.53928
▁l	-9.54025
▁removed	-9.54089
▁spotted	-9.54148
▁Bur	-9.5415
▁sa	-9.54239
low	-9.54377
ord	-9.54456
dic	-9.54481
▁showing	-9.54571
▁collection	-9.54599
▁Alex	-9.54662
▁center	-9.54675
▁lose	-9.54702
month	-9.54707
▁Iran	-9.54756
▁goes	-9.54809
▁mid	-9.54903
▁Crown	-9.54944
▁Spanish	-9.54957
▁Island	-9.54968
long	-9.55085
ake	-9.55112
▁troops	-9.55148
▁answer	-9.55218
▁television	-9.55371
▁ready	-9.55476
gue	-9.55481
▁defender	-9.55497
▁28	-9.55503
▁designed	-9.55595
ya	-9.55624
kin	-9.55713
cy	-9.55722
ea	-9.55724
▁Fe	-9.55742
▁teacher	-9.55805
▁farm	-9.55812
ified	-9.55823
ming	-9.55828
▁companies	-9.55851
▁Pakistan	-9.56017
▁block	-9.56027
▁Sydney	-9.56033
▁imp	-9.56065
▁unit	-9.56089
▁apartment	-9.56096
med	-9.56133
▁warning	-9.56371
▁Sea	-9.56457
▁largest	-9.56513
sen	-9.56621
ef	-9.56665
▁actor	-9.56724
▁hot	-9.56771
▁considered	-9.56849
▁spoke	-9.56856
▁Other	-9.56869
▁rules	-9.56882
My	-9.56951
▁kids	-9.56974
▁suffering	-9.56976
ile	-9.57218
▁focus	-9.57324
mail	-9.57351
▁text	-9.57381
▁dropped	-9.5739
▁captured	-9.574
▁90	-9.57599
▁department	-9.5763
▁mobile	-9.57738
▁ice	-9.57965
▁mind	-9.57966
▁economic	-9.58002
▁works	-9.5813
▁Za	-9.58176
let	-9.58207
▁industry	-9.58319
▁Andrew	-9.58321
▁Japan	-9.58361
▁either	-9.58385
▁finally	-9.58388
▁ill	-9.58395
▁hundreds	-9.58466
car	-9.58569
▁pick	-9.58672
down	-9.58777
▁Ni	-9.58787
▁cur	-9.58812
▁Newcastle	-9.58835
ath	-9.58844
▁fellow	-9.58984
▁church	-9.59001
▁aircraft	-9.59048
▁rain	-9.59233
▁sit	-9.59362
▁doctor	-9.5947
▁poll	-9.59499
▁Hill	-9.59503
▁2006	-9.59512
ack	-9.59562
▁threat	-9.59575
▁fired	-9.59619
▁ensure	-9.59662
▁character	-9.59678
▁effort	-9.59828
▁survey	-9.59876
▁version	-9.59888
nder	-9.59917
▁na	-9.59962
▁respect	-9.60033
▁calling	-9.60071
pped	-9.60079
▁lack	-9.60219
▁suspended	-9.60234
▁feeling	-9.60256
▁straight	-9.60266
▁alone	-9.60374
▁send	-9.60406
J	-9.60457
▁skin	-9.60503
▁£3	-9.60508
tain	-9.60527
▁Dan	-9.60533
cho	-9.60536
▁hopes	-9.60582
zi	-9.60673
▁drink	-9.60731
ana	-9.60812
▁Jack	-9.60861
▁figure	-9.60881
▁global	-9.60894
▁growing	-9.60924
▁served	-9.6096
win	-9.6099
uff	-9.61028
ries	-9.61061
▁spending	-9.61131
board	-9.61142
cr	-9.61155
▁spread	-9.61159
▁dogs	-9.61201
▁Times	-9.61204
pro	-9.61354
▁moving	-9.61524
▁happen	-9.61604
▁Mon	-9.61688
ff	-9.61734
▁professional	-9.61808
▁style	-9.61834
▁natural	-9.61905
▁target	-9.61924
▁carrying	-9.61939
▁rate	-9.61967
▁Old	-9.62049
ative	-9.62097
hy	-9.62139
▁wait	-9.62268
▁Per	-9.6231
▁blue	-9.62378
her	-9.62397
▁o	-9.62399
▁Black	-9.62442
▁Three	-9.62504
▁shoot	-9.62566
▁words	-9.62574
ual	-9.62589
ev	-9.62594
▁seems	-9.6261
jo	-9.62628
ute	-9.6267
▁population	-9.62723
ction	-9.62725
▁flat	-9.62753
▁Clinton	-9.62767
▁reached	-9.62785
▁subject	-9.62824
▁$	-9.62866
▁pet	-9.62928
if	-9.63054
▁table	-9.63069
▁states	-9.63108
▁speech	-9.63134
▁sound	-9.63279
▁guard	-9.63309
▁protest	-9.63314
▁Louis	-9.63455
▁super	-9.63476
▁filed	-9.63494
▁foot	-9.63539
zz	-9.63576
▁type	-9.63633
▁practice	-9.63641
▁cars	-9.6371
▁probably	-9.63711
▁traffic	-9.63827
▁appearance	-9.63857
▁mean	-9.63878
ps	-9.63948
▁pass	-9.64054
▁custody	-9.6407
▁em	-9.64213
▁magazine	-9.64279
▁highest	-9.64375
▁tough	-9.64551
▁dress	-9.64604
▁seat	-9.64605
▁Pre	-9.64694
oo	-9.64697
▁energy	-9.64757
▁emerged	-9.64766
▁Z	-9.64828
▁score	-9.64929
▁Americans	-9.64939
my	-9.64955
▁row	-9.64959
don	-9.65029
des	-9.65046
▁changed	-9.65049
ments	-9.6507
▁Grand	-9.65104
▁Christian	-9.65249
▁Wa	-9.65305
▁aid	-9.65407
▁Steve	-9.65474
▁carry	-9.65476
cal	-9.65495
▁Mu	-9.65499
▁events	-9.65536
▁education	-9.65578
▁31	-9.65606
▁soldiers	-9.65611
▁suicide	-9.65614
▁middle	-9.65628
▁eyes	-9.65661
▁eventually	-9.65826
▁banned	-9.65842
cor	-9.6588
▁experts	-9.65887
▁broken	-9.65891
▁truck	-9.65928
▁Col	-9.66087
ino	-9.66172
▁includes	-9.66257
▁band	-9.66336
▁Authorities	-9.6636
▁serve	-9.66405
▁plea	-9.66459
▁Y	-9.66467
▁higher	-9.66482
▁placed	-9.66515
house	-9.6657
▁investigating	-9.6668
▁walking	-9.66684
▁remember	-9.66697
▁NHS	-9.66752
▁45	-9.66762
▁song	-9.66898
ory	-9.66906
▁bail	-9.66908
ong	-9.66974
gra	-9.6703
▁pleaded	-9.67064
sur	-9.67074
▁ski	-9.67087
▁sales	-9.67107
iti	-9.67137
▁mission	-9.6714
aw	-9.6725
▁ring	-9.67262
▁signing	-9.67262
▁ruled	-9.67271
su	-9.67309
▁Under	-9.6738
▁quarter	-9.67475
▁die	-9.67504
▁Bi	-9.67546
▁fun	-9.67574
ins	-9.6758
▁River	-9.67613
att	-9.67736
▁device	-9.67784
▁Both	-9.67799
▁Many	-9.67804
work	-9.67815
▁award	-9.67844
▁accept	-9.67862
▁rape	-9.67864
▁horse	-9.6794
▁else	-9.6794
▁holding	-9.67945
▁isn	-9.68013
▁products	-9.68048
▁central	-9.68058
▁cross	-9.68082
▁Dar	-9.68087
▁rare	-9.681
▁annual	-9.68184
▁especially	-9.68205
▁eat	-9.68229
▁Harry	-9.68374
act	-9.68423
▁occurred	-9.68431
▁dream	-9.68435
rie	-9.6847
▁author	-9.68489
▁boys	-9.68539
▁closed	-9.6854
▁demand	-9.68671
▁Inter	-9.68751
▁FA	-9.68896
▁lower	-9.68902
▁features	-9.69033
▁adding	-9.69052
▁concerns	-9.69065
▁original	-9.69102
▁heavy	-9.69326
▁gl	-9.69326
▁Ya	-9.694
▁window	-9.69512
▁cell	-9.69525
▁cap	-9.69544
ick	-9.69551
▁Will	-9.69643
je	-9.69759
ably	-9.69774
▁base	-9.69805
▁Of	-9.6993
▁Group	-9.69939
▁Ali	-9.69956
▁Steven	-9.70011
▁Joe	-9.70034
pri	-9.70161
▁linked	-9.70325
▁opportunity	-9.70543
▁Com	-9.70574
▁alongside	-9.70578
▁mark	-9.70674
▁material	-9.70679
▁count	-9.70699
▁deep	-9.70712
cha	-9.70732
▁compared	-9.70746
ple	-9.70772
ear	-9.70779
▁Qu	-9.70792
▁Tu	-9.70846
▁enjoy	-9.70871
▁approach	-9.70876
nce	-9.70947
▁development	-9.71021
▁teenager	-9.71054
▁bodies	-9.71077
▁Army	-9.71134
mal	-9.71134
▁transfer	-9.7114
▁trust	-9.71143
uch	-9.71206
▁hear	-9.71234
▁kick	-9.71283
▁written	-9.71284
ek	-9.71305
uck	-9.7139
▁jury	-9.71451
▁responsible	-9.71513
▁29	-9.71521
▁Hall	-9.71582
▁hurt	-9.71617
▁homes	-9.7167
▁asking	-9.71731
▁Je	-9.71758
▁clash	-9.71823
form	-9.71856
ked	-9.71861
▁70	-9.71988
▁positive	-9.7199
nes	-9.72055
▁affect	-9.72095
▁trouble	-9.72115
▁effect	-9.7212
qu	-9.72173
▁du	-9.72202
▁credit	-9.72268
▁mistake	-9.72297
▁Justice	-9.72299
pre	-9.72325
▁pop	-9.72364
▁garden	-9.72367
▁weapons	-9.72393
▁Olympic	-9.72401
▁bag	-9.72458
▁beach	-9.72527
▁illegal	-9.72561
art	-9.72602
▁strike	-9.72693
▁choice	-9.72746
▁simply	-9.72784
str	-9.72847
▁airline	-9.72885
▁Gaal	-9.72945
▁economy	-9.72949
▁Israel	-9.72957
▁changes	-9.72972
law	-9.72975
▁MP	-9.73163
▁waiting	-9.73171
▁claiming	-9.73214
▁green	-9.73361
▁36	-9.7337
▁gang	-9.73378
▁fish	-9.73388
▁questions	-9.73405
▁Palace	-9.73419
nu	-9.73442
ville	-9.73493
50,000	-9.73585
▁mental	-9.73647
▁Bank	-9.73657
term	-9.73701
▁efforts	-9.73704
▁Gra	-9.7381
▁spokeswoman	-9.73828
▁People	-9.7384
▁explain	-9.73865
▁planning	-9.73867
az	-9.73906
▁Post	-9.73914
).	-9.73965
▁sports	-9.74158
▁reveal	-9.74202
▁matches	-9.74237
▁causing	-9.74329
▁Murray	-9.74407
mber	-9.74436
lli	-9.74485
▁Lord	-9.74505
▁machine	-9.74547
▁items	-9.74551
▁successful	-9.74597
▁older	-9.74725
▁voice	-9.7478
▁civil	-9.74782
▁Year	-9.74814
▁Nick	-9.7486
▁bu	-9.74923
▁planned	-9.7493
rea	-9.75021
▁gay	-9.75074
▁fair	-9.75084
▁internet	-9.75134
▁1.	-9.75197
▁Home	-9.75226
▁tweet	-9.75236
lum	-9.75259
uld	-9.75261
▁Tour	-9.75396
lie	-9.75403
▁Union	-9.75405
▁Not	-9.75423
▁stars	-9.75458
▁completely	-9.75483
▁perfect	-9.75594
cul	-9.7561
▁losing	-9.75637
ery	-9.75651
▁fast	-9.75805
ising	-9.7581
▁session	-9.75845
mor	-9.75875
▁Ver	-9.75893
▁Cla	-9.75956
▁seeing	-9.76056
▁attempted	-9.76097
▁34	-9.76169
▁documents	-9.76361
▁Scott	-9.76404
▁levels	-9.76442
▁harm	-9.76449
▁200	-9.76455
▁pen	-9.7647
▁programme	-9.76476
▁Bre	-9.76558
▁concerned	-9.76599
▁Ryan	-9.7661
▁crisis	-9.76684
▁handed	-9.76705
▁example	-9.76725
▁First	-9.76758
▁teen	-9.76771
▁singer	-9.76783
ook	-9.76794
▁follow	-9.76865
▁Tottenham	-9.76868
▁facing	-9.76914
▁Association	-9.76921
▁Good	-9.77016
▁warm	-9.77148
▁counts	-9.77165
▁drop	-9.77226
▁80	-9.77254
run	-9.77295
▁Watch	-9.77338
▁shared	-9.77367
▁respond	-9.77449
▁Mal	-9.77454
cc	-9.77541
tar	-9.77599
▁via	-9.77677
q	-9.77687
▁throughout	-9.77763
▁McC	-9.77854
▁starting	-9.77956
▁meant	-9.78013
▁telling	-9.78034
▁Championship	-9.78064
▁pitch	-9.78085
▁Super	-9.78107
▁talks	-9.78119
▁FBI	-9.78183
iv	-9.78222
▁finish	-9.78228
▁traditional	-9.78252
▁prove	-9.78279
▁suspected	-9.78374
nn	-9.78478
▁organ	-9.78553
▁photographer	-9.78661
istic	-9.78678
sha	-9.78925
▁colour	-9.78976
▁missed	-9.79119
▁district	-9.79244
▁scoring	-9.79326
▁reporters	-9.79361
▁supporters	-9.79375
▁nurse	-9.7938
▁messages	-9.7938
▁Coast	-9.79435
▁grand	-9.79446
That	-9.79476
▁organization	-9.79477
▁hoping	-9.79616
▁link	-9.79625
▁wouldn	-9.79854
▁Ki	-9.79866
▁terms	-9.79886
▁Mas	-9.79889
▁certain	-9.79914
▁Bra	-9.80039
▁limit	-9.80041
▁During	-9.8007
▁worst	-9.80085
bar	-9.80098
▁Maria	-9.80107
▁Bay	-9.80123
▁catch	-9.80172
oc	-9.80179
▁Korean	-9.8018
▁severe	-9.80281
▁Jose	-9.80306
ral	-9.80353
▁pounds	-9.80468
▁entire	-9.80488
▁General	-9.80523
shire	-9.80531
▁email	-9.80534
▁sleep	-9.80535
▁Han	-9.80563
born	-9.80592
▁object	-9.80619
▁Gar	-9.80638
▁Chief	-9.80666
uring	-9.80683
▁sense	-9.80742
ced	-9.8078
▁Mike	-9.80789
▁standing	-9.80797
▁conduct	-9.80864
▁Press	-9.80948
▁researchers	-9.80949
▁2005	-9.80965
▁parts	-9.81013
▁birthday	-9.812
▁particularly	-9.81345
pping	-9.81372
▁massive	-9.81377
▁suffer	-9.81427
▁Taylor	-9.81457
▁estimated	-9.81506
▁piece	-9.81512
die	-9.81581
▁becoming	-9.81615
10	-9.81638
▁loved	-9.81672
▁defense	-9.81734
▁bottle	-9.81734
▁confirm	-9.81742
▁watching	-9.81752
▁helping	-9.81803
list	-9.81931
▁schools	-9.81979
▁wild	-9.81996
ez	-9.82044
▁streets	-9.82098
lor	-9.82102
▁Islamic	-9.82213
pt	-9.82251
▁Charles	-9.82259
▁affected	-9.82341
▁Men	-9.82372
▁Tri	-9.82372
▁justice	-9.82376
▁finished	-9.82677
▁normal	-9.82694
▁chairman	-9.82755
▁walked	-9.82798
par	-9.82853
▁benefits	-9.82873
ung	-9.82873
▁sport	-9.82987
ition	-9.83017
▁boyfriend	-9.83029
▁debut	-9.83084
tant	-9.83117
▁tweeted	-9.83139
▁fly	-9.83188
▁covered	-9.83265
▁radio	-9.8345
▁ruling	-9.83453
▁inter	-9.83455
▁Simon	-9.83465
▁progress	-9.83514
▁Rob	-9.83526
▁bottom	-9.83587
▁God	-9.83594
▁suggested	-9.83597
tch	-9.83619
▁owners	-9.83645
uge	-9.83646
rap	-9.83801
vin	-9.83825
▁separate	-9.83837
▁Bush	-9.83851
No	-9.83904
▁nuclear	-9.83904
rate	-9.83913
▁Cu	-9.83932
▁£4	-9.84075
burg	-9.84125
▁favourite	-9.84194
▁hat	-9.8424
▁photograph	-9.84277
mm	-9.84287
▁Ku	-9.84374
▁true	-9.8444
▁Indian	-9.84502
▁flag	-9.84515
▁deaths	-9.8452
▁doubt	-9.84529
▁fifth	-9.84543
▁tree	-9.84629
wo	-9.84639
▁ref	-9.84693
▁lawsuit	-9.84694
▁Security	-9.84771
▁Earth	-9.848
▁dark	-9.84835
▁apparently	-9.84882
ens	-9.84981
ane	-9.84992
▁behaviour	-9.85085
▁hole	-9.85109
▁blow	-9.85131
▁word	-9.85211
▁connection	-9.85255
▁easy	-9.85272
▁concern	-9.8531
▁EU	-9.85311
vers	-9.85315
▁significant	-9.85357
▁Ireland	-9.85417
rk	-9.85434
▁flying	-9.85441
▁fe	-9.85444
▁cold	-9.85453
tur	-9.85462
▁Villa	-9.8555
bling	-9.85675
▁prices	-9.85707
rick	-9.85728
▁talking	-9.85737
▁surface	-9.85749
▁pretty	-9.85761
▁jobs	-9.85796
▁trade	-9.85814
▁affair	-9.85819
rit	-9.85831
▁Don	-9.85899
▁patient	-9.85922
ani	-9.85923
▁treat	-9.85995
▁movement	-9.86015
▁Chi	-9.86077
▁Val	-9.86089
▁Force	-9.8615
▁below	-9.86199
▁transport	-9.862
▁employees	-9.8625
▁selling	-9.86253
▁District	-9.86267
ik	-9.8637
▁Pu	-9.86385
▁Airport	-9.86425
bel	-9.86567
▁itself	-9.86642
▁pregnant	-9.86761
▁scheduled	-9.86809
▁armed	-9.86897
▁Fl	-9.86911
▁plant	-9.86959
▁learn	-9.86964
▁Congress	-9.86986
tting	-9.87021
▁auction	-9.87042
▁decades	-9.87099
▁Church	-9.87111
▁Sun	-9.87118
▁Republican	-9.87248
load	-9.8727
▁Milan	-9.87331
hor	-9.87405
▁attend	-9.87405
pic	-9.87521
▁worker	-9.87596
lon	-9.87615
▁hi	-9.87636
ration	-9.87647
nny	-9.87743
▁attended	-9.87815
▁scientists	-9.87877
▁investigators	-9.87902
ji	-9.87922
▁committed	-9.87974
£	-9.88035
▁shirt	-9.88065
▁putting	-9.88077
▁visitors	-9.88159
▁violent	-9.88183
▁iPhone	-9.88257
▁$3	-9.88427
▁2.	-9.88481
lea	-9.88505
▁initially	-9.88512
▁Muslim	-9.88521
acy	-9.88578
,500	-9.88628
▁stress	-9.88628
▁product	-9.88634
What	-9.88642
▁Jersey	-9.88644
rd	-9.8866
▁continues	-9.88733
▁YouTube	-9.88776
▁increased	-9.88854
▁eating	-9.88901
▁Georgia	-9.88925
ash	-9.88931
▁Ab	-9.88959
▁Four	-9.88969
▁improve	-9.89044
▁shock	-9.89102
▁debate	-9.89109
▁feature	-9.89125
▁actions	-9.89155
▁Bas	-9.89187
lar	-9.89194
▁raid	-9.89195
▁Southampton	-9.89238
▁drinking	-9.89312
▁fuel	-9.89386
▁jet	-9.89433
lly	-9.89685
▁signs	-9.8971
▁passenger	-9.89745
▁Port	-9.8976
▁ceremony	-9.89762
▁majority	-9.89767
▁aware	-9.89803
▁Big	-9.89814
▁content	-9.89854
▁numbers	-9.89916
▁ISIS	-9.89927
▁2004	-9.89988
▁university	-9.90017
nor	-9.90097
▁Sky	-9.90099
tz	-9.90135
▁Party	-9.9023
▁Min	-9.90269
▁Matt	-9.9027
▁visited	-9.9035
▁Fox	-9.90361
▁individual	-9.90382
▁picked	-9.9048
▁smoke	-9.90486
yn	-9.90566
ye	-9.90653
▁controversial	-9.90666
▁shortly	-9.90732
ade	-9.90748
▁Mourinho	-9.90863
▁These	-9.90871
fl	-9.90885
▁bi	-9.90935
▁cast	-9.90948
▁Road	-9.90978
▁Mor	-9.9101
▁MailOnline	-9.9103
▁Meanwhile	-9.9103
▁Victoria	-9.91059
▁designer	-9.91091
▁college	-9.91106
▁critical	-9.91125
▁Tony	-9.91131
▁agreement	-9.91234
ces	-9.91333
ju	-9.91336
▁watched	-9.91385
?'	-9.91448
▁peace	-9.91481
▁minor	-9.91523
▁pool	-9.91559
▁seek	-9.91591
▁client	-9.91625
▁helicopter	-9.9164
ink	-9.91643
rated	-9.91692
▁proud	-9.9172
▁threatened	-9.91734
▁Hol	-9.91838
▁difference	-9.919
▁reasons	-9.91919
▁Lake	-9.91925
▁Since	-9.92001
▁Mary	-9.92028
▁stolen	-9.92048
▁Although	-9.92062
ette	-9.92149
▁runs	-9.9215
▁records	-9.92182
▁names	-9.92211
maker	-9.92233
▁actress	-9.92285
40	-9.92322
▁domestic	-9.92485
▁Argentina	-9.92562
▁alive	-9.92575
▁wish	-9.92621
▁print	-9.92636
uk	-9.92743
▁Am	-9.92822
▁veteran	-9.92887
▁par	-9.92936
len	-9.92955
▁article	-9.92964
▁shut	-9.92976
▁Ronaldo	-9.93091
▁Win	-9.93155
15	-9.93171
▁ob	-9.93192
▁Boston	-9.93199
▁Even	-9.93223
▁Chicago	-9.93243
▁Sen	-9.93245
▁jump	-9.9326
▁measure	-9.93351
▁Lewis	-9.934
▁beautiful	-9.93408
▁Canada	-9.93419
▁remove	-9.93436
▁healthy	-9.93438
▁En	-9.93454
stone	-9.9348
▁Club	-9.93601
▁Cambridge	-9.93712
▁ca	-9.93763
▁mass	-9.93837
▁Young	-9.93857
▁aim	-9.93872
top	-9.93945
▁northern	-9.93945
▁Most	-9.94007
▁ne	-9.9403
▁Andy	-9.94068
▁represent	-9.9408
▁Bridge	-9.94095
▁Zealand	-9.94164
llo	-9.94179
▁disc	-9.94232
▁fully	-9.94314
▁danger	-9.94333
▁tests	-9.9436
ered	-9.94361
▁Fo	-9.94432
▁wide	-9.94478
▁Pat	-9.94622
ug	-9.94679
▁begin	-9.94691
▁expert	-9.94712
cker	-9.94728
▁sort	-9.94774
▁rule	-9.94814
▁Kevin	-9.9487
▁2015	-9.9492
▁presidential	-9.94963
▁serving	-9.94974
▁teams	-9.95022
▁neighbor	-9.95026
▁Stephen	-9.95032
▁Stadium	-9.95189
▁medal	-9.95203
▁Speaking	-9.95221
▁finding	-9.95339
▁shape	-9.95343
cle	-9.95344
▁Ch	-9.95345
▁Boy	-9.95349
▁estate	-9.95382
▁grow	-9.95451
▁Costa	-9.95489
east	-9.95496
▁sick	-9.95544
▁Games	-9.95545
▁decade	-9.95621
▁user	-9.95624
▁usually	-9.95676
▁motor	-9.95677
▁developed	-9.95681
wn	-9.95691
▁opposition	-9.95697
▁southern	-9.95777
▁provided	-9.9586
▁Kate	-9.95875
▁regular	-9.95911
▁fresh	-9.95921
▁gift	-9.96017
▁Par	-9.96028
ball	-9.9605
▁seeking	-9.96063
11	-9.96148
▁miss	-9.96172
▁Fire	-9.96235
af	-9.96244
bro	-9.96266
▁Rooney	-9.96272
▁province	-9.96288
iz	-9.96302
▁How	-9.9634
▁drivers	-9.96364
▁37	-9.96396
▁bin	-9.96471
Ma	-9.96502
▁diet	-9.96534
▁insisted	-9.96557
▁quality	-9.96591
▁Act	-9.96658
vic	-9.96683
▁recorded	-9.96692
▁crashed	-9.96797
▁worse	-9.96819
▁Read	-9.96869
▁sitting	-9.9687
▁chain	-9.969
▁equal	-9.96908
▁cities	-9.96941
▁knee	-9.96949
lock	-9.96958
▁Pan	-9.9699
▁Their	-9.97007
▁diagnosed	-9.97035
▁amazing	-9.97044
▁younger	-9.97076
▁multiple	-9.97146
nie	-9.97163
▁neck	-9.97175
▁stick	-9.97181
ris	-9.9719
▁Ste	-9.97208
▁boost	-9.97208
▁benefit	-9.97241
not	-9.97294
spec	-9.97326
▁mountain	-9.97367
ient	-9.97384
▁Bri	-9.97388
▁da	-9.97392
bury	-9.97451
▁Mil	-9.97613
▁Barack	-9.97627
dis	-9.97628
▁legs	-9.97672
pen	-9.97682
▁contest	-9.97691
ala	-9.97783
▁thanks	-9.97846
bra	-9.97853
gy	-9.97873
▁38	-9.97936
ese	-9.97973
▁deliver	-9.97982
▁Everton	-9.98178
▁Adam	-9.98194
And	-9.98232
ox	-9.98295
▁Wood	-9.98319
▁Israeli	-9.98333
▁meal	-9.98346
ray	-9.9835
▁modern	-9.98376
ara	-9.98413
▁golf	-9.98436
blo	-9.98441
▁Tre	-9.98491
▁clearly	-9.98531
▁crimes	-9.98586
fer	-9.98601
app	-9.98608
▁scandal	-9.98642
cher	-9.98669
▁agent	-9.98679
▁escape	-9.98743
uc	-9.98898
▁administration	-9.98917
▁ride	-9.98925
As	-9.98955
▁sight	-9.98963
▁Frank	-9.99018
vent	-9.99032
Our	-9.99088
cur	-9.99106
▁wind	-9.99111
▁east	-9.99123
▁Cre	-9.99175
▁Wilson	-9.99267
▁budget	-9.99313
▁explained	-9.99365
pper	-9.99405
▁views	-9.9943
▁extremely	-9.99432
▁arms	-9.99498
▁Far	-9.99523
▁Senate	-9.99558
ability	-9.9974
▁activity	-9.99747
▁discuss	-9.99774
▁Sarah	-9.99899
▁Diego	-10.0004
▁prosecutors	-10.0006
▁shocked	-10.001
ates	-10.0013
ire	-10.0023
berg	-10.0032
▁roll	-10.0034
▁Family	-10.0039
▁addition	-10.0047
▁Carolina	-10.0048
▁certainly	-10.0049
▁myself	-10.0052
▁ability	-10.0058
▁Hollywood	-10.0081
▁operations	-10.0082
▁flu	-10.0085
▁rep	-10.0087
▁promote	-10.0088
To	-10.0092
▁collect	-10.0098
fect	-10.0114
rus	-10.0122
▁quick	-10.0125
▁Fu	-10.0128
▁Suarez	-10.0131
▁responsibility	-10.0143
▁42	-10.0144
▁blast	-10.0147
ome	-10.0148
▁growth	-10.015
▁determined	-10.0163
▁tip	-10.0165
▁33	-10.0167
▁slow	-10.0171
ken	-10.0178
▁illness	-10.0185
▁Tim	-10.0185
▁talent	-10.0188
wer	-10.0189
▁shopping	-10.0191
yard	-10.0195
▁offering	-10.0205
lay	-10.0207
▁surprise	-10.0211
▁reflect	-10.0211
▁Beach	-10.0212
▁Eric	-10.0217
▁bedroom	-10.0222
▁Art	-10.0223
▁Just	-10.0223
▁breast	-10.0226
▁expensive	-10.0228
bor	-10.0232
▁fraud	-10.0233
▁Fin	-10.0233
▁reform	-10.0238
▁century	-10.0242
▁decide	-10.0252
▁laws	-10.0256
▁exercise	-10.0259
▁Gen	-10.0261
▁Dutch	-10.0263
▁spirit	-10.0267
▁Messi	-10.0268
▁required	-10.0269
▁48	-10.027
cer	-10.0271
▁factor	-10.0271
mates	-10.0272
▁assistant	-10.0275
lam	-10.0278
▁thank	-10.0279
ington	-10.0282
▁Over	-10.0288
▁Pri	-10.0289
▁Mag	-10.0292
▁fund	-10.03
▁seem	-10.0303
ari	-10.0304
▁Up	-10.0311
vel	-10.0311
▁remained	-10.0317
rr	-10.0317
▁Great	-10.0324
▁conflict	-10.0327
▁semi	-10.033
ale	-10.0331
rack	-10.0332
▁prime	-10.0332
▁west	-10.034
▁mu	-10.0342
▁Jordan	-10.0348
net	-10.0351
▁sat	-10.0355
can	-10.0361
99	-10.0364
▁Anthony	-10.0368
▁unusual	-10.037
▁reality	-10.0382
▁location	-10.0383
foot	-10.0386
▁whom	-10.0387
▁adult	-10.0387
▁celebrate	-10.0388
▁pull	-10.039
▁language	-10.0398
▁physical	-10.0403
▁audience	-10.0405
hal	-10.0406
▁Miami	-10.0407
▁panel	-10.0408
▁Middle	-10.0408
▁highlight	-10.0416
▁sometimes	-10.0425
▁terrorist	-10.0426
pir	-10.0428
▁im	-10.0433
▁clothes	-10.045
▁Taliban	-10.0453
▁recovery	-10.0459
▁honor	-10.0467
▁culture	-10.0473
▁procedure	-10.0474
▁amid	-10.0474
▁sad	-10.0478
cl	-10.0479
log	-10.0482
ston	-10.0484
ologist	-10.0487
▁dispute	-10.0489
▁2003	-10.0494
▁parties	-10.0507
▁seconds	-10.0512
▁vehicles	-10.0513
ology	-10.0517
▁Birmingham	-10.052
▁completed	-10.052
set	-10.0522
▁£6	-10.0542
fire	-10.0544
care	-10.0546
▁CEO	-10.0549
▁Attorney	-10.0551
▁smile	-10.0555
▁Nations	-10.0559
▁reaction	-10.0576
▁fa	-10.0582
▁Today	-10.0585
▁gets	-10.0586
▁note	-10.0588
ob	-10.0589
▁flood	-10.0592
▁complaint	-10.0592
▁mini	-10.0593
▁Cal	-10.0596
▁beaten	-10.0597
▁Mer	-10.0597
▁beating	-10.0597
▁royal	-10.0602
▁43	-10.0608
volving	-10.061
▁exchange	-10.0611
▁route	-10.0617
▁Alan	-10.0619
state	-10.0622
igh	-10.0623
So	-10.0627
▁responded	-10.0627
▁divorce	-10.0632
▁Vo	-10.0634
▁Mill	-10.0634
▁compete	-10.0634
19	-10.0637
▁conviction	-10.0638
▁struggle	-10.0639
▁seriously	-10.0643
▁speaking	-10.0645
▁add	-10.0654
▁trend	-10.0654
▁terror	-10.0655
▁Ash	-10.0658
are	-10.0664
TV	-10.0671
▁meaning	-10.0675
▁independent	-10.0677
▁scheme	-10.0677
▁upset	-10.0678
▁millions	-10.0679
▁production	-10.0681
▁require	-10.0683
▁winter	-10.0693
▁tall	-10.0703
lf	-10.0705
tern	-10.0706
▁filmed	-10.0724
dor	-10.0729
▁daily	-10.0729
▁bike	-10.0732
▁thinking	-10.0734
25	-10.0738
▁journey	-10.0739
▁College	-10.0741
lies	-10.0742
▁Long	-10.0743
bs	-10.0752
▁k	-10.0756
▁Japanese	-10.0758
▁Instagram	-10.0759
billion	-10.0761
▁Web	-10.0765
▁produce	-10.0766
▁reduce	-10.0773
rating	-10.0776
▁Syrian	-10.0799
▁lift	-10.08
▁river	-10.0803
▁gain	-10.0807
▁tribute	-10.0808
▁powerful	-10.0813
▁measures	-10.0816
▁youth	-10.0821
hand	-10.0826
▁Ebola	-10.0829
▁false	-10.0831
▁stone	-10.0837
hen	-10.0837
hood	-10.084
▁seemed	-10.0851
▁equipment	-10.0852
▁defence	-10.0854
▁burn	-10.0857
▁virus	-10.0865
▁targeted	-10.0877
▁various	-10.088
▁debt	-10.0882
lia	-10.0891
▁failing	-10.0891
▁Em	-10.0895
▁pray	-10.0897
▁faced	-10.0901
ium	-10.0906
▁inspired	-10.0918
very	-10.0918
▁beginning	-10.0921
▁identify	-10.0922
▁rival	-10.0923
▁engine	-10.0925
▁keen	-10.0926
▁document	-10.0928
▁knife	-10.0931
eva	-10.0931
▁returning	-10.0932
▁produced	-10.0936
▁Virginia	-10.0941
▁falling	-10.095
▁push	-10.0954
▁failure	-10.0959
▁highly	-10.0962
▁Bro	-10.0964
▁union	-10.0964
amp	-10.0965
▁corner	-10.0969
▁funeral	-10.0973
▁gives	-10.0975
▁Earlier	-10.0977
▁capture	-10.0985
▁mar	-10.0987
▁pack	-10.0988
▁fled	-10.0991
▁path	-10.1
▁tells	-10.1006
▁struggling	-10.1008
▁finger	-10.1011
▁39	-10.1012
▁entered	-10.1014
▁paying	-10.1015
45	-10.1018
ella	-10.1021
▁para	-10.1024
▁Leon	-10.1026
▁delay	-10.1026
▁possession	-10.1033
▁intelligence	-10.1033
▁committee	-10.1037
ano	-10.1044
▁Tory	-10.1047
▁complex	-10.1054
▁keeping	-10.1056
▁Central	-10.1074
▁offers	-10.1076
▁commercial	-10.1085
▁nature	-10.109
rin	-10.1096
▁Hamilton	-10.1096
▁declined	-10.11
▁glass	-10.1101
▁1,000	-10.1107
▁opinion	-10.1113
lit	-10.1115
▁Sp	-10.1115
half	-10.1118
▁lay	-10.1121
▁active	-10.1128
▁Ci	-10.1129
▁Bayern	-10.1135
▁Ty	-10.1145
▁dinner	-10.1146
▁Medical	-10.1146
▁witness	-10.1149
▁survived	-10.1151
▁species	-10.1152
▁tie	-10.1152
▁luxury	-10.1156
▁beauty	-10.1163
unch	-10.1165
▁3.	-10.1168
▁wheel	-10.1171
▁breach	-10.1173
worth	-10.1176
▁Ce	-10.1176
▁44	-10.1179
tel	-10.1185
▁j	-10.1187
▁Hay	-10.1188
▁split	-10.1191
ock	-10.1198
▁rat	-10.12
▁influence	-10.1203
▁receiving	-10.1203
▁Sho	-10.1203
ically	-10.1205
▁Dis	-10.1209
▁rushed	-10.121
▁related	-10.1213
dal	-10.1227
▁perform	-10.1229
▁net	-10.1233
▁Philip	-10.1234
▁expressed	-10.1235
▁heat	-10.1236
▁Kelly	-10.1241
▁plot	-10.1242
hr	-10.1249
▁sky	-10.1254
▁suspects	-10.1255
▁auto	-10.1257
▁Ford	-10.126
itt	-10.1262
▁hero	-10.1262
▁bat	-10.1269
▁duty	-10.1277
For	-10.1277
▁criticism	-10.1278
▁generation	-10.128
▁Wenger	-10.128
▁su	-10.1284
▁£5	-10.1284
▁advice	-10.1287
▁Wal	-10.1291
▁Lin	-10.1294
lb	-10.1297
▁ambulance	-10.1301
▁flee	-10.1304
▁41	-10.1307
▁infection	-10.1308
▁prepared	-10.1315
▁Out	-10.1318
▁Hart	-10.1319
▁Morgan	-10.1324
▁stretch	-10.1325
▁drove	-10.1325
hour	-10.1328
▁Agency	-10.1333
▁simple	-10.1333
▁wounded	-10.1333
▁Roger	-10.1335
▁regime	-10.1339
▁photographs	-10.1342
▁places	-10.1345
▁agree	-10.1349
▁listen	-10.135
▁Sta	-10.135
▁exactly	-10.1356
▁learned	-10.136
▁proposal	-10.1361
▁Northern	-10.1367
ky	-10.1368
▁questioned	-10.1369
▁cool	-10.1371
del	-10.1374
▁Test	-10.1382
▁Phil	-10.1399
▁killer	-10.14
▁unique	-10.1401
▁Football	-10.1417
▁Gary	-10.1417
▁Children	-10.1417
▁repeatedly	-10.1419
▁engineer	-10.142
▁Rock	-10.1425
▁fears	-10.1426
▁$5	-10.1428
▁Cat	-10.1428
employ	-10.1428
gro	-10.1432
▁Qaeda	-10.1435
▁enforcement	-10.1448
14	-10.1457
▁champions	-10.1463
▁bright	-10.1466
▁Ministry	-10.1467
grad	-10.1468
▁beyond	-10.1469
▁1,	-10.147
▁urged	-10.1473
▁setting	-10.1474
▁Luis	-10.1476
▁resort	-10.1482
▁roof	-10.1482
▁stands	-10.1488
▁shark	-10.1494
ched	-10.1497
▁Wayne	-10.1503
▁youngster	-10.1504
▁guy	-10.1507
ini	-10.1508
▁secure	-10.1521
▁emotional	-10.1522
▁Navy	-10.1522
▁pin	-10.1523
ering	-10.1526
▁Davis	-10.153
▁adults	-10.1531
▁Western	-10.1535
▁immigration	-10.1536
▁protests	-10.1541
wan	-10.1562
▁arrive	-10.1562
cept	-10.1562
▁46	-10.1562
dia	-10.157
▁weapon	-10.1571
▁FIFA	-10.1573
▁society	-10.1575
▁landing	-10.1576
▁tight	-10.1578
▁devices	-10.1581
read	-10.1584
▁2016	-10.1585
more	-10.1586
press	-10.1592
▁sending	-10.1593
▁Miller	-10.1598
▁Rose	-10.1599
▁featured	-10.1604
▁Yorkshire	-10.1608
?"	-10.161
▁bird	-10.162
▁joke	-10.1623
▁Human	-10.1623
cra	-10.1628
mis	-10.1631
ctor	-10.1631
▁allowing	-10.1634
ld	-10.1635
▁employee	-10.1636
▁militants	-10.1636
▁Matthew	-10.1649
▁Bell	-10.1653
▁stadium	-10.1663
mic	-10.167
▁uses	-10.1672
▁Ukraine	-10.1679
▁mi	-10.1679
▁sites	-10.168
▁mayor	-10.1681
▁books	-10.1683
▁declared	-10.1683
▁Internet	-10.1683
12	-10.1689
▁MPs	-10.169
▁prize	-10.1695
style	-10.1699
▁fatal	-10.1708
izing	-10.1712
▁incredible	-10.1713
▁Scottish	-10.1722
▁rent	-10.1722
▁Student	-10.1724
▁rates	-10.1725
▁Leicester	-10.1726
▁goalkeeper	-10.1727
ero	-10.1729
▁Sheriff	-10.173
▁handle	-10.1734
▁Nu	-10.1735
ters	-10.1738
▁enter	-10.1739
▁mine	-10.1742
▁Pen	-10.1747
▁dad	-10.1747
▁confidence	-10.1748
▁switch	-10.1754
▁ABC	-10.1755
▁ticket	-10.1757
▁Spe	-10.1758
▁shots	-10.1764
bri	-10.1766
▁nice	-10.1767
ova	-10.177
kh	-10.1777
▁surrounding	-10.1778
▁religious	-10.1779
til	-10.1787
▁upon	-10.1792
▁clubs	-10.1795
▁suggest	-10.18
wing	-10.1803
▁Gold	-10.1805
▁Ber	-10.1805
▁opponent	-10.1813
▁Tra	-10.1815
een	-10.1816
▁protesters	-10.1817
▁additional	-10.1818
▁explosion	-10.1821
▁Ban	-10.1823
away	-10.1825
▁flights	-10.1826
▁dance	-10.1828
▁twin	-10.183
▁retired	-10.1834
▁Cle	-10.1834
ski	-10.1841
▁enjoyed	-10.1842
▁Arizona	-10.1849
▁blame	-10.1851
▁volunteer	-10.1851
▁Sand	-10.1859
▁mouth	-10.1864
▁Professor	-10.1865
iff	-10.1866
▁guests	-10.1868
▁55	-10.1869
▁bone	-10.1874
▁saved	-10.1877
vol	-10.1887
▁insists	-10.1893
▁Research	-10.19
▁Evans	-10.1902
fo	-10.1904
▁Melbourne	-10.1905
▁originally	-10.1906
ria	-10.1908
▁wore	-10.1909
▁announcement	-10.191
ix	-10.1913
▁dressed	-10.1919
▁facility	-10.1924
▁2001	-10.1928
take	-10.193
▁vessel	-10.1932
▁Gre	-10.1932
▁governor	-10.1935
▁tiny	-10.194
▁wake	-10.1948
▁protection	-10.1949
▁Has	-10.1954
▁ear	-10.1958
▁Str	-10.1959
▁bombing	-10.196
rank	-10.1961
▁landed	-10.1962
star	-10.1965
▁damaged	-10.197
dom	-10.1976
▁Oscar	-10.1976
▁warn	-10.1983
▁develop	-10.1984
▁tackle	-10.1984
ok	-10.1985
▁multi	-10.199
▁Colorado	-10.1994
rum	-10.1999
▁haven	-10.2006
▁plastic	-10.2006
▁angry	-10.2007
▁Euro	-10.2008
▁Cook	-10.2009
▁defendant	-10.2011
▁maintain	-10.2014
ened	-10.2017
▁Mother	-10.2017
▁introduced	-10.2019
▁$4	-10.2022
▁2002	-10.2024
ott	-10.204
▁environment	-10.2041
▁Bull	-10.2044
▁secretary	-10.2047
▁hunt	-10.2052
▁Cho	-10.2053
▁chemical	-10.2059
▁dating	-10.2062
avi	-10.2063
▁Six	-10.2065
▁DNA	-10.2065
▁Kent	-10.2065
▁trans	-10.2066
▁parent	-10.2069
▁Iraqi	-10.2073
▁sources	-10.2078
▁2-1	-10.2089
▁Atlanta	-10.209
▁wine	-10.209
▁Blue	-10.2091
▁Ferguson	-10.2096
▁stories	-10.2096
▁sparked	-10.2107
point	-10.2109
ram	-10.2114
▁Marine	-10.2117
aging	-10.2127
▁owned	-10.213
▁confident	-10.2134
▁recovered	-10.214
▁Bel	-10.214
▁Hull	-10.2141
▁conversation	-10.2144
At	-10.2145
fin	-10.2153
▁Angel	-10.2154
ks	-10.2158
▁busy	-10.2158
▁determine	-10.2162
▁fat	-10.2164
▁stock	-10.2175
▁tend	-10.2175
▁affiliate	-10.2177
▁Hong	-10.2177
ried	-10.2184
▁Commission	-10.2186
▁Ross	-10.2188
▁contacted	-10.2189
▁Rio	-10.219
▁Spi	-10.2196
▁Wall	-10.2199
▁bridge	-10.2202
▁From	-10.2206
▁episode	-10.2208
▁Stoke	-10.221
▁section	-10.2211
▁Mexican	-10.2237
▁cuts	-10.2239
▁Show	-10.2243
ama	-10.2244
▁rich	-10.2247
▁Afghan	-10.2247
▁stuff	-10.2251
▁Centre	-10.2253
▁cup	-10.2255
final	-10.2257
4,000	-10.2261
▁wood	-10.2263
▁bond	-10.2264
▁particular	-10.2264
▁laugh	-10.2269
▁4.	-10.2271
▁Committee	-10.2274
▁Officials	-10.2275
▁drone	-10.2275
▁standards	-10.2276
yl	-10.2279
▁viewers	-10.228
▁Sport	-10.2283
▁Supreme	-10.2299
▁advantage	-10.2299
▁planet	-10.23
▁detect	-10.2302
▁desperate	-10.2303
▁kitchen	-10.2304
▁tourists	-10.2305
▁Saudi	-10.2312
▁direct	-10.2313
▁Kong	-10.232
▁Hotel	-10.2324
shi	-10.2329
▁located	-10.2331
▁Ohio	-10.2333
▁Cra	-10.2333
▁encourage	-10.2338
▁deadly	-10.2342
▁candidate	-10.2344
▁Sunderland	-10.2345
▁afford	-10.2346
▁Pra	-10.2348
▁reading	-10.2353
▁£7	-10.2355
▁Work	-10.2357
matic	-10.2357
tric	-10.2358
gent	-10.2367
▁blog	-10.2368
▁GP	-10.237
▁anniversary	-10.2373
▁500	-10.2377
▁army	-10.238
▁chest	-10.2386
▁Ball	-10.2392
▁Turkey	-10.2398
▁Tro	-10.2398
ches	-10.2399
ique	-10.2401
▁metal	-10.2403
▁worried	-10.2411
▁300	-10.2412
▁Women	-10.2414
▁assist	-10.2419
▁painting	-10.2419
▁disaster	-10.2421
▁Wo	-10.2423
▁profit	-10.2425
bil	-10.2425
▁1-0	-10.2426
▁income	-10.2426
rich	-10.2438
▁performed	-10.2444
▁soldier	-10.2444
▁49	-10.2445
▁monitor	-10.2445
ore	-10.2451
▁profile	-10.2453
▁suspicion	-10.2455
▁Harris	-10.2463
▁47	-10.2464
▁Ken	-10.2464
▁joint	-10.2471
▁regularly	-10.2471
▁sexually	-10.2472
▁parking	-10.2472
▁marijuana	-10.2481
▁scar	-10.2484
▁notice	-10.2486
▁struggled	-10.2488
▁Foreign	-10.2489
rry	-10.2493
▁Ye	-10.2497
▁lucky	-10.2503
▁Francisco	-10.2507
▁Shi	-10.2512
▁prepare	-10.2514
▁ha	-10.2515
▁Brian	-10.2519
All	-10.2527
▁Char	-10.2531
▁Swansea	-10.2532
▁travelling	-10.2534
wear	-10.2535
▁status	-10.2539
▁task	-10.2539
▁meat	-10.254
▁correct	-10.2541
sey	-10.2543
vid	-10.2545
▁Democratic	-10.2546
▁breath	-10.2546
▁edge	-10.2549
Le	-10.2557
▁recruit	-10.2564
eg	-10.2573
▁Also	-10.2576
hill	-10.2577
▁opt	-10.2579
▁Egypt	-10.2579
▁Rodgers	-10.2584
▁diver	-10.2586
▁earn	-10.2593
iest	-10.2595
▁Law	-10.2598
▁Jim	-10.2609
▁stood	-10.261
Z	-10.261
ric	-10.2612
week	-10.2612
lk	-10.2613
ddle	-10.2613
aries	-10.262
▁seed	-10.2621
▁citizens	-10.2622
▁models	-10.2625
▁boot	-10.2626
put	-10.2629
▁spin	-10.263
▁complained	-10.264
▁clip	-10.2641
▁pub	-10.2643
▁interested	-10.2646
▁map	-10.2647
▁Those	-10.2651
▁absolutely	-10.2653
▁turning	-10.2655
▁Nico	-10.2662
▁stabbed	-10.2664
▁breaking	-10.2671
place	-10.2683
wel	-10.2683
▁colleagues	-10.2684
▁lines	-10.2687
▁prior	-10.27
▁insurance	-10.2701
▁Only	-10.2707
▁crack	-10.2709
▁Ze	-10.2712
▁lit	-10.2715
6,000	-10.2715
▁stores	-10.2718
▁fallen	-10.2719
▁20-	-10.272
▁fake	-10.2725
▁broadcast	-10.2728
▁babies	-10.2729
▁agents	-10.2734
▁Top	-10.2735
gate	-10.2736
pon	-10.2736
▁Abu	-10.2737
▁structure	-10.2746
▁cameras	-10.2756
▁Anderson	-10.2757
▁Call	-10.2762
room	-10.2764
▁Team	-10.2766
war	-10.2769
▁toward	-10.277
▁hasn	-10.2772
▁argument	-10.2773
▁allows	-10.2777
▁voters	-10.2779
▁65	-10.278
▁NBC	-10.2781
era	-10.2781
▁writing	-10.2781
▁bra	-10.2783
▁tea	-10.2784
▁counter	-10.2784
gel	-10.2784
▁See	-10.2785
▁strip	-10.2787
▁commission	-10.2788
▁bringing	-10.2789
▁investigate	-10.279
▁destroyed	-10.2793
▁Olympics	-10.2793
cus	-10.2796
▁suggests	-10.2796
▁CCTV	-10.2797
ola	-10.2802
▁McG	-10.281
Re	-10.2817
▁celebrates	-10.2819
▁Jan	-10.282
ssa	-10.2821
▁outrage	-10.2826
▁18-	-10.2831
▁Sto	-10.2832
▁noticed	-10.2833
▁Ian	-10.2833
▁Arab	-10.2846
▁pushed	-10.2846
▁cook	-10.2847
▁bull	-10.2848
night	-10.2849
▁Dem	-10.2851
▁supposed	-10.2851
eb	-10.2859
▁directly	-10.286
▁Bob	-10.2861
related	-10.2862
▁deserve	-10.2863
ila	-10.2866
▁album	-10.2868
▁fill	-10.2871
▁Santa	-10.2875
▁file	-10.2877
minute	-10.2878
▁representative	-10.2879
▁mum	-10.2881
▁Brazilian	-10.2883
▁stuck	-10.2891
▁management	-10.2898
▁bullet	-10.2899
ify	-10.2912
▁spell	-10.2916
13	-10.2917
▁visiting	-10.292
▁investment	-10.2921
▁escaped	-10.2925
▁Ph	-10.2928
▁Va	-10.2929
▁tragic	-10.2932
▁NFL	-10.2934
zy	-10.2938
rac	-10.2939
▁replace	-10.2941
▁Institute	-10.2945
▁promise	-10.2946
ira	-10.2948
▁scan	-10.2954
▁deputy	-10.2959
▁celebration	-10.2968
▁complaints	-10.297
▁customer	-10.2974
▁ongoing	-10.2974
▁2000	-10.2978
▁Canadian	-10.2979
▁Cro	-10.2999
▁zone	-10.2999
pha	-10.3002
▁shoulder	-10.3019
▁relatives	-10.3024
▁initial	-10.3026
▁inches	-10.3038
▁Well	-10.304
turn	-10.3044
▁outfit	-10.3045
round	-10.3046
▁rivals	-10.3047
▁2011,	-10.3048
▁tank	-10.305
▁Mayor	-10.3052
▁neighborhood	-10.3058
▁steps	-10.3061
▁Airlines	-10.3069
▁2-0	-10.3078
▁admits	-10.3079
▁24-	-10.308
▁occasion	-10.3082
▁Manhattan	-10.3082
▁circumstances	-10.3096
▁option	-10.3097
▁friendly	-10.3104
▁chair	-10.3104
water	-10.3105
rif	-10.3108
▁rejected	-10.311
▁Brit	-10.3112
▁application	-10.3121
▁Local	-10.3123
ena	-10.313
▁prosecutor	-10.3132
▁Ray	-10.3135
town	-10.3137
degree	-10.3137
Q	-10.3139
▁arrival	-10.3141
▁accounts	-10.3141
▁Elizabeth	-10.3144
▁earned	-10.3144
▁blamed	-10.3145
▁flow	-10.3152
▁disorder	-10.3153
▁tragedy	-10.3162
▁smartphone	-10.3162
▁shift	-10.3169
▁Chan	-10.3176
▁offences	-10.3177
nger	-10.3181
bert	-10.3183
▁experienced	-10.3186
under	-10.3186
▁appearances	-10.3189
▁Trafford	-10.3189
▁understood	-10.3192
▁lunch	-10.3197
▁scale	-10.32
▁£8	-10.3209
▁rescued	-10.321
▁encounter	-10.321
▁providing	-10.321
▁pieces	-10.3215
▁offender	-10.3217
▁react	-10.322
▁thrown	-10.3221
▁Reg	-10.3223
▁temperatures	-10.3233
ison	-10.3234
▁boast	-10.3235
▁micro	-10.3236
▁permanent	-10.3237
▁skills	-10.3239
▁remote	-10.324
▁Stone	-10.3241
▁limited	-10.3252
def	-10.3259
▁Watson	-10.3263
▁impressive	-10.3264
bal	-10.3269
▁activities	-10.327
illa	-10.3272
hur	-10.3276
gal	-10.3276
▁testing	-10.3277
▁Hunt	-10.3283
▁proved	-10.3284
▁Jay	-10.3293
fu	-10.3295
▁welcome	-10.3299
▁lawyers	-10.3301
▁withdraw	-10.3305
▁wing	-10.3305
▁Rome	-10.3306
xi	-10.3306
▁spoken	-10.3306
▁Defense	-10.3307
▁identity	-10.3309
16	-10.3309
▁Allen	-10.3311
ux	-10.3316
▁knows	-10.3328
▁Clark	-10.3331
▁acting	-10.3333
▁sum	-10.3338
▁feed	-10.335
▁producer	-10.335
Ha	-10.3351
▁Love	-10.3355
▁PM	-10.3356
▁Henry	-10.336
atory	-10.3362
▁52	-10.3365
▁Bon	-10.3367
dent	-10.3372
▁lying	-10.3373
▁guide	-10.3381
aught	-10.3381
▁witnesses	-10.3382
▁Sports	-10.3383
▁elections	-10.3384
▁Fre	-10.3384
▁teenage	-10.3387
pel	-10.3388
ily	-10.339
fall	-10.339
▁75	-10.339
rey	-10.3393
▁Down	-10.3393
▁threats	-10.3395
▁classic	-10.3395
▁conducted	-10.3397
▁Rick	-10.34
▁elderly	-10.3402
▁nose	-10.3404
lla	-10.3404
▁faith	-10.3407
▁quiet	-10.3409
▁clothing	-10.3414
▁creating	-10.3416
▁findings	-10.343
▁occur	-10.3433
▁Mario	-10.3435
▁wave	-10.3436
cut	-10.3437
▁swimming	-10.3438
fil	-10.3438
▁Life	-10.344
▁label	-10.3441
▁Kennedy	-10.3442
▁memory	-10.3442
▁Plan	-10.3443
▁Republic	-10.3444
▁larger	-10.3446
American	-10.345
▁2012,	-10.3455
▁Cam	-10.3457
▁journalist	-10.3462
▁5.	-10.3465
▁vice	-10.3467
▁distance	-10.3468
▁tennis	-10.3468
▁1990	-10.347
17	-10.3471
▁Munich	-10.3477
▁seized	-10.3484
▁yellow	-10.3484
▁grandmother	-10.3491
▁editor	-10.3494
▁criticised	-10.3494
2,000	-10.3496
fully	-10.3497
▁theft	-10.3497
▁housing	-10.3501
▁jumped	-10.3504
vy	-10.3506
▁Terry	-10.3506
▁effects	-10.351
▁freedom	-10.3515
▁expand	-10.3517
▁Officers	-10.352
▁moments	-10.352
▁Khan	-10.3523
sex	-10.3531
ished	-10.3534
▁Roy	-10.3536
non	-10.3538
▁10-	-10.354
▁accepted	-10.3541
▁supply	-10.3545
▁Marc	-10.3547
▁Stan	-10.3549
▁Pakistani	-10.3551
▁cop	-10.3558
▁pupils	-10.3566
▁suburb	-10.3569
▁replaced	-10.3569
▁Michelle	-10.357
▁Saint	-10.3574
▁Joseph	-10.3577
▁Trust	-10.3578
▁Asia	-10.3578
▁direction	-10.3579
▁Lady	-10.358
▁lock	-10.358
▁except	-10.3581
▁Then	-10.3582
gram	-10.3583
▁argued	-10.3583
▁choose	-10.3583
▁Moscow	-10.3586
▁proposed	-10.3586
▁background	-10.359
▁error	-10.359
▁bigger	-10.359
din	-10.3592
▁Bal	-10.3593
▁Irish	-10.3593
▁holds	-10.3596
These	-10.3597
▁routine	-10.3598
▁overall	-10.3599
▁collapsed	-10.3599
▁rising	-10.36
▁brief	-10.3601
▁denies	-10.3608
▁Jason	-10.361
▁About	-10.3611
coming	-10.3612
▁reveals	-10.3612
lash	-10.3614
▁branch	-10.3619
ban	-10.3625
▁specific	-10.3628
▁arrange	-10.3629
▁Brook	-10.3639
▁communication	-10.3641
▁eastern	-10.3642
▁grave	-10.3643
▁weak	-10.3648
▁toilet	-10.365
sky	-10.3652
▁depend	-10.3653
▁grew	-10.3654
▁perhaps	-10.3655
▁saving	-10.3657
▁package	-10.366
▁necessary	-10.3665
▁predict	-10.3666
▁Iranian	-10.3668
▁businesses	-10.3674
▁considering	-10.3674
▁Nor	-10.3675
py	-10.3685
▁Carl	-10.3687
▁Met	-10.3688
▁Carlo	-10.3689
▁Ashley	-10.369
▁awarded	-10.3697
▁worry	-10.3698
▁Pennsylvania	-10.3703
▁15-	-10.3703
▁presenter	-10.3706
▁Patrick	-10.3709
▁dozens	-10.3717
Th	-10.372
▁taste	-10.372
▁trained	-10.3726
▁Massachusetts	-10.373
▁knock	-10.3731
zer	-10.3735
▁warrant	-10.3736
how	-10.3737
▁sweet	-10.3737
▁Q	-10.3742
▁silver	-10.3744
stitution	-10.3746
▁celebrity	-10.3749
▁Vegas	-10.3749
▁Putin	-10.375
bit	-10.3755
▁resident	-10.3757
▁balance	-10.3761
▁buildings	-10.3765
▁Cross	-10.3766
▁Moore	-10.3774
lish	-10.3777
stat	-10.378
▁cocaine	-10.3783
▁mix	-10.379
▁referee	-10.3791
clo	-10.3791
ado	-10.3793
▁intended	-10.3793
▁tablet	-10.3794
▁Fort	-10.3798
ew	-10.3798
zo	-10.3803
▁surprised	-10.3805
▁tested	-10.3806
ement	-10.3806
▁rocket	-10.3807
▁coffee	-10.3807
▁anger	-10.3809
▁Duchess	-10.381
▁zoo	-10.3816
▁Detective	-10.3817
▁Holland	-10.3822
play	-10.3823
▁Before	-10.3824
▁12-	-10.3825
▁QPR	-10.3827
▁disappeared	-10.3827
▁Cooper	-10.3827
▁construction	-10.3827
▁stunning	-10.3841
rain	-10.3842
▁strength	-10.3845
▁Robin	-10.3846
▁channel	-10.3846
▁string	-10.3852
▁gym	-10.3854
hop	-10.3864
▁calm	-10.3864
▁Foundation	-10.3865
▁iPad	-10.3868
▁Princess	-10.3869
▁household	-10.3871
ification	-10.3873
▁Beijing	-10.3873
▁Ser	-10.3874
▁Federal	-10.3878
▁remaining	-10.388
▁estimate	-10.3884
▁Palestinian	-10.3885
▁dismissed	-10.3892
▁unlikely	-10.39
▁fur	-10.39
▁Ve	-10.3902
▁greater	-10.3905
▁abandoned	-10.3907
▁fought	-10.3907
▁wage	-10.3908
▁worldwide	-10.391
▁behavior	-10.3915
▁Del	-10.3918
▁wonder	-10.3921
char	-10.3923
▁Channel	-10.3924
▁Land	-10.3925
▁code	-10.3925
elle	-10.3926
ille	-10.3939
▁attempts	-10.3941
▁presence	-10.3959
▁knocked	-10.3961
▁pal	-10.3962
test	-10.3964
▁drunk	-10.3967
60	-10.3969
▁Er	-10.397
▁ways	-10.397
▁Francis	-10.3974
▁Pla	-10.3981
▁Arm	-10.3986
▁Free	-10.3987
▁Valley	-10.3993
▁chase	-10.3995
▁phones	-10.3997
▁developing	-10.3998
▁delivered	-10.3999
mond	-10.4002
▁Houston	-10.4011
▁51	-10.4012
▁Aston	-10.4013
centre	-10.4018
▁sought	-10.4019
ied	-10.4022
▁Sterling	-10.4024
▁Ten	-10.4029
▁Was	-10.403
▁Parliament	-10.4031
rup	-10.4038
▁height	-10.4042
some	-10.4045
ffer	-10.4045
get	-10.4053
west	-10.4054
▁bathroom	-10.4054
▁leadership	-10.4057
▁leaves	-10.4058
8,000	-10.4061
▁closer	-10.4066
▁tickets	-10.4067
chan	-10.4067
▁Guard	-10.4068
▁Balotelli	-10.4071
▁Public	-10.4071
▁Cole	-10.4072
▁easily	-10.4073
▁Graham	-10.4074
▁heading	-10.4075
cro	-10.4075
▁Ol	-10.4083
▁mom	-10.4086
▁square	-10.4093
▁USA	-10.4095
▁verdict	-10.4103
▁tied	-10.4105
▁Report	-10.4106
ace	-10.4107
ridge	-10.4111
▁climate	-10.4111
▁Romney	-10.4111
▁changing	-10.4112
poli	-10.4116
▁trees	-10.4123
▁Dy	-10.4123
▁causes	-10.4123
▁festival	-10.4126
▁Anna	-10.4127
ister	-10.4134
▁mile	-10.4141
▁Democrats	-10.4143
▁Robinson	-10.4145
table	-10.4145
▁Spring	-10.4148
▁1980	-10.4149
▁Town	-10.4149
▁transform	-10.4152
▁hack	-10.4153
▁Instead	-10.4157
01	-10.4166
▁port	-10.4167
▁sixth	-10.4172
▁dramatic	-10.4174
▁Ann	-10.4174
▁quit	-10.4178
▁explosive	-10.4179
▁combat	-10.4182
▁alarm	-10.4182
▁apart	-10.4182
▁Las	-10.4182
▁feels	-10.4183
▁funds	-10.4185
▁effective	-10.4185
lets	-10.4188
▁lung	-10.4188
▁lie	-10.419
▁2010,	-10.419
▁cards	-10.419
▁II	-10.4192
▁6.	-10.4194
▁Pope	-10.4194
gle	-10.4194
▁recommend	-10.4194
▁neighbour	-10.4196
nan	-10.4196
▁Atletico	-10.4197
ending	-10.4203
▁wins	-10.421
▁odd	-10.421
▁bars	-10.4212
▁brutal	-10.4212
ele	-10.4214
▁tattoo	-10.4214
▁degree	-10.4216
▁Jon	-10.4217
▁Time	-10.4218
▁buying	-10.4222
▁legend	-10.4223
found	-10.4224
▁bench	-10.4226
▁approved	-10.4227
▁shoes	-10.4228
▁Phillip	-10.423
aunt	-10.4234
ich	-10.4238
▁license	-10.424
▁unveiled	-10.4242
▁surveillance	-10.4247
▁detained	-10.4247
▁Jane	-10.4248
▁immediate	-10.4249
she	-10.4257
▁follows	-10.4258
gh	-10.4258
ties	-10.4258
▁Craig	-10.426
▁Researchers	-10.4262
▁Jen	-10.4262
▁sorry	-10.4265
▁operating	-10.4265
▁comm	-10.4267
shed	-10.4268
▁Comp	-10.427
▁Jamie	-10.4275
▁Essex	-10.4276
meter	-10.4276
▁Asian	-10.4279
▁Alexander	-10.428
▁Bor	-10.4284
▁prosecution	-10.4286
▁hitting	-10.4294
▁Jean	-10.4296
▁fee	-10.4299
▁waste	-10.4302
▁Max	-10.4304
▁lights	-10.4305
▁supermarket	-10.4306
▁potentially	-10.4307
▁funding	-10.4308
▁purpose	-10.4309
▁standard	-10.431
▁filled	-10.4314
CA	-10.4316
▁25-	-10.4318
▁championship	-10.4324
▁fitness	-10.4326
▁Shar	-10.4328
▁creature	-10.4329
▁joining	-10.433
▁passing	-10.4331
▁historic	-10.4333
▁increasingly	-10.4336
▁Cardiff	-10.4339
▁headed	-10.4339
▁dollars	-10.4339
mat	-10.4341
▁posting	-10.4343
▁Danny	-10.4344
▁graduate	-10.4344
▁reward	-10.4344
power	-10.4346
▁presented	-10.4349
▁Republicans	-10.4352
▁threw	-10.4355
▁Sorry	-10.4355
▁buried	-10.4355
▁extreme	-10.4357
▁specialist	-10.4357
▁Thi	-10.4358
▁Water	-10.4362
▁Justin	-10.4364
▁150	-10.4365
▁symptoms	-10.4368
▁sides	-10.4369
▁Leeds	-10.4371
▁maybe	-10.4372
▁kiss	-10.4373
▁signal	-10.4382
▁spring	-10.4382
bla	-10.439
▁Sh	-10.4392
▁fruit	-10.4393
▁Woods	-10.4396
▁23,	-10.4397
▁Jonathan	-10.4404
rog	-10.4407
▁taxpayer	-10.4411
▁honour	-10.4414
▁shelter	-10.4414
▁trick	-10.4415
▁25,	-10.4416
▁voted	-10.4423
▁Miliband	-10.4429
▁definitely	-10.4432
▁followers	-10.4434
▁Indonesia	-10.4442
▁Sl	-10.4448
▁gathered	-10.4448
▁Mars	-10.4449
▁wound	-10.4453
▁16-	-10.4456
▁Charlie	-10.4459
▁alert	-10.4459
imp	-10.4463
empt	-10.4464
▁approached	-10.4466
▁patrol	-10.4468
▁spa	-10.4472
▁Wimbledon	-10.4479
▁Christopher	-10.4481
nar	-10.4482
▁learning	-10.4487
▁Fri	-10.4487
try	-10.4489
dra	-10.4494
▁express	-10.4498
Co	-10.4498
▁54	-10.4503
▁gene	-10.451
▁investigated	-10.451
▁Doctors	-10.4511
▁gap	-10.4512
rov	-10.452
▁tomorrow	-10.4521
cott	-10.4523
▁listed	-10.4523
▁recall	-10.4525
mann	-10.453
▁prefer	-10.4532
▁videos	-10.4537
▁trapped	-10.4542
▁individuals	-10.4544
▁chances	-10.4546
▁knowledge	-10.4549
▁Mad	-10.4553
eu	-10.4554
ime	-10.4554
▁excited	-10.4557
▁hang	-10.4558
▁solution	-10.456
▁personnel	-10.4561
▁53	-10.4563
hel	-10.4565
▁robbery	-10.4567
▁Here	-10.4567
▁defend	-10.4568
▁numerous	-10.4581
▁science	-10.4583
Do	-10.4585
▁Scientists	-10.4589
▁22,	-10.4594
▁appropriate	-10.4594
18	-10.4596
▁Prosecutors	-10.4598
▁Gerrard	-10.4599
▁grab	-10.4601
▁bags	-10.4601
▁Michigan	-10.4602
part	-10.4602
▁chat	-10.4604
▁hoped	-10.4605
▁teachers	-10.4605
sley	-10.4611
▁Yu	-10.4613
rant	-10.4613
▁Radio	-10.4613
▁Catholic	-10.4618
▁Jennifer	-10.4618
▁destination	-10.4618
▁granted	-10.4618
▁founder	-10.4619
▁museum	-10.4623
▁staying	-10.4624
▁threatening	-10.4628
▁Conservative	-10.4628
▁negative	-10.4631
▁Rod	-10.4636
▁24,	-10.4642
▁Five	-10.4645
yo	-10.4648
file	-10.4649
▁Jr	-10.465
▁driven	-10.4658
struct	-10.4658
rew	-10.4658
▁hall	-10.4662
▁flew	-10.4663
▁pose	-10.4665
▁compensation	-10.4671
▁Sur	-10.4676
▁favorite	-10.468
▁Gro	-10.4681
book	-10.4684
▁platform	-10.4702
▁offensive	-10.4702
22	-10.4704
▁smaller	-10.4705
lee	-10.4719
▁plays	-10.4723
▁establish	-10.4724
▁snap	-10.4725
▁uniform	-10.4726
▁Kar	-10.4727
▁Roma	-10.4728
▁26,	-10.4728
cen	-10.4729
duct	-10.4731
▁possibility	-10.4732
▁Nigeria	-10.4732
7,000	-10.4732
▁Campbell	-10.4734
▁Ker	-10.4741
▁attract	-10.4742
▁primary	-10.4742
▁Head	-10.4743
▁Luc	-10.4744
▁inquest	-10.4745
▁remind	-10.4747
▁inquiry	-10.4748
▁professor	-10.4761
▁tape	-10.4764
▁Oxford	-10.4764
▁reduced	-10.4767
▁promised	-10.4769
▁Space	-10.4771
▁stepped	-10.4773
ita	-10.4773
▁seats	-10.4774
▁kicked	-10.478
▁Dun	-10.4782
▁acts	-10.4783
▁winds	-10.4784
▁fighters	-10.479
two	-10.4793
▁30-	-10.4793
▁Hor	-10.4794
MA	-10.4794
▁missile	-10.4795
▁widely	-10.4795
▁Emma	-10.4801
sure	-10.4804
▁AC	-10.4807
▁27,	-10.4809
▁brothers	-10.481
▁defending	-10.4817
mili	-10.4818
▁Lea	-10.4818
▁native	-10.4826
▁911	-10.4826
▁exclusive	-10.4826
▁offence	-10.4831
▁increasing	-10.4834
▁policies	-10.4836
▁posed	-10.4842
▁doll	-10.4844
ole	-10.4848
▁Mel	-10.4848
▁survive	-10.4849
▁Experts	-10.4853
▁locked	-10.4856
▁Among	-10.4857
▁scores	-10.486
▁Walker	-10.4861
guard	-10.4869
cial	-10.4874
▁Inc	-10.4874
▁intention	-10.4877
▁function	-10.4878
▁Rodriguez	-10.4882
▁Girl	-10.4883
▁rose	-10.4884
▁climb	-10.4885
cla	-10.4886
▁cloud	-10.4888
season	-10.4888
made	-10.4888
▁throw	-10.4894
▁journalists	-10.4894
eng	-10.4898
mel	-10.49
▁Little	-10.4901
▁pan	-10.4903
eller	-10.4904
▁unclear	-10.4911
ching	-10.4912
▁cub	-10.4918
Be	-10.4918
▁sand	-10.4919
itch	-10.4919
▁Ger	-10.4922
People	-10.4923
▁whale	-10.4924
leg	-10.4926
▁unknown	-10.4927
▁guns	-10.4927
bre	-10.4928
bin	-10.4928
▁method	-10.4931
▁Fur	-10.4936
▁pill	-10.4942
▁NASA	-10.4948
▁56	-10.495
▁color	-10.4951
▁discovery	-10.4953
boy	-10.4956
21	-10.4962
▁searching	-10.4963
▁frame	-10.4965
▁Care	-10.4965
▁Corp	-10.4966
▁stayed	-10.497
▁Who	-10.497
▁apply	-10.4972
▁Back	-10.4975
▁stomach	-10.4975
weight	-10.4976
▁permission	-10.4979
▁Hernandez	-10.498
▁prospect	-10.4983
augh	-10.4985
▁5-	-10.4985
▁involve	-10.4988
aff	-10.499
▁17-	-10.4996
▁fame	-10.4998
▁Helen	-10.5
▁Portugal	-10.5005
wick	-10.5007
▁experiment	-10.501
▁privacy	-10.501
▁teeth	-10.501
▁novel	-10.5013
▁stole	-10.5013
▁drama	-10.5017
▁clinic	-10.503
▁politics	-10.5032
▁aren	-10.5033
▁outbreak	-10.5033
▁Key	-10.5033
▁controversy	-10.5035
nut	-10.5044
dale	-10.5047
hum	-10.5047
▁purchase	-10.5048
▁Ram	-10.5049
▁internal	-10.5052
▁exit	-10.5054
▁spokesperson	-10.5057
▁pot	-10.5058
wed	-10.506
20,000	-10.5068
▁grown	-10.5072
▁Power	-10.5076
ency	-10.5079
ei	-10.5084
▁Whit	-10.5086
▁comfort	-10.5087
ddy	-10.5087
▁organisation	-10.5088
bon	-10.5088
▁21,	-10.509
▁Gordon	-10.5091
▁films	-10.5093
▁moon	-10.5093
▁Second	-10.5096
▁Serie	-10.5097
▁birds	-10.5098
▁crown	-10.5098
▁plus	-10.5099
▁Ven	-10.51
▁Part	-10.5105
crib	-10.5109
▁Live	-10.5112
▁abroad	-10.5113
▁cheer	-10.5113
▁element	-10.5113
▁deter	-10.5114
▁favour	-10.5117
▁focused	-10.5124
▁daughters	-10.5124
▁Roll	-10.5126
80	-10.5138
but	-10.5141
▁vet	-10.5147
▁invest	-10.5147
▁heavily	-10.5149
▁murdered	-10.5151
▁flash	-10.5153
TA	-10.5155
mun	-10.5156
▁iconic	-10.5161
▁aggressive	-10.5162
▁discussion	-10.5164
▁cruise	-10.5169
life	-10.5177
▁lady	-10.5181
view	-10.519
▁digital	-10.5191
▁Luke	-10.5191
▁Gulf	-10.5192
▁Brooklyn	-10.5193
▁chose	-10.5195
▁28,	-10.5197
▁prisoners	-10.5197
▁complain	-10.5198
▁Disney	-10.5198
▁enjoying	-10.52
▁2011.	-10.52
▁alternative	-10.5202
▁Amazon	-10.5204
▁pig	-10.5208
▁hate	-10.5209
fra	-10.5211
▁prompted	-10.5211
▁Martinez	-10.5212
▁Crime	-10.5218
▁hidden	-10.5218
▁incidents	-10.5221
key	-10.5221
▁Sher	-10.5224
zen	-10.5225
▁nor	-10.5228
▁gate	-10.523
▁manage	-10.5232
▁attacker	-10.5234
▁Shaw	-10.5241
▁feared	-10.5242
▁Yemen	-10.5248
▁Duke	-10.5251
▁Square	-10.5258
▁Each	-10.5258
▁mostly	-10.5258
▁Wil	-10.5263
▁repair	-10.527
▁mask	-10.5271
▁GOP	-10.5272
▁announce	-10.5273
▁era	-10.5275
▁Low	-10.5275
▁nations	-10.528
▁taxi	-10.5282
▁Crystal	-10.5283
now	-10.5289
▁recover	-10.529
▁Federer	-10.5291
cat	-10.5294
▁Belgium	-10.5294
▁options	-10.5308
▁attacking	-10.5316
▁Mid	-10.532
used	-10.5322
▁advert	-10.5327
▁exposed	-10.5329
95	-10.5332
ius	-10.5336
▁Celtic	-10.5337
▁Investigators	-10.534
▁Malaysia	-10.534
lain	-10.534
stein	-10.534
▁Dave	-10.5342
▁Dubai	-10.5342
▁paint	-10.5343
▁Rights	-10.5344
▁reputation	-10.5348
▁preparing	-10.5348
▁belong	-10.535
▁Carr	-10.5352
▁Cy	-10.5353
▁advance	-10.5354
▁command	-10.5357
cover	-10.5358
▁aimed	-10.5363
▁Edward	-10.5365
▁properly	-10.537
▁Thompson	-10.5371
▁Fair	-10.5371
▁exist	-10.5378
▁Staff	-10.5378
hol	-10.5379
On	-10.5381
▁Lib	-10.5384
▁battery	-10.5388
▁arch	-10.5388
▁23-	-10.5393
▁accepting	-10.5394
▁Pet	-10.5398
▁naked	-10.5398
zing	-10.5398
▁cells	-10.5399
▁fantastic	-10.5399
▁vulnerable	-10.5402
▁blind	-10.5402
mark	-10.5404
▁smart	-10.5405
▁associated	-10.5407
▁basis	-10.5408
▁metres	-10.5409
nic	-10.541
▁McDonald	-10.5411
▁undergo	-10.5412
35	-10.5413
bing	-10.5413
▁cricket	-10.5414
▁write	-10.5417
▁extend	-10.5417
▁Lauren	-10.5417
▁Neil	-10.5418
▁Once	-10.5418
▁realised	-10.5419
▁remarks	-10.5422
▁Director	-10.5422
Mo	-10.5425
▁legislation	-10.5425
▁smoking	-10.5425
band	-10.5427
▁Hughes	-10.5429
▁7.	-10.5432
▁Video	-10.5432
cap	-10.5439
▁Bristol	-10.5439
▁regret	-10.5442
▁drawn	-10.5445
hn	-10.5447
▁kit	-10.5454
▁cleared	-10.5457
▁studio	-10.5462
▁Mont	-10.5465
▁$6	-10.5465
▁blaze	-10.5465
▁Come	-10.5468
▁rebels	-10.5468
eo	-10.547
▁sharp	-10.5471
ku	-10.5472
free	-10.5473
▁22-	-10.5475
▁deny	-10.5476
▁Rangers	-10.5478
▁civilians	-10.5481
▁Dallas	-10.5485
▁publicly	-10.5494
gie	-10.5496
borough	-10.5496
▁discover	-10.5498
ounce	-10.5506
▁29,	-10.5513
▁Tam	-10.5516
▁comfortable	-10.5518
$	-10.552
▁Kris	-10.5523
▁concert	-10.5523
oy	-10.5526
▁del	-10.5527
▁trail	-10.5527
tas	-10.5531
▁obviously	-10.5531
▁punch	-10.5533
▁dozen	-10.5533
▁possibly	-10.5534
▁Chile	-10.5537
▁letters	-10.5539
▁Food	-10.5539
▁stream	-10.5542
▁milk	-10.5549
▁Stra	-10.555
▁writer	-10.5552
▁tail	-10.556
kins	-10.5563
▁coverage	-10.5565
▁technique	-10.5569
▁plate	-10.5573
▁Hodgson	-10.5575
phone	-10.5575
▁Stewart	-10.5578
▁hostage	-10.558
▁analyst	-10.5581
▁sample	-10.5584
▁Jessica	-10.5586
▁web	-10.5588
▁brave	-10.5589
gin	-10.5596
▁violation	-10.5598
▁Gov	-10.56
▁2012.	-10.5601
▁wire	-10.5603
▁attempting	-10.5608
▁Juan	-10.561
▁21-	-10.5618
▁Museum	-10.5618
▁publish	-10.5623
▁400	-10.5631
▁racing	-10.5637
▁Gill	-10.5643
▁humans	-10.5644
aged	-10.5648
▁robot	-10.5652
mir	-10.5657
▁agencies	-10.5658
▁vast	-10.5663
▁Nazi	-10.5669
▁Zoo	-10.5669
▁critics	-10.5673
▁recording	-10.5674
bed	-10.5676
▁happening	-10.5682
have	-10.5682
▁sheriff	-10.5683
▁Switzerland	-10.5686
▁prop	-10.5687
▁Rep	-10.5689
▁continuing	-10.5689
oli	-10.5697
▁bound	-10.5705
▁$7	-10.5712
▁poison	-10.5717
▁conservative	-10.5718
▁ocean	-10.5718
▁stroke	-10.5718
count	-10.5722
ache	-10.5722
▁adds	-10.5726
▁LA	-10.5726
ancy	-10.5731
▁racial	-10.5736
mile	-10.5737
▁punishment	-10.5737
▁raising	-10.5739
▁Father	-10.5741
▁Ter	-10.5743
graph	-10.5745
▁14-	-10.5746
▁terrorism	-10.575
▁detail	-10.5755
▁1970	-10.5759
▁none	-10.5759
▁tears	-10.5762
▁chocolate	-10.5762
▁maximum	-10.5762
▁Bruce	-10.5764
▁pace	-10.5768
gger	-10.5769
▁57	-10.577
▁western	-10.5772
▁marry	-10.5775
▁greatest	-10.5777
claim	-10.5779
ization	-10.5783
47	-10.5798
▁Academy	-10.5807
:30	-10.581
▁Yo	-10.581
▁earthquake	-10.5819
▁rail	-10.5822
▁lifestyle	-10.5835
▁Oklahoma	-10.5837
km	-10.5838
▁Brand	-10.5839
▁pocket	-10.584
▁dig	-10.5842
▁consumers	-10.5847
nel	-10.5852
▁resist	-10.5856
▁pink	-10.5857
▁bowl	-10.5858
ense	-10.5865
inch	-10.5865
cular	-10.5868
▁authority	-10.5877
▁Hampshire	-10.5878
▁muscle	-10.5881
▁Davies	-10.5881
▁Cap	-10.5889
▁badly	-10.589
▁lion	-10.5892
▁Hy	-10.5892
▁Beckham	-10.5892
▁broad	-10.5896
▁communities	-10.5896
▁sponsor	-10.5899
▁symbol	-10.59
bia	-10.5901
▁contain	-10.5903
▁Ron	-10.5903
▁cutting	-10.5904
▁Spurs	-10.5915
▁Associated	-10.5926
mmer	-10.5927
▁doors	-10.5927
▁settlement	-10.5927
▁resources	-10.5929
▁drew	-10.594
▁systems	-10.5943
▁relations	-10.5945
▁Swiss	-10.5951
▁31,	-10.5951
▁2010.	-10.5957
▁fined	-10.596
▁targets	-10.5963
▁pregnancy	-10.5969
▁tourist	-10.5971
▁length	-10.5971
▁Tur	-10.5972
▁Camp	-10.5973
oon	-10.5977
▁memorial	-10.5978
▁Wright	-10.598
iver	-10.598
75	-10.598
▁Albert	-10.5983
▁Sanchez	-10.5987
▁campus	-10.5998
▁19-	-10.6002
▁App	-10.6002
▁Laura	-10.6008
▁Garcia	-10.6011
▁shocking	-10.6012
▁firefighters	-10.6013
pher	-10.6015
▁abused	-10.6018
mes	-10.6018
▁delighted	-10.6022
shirt	-10.603
▁marks	-10.6031
▁slip	-10.6032
▁apology	-10.6038
▁sleeping	-10.6039
▁1999	-10.6041
▁Christie	-10.6042
▁elephant	-10.6047
▁narrow	-10.6047
▁lover	-10.605
▁happens	-10.6051
▁shake	-10.6054
▁2,000	-10.6055
▁Play	-10.6055
▁Ren	-10.6056
▁Record	-10.6057
▁welfare	-10.606
▁backed	-10.6063
▁commitment	-10.6063
▁strict	-10.6066
ati	-10.6067
▁snake	-10.6069
▁teammate	-10.6072
▁64	-10.6077
▁empty	-10.6078
▁smell	-10.6078
▁Aaron	-10.6078
vor	-10.6081
ological	-10.6083
▁Philadelphia	-10.6087
▁insist	-10.6093
▁begins	-10.6096
▁imagine	-10.6096
▁observe	-10.6096
equ	-10.6098
▁chicken	-10.6103
▁Fer	-10.6104
▁Society	-10.6105
▁Sean	-10.6111
print	-10.6112
▁fail	-10.6114
gli	-10.6119
ida	-10.612
▁truth	-10.6121
▁Lev	-10.6128
▁Seven	-10.6129
▁Seattle	-10.6133
▁performing	-10.6134
▁Best	-10.6141
▁celebrities	-10.6142
▁thrill	-10.6142
▁Mus	-10.6143
▁30,	-10.6143
▁CBS	-10.6145
vil	-10.6147
▁easier	-10.6148
fit	-10.615
▁raped	-10.6154
▁Arabia	-10.6157
▁Officer	-10.6157
▁execution	-10.6158
▁describes	-10.6158
pple	-10.6162
▁bizarre	-10.6164
▁plenty	-10.6179
▁commander	-10.6183
▁recognize	-10.6188
▁survivor	-10.6192
▁leak	-10.62
▁studies	-10.6201
▁fault	-10.6204
▁Tiger	-10.6205
▁bills	-10.6207
▁Broad	-10.6208
▁peak	-10.621
▁Rescue	-10.621
▁established	-10.6213
▁operate	-10.6223
▁58	-10.6223
▁chef	-10.6226
▁politicians	-10.6228
▁master	-10.623
▁Social	-10.6231
▁dealing	-10.6235
hole	-10.6235
lton	-10.6235
▁Ocean	-10.6247
▁Jeff	-10.6248
▁Op	-10.625
▁forecast	-10.625
▁Barr	-10.6261
▁Djokovic	-10.6263
▁electronic	-10.6266
bound	-10.6266
dan	-10.6268
With	-10.6271
▁fix	-10.6272
▁soft	-10.6273
▁cream	-10.6275
▁dry	-10.6276
▁vital	-10.6278
▁tries	-10.6281
▁racist	-10.6281
▁stable	-10.6285
▁updated	-10.6288
▁Thor	-10.629
▁Abbott	-10.6294
▁swim	-10.6295
face	-10.6302
▁Sara	-10.6307
▁hide	-10.6312
▁connect	-10.6315
bow	-10.6315
▁ju	-10.6317
▁8.	-10.6317
▁Greece	-10.6322
▁regard	-10.6323
▁Like	-10.6324
▁2009,	-10.6325
▁Greg	-10.6327
▁burst	-10.6328
▁engaged	-10.6329
▁pointed	-10.6331
itz	-10.6331
▁referred	-10.6336
▁tear	-10.6338
▁argue	-10.6339
Mar	-10.6351
class	-10.6352
ulation	-10.6359
nal	-10.636
▁reference	-10.6361
▁venue	-10.6366
ground	-10.6367
▁slam	-10.6367
▁Wor	-10.6367
itor	-10.637
▁pattern	-10.6372
▁grabbed	-10.6373
▁normally	-10.6373
▁collision	-10.6379
▁footballer	-10.6385
3,000	-10.6387
▁Magistrates	-10.6391
▁wonderful	-10.6392
▁torture	-10.6398
▁Thailand	-10.6408
▁Fred	-10.6409
mus	-10.6412
▁Pacific	-10.6413
▁stunt	-10.6416
▁disappearance	-10.6417
▁conspiracy	-10.6426
▁cigarette	-10.643
Go	-10.6432
▁Mercedes	-10.6435
▁Uruguay	-10.6435
▁Perry	-10.6436
nell	-10.6436
pul	-10.6438
▁Jeremy	-10.6438
▁suspicious	-10.6442
1,000	-10.6443
ware	-10.6444
▁hip	-10.6446
▁wounds	-10.6453
▁pleased	-10.6454
acher	-10.6457
▁petition	-10.6462
▁distress	-10.6467
elect	-10.6469
▁Cristiano	-10.6473
▁newly	-10.6479
▁satellite	-10.648
known	-10.6489
pan	-10.649
▁Lane	-10.6497
▁Sol	-10.6499
▁probe	-10.6502
▁tower	-10.6504
agh	-10.6506
▁featuring	-10.6509
▁noise	-10.651
▁Blair	-10.6521
▁unless	-10.6521
▁disrupt	-10.6521
▁chosen	-10.6523
▁Kenya	-10.6523
ening	-10.6528
▁retailer	-10.6529
▁brown	-10.6537
Man	-10.6537
▁corruption	-10.6538
▁runner	-10.6539
▁apparent	-10.6544
▁coat	-10.6547
Some	-10.6548
box	-10.655
hold	-10.655
▁Brom	-10.6558
▁ambassador	-10.6563
▁largely	-10.6563
▁software	-10.6563
▁drinks	-10.6565
▁breed	-10.6567
▁pushing	-10.6569
▁Illinois	-10.6569
▁parliament	-10.657
▁concluded	-10.6574
▁Russell	-10.6579
orn	-10.6581
▁impressed	-10.6583
▁challenges	-10.6584
zar	-10.6585
▁overseas	-10.6585
▁invited	-10.6586
▁labor	-10.6587
tti	-10.6588
▁tradition	-10.6588
consistent	-10.6589
▁trace	-10.66
BC	-10.6604
▁activists	-10.6612
▁62	-10.6612
▁attracted	-10.6614
Ro	-10.6615
▁spark	-10.6616
▁habit	-10.6618
▁lip	-10.6622
▁trophy	-10.6624
▁Egyptian	-10.6631
▁Why	-10.6631
▁closely	-10.6632
▁critic	-10.6638
▁filming	-10.6641
▁minimum	-10.6643
pho	-10.6646
▁Brendan	-10.6646
▁Turkish	-10.6646
▁stealing	-10.6647
▁basic	-10.6648
▁pump	-10.665
▁celebrating	-10.6653
▁honest	-10.6653
▁Roman	-10.6654
▁reporter	-10.6655
▁sugar	-10.6658
▁aboard	-10.6658
▁firearm	-10.6658
AT	-10.6659
▁Manuel	-10.6659
▁contained	-10.6666
▁Missouri	-10.6669
▁demonstrate	-10.6675
▁substance	-10.6675
▁Britons	-10.6676
▁tech	-10.6678
▁starts	-10.668
▁selfie	-10.6685
▁Bond	-10.6686
▁copy	-10.6687
▁officially	-10.6688
▁Atlantic	-10.6692
▁houses	-10.6692
▁heads	-10.6697
▁Sy	-10.6698
▁Mohammed	-10.6705
▁scrap	-10.6705
One	-10.6711
▁26-	-10.6712
▁coalition	-10.6714
▁fianc	-10.6715
▁chart	-10.6719
▁suddenly	-10.6723
▁Sudan	-10.6726
▁Nadal	-10.6728
▁decor	-10.6729
▁viral	-10.6731
▁commit	-10.6731
own	-10.6736
▁devastated	-10.6737
▁jacket	-10.6741
24	-10.6745
▁Mitchell	-10.675
▁payments	-10.6751
▁arriving	-10.6757
▁defended	-10.6757
▁destroy	-10.676
▁Glasgow	-10.676
▁Lau	-10.6762
▁Welsh	-10.6763
▁tension	-10.6765
▁march	-10.6765
▁drawing	-10.6765
vie	-10.6766
▁inspiration	-10.6767
▁extended	-10.677
▁scenes	-10.677
▁59	-10.6776
▁facilities	-10.6776
▁Jimmy	-10.6781
▁Beck	-10.679
tten	-10.6792
▁supported	-10.6793
▁Lisa	-10.6799
▁adopted	-10.68
▁fees	-10.6803
agon	-10.6807
▁informed	-10.6808
▁willing	-10.6812
▁Tor	-10.6815
ncy	-10.6818
▁demanded	-10.6818
▁Tru	-10.6822
▁Following	-10.6822
▁Bla	-10.6824
▁Kir	-10.6825
▁poses	-10.6825
▁Major	-10.6826
▁documentary	-10.6826
▁grass	-10.6827
▁urge	-10.6827
▁Kerry	-10.6834
ima	-10.6835
▁Libya	-10.6837
▁restore	-10.6838
▁chip	-10.6839
▁Colombia	-10.6839
▁belief	-10.6842
▁supporting	-10.6846
▁dying	-10.6848
▁Utah	-10.6849
▁elected	-10.6849
ush	-10.685
pin	-10.6852
▁attending	-10.6862
▁everybody	-10.6863
▁belt	-10.6863
▁Devon	-10.6865
▁1998	-10.6865
▁dubbed	-10.6865
▁Bol	-10.6869
▁slightly	-10.6872
▁ministry	-10.6875
▁Dia	-10.6876
look	-10.6876
▁solar	-10.6881
▁winners	-10.6882
▁county	-10.6882
▁Administration	-10.6885
Con	-10.6889
▁atmosphere	-10.6895
▁connected	-10.6898
▁Zu	-10.6901
jan	-10.6904
▁rein	-10.6906
▁appointment	-10.6911
▁tactic	-10.6915
▁strikes	-10.6917
▁registered	-10.6917
▁Webb	-10.6923
▁loud	-10.6926
▁banks	-10.6926
▁behalf	-10.6929
▁sons	-10.6932
▁cake	-10.6933
08	-10.6933
▁expense	-10.6942
Bo	-10.6942
▁horrific	-10.6945
suit	-10.6945
▁celebrated	-10.6947
▁Ferrari	-10.6948
▁finance	-10.6948
▁63	-10.695
▁journal	-10.6951
▁Zo	-10.6951
▁Qatar	-10.6952
▁arrests	-10.6954
▁shell	-10.6955
▁surrounded	-10.6959
▁Cou	-10.696
▁pit	-10.6965
▁desire	-10.6966
▁Let	-10.6968
▁homeless	-10.6968
▁riding	-10.6971
▁Stuart	-10.6972
▁essential	-10.6972
▁Derby	-10.6975
▁garage	-10.6975
▁log	-10.6978
▁medication	-10.6978
▁earning	-10.6979
▁relief	-10.6985
▁disappointed	-10.6985
▁rooms	-10.6989
▁sector	-10.6989
▁praised	-10.6991
▁porn	-10.6999
▁rush	-10.7
▁Bowl	-10.7005
▁travelled	-10.7005
▁Friends	-10.7008
org	-10.7008
▁rugby	-10.7015
▁king	-10.7015
▁Final	-10.7015
▁mess	-10.7019
▁obtained	-10.702
pet	-10.7024
▁demanding	-10.7025
▁assistance	-10.7025
▁operator	-10.7025
▁sharing	-10.7025
▁adapt	-10.7029
▁somebody	-10.7032
▁tag	-10.7034
▁Arch	-10.7037
oid	-10.7038
▁Several	-10.7039
▁sacked	-10.7041
▁Oregon	-10.7042
40,000	-10.7042
udge	-10.7044
▁lake	-10.7045
▁McIlroy	-10.7045
▁Lt	-10.7046
▁Somalia	-10.7047
▁wealth	-10.7049
▁overnight	-10.705
▁Knight	-10.7054
kar	-10.7057
called	-10.706
▁guys	-10.706
▁Anne	-10.7061
▁custom	-10.7063
▁smashed	-10.7063
▁Had	-10.7065
▁recovering	-10.7067
▁collected	-10.7073
▁laid	-10.7076
▁surf	-10.7077
▁Secret	-10.7077
▁scared	-10.7081
▁poster	-10.7082
▁Commons	-10.7082
▁kidnapping	-10.7083
▁Carter	-10.7088
iser	-10.7097
▁clock	-10.7101
▁yards	-10.7101
▁examine	-10.7108
▁hired	-10.7109
▁Jewish	-10.7113
▁67	-10.7113
lick	-10.7117
▁Austria	-10.7126
▁properties	-10.713
▁teenagers	-10.7133
▁candidates	-10.7135
▁whatever	-10.7136
▁Hawaii	-10.7136
37	-10.7138
▁costume	-10.7141
▁seal	-10.7143
▁guest	-10.7145
rrell	-10.7149
▁Follow	-10.715
▁stem	-10.7156
▁Ward	-10.7157
ami	-10.716
▁Sheffield	-10.7164
▁delivery	-10.7164
▁Row	-10.7166
▁Roberts	-10.7166
▁division	-10.7172
ED	-10.7176
▁Tan	-10.7177
▁allege	-10.7181
▁Alaska	-10.7184
▁notes	-10.7185
▁variety	-10.7187
▁rural	-10.7188
▁hanging	-10.719
▁27-	-10.719
▁involvement	-10.7191
▁depression	-10.7194
▁winger	-10.7199
▁Hard	-10.7199
▁characters	-10.72
▁ancient	-10.7201
▁Connecticut	-10.7208
▁felony	-10.7208
▁Howard	-10.7221
▁Amanda	-10.7225
Ba	-10.7226
front	-10.7232
▁weren	-10.7232
▁Fall	-10.7234
wife	-10.7248
mont	-10.7252
▁Alabama	-10.7263
▁describe	-10.7266
▁Deputy	-10.7266
▁indicate	-10.7267
sim	-10.727
idi	-10.727
▁Flight	-10.7273
▁crucial	-10.7273
▁searched	-10.7275
▁Grant	-10.728
▁assaulted	-10.7285
▁Boo	-10.7285
▁probation	-10.7287
▁mansion	-10.7289
▁sail	-10.7297
▁teaching	-10.7298
▁achieve	-10.7298
gui	-10.7301
proof	-10.7301
▁traveling	-10.7304
▁spray	-10.7306
▁Est	-10.7307
iev	-10.7311
▁flames	-10.7313
▁Southern	-10.7315
▁Gaza	-10.7315
▁72	-10.7318
▁writes	-10.7321
▁reaching	-10.7321
▁neighbours	-10.7321
▁licence	-10.7321
55	-10.7325
▁innocent	-10.7325
will	-10.7326
Mi	-10.7327
▁Flor	-10.733
cast	-10.7331
▁toddler	-10.7332
▁Andre	-10.7334
▁environmental	-10.7335
▁crossing	-10.7336
▁euro	-10.7342
▁Education	-10.7346
▁burned	-10.7347
oz	-10.7348
▁hunting	-10.7351
shaw	-10.7354
cam	-10.7354
teen	-10.7355
▁Owen	-10.7356
▁Mount	-10.7357
▁Gun	-10.7357
▁Nigel	-10.7358
▁float	-10.7358
ffe	-10.736
▁reporting	-10.7361
▁Edwards	-10.7361
▁exhibition	-10.7364
▁bath	-10.7364
▁Price	-10.7368
▁update	-10.7369
▁Susan	-10.7369
▁oldest	-10.7371
bat	-10.7372
▁fortune	-10.7374
▁shouldn	-10.7374
▁trainer	-10.7381
high	-10.7381
mission	-10.7383
gri	-10.7386
▁cousin	-10.7388
ault	-10.7389
▁demonstration	-10.7391
▁Burnley	-10.7393
▁gender	-10.7394
▁66	-10.7395
▁gained	-10.7396
▁triumph	-10.7398
▁rebel	-10.74
lbs	-10.7401
▁substitute	-10.7401
▁Arsene	-10.7405
cia	-10.7405
▁bosses	-10.7405
▁consult	-10.7408
▁forget	-10.7409
▁cheap	-10.741
vision	-10.7411
▁NATO	-10.7412
cru	-10.7414
cious	-10.7415
▁favor	-10.7418
▁knowing	-10.742
▁sustained	-10.7421
Da	-10.7427
▁2008,	-10.7434
CC	-10.7434
rist	-10.7434
▁Muslims	-10.7435
bul	-10.7439
▁seventh	-10.7441
▁anonymous	-10.7443
▁funny	-10.7446
▁Juventus	-10.7447
▁Board	-10.7448
▁dedicated	-10.745
▁Though	-10.745
Me	-10.7451
▁retirement	-10.7452
▁terrorists	-10.7455
▁attitude	-10.7457
▁fighter	-10.7459
▁Amy	-10.747
▁crush	-10.7473
▁68	-10.7473
roo	-10.7474
▁Lar	-10.7477
▁competitive	-10.7478
▁advertising	-10.7479
49	-10.7479
▁Den	-10.7481
▁Osborne	-10.7492
mount	-10.7494
▁youngest	-10.7499
▁worn	-10.7504
▁Liga	-10.7504
▁Cur	-10.7513
▁Gall	-10.7514
70	-10.7516
▁relat	-10.7518
▁resigned	-10.752
▁pursue	-10.752
▁halt	-10.7523
col	-10.7525
▁technical	-10.7528
▁Eve	-10.7533
▁Gla	-10.7533
▁comedy	-10.7533
▁formed	-10.7535
▁attached	-10.7537
▁extremist	-10.7538
lig	-10.7538
▁Julie	-10.754
▁strategy	-10.7542
04	-10.7543
▁checked	-10.7546
▁wildlife	-10.7546
▁Islam	-10.7548
▁stranger	-10.7553
burn	-10.7553
▁strain	-10.7559
▁HIV	-10.7559
▁fewer	-10.7566
▁sanctions	-10.7571
▁windows	-10.7575
▁Austin	-10.7577
▁carrier	-10.7578
var	-10.758
▁Adams	-10.758
▁CIA	-10.7584
▁Wei	-10.7586
▁temperature	-10.7587
dar	-10.7587
▁capable	-10.7587
▁Lambert	-10.7588
▁ankle	-10.759
▁plants	-10.7593
▁waves	-10.7594
ER	-10.7594
▁infected	-10.7596
▁Prix	-10.7597
range	-10.7598
▁explore	-10.7598
▁Bryan	-10.7599
▁improved	-10.7601
▁shore	-10.7604
cade	-10.7604
▁dish	-10.7605
▁Animal	-10.7605
ifi	-10.7612
▁awareness	-10.7613
fri	-10.7615
▁impossible	-10.7616
▁luck	-10.762
▁Queensland	-10.7623
▁1997	-10.763
▁manufacturer	-10.7631
▁collapse	-10.7635
▁marked	-10.7635
▁Lionel	-10.7641
44	-10.7642
piece	-10.7651
▁sentencing	-10.7652
▁10,000	-10.7655
▁Emirates	-10.7655
▁opportunities	-10.7655
▁talked	-10.7662
▁Formula	-10.7663
▁greet	-10.7663
▁adviser	-10.7682
taking	-10.7683
▁fishing	-10.7686
▁motion	-10.7691
▁terrible	-10.7691
▁kid	-10.7695
▁bite	-10.7696
▁vision	-10.7696
▁restrict	-10.7705
LA	-10.7705
▁surgeon	-10.7707
▁Forest	-10.771
▁Neymar	-10.7713
shot	-10.7713
ature	-10.7714
▁Around	-10.7716
▁yourself	-10.7722
▁mention	-10.7725
bby	-10.7729
▁fence	-10.773
▁Cornwall	-10.7734
▁promotion	-10.7734
▁concept	-10.7735
▁Dean	-10.7736
▁closing	-10.7738
▁tap	-10.7738
▁deeply	-10.7741
▁guarantee	-10.7745
ada	-10.7747
▁infant	-10.7748
▁Sale	-10.7748
▁replied	-10.7749
just	-10.776
▁gear	-10.7766
▁Antonio	-10.7767
▁counsel	-10.7767
▁assess	-10.7767
▁Dor	-10.7773
▁replacement	-10.7775
▁Bran	-10.7777
▁Still	-10.7777
▁interact	-10.778
▁punish	-10.7787
▁truly	-10.7789
▁parked	-10.7792
▁origin	-10.7795
90	-10.7796
▁creation	-10.78
▁tonight	-10.7802
roll	-10.7804
▁Sri	-10.7805
▁priority	-10.7808
▁generate	-10.7808
▁colleague	-10.7809
An	-10.781
▁Hillary	-10.7813
▁joy	-10.7815
▁Safety	-10.7818
▁Sportsmail	-10.7819
▁leap	-10.7823
nge	-10.7824
▁retain	-10.7824
▁regarding	-10.7825
▁Nottingham	-10.7825
▁widespread	-10.7825
▁riot	-10.7826
▁pension	-10.7827
▁£10	-10.7827
▁lifted	-10.7827
30,000	-10.7829
▁Light	-10.7829
▁basketball	-10.7832
▁ITV	-10.7844
▁stated	-10.7845
▁resolve	-10.7846
▁End	-10.7847
than	-10.7851
▁Said	-10.7852
▁Mak	-10.7852
▁locations	-10.7853
▁exciting	-10.7854
▁pronounced	-10.7854
▁Cuba	-10.7863
▁temporary	-10.7865
▁Business	-10.7865
▁mag	-10.7868
▁Authority	-10.787
▁Sweden	-10.7872
uri	-10.7873
▁containing	-10.7878
▁passport	-10.7878
▁cow	-10.7879
▁Latin	-10.7879
▁Journal	-10.788
La	-10.7883
▁Ly	-10.7886
▁headquarters	-10.7887
▁Pier	-10.789
▁solid	-10.789
▁rider	-10.7896
▁grandfather	-10.7901
▁ordeal	-10.7902
▁Kay	-10.7905
Jo	-10.7906
▁crying	-10.7906
▁factory	-10.7908
▁revolution	-10.7909
▁Fernando	-10.7912
rio	-10.7916
ncies	-10.7922
▁Bad	-10.7923
▁ending	-10.7928
▁pole	-10.7929
▁Photo	-10.7931
▁combined	-10.7933
▁Bow	-10.7935
38	-10.7936
most	-10.7939
▁Coll	-10.7942
▁inappropriate	-10.7944
arm	-10.7948
▁Anfield	-10.7952
▁Chancellor	-10.7953
▁speculation	-10.7957
▁3-1	-10.7965
▁compound	-10.7968
▁ruin	-10.7968
▁Station	-10.7969
pur	-10.797
▁throwing	-10.7972
▁Eli	-10.7973
▁Mat	-10.7973
keeper	-10.7973
▁condemned	-10.7974
▁Winter	-10.7976
▁3-	-10.798
▁taught	-10.7983
▁Ky	-10.7985
▁keeper	-10.7988
▁unfortunate	-10.799
▁Mur	-10.8004
▁foul	-10.8005
▁appointed	-10.8007
De	-10.8007
▁paramedic	-10.8012
▁Asked	-10.8017
▁Barclays	-10.8019
▁Venezuela	-10.8019
▁Dortmund	-10.8023
▁NBA	-10.8023
▁controlled	-10.8024
▁strange	-10.8025
▁formal	-10.8026
▁Edinburgh	-10.8027
▁detectives	-10.803
▁architect	-10.803
▁brilliant	-10.803
▁exploit	-10.803
berry	-10.8031
▁28-	-10.8035
kov	-10.8037
After	-10.8037
▁PC	-10.8039
▁wh	-10.8044
▁ties	-10.8046
▁decline	-10.8052
▁incredibly	-10.8056
▁implement	-10.8057
▁grade	-10.8059
▁Marco	-10.8061
▁spy	-10.8065
Pa	-10.807
▁approval	-10.8071
▁ease	-10.8073
▁3-0	-10.8075
▁Jong	-10.8077
28	-10.808
bru	-10.8085
▁totally	-10.8086
▁anywhere	-10.8092
▁Sergio	-10.8094
▁disabled	-10.8094
▁recalled	-10.8095
ivity	-10.8096
▁£9	-10.81
▁athletes	-10.8103
▁advised	-10.8105
▁Mau	-10.8106
above	-10.8106
▁Bale	-10.8107
▁Donald	-10.8109
▁Mull	-10.8112
▁intent	-10.8118
door	-10.8119
▁successfully	-10.8119
▁install	-10.8123
▁bride	-10.8124
▁Victim	-10.8127
rest	-10.8129
▁mixed	-10.8129
▁Class	-10.8131
▁Detroit	-10.8131
▁interviewed	-10.8132
▁Midlands	-10.8143
▁immigrants	-10.8143
ential	-10.8147
match	-10.8149
▁Book	-10.815
▁accuse	-10.8153
elli	-10.8155
▁33,	-10.8156
▁safely	-10.8157
▁Sgt	-10.8158
▁virtual	-10.8161
▁Charlotte	-10.8165
▁branded	-10.8169
▁Week	-10.8172
▁striking	-10.8173
▁Sandy	-10.8173
▁Warren	-10.8175
▁summit	-10.8176
▁sporting	-10.8181
▁61	-10.8185
▁electric	-10.819
arian	-10.8191
▁breathing	-10.8193
▁analysis	-10.8195
▁entirely	-10.8197
▁sink	-10.8199
▁delayed	-10.8207
▁1960	-10.8211
▁Golden	-10.8213
▁Nik	-10.8214
▁prince	-10.8214
gress	-10.8218
▁skull	-10.8218
▁maker	-10.8218
▁screaming	-10.8225
▁admit	-10.8226
▁Sub	-10.8228
▁Singapore	-10.8229
▁cited	-10.823
▁abortion	-10.8233
friend	-10.8234
breaking	-10.8238
▁burning	-10.8241
▁entering	-10.8241
▁Clegg	-10.8251
▁Capital	-10.8252
▁posing	-10.8254
▁Collins	-10.8257
▁inspector	-10.8259
▁improvement	-10.8261
NA	-10.8261
▁Samsung	-10.8263
▁rifle	-10.8264
nish	-10.8267
▁Sony	-10.8268
▁77	-10.8276
▁donor	-10.8279
rug	-10.8281
▁medicine	-10.829
yan	-10.8296
▁drag	-10.83
▁Brad	-10.8301
▁departure	-10.8302
vation	-10.8303
▁entry	-10.8304
▁trauma	-10.8304
27	-10.8307
eau	-10.8308
▁relatively	-10.831
erie	-10.8316
▁firing	-10.8317
▁stamp	-10.8321
stead	-10.8329
▁admitting	-10.833
utter	-10.8338
▁classes	-10.8339
▁migrants	-10.8341
▁Pin	-10.8341
▁Castro	-10.8341
▁Islamist	-10.8344
did	-10.8349
▁degrees	-10.8355
23	-10.8356
▁permit	-10.8361
▁accidentally	-10.8367
▁Wembley	-10.837
▁Nelson	-10.837
▁revenue	-10.8374
▁dr	-10.8376
▁craft	-10.8378
▁proceed	-10.838
▁Tokyo	-10.8382
pu	-10.8385
▁intense	-10.8387
▁rally	-10.8388
▁fixture	-10.839
▁covering	-10.8394
▁regional	-10.8394
▁renew	-10.8394
▁Greek	-10.8394
▁Lyn	-10.8395
▁applied	-10.8397
▁suspension	-10.8401
▁childhood	-10.8403
▁Trans	-10.8407
▁flooding	-10.8408
▁Farm	-10.841
▁Mun	-10.841
▁thin	-10.8411
▁600	-10.8412
▁Mali	-10.8412
▁outcome	-10.8414
▁$8	-10.8416
▁ranking	-10.8416
▁Monaco	-10.8416
▁depict	-10.8418
▁Berlin	-10.842
▁Oliver	-10.8421
anna	-10.8421
▁pulling	-10.8422
▁selection	-10.8424
cco	-10.8429
▁Av	-10.8429
plan	-10.843
▁Haiti	-10.843
▁signature	-10.8433
▁interesting	-10.8434
▁mock	-10.8436
oma	-10.8436
▁throat	-10.844
position	-10.8442
▁contains	-10.8447
▁rear	-10.8451
▁Tesco	-10.8452
▁spare	-10.8455
▁horror	-10.8459
▁Poland	-10.846
▁pending	-10.8462
▁Gal	-10.8462
▁Moyes	-10.8463
▁Our	-10.8465
▁Maryland	-10.8467
▁booked	-10.8468
phy	-10.8473
fight	-10.8474
▁Science	-10.8474
▁pile	-10.8475
▁Dev	-10.8477
▁1996	-10.8478
Everyone	-10.848
▁radical	-10.8482
kill	-10.8482
▁Night	-10.8483
▁drill	-10.8487
▁cable	-10.8488
▁manslaughter	-10.8494
▁Entertainment	-10.8498
Ja	-10.8501
▁Baker	-10.8503
,200	-10.8504
▁hiding	-10.8505
▁diamond	-10.8509
▁blocked	-10.8512
▁thick	-10.8514
▁Emily	-10.8514
▁refuse	-10.8516
▁gunman	-10.8521
▁resulted	-10.8523
▁Simpson	-10.8529
▁transferred	-10.853
▁otherwise	-10.8531
▁Heart	-10.8532
Ho	-10.8532
▁residence	-10.8533
Where	-10.8535
▁spill	-10.8538
▁Pardew	-10.8541
rail	-10.8541
▁Child	-10.8541
▁Burn	-10.8542
▁lies	-10.8543
▁aggravated	-10.8544
▁Standard	-10.8545
▁regulations	-10.8546
▁civilian	-10.8549
rop	-10.8549
▁Tennessee	-10.8552
▁Support	-10.8552
▁Victor	-10.8554
▁manner	-10.8558
▁iron	-10.8558
page	-10.8559
▁occasions	-10.856
▁packed	-10.8561
etta	-10.8564
▁upcoming	-10.8571
▁Off	-10.8575
▁flowers	-10.8577
▁duo	-10.8581
▁appearing	-10.8586
angle	-10.8586
▁popularity	-10.8595
▁69	-10.8595
▁battling	-10.8595
▁proper	-10.8598
▁Carol	-10.8604
assi	-10.8605
▁inmates	-10.8606
▁Defence	-10.8607
Ar	-10.8608
▁expecting	-10.8617
▁Android	-10.8619
winning	-10.8623
▁Travel	-10.8624
hl	-10.8627
▁portrait	-10.8627
▁Tower	-10.8632
▁participate	-10.8635
▁Cru	-10.8637
walk	-10.8639
▁shame	-10.864
ase	-10.864
▁divide	-10.8641
▁apologised	-10.8642
▁partnership	-10.8644
▁eggs	-10.8649
▁usual	-10.865
▁vowed	-10.865
26	-10.865
▁peer	-10.8652
▁Bailey	-10.8655
▁register	-10.8659
▁UN	-10.8661
▁Westminster	-10.8666
▁extensive	-10.8666
onic	-10.8672
dress	-10.8674
▁Netherlands	-10.8674
▁dirt	-10.8676
ovic	-10.8678
▁fracture	-10.8682
▁Qui	-10.8684
▁transplant	-10.869
child	-10.869
▁understanding	-10.8701
▁Rand	-10.8704
▁typically	-10.8705
▁acted	-10.8706
▁taxes	-10.8708
▁homicide	-10.871
▁absence	-10.871
▁teach	-10.8714
second	-10.8716
▁steal	-10.8718
PA	-10.872
▁Special	-10.8722
▁cheat	-10.8724
▁suggestion	-10.8726
29	-10.8727
▁lane	-10.873
urge	-10.8734
▁shoppers	-10.8734
▁Para	-10.8736
▁Keith	-10.875
▁hug	-10.8753
▁genetic	-10.8756
▁picking	-10.8757
▁Commissioner	-10.8757
▁sheet	-10.8759
▁shower	-10.876
▁29-	-10.8762
▁advertise	-10.8762
▁peaceful	-10.8763
▁Dog	-10.8766
ON	-10.8767
▁encouraged	-10.8768
▁runway	-10.8771
▁enable	-10.8773
▁belonging	-10.878
▁Bolton	-10.878
▁Clarke	-10.8785
▁1994	-10.8786
▁Jer	-10.8788
lift	-10.8788
rise	-10.8789
▁ethnic	-10.8794
▁mystery	-10.8798
▁surprising	-10.8802
▁Get	-10.8804
▁scream	-10.8806
AR	-10.8806
▁Garden	-10.8807
▁emotion	-10.8811
▁alter	-10.8813
▁cheek	-10.8814
▁Sussex	-10.8818
▁Penn	-10.8818
▁Minnesota	-10.8826
▁Persie	-10.8826
▁Kra	-10.8827
▁highway	-10.8833
▁Murphy	-10.8834
▁preparation	-10.8838
▁succeed	-10.8838
▁hung	-10.8839
▁Rev	-10.8843
▁flown	-10.8844
▁Hundreds	-10.885
▁salary	-10.885
chen	-10.8852
▁Fran	-10.8861
▁slammed	-10.8863
path	-10.8863
RE	-10.8865
▁resume	-10.8868
▁Rad	-10.8869
▁Darren	-10.8869
▁fitted	-10.8869
▁reception	-10.8874
▁Baghdad	-10.8878
▁waited	-10.8879
36	-10.8879
▁witnessed	-10.8881
▁Barbara	-10.8887
65	-10.8892
▁resolution	-10.8894
▁1-1	-10.8897
▁predicted	-10.8897
▁Cri	-10.89
▁supplies	-10.8902
▁please	-10.8906
▁Kansas	-10.8907
▁Captain	-10.8911
▁initiative	-10.8915
▁faster	-10.8917
▁electricity	-10.8918
▁Commonwealth	-10.8919
▁afraid	-10.8919
ographic	-10.8919
▁coin	-10.8919
▁Media	-10.8922
pra	-10.8923
▁Civil	-10.8923
▁heroin	-10.8932
▁independence	-10.8935
▁creative	-10.8935
▁donated	-10.8941
▁Gray	-10.8946
▁Mountain	-10.8947
▁desert	-10.8952
▁existing	-10.8957
uz	-10.8959
▁Surrey	-10.896
▁consequences	-10.896
▁Ronald	-10.8963
had	-10.8964
ura	-10.897
▁accusations	-10.8971
▁Rafael	-10.8976
cock	-10.898
profile	-10.8988
▁cannabis	-10.8988
▁dancing	-10.8988
▁Nine	-10.899
▁principal	-10.8996
▁defensive	-10.9004
▁detention	-10.9004
▁Louisiana	-10.9004
▁Duncan	-10.9005
come	-10.9011
▁Microsoft	-10.9012
▁Cape	-10.9017
▁monitoring	-10.9019
▁unconscious	-10.902
▁rid	-10.9021
gni	-10.9025
▁bio	-10.9031
▁photographed	-10.9035
9,000	-10.904
▁stunned	-10.9041
▁capacity	-10.9045
▁pensioner	-10.9048
▁contrast	-10.9049
▁entertain	-10.9052
una	-10.9059
32	-10.9061
▁equivalent	-10.9066
held	-10.9067
▁Scot	-10.9069
▁Jail	-10.9069
▁visible	-10.9082
▁6-3	-10.9083
▁Sim	-10.9086
▁secured	-10.909
▁entitled	-10.909
▁Joan	-10.9092
▁Bradley	-10.9093
07	-10.9095
▁nickname	-10.9095
Assad	-10.9098
▁notorious	-10.9099
▁Sn	-10.91
aver	-10.9101
▁extraordinary	-10.9103
▁rig	-10.9106
▁elsewhere	-10.9107
▁Denver	-10.9109
39	-10.911
▁loose	-10.9112
▁select	-10.9112
▁85	-10.9115
▁Gunners	-10.9115
▁eighth	-10.9116
▁Roberto	-10.9119
even	-10.9121
▁dust	-10.9122
▁religion	-10.9124
▁Lawrence	-10.9128
▁Norway	-10.9135
▁familiar	-10.9136
▁barrier	-10.9145
▁adopt	-10.9147
▁purchased	-10.9149
▁twist	-10.9153
person	-10.9161
▁Because	-10.9163
with	-10.9165
▁coroner	-10.9169
▁lap	-10.9171
▁smash	-10.9172
▁Telegraph	-10.9173
▁UEFA	-10.9178
FC	-10.9181
▁1995	-10.9182
quest	-10.9182
▁78	-10.9189
▁Nathan	-10.9189
metre	-10.919
▁Pellegrini	-10.9203
kg	-10.9203
▁Cabinet	-10.9207
▁Lopez	-10.9207
▁viewed	-10.9207
▁download	-10.9209
▁Line	-10.9211
▁stronger	-10.9212
▁Sav	-10.9219
▁Yesterday	-10.9219
▁Zi	-10.9223
▁indicated	-10.9223
▁Margaret	-10.9223
▁Fund	-10.9224
screen	-10.9224
▁Kid	-10.9225
▁button	-10.9234
100	-10.9236
▁baseball	-10.9238
▁schedule	-10.9239
▁forcing	-10.9239
▁ultimately	-10.9245
▁100,000	-10.9249
too	-10.9251
▁territory	-10.9253
▁Kh	-10.9254
▁crop	-10.9255
▁grey	-10.9255
▁Spencer	-10.9257
▁Cleveland	-10.9261
▁woke	-10.9264
▁tunnel	-10.9265
Don	-10.9266
▁73	-10.9266
▁bump	-10.9267
▁devastating	-10.927
▁74	-10.927
bridge	-10.927
▁balloon	-10.9271
▁punched	-10.9277
▁reign	-10.9281
▁developer	-10.9282
▁Earl	-10.9283
uction	-10.9284
▁root	-10.9284
▁qualifying	-10.9293
OR	-10.9294
▁Lanka	-10.9296
▁bomber	-10.9298
▁Dick	-10.9299
▁convinced	-10.9307
▁retail	-10.9307
▁opposite	-10.9307
▁solve	-10.9308
active	-10.9311
▁Gil	-10.9315
▁ramp	-10.9317
▁kidney	-10.9317
▁senator	-10.932
▁acknowledged	-10.933
▁protected	-10.9333
arch	-10.9339
▁debris	-10.9342
▁repeat	-10.9342
48	-10.9344
▁cabin	-10.9344
▁relax	-10.9345
▁Barb	-10.9353
▁gesture	-10.9354
▁deemed	-10.9354
▁bonus	-10.9354
▁robber	-10.9356
▁Thousands	-10.9358
▁Bru	-10.9359
▁haul	-10.9361
▁lowest	-10.9361
▁wrapped	-10.9363
▁Reid	-10.9368
▁reserve	-10.937
▁businessman	-10.937
gno	-10.9372
tail	-10.9383
▁citing	-10.9388
▁ranked	-10.9389
▁swing	-10.939
▁Valencia	-10.9392
▁Silver	-10.9392
▁dressing	-10.9399
▁hammer	-10.9401
▁Eastern	-10.9405
▁uncle	-10.9408
▁suggesting	-10.9409
▁Brisbane	-10.9409
▁Company	-10.9409
▁800	-10.9412
▁colon	-10.9414
boo	-10.9422
▁engagement	-10.9426
nov	-10.9427
▁prohibit	-10.943
▁Pop	-10.9431
▁activist	-10.9433
▁marketing	-10.9434
▁militant	-10.9437
▁slowly	-10.9439
33	-10.9441
▁assume	-10.9446
▁Lloyd	-10.9448
▁Gareth	-10.9448
▁Ran	-10.9457
▁advocate	-10.946
▁Serbia	-10.9466
▁barely	-10.9469
▁Wolf	-10.9473
▁cope	-10.9475
▁earth	-10.9483
▁carbon	-10.9485
▁begun	-10.9487
▁Jesus	-10.9491
▁quoted	-10.9496
wide	-10.9498
▁Pentagon	-10.9499
▁chill	-10.951
▁landscape	-10.9512
▁instance	-10.9513
▁reverse	-10.9514
▁Chu	-10.9514
▁enormous	-10.9516
▁statue	-10.9516
▁contend	-10.9517
▁widow	-10.952
▁Ahmed	-10.9521
▁Douglas	-10.9521
▁touched	-10.9521
▁Sel	-10.9522
▁targeting	-10.9522
▁panic	-10.9523
▁Redknapp	-10.9525
▁citizen	-10.9529
▁afterwards	-10.953
▁handling	-10.9531
▁illegally	-10.9532
▁association	-10.9533
▁Rachel	-10.9534
▁dismiss	-10.9539
▁Every	-10.9543
▁Rice	-10.9547
▁Barry	-10.955
▁spectacular	-10.9555
▁burglary	-10.9558
▁tent	-10.956
Al	-10.956
▁portray	-10.956
▁Indiana	-10.9562
▁desk	-10.9566
▁passion	-10.9567
▁Ferdinand	-10.9568
▁Fabregas	-10.9572
▁welcomed	-10.9574
▁relative	-10.9574
▁Fra	-10.9576
▁Nearly	-10.9581
▁Argentine	-10.959
▁underwent	-10.959
▁Kit	-10.959
▁payment	-10.9592
▁Hope	-10.9594
▁Lampard	-10.9594
▁criticized	-10.96
▁Belgian	-10.9603
▁Brighton	-10.9603
▁singing	-10.9606
▁tan	-10.9613
▁Brun	-10.9618
▁testified	-10.962
▁Mah	-10.9621
▁OK	-10.9621
▁Kirk	-10.9621
▁boom	-10.9622
▁Click	-10.9625
▁dumped	-10.9628
▁accompanied	-10.9629
▁vegetable	-10.9629
nick	-10.9629
▁71	-10.9632
▁hosted	-10.9632
▁Andrea	-10.9633
▁entertainment	-10.9636
▁draft	-10.9638
▁Armstrong	-10.9638
ular	-10.9644
▁View	-10.9645
▁eliminat	-10.9646
▁treating	-10.9652
▁Democrat	-10.9654
His	-10.9654
bedroom	-10.9655
▁orbit	-10.9659
stock	-10.9669
▁Mississippi	-10.9672
▁cord	-10.9673
inter	-10.9677
▁dragged	-10.9678
▁loyal	-10.9681
▁mud	-10.9681
▁sensation	-10.9681
▁achieved	-10.9685
▁foundation	-10.9685
▁suing	-10.9689
▁selected	-10.9691
▁Croatia	-10.9695
▁6-4	-10.9699
▁Adrian	-10.97
Please	-10.9701
▁escort	-10.9703
▁Boeing	-10.9712
▁Operation	-10.9717
▁fastest	-10.9717
▁circle	-10.9729
▁Katie	-10.973
▁Gor	-10.9731
▁cliff	-10.9734
▁breakfast	-10.9738
▁anybody	-10.9741
▁cheese	-10.9743
▁proceedings	-10.9744
Un	-10.9745
Now	-10.9748
▁Thank	-10.975
▁represented	-10.9751
▁revelation	-10.9751
▁Motor	-10.9756
▁weighed	-10.9756
▁bitter	-10.9759
isation	-10.9759
▁managing	-10.976
▁mirror	-10.9765
▁Morning	-10.9769
▁Game	-10.9769
iness	-10.977
▁Vice	-10.977
▁attraction	-10.9773
▁crazy	-10.9774
▁stake	-10.9775
▁detailed	-10.9779
▁terminal	-10.9783
what	-10.9784
▁harassment	-10.9787
▁mourn	-10.9787
▁therefore	-10.9791
▁evacuated	-10.9793
▁cry	-10.9793
▁bug	-10.9795
▁finishing	-10.9799
▁tube	-10.98
▁Snowden	-10.9801
three	-10.9803
▁crossed	-10.9805
▁kidnapped	-10.981
▁Command	-10.981
▁effectively	-10.981
▁confessed	-10.9811
▁wheelchair	-10.9813
▁combination	-10.9813
▁directed	-10.9819
▁slim	-10.982
▁Wy	-10.9821
rian	-10.9829
▁Morris	-10.9836
▁Avenue	-10.984
▁Vatican	-10.9862
▁entrance	-10.9862
▁wrap	-10.9863
level	-10.9868
▁importance	-10.9869
▁Short	-10.9869
▁obesity	-10.9871
card	-10.9872
▁rot	-10.9873
▁guess	-10.988
▁shadow	-10.9885
▁Jacob	-10.9885
▁£20	-10.9887
Fi	-10.9888
▁distinct	-10.9889
▁Parker	-10.9898
▁Project	-10.9902
far	-10.9903
pass	-10.9904
▁Stamford	-10.9907
▁embrace	-10.9907
▁Czech	-10.9907
▁approximately	-10.9913
▁possess	-10.9917
▁ET	-10.9918
▁Jar	-10.9918
ifying	-10.9922
▁Hawk	-10.9924
▁traveled	-10.9924
▁Festival	-10.9929
▁uploaded	-10.9934
▁restrictions	-10.9935
▁mainly	-10.9937
▁ingredient	-10.9938
▁Virgin	-10.9939
▁remarkable	-10.9941
▁Emergency	-10.9947
▁Investigation	-10.9952
▁festive	-10.9952
▁realise	-10.9953
▁wealthy	-10.9956
▁genuine	-10.9956
▁comedian	-10.9956
▁pound	-10.9962
▁Hollande	-10.9965
▁praise	-10.9975
▁recommended	-10.9983
▁Brady	-10.9985
▁neither	-10.9988
(	-10.999
▁kilometers	-10.9992
▁generally	-10.9995
▁soccer	-10.9997
▁distract	-10.9998
▁apologise	-10.9998
▁continent	-11.0001
▁beneath	-11.0001
▁Iowa	-11.0003
▁representing	-11.0005
▁Spaniard	-11.0006
▁liquid	-11.0006
▁poverty	-11.0006
▁Laden	-11.0006
▁Fashion	-11.0015
▁musician	-11.0018
▁Mandela	-11.0024
▁emerge	-11.0025
looking	-11.0028
▁Turner	-11.0032
▁Manager	-11.0033
▁alerted	-11.0035
▁pad	-11.0035
bn	-11.0044
▁memories	-11.0047
posed	-11.0049
▁ideal	-11.0055
▁Buck	-11.0055
▁frozen	-11.006
▁nobody	-11.0061
▁discrimination	-11.0065
▁plunge	-11.0065
▁cultural	-11.0066
▁Cop	-11.0068
▁industrial	-11.0069
▁furious	-11.0071
mouth	-11.0073
▁3,000	-11.0074
▁requirement	-11.0075
▁tiger	-11.0088
▁Online	-11.0089
▁significantly	-11.0096
▁trafficking	-11.0097
▁opposed	-11.0098
▁Philippines	-11.0101
▁Ukrainian	-11.0101
▁priest	-11.0102
▁Falcao	-11.0106
▁nervous	-11.0106
▁transition	-11.0107
ME	-11.0113
▁Inspector	-11.012
▁Alonso	-11.0124
▁telephone	-11.0124
▁roughly	-11.0126
▁intend	-11.0127
▁deployed	-11.0128
▁painted	-11.0128
▁FC	-11.0129
▁dealer	-11.013
▁discussed	-11.0131
▁Vietnam	-11.0138
▁diabetes	-11.0138
▁Silva	-11.0138
▁refer	-11.0141
▁Yet	-11.0141
▁consumer	-11.0148
▁surge	-11.0151
▁NSW	-11.0152
▁exact	-11.0155
sufficient	-11.0156
▁caution	-11.0156
▁Sturridge	-11.0161
▁romantic	-11.0161
▁freed	-11.0167
bie	-11.0167
▁valuable	-11.017
▁settle	-11.0171
▁Protest	-11.0177
▁penalties	-11.0179
▁Wild	-11.0179
▁dock	-11.0179
▁Biden	-11.0181
▁contractor	-11.0182
▁consultant	-11.0184
▁Network	-11.0188
▁salt	-11.0192
▁exam	-11.0199
▁Residents	-11.0207
▁Var	-11.0209
▁snapped	-11.0209
▁Lancashire	-11.0211
▁Torres	-11.0212
tree	-11.0214
▁pride	-11.0216
▁starring	-11.0219
▁Memorial	-11.0221
▁Control	-11.0221
▁insult	-11.0224
▁Mai	-11.0235
▁edition	-11.0236
▁therapy	-11.0239
▁landmark	-11.0241
▁discharge	-11.0244
▁Deni	-11.0248
▁Morrison	-11.025
While	-11.0253
▁newborn	-11.0254
▁strongly	-11.0258
▁Greater	-11.0259
▁helmet	-11.0267
31	-11.0268
▁import	-11.0275
▁replica	-11.0278
▁employment	-11.0281
▁parade	-11.0283
▁gather	-11.0288
▁indecent	-11.0291
▁cafe	-11.0294
▁politician	-11.03
lip	-11.03
▁actual	-11.0303
▁span	-11.031
▁tired	-11.0312
▁painful	-11.0313
▁exposure	-11.0314
▁Toronto	-11.0314
▁requested	-11.0319
▁repeated	-11.0323
▁Josh	-11.0325
▁studied	-11.0328
▁unidentified	-11.0328
▁Anti	-11.0328
▁Louise	-11.0332
▁appreciate	-11.0332
election	-11.0334
mbo	-11.0336
▁reserved	-11.0338
▁gall	-11.034
▁Alexis	-11.034
▁Parents	-11.0342
▁Player	-11.0344
▁Vincent	-11.0346
▁rolled	-11.0353
▁unfair	-11.0354
▁petrol	-11.0361
▁bounce	-11.0363
unacceptable	-11.0365
▁carries	-11.0368
▁Zimmerman	-11.037
▁column	-11.0374
▁grant	-11.038
▁Kill	-11.0382
▁Leader	-11.0383
▁reject	-11.0384
34	-11.0384
▁$10	-11.0388
▁tumour	-11.0388
▁dropping	-11.0392
▁Eight	-11.0393
▁brace	-11.0397
▁cartel	-11.0397
▁1993	-11.0398
▁semifinal	-11.0399
▁opener	-11.0401
member	-11.041
▁Portuguese	-11.0412
main	-11.0414
cel	-11.0417
▁groom	-11.0419
▁Buckingham	-11.0421
▁facial	-11.0422
▁separated	-11.0434
▁Eng	-11.0435
▁Thai	-11.0435
▁survival	-11.0436
woman	-11.0441
▁settled	-11.0444
▁referring	-11.0446
▁vaccine	-11.045
▁Bishop	-11.045
▁nerve	-11.0451
▁sweat	-11.0455
iva	-11.0459
▁personality	-11.0459
▁soil	-11.0459
▁Airways	-11.0459
▁moral	-11.0462
shore	-11.0467
DA	-11.0471
▁leaked	-11.0472
▁beloved	-11.0473
▁producing	-11.0478
▁Crow	-11.0479
▁instrument	-11.0483
▁elite	-11.0483
▁Ever	-11.0484
▁Kyle	-11.0486
▁Blake	-11.0487
▁excellent	-11.0488
▁cave	-11.0488
▁Nicole	-11.0491
▁cycle	-11.0492
▁cancelled	-11.0494
▁Gay	-11.0494
▁Prosecutor	-11.05
▁Border	-11.0501
▁bacteria	-11.0503
▁bread	-11.0506
▁Rosberg	-11.0507
▁lawmakers	-11.0507
▁Pep	-11.0515
▁prosecute	-11.0516
▁theater	-11.0516
TM	-11.052
▁Weekly	-11.052
▁vacation	-11.0521
RC	-11.0522
▁jumping	-11.0531
▁grateful	-11.0535
▁guidelines	-11.054
▁Arena	-11.0544
▁McCain	-11.0545
▁orange	-11.0546
▁melt	-11.0558
New	-11.0558
▁contribution	-11.0559
▁realized	-11.056
▁Holmes	-11.0565
Lo	-11.0568
▁SUV	-11.0569
▁silence	-11.0569
▁deadline	-11.0571
▁gunshot	-11.0575
▁consecutive	-11.0578
▁voting	-11.0583
▁convention	-11.0588
▁grip	-11.0589
▁referendum	-11.0593
▁typical	-11.0593
▁testimony	-11.0602
▁encouraging	-11.0607
▁meters	-11.0609
▁hopeful	-11.0609
▁dresses	-11.0611
▁container	-11.0612
break	-11.0616
▁obvious	-11.0617
▁click	-11.0634
▁Grace	-11.0637
stand	-11.0638
▁boxes	-11.0639
▁egg	-11.064
▁Cara	-11.0642
▁Caroline	-11.0644
▁addict	-11.0644
▁Bureau	-11.0646
▁£50	-11.0659
▁stab	-11.0659
▁Baby	-11.066
▁resign	-11.066
illo	-11.0662
▁hook	-11.0663
▁icon	-11.0665
▁1992	-11.0665
▁sensitive	-11.0668
▁competing	-11.067
cell	-11.0671
▁Catherine	-11.0674
▁CDC	-11.0674
▁prominent	-11.0679
▁cyclist	-11.0684
▁nail	-11.0686
▁Music	-11.0688
▁Caribbean	-11.0689
▁executed	-11.0689
▁nationwide	-11.069
▁jaw	-11.0691
▁indictment	-11.0699
▁unnamed	-11.0699
▁trigger	-11.07
▁sustain	-11.07
▁Walter	-11.0701
▁achievement	-11.0708
▁Downing	-11.0713
▁Norman	-11.0715
▁iReport	-11.0718
▁Metropolitan	-11.0718
▁pirate	-11.072
▁extent	-11.0723
▁Mayweather	-11.0728
▁neuro	-11.0728
▁Potter	-11.0731
▁qualifier	-11.0733
▁Critics	-11.0733
▁strengthen	-11.0735
acre	-11.0735
▁diplomatic	-11.0738
▁parole	-11.0739
▁Powell	-11.0742
Mr	-11.0745
▁harder	-11.0747
▁menu	-11.0748
▁upper	-11.075
▁meteor	-11.0752
▁Karl	-11.0753
▁Rh	-11.0754
▁asylum	-11.0757
▁flip	-11.076
▁mate	-11.0763
▁Phoenix	-11.0767
▁competitor	-11.0767
▁Design	-11.0767
▁fare	-11.0769
▁scratch	-11.0772
▁loving	-11.0772
▁imposed	-11.0774
▁Cancer	-11.0774
▁comeback	-11.0775
▁nightclub	-11.0776
▁Singh	-11.078
▁Film	-11.0787
▁physically	-11.079
▁tornado	-11.0791
▁comparison	-11.0796
▁addressed	-11.0803
kick	-11.0804
▁mood	-11.0806
▁neglect	-11.0806
▁portion	-11.0808
▁export	-11.081
▁Aguero	-11.0811
▁sensor	-11.0811
▁midnight	-11.0812
▁Michel	-11.0816
▁Samuel	-11.082
▁asleep	-11.0821
▁layer	-11.0821
▁dancer	-11.0824
▁personally	-11.0826
▁dive	-11.0826
▁frequently	-11.0826
How	-11.0827
▁Wool	-11.0829
▁conclusion	-11.083
▁disappointing	-11.083
▁clashes	-11.0832
▁classroom	-11.0832
▁Castle	-11.0833
▁condemn	-11.0837
▁Orlando	-11.084
▁Base	-11.0841
▁Kentucky	-11.0845
▁yacht	-11.0845
▁advanced	-11.0849
▁Embassy	-11.085
▁Swedish	-11.085
▁disagree	-11.085
▁250	-11.0851
▁Monte	-11.0856
▁implant	-11.087
▁interior	-11.0875
▁exploded	-11.0875
▁investors	-11.0875
▁speaker	-11.0878
▁76	-11.0879
▁sudden	-11.0886
▁unexpected	-11.0889
host	-11.0891
▁Shock	-11.0893
▁Brother	-11.0893
owned	-11.0907
▁Campaign	-11.0909
▁calendar	-11.0909
▁stabbing	-11.0909
▁athlete	-11.0911
izz	-11.0912
▁dam	-11.0912
▁passes	-11.0914
▁watchdog	-11.0915
▁indication	-11.0945
▁ignored	-11.0948
lack	-11.0949
▁Diana	-11.0951
▁hundred	-11.0952
▁Libyan	-11.0958
▁scam	-11.096
▁installed	-11.096
▁magic	-11.0962
▁feeding	-11.0972
bank	-11.0975
▁adventure	-11.0984
CH	-11.0993
▁refusing	-11.0994
▁globe	-11.0999
▁lifetime	-11.1001
ggle	-11.1004
▁retire	-11.1005
▁Galaxy	-11.1014
▁Witnesses	-11.1014
▁VI	-11.1016
▁enthusiast	-11.1019
▁Source	-11.1019
▁Rou	-11.1031
▁jewel	-11.1035
▁everywhere	-11.1035
▁lab	-11.1039
▁trio	-11.1039
▁Julian	-11.1043
▁obtain	-11.1054
▁Sex	-11.1054
▁Rich	-11.1062
▁Nevada	-11.1064
▁Bin	-11.1064
▁Lang	-11.1075
▁musical	-11.1085
▁tourism	-11.1085
▁hill	-11.1085
▁Rover	-11.1089
Unfortunately	-11.1089
▁Europa	-11.109
▁assessment	-11.1092
placed	-11.1093
▁Environment	-11.1094
storm	-11.1095
▁specifically	-11.1097
▁embassy	-11.1099
▁Henderson	-11.1099
▁bleeding	-11.1099
▁yes	-11.11
▁closure	-11.1104
▁Bern	-11.1105
▁academic	-11.1109
▁6-2	-11.112
force	-11.112
▁GM	-11.1122
▁concrete	-11.1124
▁dispatch	-11.1129
▁Toure	-11.113
▁Gates	-11.1132
▁Cruz	-11.1143
fish	-11.1144
▁sweep	-11.1145
▁Lucy	-11.1157
▁letting	-11.116
▁Columbia	-11.116
▁tools	-11.116
▁midfield	-11.1163
▁qualify	-11.1167
▁graphic	-11.1171
▁Poll	-11.1172
▁billionaire	-11.1175
▁climbing	-11.1176
▁awaiting	-11.1176
▁Delhi	-11.1178
▁Marie	-11.1178
▁Bear	-11.1179
▁fixed	-11.1184
tech	-11.1184
▁examination	-11.119
▁Next	-11.119
▁construct	-11.12
bur	-11.1202
▁confronted	-11.1203
▁autopsy	-11.1206
▁inspection	-11.1206
▁Wisconsin	-11.1211
▁slipped	-11.1213
▁toxic	-11.1213
▁SC	-11.1215
▁slash	-11.1216
▁sued	-11.1217
▁Drug	-11.1227
▁constantly	-11.1228
▁Current	-11.1231
▁Somerset	-11.1236
▁Stock	-11.1236
▁pizza	-11.1241
▁publication	-11.1241
▁longest	-11.1246
▁assets	-11.1246
▁Bradford	-11.1248
▁Perez	-11.1249
▁Country	-11.1254
bli	-11.1254
▁Scene	-11.1257
▁Abdul	-11.1262
▁Run	-11.1262
▁perfectly	-11.1263
▁triggered	-11.1266
▁$9	-11.1282
▁minority	-11.1282
▁Dream	-11.1283
▁gathering	-11.129
ridiculous	-11.1298
▁anchor	-11.1299
CE	-11.1301
▁mall	-11.1301
▁convert	-11.1302
▁MI	-11.1304
▁Tories	-11.1306
▁glasses	-11.1306
ctic	-11.1307
▁gig	-11.132
LE	-11.132
▁coma	-11.1322
▁rarely	-11.1325
▁comic	-11.1329
▁discipline	-11.1334
mother	-11.1334
▁pretend	-11.1335
▁Claire	-11.1336
hara	-11.1337
80,000	-11.1339
▁Tragic	-11.1339
▁Rica	-11.1342
▁Prison	-11.1344
▁Sophie	-11.1344
▁Death	-11.1349
▁Global	-11.1349
▁wooden	-11.1349
▁Independent	-11.1354
▁1989	-11.1354
▁trailer	-11.1358
▁Abbey	-11.136
▁maintained	-11.1364
▁hospitalized	-11.1365
▁120	-11.1365
▁Middleton	-11.1367
▁regulator	-11.137
▁liver	-11.1371
▁Wildlife	-11.1375
▁zero	-11.1376
▁Pochettino	-11.138
▁swept	-11.138
▁predator	-11.1381
▁fate	-11.1389
▁calories	-11.1396
Just	-11.1401
▁undergoing	-11.1403
▁Samantha	-11.1406
▁magistrate	-11.1406
▁introduce	-11.1407
▁Lou	-11.1412
Je	-11.1415
▁bout	-11.1416
▁humanitarian	-11.1417
▁fierce	-11.1417
▁Unit	-11.1419
▁Hitler	-11.1422
▁historical	-11.1423
▁organised	-11.1426
▁Your	-11.1427
▁ourselves	-11.1427
▁Angela	-11.1438
dog	-11.1442
▁Fulham	-11.1443
▁examined	-11.1443
▁Small	-11.145
▁700	-11.145
▁watches	-11.1453
▁unemployment	-11.1453
▁monkey	-11.1453
▁queen	-11.1459
sexual	-11.1459
▁Wigan	-11.1461
▁Bernard	-11.1466
▁casual	-11.1474
▁astronaut	-11.1474
▁misconduct	-11.1474
▁preserve	-11.1474
▁Kingdom	-11.1477
▁Karen	-11.1478
▁1991	-11.1479
flat	-11.1484
▁Dominic	-11.1485
four	-11.1487
dio	-11.1497
▁broadcaster	-11.1499
▁Train	-11.15
▁meanwhile	-11.15
▁apologized	-11.1501
▁duties	-11.1502
▁bust	-11.1504
▁scientific	-11.1506
▁uncovered	-11.1506
▁brush	-11.1506
▁glad	-11.1506
post	-11.1509
▁storage	-11.1511
lav	-11.1514
▁employed	-11.1522
▁insect	-11.1524
▁Pictured	-11.1527
▁Mohamed	-11.1527
▁aspect	-11.1529
▁pledged	-11.1529
▁Glen	-11.1534
▁descend	-11.1537
▁Having	-11.1537
▁Todd	-11.1539
▁challenging	-11.1543
▁outstanding	-11.1547
▁visa	-11.1552
▁Swa	-11.1553
▁Vladimir	-11.1553
▁overcome	-11.1553
▁laptop	-11.1554
▁Senior	-11.1558
▁joked	-11.1562
▁Previous	-11.1564
▁limb	-11.1565
struction	-11.1567
▁HERE	-11.1569
▁prescription	-11.1569
▁proportion	-11.1569
▁whilst	-11.1569
▁outdoor	-11.157
▁hopefully	-11.1571
▁Rebecca	-11.1574
▁laughing	-11.1574
wise	-11.1581
▁Senator	-11.1589
▁Affairs	-11.159
SE	-11.1591
▁gadget	-11.1595
▁urging	-11.1596
▁Treasury	-11.1601
▁trading	-11.1601
▁wreck	-11.1604
▁lodge	-11.1606
▁Savile	-11.1612
▁resignation	-11.1613
▁recognise	-11.1614
▁constant	-11.1614
▁consume	-11.1615
iya	-11.1621
▁accurate	-11.1622
▁motive	-11.1622
▁Protection	-11.1629
▁Lions	-11.1629
▁marine	-11.163
▁caption	-11.1632
you	-11.1637
▁thorough	-11.1638
▁clue	-11.1639
▁mentioned	-11.1642
▁1950	-11.1643
▁$100	-11.1647
▁impression	-11.1649
▁Way	-11.165
▁improving	-11.1654
▁Couple	-11.1655
▁Lincoln	-11.1659
▁harsh	-11.1659
,400	-11.166
▁underground	-11.1662
conscious	-11.1664
▁underwear	-11.1671
▁pipe	-11.1671
▁cyber	-11.1675
etti	-11.168
▁wrist	-11.1682
However	-11.1683
▁Passenger	-11.1686
▁Field	-11.1686
▁Herald	-11.1687
▁snack	-11.1697
▁congratulat	-11.1702
▁Move	-11.1705
▁intervention	-11.1707
▁Sierra	-11.1707
▁£12	-11.1711
▁Mick	-11.1712
omy	-11.1712
▁vigil	-11.1713
▁Cuban	-11.1714
▁Mall	-11.1717
▁Maj	-11.1729
holder	-11.173
bol	-11.173
stream	-11.1732
▁Almost	-11.1733
▁hailed	-11.1734
▁Ukip	-11.1734
▁Blackpool	-11.174
▁sealed	-11.1745
▁extension	-11.175
▁donate	-11.1751
▁attractive	-11.1752
enberg	-11.1752
▁Gh	-11.1754
▁severely	-11.1759
▁relaxed	-11.1761
boat	-11.1762
▁principle	-11.1766
▁cease	-11.1767
▁cage	-11.1768
▁Larry	-11.1772
▁BA	-11.1775
▁Knox	-11.1777
▁deploy	-11.1778
▁operated	-11.1782
▁prostitute	-11.1783
▁raping	-11.1784
▁Heathrow	-11.1788
▁Ghana	-11.1789
▁frustrated	-11.1793
▁tissue	-11.1793
▁Fight	-11.1796
,600	-11.1804
▁mosque	-11.1805
▁protective	-11.1809
▁NYPD	-11.181
▁Bieber	-11.181
▁starred	-11.1813
▁cooking	-11.1814
▁converted	-11.1817
ography	-11.1818
▁blanket	-11.1822
▁climbed	-11.1824
▁mob	-11.1826
▁disciplinary	-11.1826
▁intensive	-11.1826
,300	-11.1827
▁Nancy	-11.1827
Any	-11.183
▁deck	-11.183
▁tire	-11.183
▁mortgage	-11.1831
hard	-11.1837
▁cartoon	-11.1848
▁Foster	-11.1849
▁explanation	-11.1864
▁Tech	-11.1865
▁invasion	-11.1869
▁TSA	-11.187
eastern	-11.1874
▁dementia	-11.1875
▁Bir	-11.1879
▁communicate	-11.188
▁entrepreneur	-11.188
▁reopen	-11.1881
▁labour	-11.1882
▁Orleans	-11.1886
▁Ryder	-11.1886
▁underwater	-11.1886
▁Lock	-11.1888
▁somewhere	-11.1889
▁exhibit	-11.189
asse	-11.1891
▁Brussels	-11.1891
▁tipped	-11.1895
▁burglar	-11.1899
treat	-11.1902
▁quake	-11.1902
▁cinema	-11.1903
▁consent	-11.1904
▁slide	-11.1907
▁reunited	-11.1913
▁shouting	-11.1913
▁Guinea	-11.1913
▁rope	-11.1914
▁addiction	-11.192
▁Billy	-11.1922
▁Governor	-11.1924
▁smuggle	-11.1924
▁Hannah	-11.1924
▁threaten	-11.1928
Pro	-11.1934
▁nightmare	-11.1935
▁Dead	-11.1937
▁chaos	-11.1941
▁prompting	-11.1944
▁counterpart	-11.1952
▁dump	-11.1954
▁Bundesliga	-11.1957
▁injection	-11.1964
▁Len	-11.1965
▁Summer	-11.1965
▁Model	-11.1966
▁kilo	-11.1967
▁hint	-11.1968
ibility	-11.1968
▁Harrison	-11.1979
▁Soviet	-11.1979
▁rough	-11.1984
▁stopping	-11.1987
▁smiling	-11.199
▁Somali	-11.1992
▁Labor	-11.1992
▁cheaper	-11.1993
▁random	-11.1993
▁DJ	-11.1994
▁nomination	-11.1996
▁lorry	-11.1996
third	-11.2
▁adjust	-11.2002
▁associate	-11.2003
▁promoting	-11.2007
▁bullying	-11.2012
▁spider	-11.2012
▁Joshua	-11.2023
▁ditch	-11.2026
▁describing	-11.2034
▁Barca	-11.2048
▁Neville	-11.2055
▁Norwich	-11.2056
standing	-11.2058
▁Members	-11.2061
▁deficit	-11.2062
▁gallery	-11.2063
viv	-11.2063
▁Woman	-11.2065
▁lengthy	-11.2065
▁prank	-11.2067
▁Thatcher	-11.2067
▁Bobby	-11.2068
▁chant	-11.2071
▁carefully	-11.2072
▁Orange	-11.2074
▁massacre	-11.2074
▁wishes	-11.2077
▁Happy	-11.2079
▁excuse	-11.2079
▁Keane	-11.2082
▁category	-11.2084
▁preliminary	-11.2084
▁Appeal	-11.2084
▁damaging	-11.2085
US	-11.2085
▁Clo	-11.2086
▁offense	-11.2087
▁pledge	-11.2087
mitted	-11.2088
▁Yard	-11.209
▁Zimbabwe	-11.209
▁abusing	-11.209
▁Dennis	-11.209
space	-11.2095
▁Bou	-11.2096
▁slap	-11.2096
▁Pass	-11.21
team	-11.2104
▁sprint	-11.2106
▁Dorset	-11.2108
▁Bath	-11.2108
igan	-11.2111
▁consist	-11.2111
▁define	-11.2112
▁Interior	-11.2112
▁crackdown	-11.2114
▁shoe	-11.2117
▁franchise	-11.2118
▁Sab	-11.2122
▁Vol	-11.2128
▁marathon	-11.2129
▁Hai	-11.2132
▁compromise	-11.2134
▁Freedom	-11.2135
▁pornography	-11.214
▁thigh	-11.2146
▁swap	-11.2147
▁confess	-11.2148
▁lone	-11.2152
▁defect	-11.2162
▁cab	-11.2167
▁Right	-11.2167
▁erupted	-11.2168
▁Peru	-11.2168
▁everyday	-11.217
▁puppy	-11.2174
▁Palmer	-11.2175
▁percentage	-11.2178
▁Benjamin	-11.2179
▁Sharapova	-11.2179
▁frustration	-11.2179
market	-11.2181
▁Cast	-11.2183
▁chronic	-11.2185
▁Point	-11.2186
▁dip	-11.2187
▁Polish	-11.2188
▁Clare	-11.219
▁RSPCA	-11.2191
▁persuade	-11.2191
▁phase	-11.2192
▁Welbeck	-11.2196
▁Study	-11.2196
earn	-11.2199
▁Transportation	-11.22
▁leather	-11.2202
▁commissioner	-11.2202
▁submitted	-11.2205
▁Made	-11.2206
▁Liberal	-11.2213
▁pants	-11.2215
▁Jill	-11.2222
▁carpet	-11.2222
▁Maine	-11.2223
▁travellers	-11.2225
▁Later	-11.2225
▁expression	-11.2232
▁solely	-11.2236
▁filing	-11.2237
▁Question	-11.2241
▁Weather	-11.2241
▁staggering	-11.2247
▁Hamas	-11.2251
▁artwork	-11.2251
▁oxygen	-11.2253
▁qualified	-11.2253
▁Take	-11.2253
▁arguing	-11.2258
▁provision	-11.2261
▁Attack	-11.2264
▁PGA	-11.227
60,000	-11.2275
CB	-11.228
▁destruction	-11.2286
▁Hurricane	-11.2292
▁ninth	-11.2292
▁ambition	-11.2292
▁duck	-11.2293
▁ranks	-11.2293
▁volcano	-11.2298
▁recognition	-11.2304
▁Energy	-11.2304
▁ripped	-11.2305
▁Hand	-11.2311
▁heels	-11.2314
▁dash	-11.2315
▁expire	-11.2319
▁Have	-11.2323
▁currency	-11.2326
▁rubbish	-11.2326
new	-11.2329
▁gentle	-11.2334
▁Trade	-11.2338
▁uncertain	-11.2344
▁Highway	-11.2344
▁risen	-11.2346
▁drain	-11.2346
▁Hunter	-11.2348
▁Gabriel	-11.2349
▁Pur	-11.235
▁consumption	-11.2361
▁junior	-11.2361
▁provider	-11.2363
▁description	-11.2366
▁statistics	-11.2366
▁Information	-11.2366
▁weighing	-11.2367
▁rage	-11.237
▁acres	-11.2382
▁holder	-11.2383
▁waist	-11.2384
▁Petr	-11.2386
▁Kane	-11.2393
▁isolated	-11.2395
▁attendant	-11.2399
▁ethic	-11.24
▁urgent	-11.2403
corn	-11.2404
▁thief	-11.2407
▁relation	-11.2408
threatening	-11.2414
▁railway	-11.2416
▁diving	-11.2416
▁Richardson	-11.2416
▁Community	-11.2418
▁jewellery	-11.2418
▁Scr	-11.2423
▁hike	-11.2427
▁FAA	-11.2429
▁wipe	-11.243
▁beaches	-11.2439
▁Wilshere	-11.2447
▁sandwich	-11.2447
▁realize	-11.2449
▁difficulties	-11.2449
▁lend	-11.2449
▁82	-11.2452
▁depart	-11.2458
▁steel	-11.2459
▁oversee	-11.2463
▁Kardashian	-11.2464
▁Pistorius	-11.2464
▁literally	-11.2464
TE	-11.2465
▁tune	-11.2467
▁sculpture	-11.247
▁violated	-11.2472
▁stripped	-11.2473
▁Nigerian	-11.2475
▁Alzheimer	-11.2476
▁Chavez	-11.2476
▁canceled	-11.2477
▁circuit	-11.2487
70,000	-11.2487
▁PSG	-11.2488
▁Swan	-11.2488
▁admission	-11.2488
▁remark	-11.249
▁respectively	-11.2493
▁urban	-11.2493
▁Eye	-11.2493
▁Lucas	-11.2493
good	-11.2494
▁briefly	-11.2498
▁Terri	-11.2498
▁Allardyce	-11.2499
▁Carroll	-11.2501
▁£15	-11.2502
hurst	-11.2504
▁Palm	-11.2504
owski	-11.2504
▁Sebastian	-11.2505
▁Snow	-11.2507
▁confidential	-11.2508
▁Fear	-11.2509
▁Hugo	-11.251
▁forensic	-11.2513
▁Full	-11.2514
Even	-11.2515
▁pupil	-11.2519
omic	-11.2519
lou	-11.252
▁slave	-11.2521
Every	-11.2527
▁RAF	-11.2534
▁vanished	-11.2537
osis	-11.2538
▁dominated	-11.2538
▁infrastructure	-11.254
▁recession	-11.254
▁carriage	-11.254
▁creator	-11.254
▁losses	-11.2541
▁Sharp	-11.2543
▁searches	-11.2556
▁recognised	-11.2559
▁Golf	-11.2562
▁Bennett	-11.2563
▁Coroner	-11.2563
▁Nasa	-11.2566
▁crocodile	-11.2569
▁dolphin	-11.2569
▁eligible	-11.2569
▁Taiwan	-11.2569
▁jeans	-11.2569
▁Owner	-11.2569
▁rob	-11.2574
▁Shah	-11.2582
▁Rory	-11.2582
▁Warner	-11.2588
▁Kha	-11.2593
scale	-11.2594
clear	-11.2596
▁scientist	-11.2597
▁superb	-11.2597
▁CLICK	-11.2604
▁Federation	-11.2604
▁venture	-11.2604
▁patch	-11.2605
▁scare	-11.2608
▁Bulgaria	-11.261
valu	-11.2616
▁jurors	-11.2622
▁Front	-11.2622
▁Peace	-11.2624
▁mysterious	-11.2628
quality	-11.2628
▁unaware	-11.2633
▁fiction	-11.2633
▁guitar	-11.2639
▁legacy	-11.2643
▁trash	-11.2643
▁fever	-11.2656
▁Lancaster	-11.2657
▁logo	-11.2659
▁QC	-11.2667
▁Lebanon	-11.2669
▁Nicholas	-11.2669
▁Novak	-11.267
▁sneak	-11.2675
▁Close	-11.2678
feld	-11.2686
▁protein	-11.2687
▁gross	-11.2687
▁apologize	-11.2691
▁courage	-11.2698
▁79	-11.2699
▁lean	-11.27
▁electrical	-11.2702
▁Jerry	-11.2705
▁hacking	-11.2705
▁Boris	-11.2706
▁trap	-11.2709
▁Guardian	-11.271
▁audit	-11.2711
▁Tyler	-11.2715
▁coup	-11.2715
▁bronze	-11.2716
▁homosexual	-11.2716
▁feedback	-11.2718
▁Jobs	-11.2722
▁underneath	-11.2722
▁autumn	-11.2728
▁prestigious	-11.2728
▁thieves	-11.2728
▁McLaren	-11.2734
▁ordinary	-11.2734
▁gown	-11.2734
▁Esp	-11.2737
▁frequent	-11.2739
GB	-11.2753
▁rip	-11.2753
▁bush	-11.2763
▁ceiling	-11.2764
▁enhance	-11.2764
▁Count	-11.2765
▁corporate	-11.277
▁diagnosis	-11.277
▁terrified	-11.277
▁84	-11.277
▁furniture	-11.2781
▁cancel	-11.2786
▁Number	-11.2789
▁smooth	-11.2793
▁stall	-11.2796
▁intervene	-11.2796
▁Grove	-11.2796
strong	-11.2797
pound	-11.2798
▁shortage	-11.2801
▁fatally	-11.2806
▁brick	-11.2807
▁anymore	-11.2808
▁Cost	-11.281
▁judgment	-11.2811
▁handgun	-11.2811
▁Tha	-11.2816
,800	-11.2821
▁pure	-11.2822
▁disgrace	-11.2823
▁Rush	-11.283
▁Audi	-11.2832
leigh	-11.2832
▁fetch	-11.2832
▁affidavit	-11.2841
▁rapidly	-11.2844
▁Step	-11.2846
▁racism	-11.2847
▁£30	-11.2851
▁Congo	-11.2851
▁unveil	-11.2859
▁governing	-11.2862
▁subsequently	-11.2863
▁Disease	-11.2865
▁Mata	-11.2873
▁fabric	-11.2877
▁nursing	-11.2877
▁seizure	-11.2877
▁wider	-11.288
link	-11.2881
▁Blanc	-11.2889
▁aftermath	-11.289
cca	-11.2893
▁Baltimore	-11.2902
▁ultimate	-11.2907
▁deliberately	-11.2908
▁stag	-11.2909
▁Change	-11.2911
▁eBay	-11.2914
▁freeze	-11.2919
▁engage	-11.292
▁Challenge	-11.292
▁Ruth	-11.2922
▁residential	-11.2922
government	-11.2926
▁Ecuador	-11.2932
▁stranded	-11.2932
▁£100	-11.2933
▁Charge	-11.2934
▁diplomat	-11.2937
▁Colombian	-11.2937
▁automatically	-11.2938
▁nude	-11.2938
▁Photographer	-11.295
▁syndrome	-11.2956
▁Casey	-11.2962
▁Arthur	-11.2963
▁endorse	-11.2965
▁Colin	-11.2967
▁Khal	-11.2967
▁removing	-11.2968
▁Durham	-11.2968
▁reduction	-11.297
▁cruelty	-11.2971
▁lightning	-11.2972
▁Spa	-11.2977
▁ultra	-11.2981
▁Linda	-11.2981
▁Samaritan	-11.2987
▁conceal	-11.2987
western	-11.2988
▁inspect	-11.2988
▁reckless	-11.2993
▁Delta	-11.2994
▁slot	-11.2996
making	-11.2997
▁overweight	-11.3
▁Factor	-11.3003
▁FDA	-11.3009
▁III	-11.301
shaped	-11.3015
▁stupid	-11.3017
▁surrender	-11.3017
▁Perth	-11.3021
▁grandchildren	-11.3023
▁phrase	-11.3023
▁Bird	-11.3026
▁mug	-11.3026
▁Half	-11.3027
▁sketch	-11.3029
▁advise	-11.3033
Chi	-11.3035
▁www	-11.3048
▁tongue	-11.3049
▁laser	-11.305
▁formation	-11.3053
clusive	-11.3058
▁81	-11.3063
▁rode	-11.3063
▁performer	-11.3065
▁slept	-11.3066
▁borrow	-11.3066
▁promising	-11.3066
▁rapper	-11.3072
▁seemingly	-11.3079
▁trademark	-11.3079
▁83	-11.308
▁overwhelming	-11.3084
▁Jenkins	-11.3085
about	-11.3088
▁Hur	-11.309
▁Mitt	-11.3096
▁deputies	-11.3097
▁£1,000	-11.3097
▁Jews	-11.3104
▁Staffordshire	-11.3109
▁Cott	-11.3109
▁Diamond	-11.3116
craft	-11.3132
▁Ancelotti	-11.3134
game	-11.3134
▁margin	-11.3135
▁washed	-11.3135
fact	-11.314
poke	-11.314
▁Denmark	-11.314
▁Shanghai	-11.3146
▁regain	-11.3146
fair	-11.3149
▁downtown	-11.315
▁vow	-11.3158
▁whip	-11.316
▁Palin	-11.3163
▁academy	-11.3165
▁Eagle	-11.3165
▁Berry	-11.3167
▁acid	-11.3173
▁£16	-11.3173
▁handful	-11.3175
beat	-11.3178
▁Village	-11.3183
▁Vettel	-11.3183
▁wicket	-11.3183
▁tribunal	-11.319
▁skirt	-11.319
▁charging	-11.3196
▁implicat	-11.32
▁cycling	-11.3202
▁skill	-11.3203
▁detective	-11.3207
▁Kara	-11.3208
▁removal	-11.3208
▁Liberia	-11.321
▁chemotherapy	-11.3214
▁Portland	-11.3216
▁dining	-11.3216
▁careful	-11.3217
▁formally	-11.3218
▁Farage	-11.3224
▁Arkansas	-11.3233
▁accusing	-11.3233
▁Liam	-11.3234
▁Prize	-11.3237
▁freezing	-11.3244
▁Felipe	-11.3252
▁hurricane	-11.3252
▁lobby	-11.3252
▁Battle	-11.3252
▁Barnes	-11.3259
▁Jeffrey	-11.3265
▁commentary	-11.3268
▁Borussia	-11.3271
▁showcase	-11.3272
▁endured	-11.3277
▁Thames	-11.3284
▁discount	-11.3287
▁Napoli	-11.3288
▁grandson	-11.3292
▁Gadhafi	-11.3296
▁clinical	-11.3296
▁Transport	-11.3299
▁patent	-11.3302
▁bang	-11.3303
▁Auto	-11.3307
▁Cliff	-11.3309
▁Ramsey	-11.3309
▁FOR	-11.3313
▁golden	-11.3315
Why	-11.3315
▁Stanley	-11.3315
▁Organization	-11.3321
▁corporation	-11.3321
▁exhaust	-11.3321
▁indeed	-11.3321
▁3-2	-11.3321
▁Claims	-11.3334
▁admire	-11.3335
deep	-11.3336
▁organized	-11.3338
▁Mason	-11.334
▁Bloomberg	-11.334
Today	-11.3341
▁Match	-11.3344
▁abducted	-11.3346
Sometimes	-11.3349
▁spotlight	-11.3359
▁overturned	-11.3359
▁mechanic	-11.3366
▁Mou	-11.3369
▁Harvard	-11.3372
▁Express	-11.3375
▁unlawful	-11.3378
▁unrest	-11.3382
▁Criminal	-11.3384
▁Berg	-11.3389
▁Norfolk	-11.3391
▁obese	-11.3393
▁embarrassing	-11.3397
▁splash	-11.34
▁Jamaica	-11.3403
▁jersey	-11.3403
▁mill	-11.3405
watch	-11.3409
▁terrifying	-11.341
▁unbeaten	-11.341
▁Ivory	-11.341
▁Beth	-11.341
▁Style	-11.3417
▁rehab	-11.3419
▁inspire	-11.343
▁deposit	-11.343
▁elaborate	-11.3435
▁Abdullah	-11.3441
▁Search	-11.3443
▁Executive	-11.3454
▁NSA	-11.3454
▁Pick	-11.3456
▁accomplish	-11.3461
▁Pearson	-11.3461
▁excessive	-11.3464
▁Cox	-11.347
▁Fisher	-11.3472
▁Veteran	-11.3473
▁accommodation	-11.3473
▁treasure	-11.3473
▁Jac	-11.3476
wave	-11.3477
▁confused	-11.348
▁Zara	-11.348
▁Fish	-11.3482
▁hire	-11.3484
▁nominated	-11.3486
action	-11.3486
▁emerging	-11.3493
▁recipe	-11.3493
▁amateur	-11.3493
heat	-11.3494
▁anxiety	-11.3499
▁blonde	-11.3499
▁abandon	-11.3502
▁library	-11.3505
▁burger	-11.3509
▁plain	-11.3514
▁charities	-11.3518
▁Halloween	-11.3525
▁Stefan	-11.3526
▁undercover	-11.3529
▁Prevention	-11.3531
▁hypo	-11.3531
▁Etihad	-11.3538
▁premiere	-11.3541
▁expectations	-11.3546
▁contribute	-11.3548
▁rebuild	-11.3549
Neill	-11.355
▁analyse	-11.3551
▁snatch	-11.3557
▁supplier	-11.3557
cross	-11.3557
▁negotiate	-11.3563
▁unpaid	-11.3563
▁chamber	-11.3563
tribute	-11.3567
▁privilege	-11.357
▁agenda	-11.357
▁copies	-11.3576
ROLL	-11.3576
▁Ozil	-11.3576
logical	-11.3585
▁tele	-11.3587
▁Shiite	-11.3593
large	-11.3594
▁88	-11.3595
▁Cameroon	-11.3596
▁classified	-11.36
▁basement	-11.3602
wall	-11.3606
▁chop	-11.3606
▁Talk	-11.3611
▁1.5	-11.3616
▁lure	-11.3621
▁spectator	-11.3622
▁excess	-11.3625
▁bucket	-11.3628
▁explicit	-11.3628
▁Iceland	-11.3628
▁banner	-11.3629
▁Bee	-11.3632
▁Neighbour	-11.3635
▁Erik	-11.3639
▁revenge	-11.3641
▁Victorian	-11.3644
▁coincide	-11.3648
▁Julia	-11.3651
▁satisfied	-11.3667
▁cult	-11.3668
▁steer	-11.3674
▁indicted	-11.3687
▁Political	-11.3693
▁practical	-11.3693
▁wreckage	-11.3696
▁ballot	-11.3699
▁dictator	-11.37
▁Speaker	-11.37
▁enemy	-11.37
▁Tea	-11.3703
▁Eddie	-11.3704
▁Sunni	-11.3705
▁courtroom	-11.3706
▁Tsarnaev	-11.3706
▁Harvey	-11.3706
credible	-11.3712
▁Robertson	-11.3714
▁Ellis	-11.3717
▁eager	-11.372
▁Division	-11.3722
▁86	-11.3729
▁Horn	-11.373
▁delight	-11.3732
▁Rugby	-11.3733
▁Elliot	-11.3733
▁Coleman	-11.3734
▁Stephanie	-11.3739
▁Christine	-11.3739
▁drunken	-11.3743
▁Sarkozy	-11.3746
▁demonstrators	-11.3746
▁motorcycle	-11.3746
▁deciding	-11.3746
▁concentrate	-11.3746
▁Found	-11.3752
▁radiation	-11.3752
▁completing	-11.3752
▁stance	-11.3753
▁Kenyan	-11.3758
▁swallow	-11.3759
hawk	-11.376
selling	-11.3762
▁ferry	-11.3767
▁instructions	-11.3772
▁commemorat	-11.3772
▁Hazard	-11.3772
▁Market	-11.3774
,700	-11.3777
▁6-1	-11.3784
▁Grim	-11.3785
▁conceded	-11.3792
▁raw	-11.3792
▁intercept	-11.3794
▁Body	-11.3797
▁precaution	-11.3798
Through	-11.3798
▁hometown	-11.3803
▁visual	-11.3805
▁4-0	-11.3812
▁reducing	-11.3818
▁eaten	-11.3821
▁councillor	-11.3822
▁WW	-11.3824
▁Military	-11.3825
▁guidance	-11.3831
▁Target	-11.3831
▁conservation	-11.3845
▁Thanksgiving	-11.3851
▁folk	-11.3851
Invest	-11.3854
▁Glass	-11.3862
▁Tampa	-11.3862
▁announcing	-11.3865
▁motivated	-11.3865
▁clot	-11.3867
▁revive	-11.3868
▁forgotten	-11.3871
▁Dhabi	-11.3872
▁gunmen	-11.3873
▁confrontation	-11.3885
▁leaf	-11.3885
▁villa	-11.3888
▁nest	-11.3891
▁lottery	-11.3891
▁friendship	-11.3892
▁Norwegian	-11.3898
▁transcript	-11.3905
▁volume	-11.3918
▁Help	-11.3924
▁Ref	-11.3925
▁legendary	-11.3937
▁administrator	-11.3938
▁depth	-11.3938
▁schoolgirl	-11.394
Maybe	-11.3941
▁BMW	-11.3945
▁sailor	-11.3949
▁Glenn	-11.395
▁Driver	-11.3951
▁endangered	-11.3952
▁biological	-11.3953
▁companion	-11.3958
▁Blackburn	-11.3973
body	-11.3978
▁Development	-11.3978
▁Editor	-11.398
▁Tehran	-11.3985
▁lethal	-11.3997
▁hungry	-11.3997
▁disturbing	-11.3999
▁Management	-11.3999
▁Cruise	-11.4004
▁Athletic	-11.4005
▁foster	-11.4005
▁drought	-11.4012
▁Lawyer	-11.4013
author	-11.4015
▁psychological	-11.4019
▁Survey	-11.4019
▁successive	-11.4019
▁fox	-11.402
ucci	-11.4023
▁McCarthy	-11.4026
▁temporarily	-11.4026
▁1988	-11.4026
▁slice	-11.4036
stick	-11.404
▁perspective	-11.4046
▁Harper	-11.4049
▁subway	-11.4052
▁Griffith	-11.4059
▁gotten	-11.4065
▁Lyon	-11.4065
park	-11.4066
▁1986	-11.4066
▁adoption	-11.4067
▁controller	-11.4067
▁Coalition	-11.4073
▁Heather	-11.4073
course	-11.4077
▁artificial	-11.408
▁pedestrian	-11.408
▁Song	-11.4081
brook	-11.4082
firm	-11.4089
▁Liz	-11.4091
▁tale	-11.4092
▁phenomenon	-11.4093
▁unhappy	-11.4093
operative	-11.4099
▁chasing	-11.41
▁derby	-11.41
▁cocktail	-11.4114
▁blew	-11.4114
▁dramatically	-11.4117
▁casualties	-11.4121
Thank	-11.4124
▁Shin	-11.4126
▁surviving	-11.4127
▁Melissa	-11.4134
▁concentration	-11.4141
▁relegation	-11.4141
▁Anyone	-11.4141
▁Assistant	-11.4148
▁lavish	-11.4155
▁Program	-11.4158
▁Province	-11.4162
▁luggage	-11.4162
▁impress	-11.4165
▁Lynn	-11.4169
▁advisor	-11.4169
▁homeowner	-11.4176
▁Shu	-11.4178
▁Lance	-11.418
inder	-11.4186
▁Merkel	-11.4189
▁athletic	-11.4196
▁collector	-11.4198
▁drum	-11.4198
▁Marshall	-11.4203
▁Romanian	-11.4205
▁Haram	-11.4206
▁Walsh	-11.421
▁prosecuting	-11.421
▁abusive	-11.421
▁instantly	-11.4217
▁Range	-11.4217
▁DOWN	-11.4224
▁Suffolk	-11.4224
▁heritage	-11.4231
▁Rihanna	-11.4237
▁polar	-11.4243
▁lesbian	-11.4244
▁Lennon	-11.4245
serving	-11.4249
▁vomit	-11.4251
▁Aviation	-11.4251
▁translate	-11.4252
▁aviation	-11.4252
▁Preston	-11.4255
Given	-11.4255
▁barrel	-11.4259
▁Direct	-11.426
▁litter	-11.4263
▁unsuccessful	-11.4265
▁fluid	-11.4268
▁commuter	-11.4272
▁disability	-11.4272
▁1982	-11.4293
▁universities	-11.4307
▁Gardner	-11.4307
▁Cairo	-11.4307
▁flock	-11.4308
▁disgust	-11.4313
▁unfold	-11.4314
▁Lamb	-11.432
▁nephew	-11.4321
▁Financial	-11.4327
drive	-11.4328
▁prostitution	-11.4332
▁trousers	-11.4341
▁Vel	-11.4346
▁audio	-11.4348
▁resemble	-11.4348
▁Chairman	-11.4355
▁crystal	-11.4356
▁Lawson	-11.4359
▁alien	-11.4362
witch	-11.4373
▁acknowledge	-11.4374
▁nowhere	-11.4375
magnitude	-11.4376
▁Isle	-11.4381
▁Shane	-11.4384
court	-11.4387
▁cabinet	-11.4388
▁fossil	-11.439
wash	-11.4393
▁disappear	-11.4395
Shabaab	-11.4397
▁hazard	-11.4404
▁airplane	-11.4411
▁flare	-11.4412
▁compare	-11.4413
▁Valentine	-11.4418
▁fundamental	-11.4418
Perhaps	-11.4419
▁existence	-11.4421
▁retrieve	-11.4426
▁Sharon	-11.4432
▁pistol	-11.4433
▁Living	-11.4441
▁subsequent	-11.4442
▁spur	-11.4443
▁Turn	-11.4451
▁modest	-11.4454
smith	-11.4459
▁releasing	-11.4461
▁1984	-11.4461
▁radar	-11.4468
▁Walk	-11.4472
▁Franklin	-11.4473
▁Dakota	-11.4475
▁exceed	-11.4475
From	-11.4481
▁Enrique	-11.4482
▁misdemeanor	-11.4482
▁Hudson	-11.4482
▁impose	-11.4487
▁Boko	-11.4487
▁Horse	-11.4488
▁horrible	-11.4489
▁Born	-11.4492
▁constitutional	-11.4492
▁bodily	-11.4496
▁crawl	-11.4496
▁inject	-11.4502
▁bureau	-11.4503
▁Hugh	-11.4503
▁juvenile	-11.451
▁History	-11.451
▁Leigh	-11.4514
▁awful	-11.4516
▁Suspect	-11.4517
▁evil	-11.4522
▁sacrifice	-11.4524
▁Raheem	-11.4532
▁Romania	-11.4533
▁stir	-11.4533
▁swimmer	-11.4535
▁hail	-11.4537
▁MH	-11.4538
Donnell	-11.454
▁Holder	-11.4548
Everything	-11.4557
▁Bangkok	-11.456
▁relevant	-11.4567
▁knot	-11.4569
▁Nov	-11.4572
▁refund	-11.4575
▁declare	-11.4579
▁testify	-11.458
habit	-11.4581
▁Trump	-11.4584
Mobile	-11.4585
safe	-11.4586
▁cosmetic	-11.4589
▁Marathon	-11.4596
▁ammunition	-11.461
occupied	-11.4617
▁allegation	-11.4619
▁hijack	-11.4625
▁superstar	-11.4627
▁Kurdish	-11.4632
▁certificate	-11.4632
▁tropical	-11.4632
▁Patrol	-11.4632
▁quarterfinal	-11.4634
complete	-11.4639
great	-11.464
▁panda	-11.4645
step	-11.4646
▁bargain	-11.4646
▁passage	-11.4654
▁1,500	-11.4659
▁administer	-11.466
▁Guardiola	-11.466
▁grenade	-11.466
▁parliamentary	-11.4665
▁Schumacher	-11.4675
▁Arrest	-11.4677
▁northwest	-11.4678
▁tsunami	-11.4682
▁scenario	-11.4696
▁silent	-11.4696
▁paw	-11.4703
▁Serena	-11.4705
after	-11.4706
▁cruel	-11.4708
▁chic	-11.4709
▁latter	-11.4719
▁rubber	-11.4719
▁Arctic	-11.472
▁Algeria	-11.472
▁spike	-11.4721
▁Journalist	-11.4724
▁rumours	-11.4725
▁Official	-11.4731
traumatic	-11.4735
▁quote	-11.4738
▁Gonzalez	-11.474
▁Santos	-11.4742
public	-11.4745
▁pioneer	-11.4747
eff	-11.4752
▁submit	-11.4752
▁nominee	-11.4754
grand	-11.4755
▁Uganda	-11.4755
▁palace	-11.4755
▁sauce	-11.4755
▁complications	-11.4762
▁monarch	-11.4762
▁sack	-11.4762
▁swift	-11.4769
▁Bangladesh	-11.4776
Most	-11.4777
▁VA	-11.478
▁Economic	-11.4784
Whether	-11.4784
▁tribe	-11.4791
▁Singer	-11.4793
▁Cambodia	-11.4798
▁Merseyside	-11.4798
▁Keep	-11.48
▁Cohen	-11.48
▁attendance	-11.4809
▁Hack	-11.4812
▁eco	-11.482
▁console	-11.4821
▁Crist	-11.4825
▁postpone	-11.4833
▁enforce	-11.4834
▁Storm	-11.4836
▁Doug	-11.4836
▁lens	-11.4838
▁complicated	-11.4849
▁navy	-11.4852
▁lace	-11.4857
▁Fast	-11.4857
▁theatre	-11.4869
▁authentic	-11.4871
funded	-11.4878
▁Hispanic	-11.4879
▁presidency	-11.4879
▁oppose	-11.4885
▁collided	-11.4886
▁premature	-11.4886
▁tobacco	-11.4886
▁stroll	-11.489
▁powder	-11.4894
▁retreat	-11.4895
▁northeast	-11.4897
▁embarrassed	-11.4901
▁hormone	-11.4901
▁rehabilitation	-11.4901
▁Rhode	-11.4901
▁Drogba	-11.4908
▁Floyd	-11.4908
▁2-2	-11.491
▁regardless	-11.4913
▁1979	-11.4916
▁passionate	-11.492
▁fool	-11.4933
▁calf	-11.4933
▁Write	-11.4938
ordinate	-11.4942
▁gut	-11.4944
▁Mumbai	-11.4945
▁extract	-11.4947
solve	-11.4949
▁Francois	-11.4953
▁Tunisia	-11.4953
▁Danish	-11.4955
▁aerial	-11.4956
▁vocal	-11.496
▁bribe	-11.4968
▁bicycle	-11.4975
▁qualification	-11.4975
▁whistle	-11.4975
▁casino	-11.4975
▁ownership	-11.4978
▁Bournemouth	-11.4982
▁scholar	-11.4982
▁purse	-11.499
▁Ramos	-11.4995
▁Natalie	-11.4997
▁Metro	-11.5001
▁Hussein	-11.5005
▁Sergeant	-11.5005
▁maintenance	-11.5005
▁1987	-11.5005
▁Guinness	-11.5005
▁Theresa	-11.5007
▁washing	-11.5011
▁estranged	-11.5012
▁Honda	-11.5012
▁investigator	-11.5013
▁Pedro	-11.5013
▁immune	-11.502
▁feat	-11.5026
inhua	-11.5027
▁Reagan	-11.5035
▁stability	-11.5035
▁Madison	-11.5043
▁shipping	-11.5044
▁Rosie	-11.5045
▁epic	-11.5055
▁Toyota	-11.5057
▁liberal	-11.5057
▁generous	-11.5057
▁Chester	-11.5061
media	-11.5063
▁glow	-11.5064
▁queue	-11.5065
▁Jerusalem	-11.5072
▁excitement	-11.5072
▁membership	-11.5075
jack	-11.5075
▁champagne	-11.508
▁distribution	-11.508
▁injuring	-11.508
▁Technology	-11.5087
▁serial	-11.5087
▁moderate	-11.5087
partisan	-11.509
▁Logan	-11.5091
▁preferred	-11.5091
▁partially	-11.5095
▁Watt	-11.5097
▁pursuit	-11.5102
▁Dozens	-11.5102
▁grid	-11.5105
▁horrified	-11.511
▁verbal	-11.511
Obviously	-11.5117
▁plug	-11.5117
▁basically	-11.512
▁militia	-11.5125
▁premium	-11.5125
▁vicious	-11.5125
▁ladies	-11.5125
▁servant	-11.5132
direct	-11.5136
▁Istanbul	-11.514
▁clutch	-11.514
▁Montana	-11.5142
▁headache	-11.515
▁Bloom	-11.5154
▁Chambers	-11.5155
Because	-11.5159
▁$100,000	-11.5163
▁Berlusconi	-11.5163
▁Firefighters	-11.5163
▁Footage	-11.5163
▁glamorous	-11.5163
▁paedophile	-11.5163
▁burial	-11.5163
▁Liberty	-11.517
▁Homeland	-11.5173
▁Pitt	-11.5179
▁renowned	-11.5185
▁jihadist	-11.5189
▁Murdoch	-11.5193
▁System	-11.5193
▁instructor	-11.5193
▁netted	-11.5197
▁Raj	-11.5199
oose	-11.5201
▁Dawn	-11.5208
girlfriend	-11.5213
▁congressional	-11.5216
▁evacuation	-11.5216
▁scrutiny	-11.5216
▁Globe	-11.5216
trained	-11.5216
▁Nepal	-11.5216
▁Cosby	-11.5217
▁Sochi	-11.5217
▁2018	-11.5217
▁Benedict	-11.5223
▁southwest	-11.5224
▁Nobel	-11.5229
▁thousand	-11.5231
▁blogger	-11.5235
▁Never	-11.5236
▁Gibson	-11.5239
▁drowned	-11.5239
▁rub	-11.5245
▁confront	-11.5247
▁Dublin	-11.5254
▁hamstring	-11.5269
▁imprisonment	-11.5277
▁7-6	-11.5277
cultural	-11.5283
▁Cesc	-11.5285
▁fundraising	-11.5292
▁Seoul	-11.5292
▁legitimate	-11.53
▁Pippa	-11.53
▁prompt	-11.5306
▁miracle	-11.5307
▁patron	-11.5307
▁2017	-11.531
▁brawl	-11.5323
▁overdose	-11.5324
▁bikini	-11.5331
▁volley	-11.5331
▁banning	-11.5336
▁potato	-11.5338
▁pollution	-11.5354
lapse	-11.5355
▁Kabul	-11.5357
self	-11.5358
▁disappointment	-11.5361
▁Opinion	-11.5361
Germain	-11.5366
▁Antarctic	-11.5369
▁centuries	-11.5369
▁clinch	-11.5369
▁bay	-11.5375
▁Consumer	-11.5377
▁experiencing	-11.5377
▁Luiz	-11.5394
▁Room	-11.5396
▁squeeze	-11.54
▁interfere	-11.5403
▁trim	-11.5409
▁hub	-11.5409
▁Place	-11.5411
▁kidnap	-11.5414
▁Raymond	-11.5417
shock	-11.5417
▁supplement	-11.5423
▁kitten	-11.5426
▁brake	-11.5429
▁glimpse	-11.5431
▁Cricket	-11.5431
▁clever	-11.5431
world	-11.5438
▁Bahrain	-11.5439
▁Koeman	-11.5439
▁shaking	-11.5439
▁rapid	-11.5444
▁Pacquiao	-11.5455
▁administrative	-11.5455
▁intimate	-11.5455
▁convince	-11.5455
▁formula	-11.5459
▁Self	-11.5459
▁decrease	-11.5462
▁transmit	-11.5462
▁Fletcher	-11.547
▁Myanmar	-11.547
▁spacecraft	-11.5472
▁Hook	-11.5475
build	-11.548
▁stairs	-11.5486
▁Mauricio	-11.5494
▁nutrition	-11.5494
▁extradition	-11.5494
writer	-11.5494
▁inflation	-11.5494
▁grief	-11.5501
▁Bosnia	-11.5502
▁Olympia	-11.5509
▁shelves	-11.5509
▁Lohan	-11.5511
▁troll	-11.5514
▁Javier	-11.5517
▁bidding	-11.5521
▁labelled	-11.5524
▁committing	-11.5531
▁compatriot	-11.5533
▁hashtag	-11.5533
▁necessarily	-11.5533
▁glory	-11.5537
▁Elementary	-11.5541
▁unnecessary	-11.5541
Brien	-11.5541
▁Wallace	-11.5542
▁charm	-11.5544
▁Dylan	-11.5544
▁manufacturing	-11.5549
▁Pyongyang	-11.5556
▁rabbit	-11.5556
▁Ibrahimovic	-11.5557
▁script	-11.5564
brand	-11.5567
▁steam	-11.5576
▁Rosa	-11.5578
▁slogan	-11.558
▁goodbye	-11.558
▁Vogue	-11.5583
▁approve	-11.5589
▁Alexandra	-11.5596
▁choosing	-11.5596
▁ignore	-11.5597
▁pond	-11.5601
▁Capitol	-11.5604
▁(£1	-11.5608
▁poured	-11.5612
▁Doctor	-11.5615
▁Constitution	-11.5625
▁burden	-11.5628
▁timing	-11.5628
white	-11.5636
▁Jorge	-11.5636
▁Forbes	-11.5637
▁Mubarak	-11.5643
▁Walmart	-11.5643
▁lingerie	-11.5643
▁Poyet	-11.5644
▁devoted	-11.5651
▁component	-11.5659
▁erect	-11.5664
▁mice	-11.5665
▁astonishing	-11.5667
▁Swift	-11.5667
▁stepping	-11.5669
▁Herrera	-11.5675
▁asteroid	-11.5675
▁steep	-11.5676
▁aisle	-11.5683
▁romance	-11.5683
▁bubble	-11.5683
▁wrongdoing	-11.5683
▁collar	-11.5691
▁curb	-11.5692
▁Intelligence	-11.5707
▁Kenneth	-11.5707
▁database	-11.5707
▁Kensington	-11.5707
▁Parkinson	-11.5715
▁haunt	-11.5716
Trent	-11.5719
▁Until	-11.5719
▁Olivia	-11.5723
▁balcony	-11.5723
▁happiness	-11.5723
▁placing	-11.5723
mortem	-11.5723
▁Amnesty	-11.5731
▁handbag	-11.5731
▁chapter	-11.5739
▁Yahoo	-11.5747
▁tide	-11.5752
▁Jesse	-11.5763
▁efficient	-11.5763
▁Sheikh	-11.5764
▁pepper	-11.5771
▁blade	-11.5772
▁Adelaide	-11.5779
▁Yaya	-11.5794
▁UKIP	-11.5796
▁$10,000	-11.5796
food	-11.5802
▁Shop	-11.5806
▁antibiotic	-11.5812
▁Ambulance	-11.582
▁insurgents	-11.582
▁shield	-11.582
▁Cheryl	-11.5828
▁robbed	-11.5828
▁999	-11.583
▁granddaughter	-11.5844
▁pleasure	-11.5846
▁Corporation	-11.5852
▁tribal	-11.5852
▁shuttle	-11.5861
▁stray	-11.5862
mobile	-11.5864
▁Scout	-11.5869
▁constitution	-11.5872
▁smuggling	-11.5877
▁premier	-11.588
▁assassination	-11.5891
▁habitat	-11.5891
▁thrash	-11.5893
▁Fellow	-11.5893
▁Portsmouth	-11.5893
▁Gerard	-11.5899
▁Celebrity	-11.5901
▁whereabouts	-11.5901
Qu	-11.5909
▁grace	-11.5916
▁Natural	-11.5917
▁loop	-11.5918
▁Johan	-11.5919
▁Reynolds	-11.5925
▁grandparents	-11.5934
▁Chapman	-11.5934
▁4-1	-11.594
▁condolences	-11.5942
▁Plymouth	-11.5942
▁plummet	-11.5942
▁believing	-11.595
▁Cheshire	-11.5956
▁motorway	-11.5958
▁contaminated	-11.5966
▁submarine	-11.5966
▁unemployed	-11.5966
▁spree	-11.5967
▁sophisticated	-11.5975
▁Timothy	-11.5983
▁fulfill	-11.5983
▁Nichols	-11.5991
▁thumb	-11.5991
Chamberlain	-11.5991
▁Fernandez	-11.5999
▁enclosure	-11.5999
▁fireworks	-11.6
Nothing	-11.6009
Although	-11.602
▁quarterback	-11.6022
▁choke	-11.6024
▁gambling	-11.6024
▁£100,000	-11.6024
▁checkpoint	-11.6028
▁shotgun	-11.6041
▁abduction	-11.6049
▁deceased	-11.6049
▁epidemic	-11.6049
▁motorbike	-11.6049
▁temple	-11.6049
▁reluctant	-11.6057
▁vitamin	-11.6057
▁Katherine	-11.6057
▁suitcase	-11.6057
▁filter	-11.6057
psycho	-11.606
▁Amsterdam	-11.6065
quarter	-11.607
▁Tommy	-11.6071
▁ATP	-11.6074
▁observation	-11.609
▁Champion	-11.6094
▁Mirror	-11.6099
▁innocence	-11.6099
▁slaughter	-11.6099
▁remorse	-11.6099
▁displaced	-11.6102
▁Spot	-11.6104
▁Miranda	-11.6107
▁supervisor	-11.6107
running	-11.6107
▁freak	-11.6107
▁absolute	-11.6113
▁Twenty	-11.6115
▁identification	-11.6124
▁prototype	-11.6124
▁Scholes	-11.6124
▁Heritage	-11.6132
▁citizenship	-11.6134
▁swam	-11.6135
▁Private	-11.614
▁Concern	-11.614
▁manufacture	-11.6146
▁siege	-11.6149
▁ritual	-11.6149
▁await	-11.6156
▁suspend	-11.6156
▁slaying	-11.6157
▁emissions	-11.6166
▁Winston	-11.6166
▁Aberdeen	-11.6174
▁influential	-11.6174
▁hydro	-11.6174
▁Airbus	-11.6174
▁interrupt	-11.6182
▁catwalk	-11.6184
▁shade	-11.6186
▁mild	-11.6192
▁replacing	-11.6199
▁overhaul	-11.6199
▁slope	-11.6199
Chris	-11.6205
▁acquitted	-11.6207
▁DVD	-11.6216
▁mammal	-11.6216
▁lump	-11.6218
▁predecessor	-11.6224
Nobody	-11.6226
▁weird	-11.6228
▁1985	-11.6233
▁joking	-11.6233
▁skate	-11.6236
▁Wozniacki	-11.6241
▁Giggs	-11.6241
▁Building	-11.6249
▁trunk	-11.6249
World	-11.6255
▁wardrobe	-11.6266
▁Holiday	-11.6266
▁Neither	-11.6266
▁Hilton	-11.6277
▁candle	-11.6278
▁vintage	-11.6283
▁Clinic	-11.6285
▁pipeline	-11.6286
▁assert	-11.6286
▁precious	-11.6287
built	-11.6289
▁distributed	-11.6292
▁Wheel	-11.6292
▁Hassan	-11.6296
▁skipper	-11.6304
▁ESPN	-11.6309
▁equipped	-11.6309
scape	-11.6312
▁accent	-11.6318
▁combine	-11.632
▁Constable	-11.6326
▁motivation	-11.6334
▁spiral	-11.6334
▁absent	-11.6334
▁Mediterranean	-11.6343
▁context	-11.6343
▁Gregory	-11.6344
▁Berkshire	-11.6351
▁bruises	-11.6351
▁altercation	-11.636
▁Election	-11.636
▁Brent	-11.636
▁Actress	-11.6368
husband	-11.6375
▁determination	-11.6377
▁fortunate	-11.6377
controlled	-11.6377
▁Bianca	-11.6377
▁rhino	-11.6377
▁£10,000	-11.6385
▁Above	-11.6386
▁extinct	-11.6387
▁Zuckerberg	-11.6394
▁blend	-11.6396
▁hilarious	-11.6403
▁psychiatric	-11.6403
▁Worcester	-11.642
▁eruption	-11.642
anticipated	-11.6426
▁uncomfortable	-11.6428
▁buzz	-11.6432
▁axe	-11.6436
▁Starbucks	-11.6437
▁expansion	-11.6437
▁Superior	-11.6437
▁Boehner	-11.6445
▁Pittsburgh	-11.6445
▁Falcon	-11.6446
greg	-11.6446
educated	-11.645
▁Revolution	-11.6454
▁1981	-11.6454
▁merely	-11.6456
▁Plus	-11.6458
▁captive	-11.6463
▁innovation	-11.6463
▁strategic	-11.6471
▁Discovery	-11.6471
▁victories	-11.6471
▁firefighter	-11.6473
▁Radamel	-11.648
▁monster	-11.6489
▁Creek	-11.6501
▁lucrative	-11.6506
▁compiled	-11.6506
▁Conference	-11.6515
▁Blatter	-11.6517
▁cemetery	-11.6523
▁dialogue	-11.6523
▁precise	-11.6523
stricken	-11.6524
▁Netanyahu	-11.6532
▁Travis	-11.6535
▁Jenny	-11.6539
▁Archbishop	-11.6541
▁TMZ	-11.6541
▁applaud	-11.6541
▁Ajax	-11.6541
▁whisk	-11.6541
▁Ethiopia	-11.6549
▁tolerate	-11.6555
▁200,000	-11.6558
▁torch	-11.6558
▁lecture	-11.6584
▁premises	-11.6584
▁brew	-11.6584
▁Junior	-11.6593
▁identical	-11.6593
▁humor	-11.6593
▁mounted	-11.6603
▁reconstruct	-11.6612
▁breakthrough	-11.6619
▁cooperation	-11.6619
▁distraught	-11.6619
▁inquiries	-11.6619
▁Smart	-11.662
▁leopard	-11.6628
▁embark	-11.6628
▁Flower	-11.6628
▁Martha	-11.6628
▁Arnold	-11.6637
▁knives	-11.6654
▁Dawson	-11.6654
▁stint	-11.6655
▁juice	-11.6658
▁streak	-11.6663
▁Muhammad	-11.6681
▁Patriots	-11.6681
integrate	-11.6688
▁Middlesbrough	-11.669
▁judicial	-11.669
▁Blind	-11.669
▁Hammond	-11.6693
▁Gilbert	-11.6699
▁Janeiro	-11.6707
▁Netflix	-11.6716
▁exclud	-11.6716
▁Lindsay	-11.6725
▁accomplice	-11.6725
▁purple	-11.6725
▁airlifted	-11.6743
▁Beyonce	-11.676
▁terrace	-11.676
▁bullied	-11.6762
▁intruder	-11.6769
▁violating	-11.6769
▁tuck	-11.6781
▁Robben	-11.6787
▁Exeter	-11.6787
▁drift	-11.6787
▁collaboration	-11.6796
▁skeleton	-11.6796
▁democratic	-11.6805
▁pavement	-11.6805
▁conclude	-11.681
▁Monroe	-11.6814
▁Alliance	-11.6814
▁Kieran	-11.6814
▁turkey	-11.6823
▁feather	-11.6824
▁Wiltshire	-11.6832
▁engaging	-11.6832
▁Customs	-11.6841
▁introduction	-11.6841
▁Sutton	-11.6841
hearted	-11.6842
▁participating	-11.685
▁prosthetic	-11.685
▁Christina	-11.6859
▁slid	-11.6862
▁cardiac	-11.6868
▁tab	-11.6869
▁pundit	-11.6877
▁0-0	-11.6877
▁rubble	-11.6878
▁medics	-11.6887
▁correspondent	-11.6887
▁evolution	-11.6895
▁Mohammad	-11.6895
▁physician	-11.6895
Everybody	-11.6896
▁arson	-11.6896
productive	-11.6899
▁Meyer	-11.69
▁recipient	-11.6904
▁deported	-11.6904
▁transaction	-11.6904
▁confusion	-11.6905
▁genital	-11.6913
▁Communist	-11.6922
▁accompany	-11.6922
▁Madonna	-11.6922
▁Coventry	-11.6931
▁battered	-11.6931
▁Derek	-11.6931
▁cockpit	-11.694
▁Representative	-11.6949
▁dinosaur	-11.6949
▁thug	-11.6949
▁Ibrahim	-11.6958
▁squirrel	-11.6967
▁Reuters	-11.6967
school	-11.697
▁worship	-11.6976
▁Patricia	-11.6976
▁recreate	-11.6976
▁flavour	-11.6985
▁fiscal	-11.6985
▁Popular	-11.6985
▁calculate	-11.6994
▁assured	-11.6996
▁stylish	-11.7003
▁thunder	-11.7003
▁electro	-11.7006
▁Oakland	-11.7012
▁1983	-11.7012
▁Shadow	-11.7012
▁detainees	-11.7031
▁slur	-11.7031
written	-11.7034
▁Idaho	-11.704
▁Northampton	-11.7044
▁Ivanovic	-11.7049
▁organizers	-11.7058
▁Assembly	-11.7067
▁turtle	-11.7067
▁Third	-11.7069
▁tremendous	-11.7076
▁array	-11.7078
▁Hopkins	-11.7085
▁sentiment	-11.7086
▁Tracy	-11.7089
▁Medicine	-11.7095
▁Peninsula	-11.7095
▁mandatory	-11.7104
control	-11.7117
therapy	-11.7118
changing	-11.7121
▁unbelievable	-11.7122
▁Charlton	-11.7123
▁regulation	-11.7128
▁Griffin	-11.7131
▁Sevilla	-11.7131
▁ambitious	-11.7131
▁Teacher	-11.7135
▁1978	-11.7141
▁Monica	-11.7141
figure	-11.7145
▁McCartney	-11.715
▁comprehensive	-11.715
▁corpse	-11.715
▁airstrikes	-11.7159
Hopefully	-11.7172
▁requir	-11.7173
▁violate	-11.7184
▁Windsor	-11.7187
▁strangled	-11.7187
▁Tweet	-11.7187
▁Primary	-11.7187
▁junk	-11.7189
▁jihad	-11.7201
▁Lallana	-11.7205
▁wrestle	-11.7206
▁Osama	-11.7206
▁Isabel	-11.7206
▁pursuing	-11.7215
▁Curtis	-11.7215
▁Fraser	-11.7216
▁tonnes	-11.7219
▁Superintendent	-11.7224
▁Grammy	-11.7233
storey	-11.724
▁deleted	-11.7243
▁Morocco	-11.7252
▁lounge	-11.7252
▁Barkley	-11.7271
▁err	-11.7278
▁attach	-11.728
▁Schalke	-11.728
▁anxious	-11.728
▁1969	-11.7289
▁gorilla	-11.7289
▁Lisbon	-11.729
boyfriend	-11.7296
▁sank	-11.7296
▁invade	-11.7298
▁Families	-11.7299
▁makeshift	-11.7299
▁Shield	-11.7308
▁frantic	-11.731
▁locate	-11.7315
▁Neighbor	-11.7318
▁Sainsbury	-11.7318
▁retiring	-11.7318
▁adequate	-11.7327
▁Didier	-11.7337
▁wives	-11.7338
▁Chloe	-11.7346
keeping	-11.7352
▁neighbourhood	-11.7357
▁sovereign	-11.7365
▁Falkland	-11.7374
▁invitation	-11.7374
▁medium	-11.7374
▁Lukas	-11.7375
▁Gloucestershire	-11.7384
▁Eventually	-11.7393
▁psychologist	-11.7393
▁flesh	-11.7393
▁($1	-11.7394
zhou	-11.7397
▁landlord	-11.7412
▁convoy	-11.7412
▁Catalan	-11.7412
▁speculate	-11.7421
▁Richmond	-11.7422
▁elder	-11.7423
▁ghost	-11.7423
▁elbow	-11.7431
▁Fabio	-11.7431
▁immigrant	-11.7438
▁obligation	-11.744
▁parachute	-11.745
▁saddened	-11.745
▁ladder	-11.745
▁hedge	-11.7454
▁Benghazi	-11.7459
▁fundraiser	-11.7459
▁Giroud	-11.7459
▁reinforce	-11.746
▁soared	-11.7462
▁Century	-11.7469
▁perception	-11.7469
▁Circuit	-11.7479
▁Magazine	-11.7479
▁capsule	-11.7488
▁Guantanamo	-11.7507
▁cottage	-11.7507
Wilfried	-11.7508
▁invite	-11.7511
▁rumors	-11.7526
▁surgeries	-11.7528
▁Karzai	-11.7536
▁deportation	-11.7536
▁iOS	-11.7546
▁segment	-11.7546
▁Tripoli	-11.7548
▁Blood	-11.7555
▁mutual	-11.7555
▁fortnight	-11.7556
▁FREE	-11.7565
▁Robbie	-11.7566
▁warehouse	-11.7575
▁valid	-11.7575
▁Joint	-11.7575
▁uprising	-11.7594
▁Slovenia	-11.7603
▁separatist	-11.7603
▁CPR	-11.7604
correct	-11.7612
terrorism	-11.7622
▁Elsewhere	-11.7632
▁steady	-11.7633
from	-11.7635
▁temper	-11.7642
▁chunk	-11.7642
▁memorable	-11.7642
▁eagle	-11.7642
▁happier	-11.7652
present	-11.7655
▁integrity	-11.7671
▁harvest	-11.7671
▁1974	-11.7681
▁okay	-11.7681
▁Puerto	-11.7681
▁Nebraska	-11.7691
▁Strauss	-11.7691
▁isolation	-11.7692
▁Reddit	-11.7695
▁tyre	-11.7695
▁Immigration	-11.7701
▁optimistic	-11.7701
▁govern	-11.7704
▁intelligent	-11.771
▁universe	-11.771
▁Beverly	-11.771
▁password	-11.772
▁unharmed	-11.772
▁1972	-11.772
▁Deborah	-11.774
▁Pietersen	-11.774
cliffe	-11.774
▁Ipswich	-11.7749
▁Madeleine	-11.7749
▁unarmed	-11.775
▁cleric	-11.775
▁Malcolm	-11.7759
▁veterinar	-11.7759
▁awkward	-11.7759
▁Resort	-11.7769
▁Brotherhood	-11.777
▁Accused	-11.7789
▁monument	-11.7789
bourne	-11.779
▁fond	-11.78
▁McKe	-11.7806
▁Hertfordshire	-11.7818
▁Mugabe	-11.7818
▁penguin	-11.7818
▁Regional	-11.7818
▁disguise	-11.7819
▁Kompany	-11.7838
▁1977	-11.7858
▁humble	-11.7858
▁hyper	-11.7858
▁throne	-11.7868
▁tycoon	-11.7868
▁Statistics	-11.7888
▁tick	-11.7895
▁imprisoned	-11.7898
▁inventor	-11.7905
▁altitude	-11.7918
▁securing	-11.7918
▁Delaware	-11.7928
▁nonprofit	-11.7938
▁Courtois	-11.7948
▁cattle	-11.7948
▁assigned	-11.7958
▁Quinn	-11.7963
▁Transcript	-11.7968
▁recreation	-11.7968
▁niece	-11.7968
Since	-11.797
where	-11.7971
▁WHO	-11.7978
▁Tracey	-11.7978
▁innovative	-11.7978
▁respondents	-11.7978
▁gaming	-11.7988
▁urine	-11.7989
▁transgender	-11.7998
▁1976	-11.7998
significant	-11.801
▁profession	-11.8012
▁lease	-11.8014
▁propaganda	-11.8018
▁protocol	-11.8018
▁elevator	-11.8028
▁equaliser	-11.8029
▁worries	-11.8038
▁reassure	-11.8038
▁scoop	-11.8038
▁Lincolnshire	-11.8039
security	-11.804
▁bolt	-11.8043
▁Cesar	-11.8044
▁tumble	-11.8058
▁upstairs	-11.8058
▁Cyprus	-11.8079
▁straw	-11.8089
90,000	-11.8109
shoot	-11.8118
▁primarily	-11.8119
▁holidaymakers	-11.8119
▁Klein	-11.812
▁spoil	-11.8129
▁Between	-11.814
▁scramble	-11.814
▁perceived	-11.816
▁Bedford	-11.816
▁Bentley	-11.817
▁Terror	-11.817
▁Salvador	-11.818
▁applicant	-11.818
▁craze	-11.8183
▁Bernabeu	-11.8191
▁sunshine	-11.8191
▁Soldier	-11.8191
▁embarrassment	-11.8201
▁tackling	-11.8201
▁withdrew	-11.8202
▁bankruptcy	-11.8211
▁exotic	-11.8211
▁Siberia	-11.8213
▁Podolski	-11.8221
▁Windows	-11.8221
▁lyrics	-11.8232
▁Albion	-11.8232
▁Amendment	-11.8242
▁Islamabad	-11.8242
▁blunt	-11.8252
▁guilt	-11.8263
▁Lukaku	-11.8273
7.5	-11.8275
▁fraudulent	-11.8283
▁Senegal	-11.8283
▁Shannon	-11.8283
▁reptile	-11.8283
▁expose	-11.8284
▁trophies	-11.8304
▁Empire	-11.8304
▁Bolivia	-11.8304
▁Crawford	-11.8314
▁compassion	-11.8314
▁podium	-11.8314
▁assassin	-11.8317
▁historian	-11.8335
▁Newark	-11.8335
▁Rwanda	-11.8346
▁gonna	-11.8346
▁Pulis	-11.8351
▁diversity	-11.8357
▁accommodate	-11.8366
▁yoga	-11.8367
▁Convention	-11.8377
▁receipt	-11.8377
▁sympathy	-11.8377
▁empire	-11.8377
▁bishop	-11.8377
official	-11.8381
▁graffiti	-11.8398
▁eurozone	-11.8408
▁migration	-11.8408
▁jealous	-11.8419
▁Shepherd	-11.8419
▁Canterbury	-11.8429
▁Figures	-11.8429
▁frustrating	-11.8429
▁Montgomery	-11.844
▁Opera	-11.8441
▁Memphis	-11.845
▁Burgess	-11.845
▁Gomez	-11.845
▁prescribed	-11.8461
▁IVF	-11.8461
▁amazed	-11.8471
▁AFP	-11.8472
▁creep	-11.8472
▁adorable	-11.8472
▁Fiorentina	-11.8492
▁WASHINGTON	-11.8492
▁Incident	-11.8492
▁captivity	-11.8492
▁chew	-11.8499
▁happily	-11.8503
▁sanctuary	-11.8503
▁footsteps	-11.8503
▁economist	-11.8514
▁nasty	-11.8515
▁Brett	-11.8522
▁overwhelmed	-11.8524
▁delicate	-11.8524
▁mechanism	-11.8556
▁Cumbria	-11.8556
▁Abraham	-11.8556
▁clause	-11.8556
▁autism	-11.8556
▁Tribune	-11.8567
▁reunion	-11.8567
▁Schneider	-11.8577
▁Television	-11.8577
▁Estonia	-11.8579
▁Guatemala	-11.8588
▁enemies	-11.8588
▁restraining	-11.8588
▁mandate	-11.8592
▁imminent	-11.8599
itude	-11.8604
▁conceive	-11.8609
▁barrister	-11.862
▁MLS	-11.862
▁animated	-11.862
▁sperm	-11.8621
▁ugly	-11.8621
▁Prosecution	-11.8641
▁exploring	-11.8641
▁convenience	-11.8652
▁fantasy	-11.8652
▁Ralph	-11.8663
▁austerity	-11.8674
plagued	-11.8674
▁Holocaust	-11.8684
▁introducing	-11.8684
▁jackpot	-11.8684
▁attributed	-11.8685
▁fugitive	-11.8695
▁Studio	-11.8695
▁accessories	-11.8695
speak	-11.8705
▁Vancouver	-11.8706
▁outskirts	-11.8717
▁Rudd	-11.8717
▁Hoffman	-11.8717
▁educate	-11.8744
▁emphasis	-11.876
▁Pilot	-11.876
▁frightened	-11.8771
▁yelling	-11.8771
trust	-11.8772
▁geo	-11.8776
▁participation	-11.8782
worm	-11.8785
▁Analyst	-11.8793
▁Olivier	-11.8793
▁evaluation	-11.8793
▁landslide	-11.8804
▁onlookers	-11.8804
▁Author	-11.8811
inspired	-11.8812
▁Honduras	-11.8815
▁luxurious	-11.8815
▁fog	-11.8816
▁Conservation	-11.8825
▁silk	-11.8826
▁jockey	-11.8836
▁Dixon	-11.8836
▁examining	-11.8836
▁crisp	-11.8837
▁Cincinnati	-11.8847
▁Rigby	-11.8847
▁flank	-11.8848
▁roam	-11.8849
▁Watkins	-11.8858
▁eldest	-11.8858
disgusting	-11.886
▁Paralympic	-11.8869
▁gradually	-11.8869
▁obstacle	-11.8869
▁unanimous	-11.8869
▁1968	-11.8869
▁tumor	-11.8869
▁Oxlade	-11.888
▁surgical	-11.888
▁Alfred	-11.888
▁£5,000	-11.888
activated	-11.888
▁instinct	-11.8891
▁Blasio	-11.8891
▁Ahmadinejad	-11.8913
▁voluntary	-11.8913
▁Fowler	-11.8913
▁dental	-11.8914
▁Oprah	-11.8924
▁Whitehall	-11.8924
▁depressed	-11.8924
▁Gloucester	-11.8935
▁Visitors	-11.8935
▁Zhang	-11.8935
▁steward	-11.8935
▁crude	-11.8936
▁ousted	-11.8936
▁Original	-11.8946
▁decisive	-11.8946
▁fatigue	-11.8946
▁Emmanuel	-11.8946
Kahn	-11.8957
▁categories	-11.8957
▁fraternity	-11.8957
▁Indianapolis	-11.8957
▁basket	-11.8968
▁Tragedy	-11.8968
ullah	-11.8972
▁ligament	-11.898
▁Hussain	-11.898
▁Legend	-11.898
▁dominate	-11.8982
▁Studies	-11.8991
▁yield	-11.9002
▁propose	-11.9005
▁intoxicated	-11.9013
▁1963	-11.9013
▁bolster	-11.9013
▁Bueno	-11.9013
▁corrupt	-11.902
▁contributing	-11.9024
▁supermodel	-11.9035
▁unwanted	-11.9035
▁spouse	-11.9036
▁Leslie	-11.9036
▁Controversial	-11.9046
▁Sandusky	-11.9046
▁scooter	-11.9046
▁£50,000	-11.9046
fusion	-11.9051
▁300,000	-11.9058
General	-11.9068
Those	-11.9068
▁absorb	-11.9069
▁amendment	-11.9069
▁sunglasses	-11.908
▁Porsche	-11.9091
▁Wiggins	-11.9102
▁quarantine	-11.9102
▁earliest	-11.9102
▁Henri	-11.9104
definitely	-11.9114
▁Hotspur	-11.9114
▁vodka	-11.9114
▁Bulger	-11.9114
▁offended	-11.9114
▁Ferrer	-11.9118
▁£20,000	-11.9125
▁appalling	-11.9125
appropriate	-11.9129
▁contemporary	-11.9136
▁McKin	-11.9136
▁7-5	-11.9137
▁honeymoon	-11.9147
▁surpass	-11.9147
▁Kasem	-11.9149
▁Assange	-11.9159
▁dignity	-11.9159
▁groin	-11.9159
▁Doyle	-11.916
▁Ambassador	-11.917
▁Fellaini	-11.917
▁registration	-11.917
▁jog	-11.9175
▁Belfast	-11.9181
▁Cathedral	-11.9181
detached	-11.9193
▁Ecclestone	-11.9204
▁Lebanese	-11.9204
▁anonymity	-11.9215
▁Sociedad	-11.9227
▁necklace	-11.9227
▁Rupert	-11.9227
▁appoint	-11.9234
induced	-11.9237
▁Johannesburg	-11.9238
▁swoop	-11.9238
▁fertility	-11.9249
▁Tribute	-11.9249
▁hamper	-11.925
▁Heroes	-11.9251
▁Baldwin	-11.9261
▁memoir	-11.9261
▁jungle	-11.9272
▁Fifty	-11.9272
discriminate	-11.9284
▁fascinating	-11.9295
▁McCann	-11.9295
▁Batman	-11.9296
▁crater	-11.9296
▁raft	-11.9304
▁Yellow	-11.9307
▁stitches	-11.9307
▁1964	-11.9307
▁telescope	-11.9318
▁transparent	-11.9318
▁Mancini	-11.9318
▁Soccer	-11.9318
▁ambush	-11.9318
▁Townsend	-11.9318
▁Library	-11.933
▁Similar	-11.9341
▁caravan	-11.9341
▁Defender	-11.9352
▁expedition	-11.9352
▁grocery	-11.9352
▁definition	-11.9364
▁glamour	-11.9364
▁shallow	-11.9364
▁physio	-11.9367
▁elegant	-11.9376
▁drastic	-11.9387
▁Sakho	-11.9387
▁Saunders	-11.9388
▁measuring	-11.941
▁1973	-11.941
generation	-11.9413
▁economies	-11.9422
▁Policy	-11.9422
▁Morales	-11.9422
▁bacon	-11.9422
▁merge	-11.9432
▁Jaguar	-11.9433
▁Urban	-11.9433
▁external	-11.9433
▁plaintiff	-11.9445
▁satisfaction	-11.9457
▁consciousness	-11.9457
▁Enforcement	-11.9468
▁peanut	-11.9468
▁Flint	-11.9469
▁clerk	-11.948
▁dwarf	-11.9492
▁Miguel	-11.9492
▁inflict	-11.9493
▁stereotype	-11.9503
▁garment	-11.9504
▁Nixon	-11.9515
▁Canyon	-11.9515
▁superior	-11.9538
▁Mahmoud	-11.955
▁disastrous	-11.955
▁Harriet	-11.955
▁Cardinal	-11.9562
▁provoked	-11.9574
▁turbine	-11.9574
▁improper	-11.9574
▁Joyce	-11.9574
bench	-11.9584
▁Lorenzo	-11.9585
▁hockey	-11.9585
▁Double	-11.9586
▁Watford	-11.9586
▁Gemma	-11.9586
▁Hodge	-11.9586
▁persistent	-11.9597
▁Historic	-11.9599
▁concussion	-11.9609
▁sequence	-11.9621
▁humour	-11.9621
▁occupation	-11.9633
▁harbour	-11.9645
▁1966	-11.9645
▁Hindu	-11.9645
▁convincing	-11.9656
▁declaring	-11.9656
▁Katrina	-11.9656
▁verge	-11.9659
▁sanction	-11.9666
▁garbage	-11.9668
▁Pearce	-11.9668
▁mogul	-11.9668
coloured	-11.9679
▁confiscated	-11.968
▁curriculum	-11.968
▁televised	-11.968
▁NTSB	-11.9692
▁Sinclair	-11.9692
▁technician	-11.9692
▁Donetsk	-11.9704
▁capabilities	-11.9704
▁outspoken	-11.9704
inflicted	-11.9715
▁Damascus	-11.9716
▁£30,000	-11.9716
▁Jefferson	-11.9716
▁Tennis	-11.9716
▁Pearl	-11.972
▁unleash	-11.9728
▁Shakespeare	-11.974
▁genocide	-11.974
▁identities	-11.974
▁capturing	-11.974
▁dentist	-11.974
sensitive	-11.9745
▁Wilkinson	-11.9752
▁Holloway	-11.9752
▁Columbus	-11.9764
▁altogether	-11.9776
▁1967	-11.9776
▁hurdle	-11.9788
▁harness	-11.9788
▁womb	-11.9788
▁fragment	-11.98
▁Desert	-11.98
▁Details	-11.98
▁Nashville	-11.9812
▁handcuffed	-11.9812
▁technologies	-11.9812
▁UAE	-11.9812
▁indicating	-11.9812
Fortunately	-11.9836
▁magnificent	-11.9836
▁perpetrator	-11.9836
▁£2,000	-11.9836
▁blaming	-11.9836
▁Argentinian	-11.986
▁batteries	-11.986
▁Damien	-11.986
▁Kindle	-11.9872
▁martial	-11.9872
▁Autumn	-11.9885
▁Communication	-11.9885
▁distinguish	-11.9885
▁Baroness	-11.9885
▁Lieutenant	-11.9897
▁culprit	-11.9897
▁Clooney	-11.9897
▁Marilyn	-11.9909
▁bruising	-11.9909
▁Nairobi	-11.9921
▁respiratory	-11.9921
▁dominant	-11.9921
▁Isaac	-11.9921
▁sniff	-11.9921
▁Santiago	-11.9933
▁awesome	-11.9933
▁Benfica	-11.9945
▁Juarez	-11.9945
▁neutral	-11.9945
Qaeda	-11.9952
cigarette	-11.9952
▁Referee	-11.9958
Breaking	-11.9964
▁disposal	-11.997
▁heartbroken	-11.997
▁mobility	-11.997
▁caretaker	-11.997
▁robust	-11.997
flirt	-11.9973
length	-11.9977
▁circus	-11.9982
▁Curriculum	-11.9994
▁mascot	-11.9995
▁bystander	-11.9996
▁Horizon	-12.0007
▁gravity	-12.0007
▁vacuum	-12.0007
▁Debbie	-12.0007
▁Writing	-12.0007
▁blessing	-12.0019
▁Mickelson	-12.0031
▁delegation	-12.0031
▁baggage	-12.0031
▁Malaga	-12.0031
▁alligator	-12.0044
marital	-12.0048
▁convict	-12.0048
▁Phelps	-12.0056
▁sleeve	-12.0056
▁continuous	-12.0068
▁Alleged	-12.0069
first	-12.0077
▁WikiLeaks	-12.0081
▁1971	-12.0081
▁gruesome	-12.0093
▁intersection	-12.0093
▁sworn	-12.0093
▁puppies	-12.0106
▁blunder	-12.0118
▁orchestra	-12.0118
▁Daisy	-12.0118
▁Vienna	-12.013
▁staple	-12.0131
▁Hungary	-12.0143
▁Electric	-12.0155
▁maternity	-12.0155
▁interrogation	-12.0155
▁Benzema	-12.0168
▁Collection	-12.0168
▁GCSE	-12.018
▁wrestling	-12.018
▁alleging	-12.0181
▁Relations	-12.0181
▁correspond	-12.019
▁negligence	-12.0193
▁cheque	-12.0193
▁Irvine	-12.0205
▁embroiled	-12.0205
▁curfew	-12.0218
▁opposing	-12.0218
▁tractor	-12.0218
century	-12.0227
Smith	-12.0227
▁Squad	-12.0231
▁Ridge	-12.0231
▁Betty	-12.0231
▁surround	-12.0232
▁Dodge	-12.0234
▁flame	-12.0236
▁Mathieu	-12.0243
▁Ontario	-12.0243
▁grieving	-12.0243
▁swarm	-12.0243
▁Helmand	-12.0256
▁£500,000	-12.0256
▁Baptist	-12.0268
▁Tanzania	-12.0268
▁Warrior	-12.0268
▁Organisation	-12.0281
▁trillion	-12.0281
▁botched	-12.0281
‘	-12.4646
–	-12.7216
|	-14.8988
