<pad>	0
<s>	0
</s>	0
<unk>	0
s	-3.05067
▁the	-3.22611
ed	-3.39477
▁to	-3.87118
▁a	-3.96513
▁in	-4.00824
ing	-4.0415
▁of	-4.19655
▁	-4.28165
▁and	-4.39183
▁s	-4.44994
y	-4.58017
▁on	-4.60555
▁for	-4.8198
▁has	-5.03612
▁said	-5.11339
▁that	-5.13742
▁was	-5.18597
▁is	-5.29827
ly	-5.29935
▁with	-5.37343
▁he	-5.41447
▁by	-5.43293
n	-5.49481
▁be	-5.53186
▁it	-5.55191
▁after	-5.58398
▁his	-5.59778
from	-5.61489
▁at	-5.61513
st	-5.66836
▁year	-5.7418
▁will	-5.76299
a	-5.7805
▁an	-5.80105
▁us	-5.8198
e	-5.82388
▁as	-5.85158
d	-5.88498
▁i	-5.88796
▁india	-5.90879
i	-5.95508
▁have	-5.98081
▁who	-5.98337
▁over	-6.03162
▁t	-6.05327
▁had	-6.05381
▁add	-6.05813
▁her	-6.13798
r	-6.18129
▁not	-6.18411
t	-6.20415
▁which	-6.22152
▁been	-6.23028
▁were	-6.29833
▁this	-6.35023
▁she	-6.37165
l	-6.37328
es	-6.41829
▁are	-6.41975
▁its	-6.42598
▁also	-6.43507
er	-6.43601
▁again	-6.43903
ies	-6.45512
▁201	-6.46506
▁up	-6.46741
▁indian	-6.47815
▁1	-6.4819
▁their	-6.48372
▁first	-6.49566
▁old	-6.5174
▁film	-6.52235
▁police	-6.52288
▁report	-6.54525
▁people	-6.59172
▁while	-6.59382
▁government	-6.62237
▁man	-6.63857
▁crore	-6.6493
▁minister	-6.65526
▁him	-6.66817
about	-6.67313
▁two	-6.71262
▁world	-6.72446
▁president	-6.74363
u	-6.78336
▁new	-6.80664
▁2	-6.81842
▁out	-6.8381
▁b	-6.83978
▁can	-6.84956
▁claim	-6.8538
▁000	-6.86793
▁one	-6.87316
▁delhi	-6.87926
m	-6.88461
▁court	-6.88958
▁all	-6.89674
▁reported	-6.9038
▁no	-6.9071
▁dur	-6.91459
▁time	-6.91723
▁we	-6.92929
▁state	-6.93621
▁call	-6.95665
on	-6.9707
th	-6.99066
▁alleged	-6.99078
▁when	-6.99262
▁5	-7.00535
o	-7.00772
▁pm	-7.00949
▁further	-7.01563
▁like	-7.02133
▁bjp	-7.02134
sh	-7.02942
▁3	-7.04921
▁trump	-7.07471
▁other	-7.07763
▁day	-7.11075
▁modi	-7.11365
▁last	-7.11375
▁if	-7.11537
▁you	-7.11772
▁former	-7.11803
▁but	-7.12017
▁being	-7.12667
▁would	-7.13019
▁or	-7.13555
▁my	-7.1527
▁10	-7.15653
▁case	-7.15937
▁team	-7.16094
ce	-7.16849
▁test	-7.17349
▁congress	-7.17619
▁accus	-7.20323
▁into	-7.20396
▁user	-7.21289
▁three	-7.22189
▁tweet	-7.22787
▁bas	-7.23486
▁woman	-7.23691
▁lakh	-7.24391
▁actor	-7.2545
▁how	-7.25664
company	-7.25815
▁chief	-7.26136
▁video	-7.26608
8	-7.27037
▁un	-7.2744
▁pakistan	-7.27889
▁cm	-7.28045
▁women	-7.28946
▁month	-7.28983
▁found	-7.297
▁earlie	-7.29716
▁under	-7.29771
▁play	-7.30228
al	-7.30576
▁get	-7.31109
▁arrest	-7.31622
▁million	-7.33897
▁country	-7.34932
▁me	-7.35112
▁singh	-7.35286
▁them	-7.35471
▁post	-7.3591
▁take	-7.36251
▁m	-7.36459
▁made	-7.3681
▁w	-7.37084
▁more	-7.3762
▁kill	-7.38005
▁k	-7.38867
▁4	-7.39204
▁show	-7.39634
▁mumbai	-7.40805
▁there	-7.4216
▁than	-7.43041
▁say	-7.43287
an	-7.44644
▁leader	-7.44825
▁khan	-7.45458
▁party	-7.45842
6	-7.45919
▁only	-7.46119
ok	-7.48665
▁startup	-7.48925
▁prade	-7.49093
▁air	-7.49587
▁follow	-7.49885
▁before	-7.50776
▁run	-7.51458
▁billion	-7.5154
▁includ	-7.51802
▁off	-7.52512
▁attack	-7.52543
ion	-7.5296
▁according	-7.53909
▁200	-7.54229
▁china	-7.54629
▁should	-7.54872
▁reveal	-7.5552
▁friday	-7.56309
▁so	-7.56461
▁high	-7.57027
▁help	-7.57058
▁tuesday	-7.57108
▁actress	-7.57343
▁monday	-7.57647
▁may	-7.57839
▁national	-7.58044
around	-7.58126
▁asked	-7.58419
▁comes	-7.58693
▁want	-7.59174
▁car	-7.59366
▁group	-7.59544
▁wed	-7.59565
▁6	-7.59617
▁launch	-7.59694
▁bank	-7.59781
na	-7.59964
esday	-7.60165
▁match	-7.6024
▁student	-7.60577
5	-7.60652
▁part	-7.60654
▁record	-7.61399
ever	-7.61513
in	-7.6153
▁near	-7.61611
sday	-7.62297
▁girl	-7.62522
▁ceo	-7.62703
▁do	-7.62849
▁c	-7.62947
▁did	-7.62987
between	-7.63826
▁could	-7.64406
▁make	-7.64915
▁work	-7.65065
▁second	-7.65283
▁talk	-7.65294
▁20	-7.6532
g	-7.65554
9	-7.65706
▁n	-7.65716
▁thur	-7.66058
▁order	-7.66096
▁go	-7.6612
h	-7.6615
▁four	-7.66216
▁most	-7.67454
4	-7.67716
c	-7.67849
▁captain	-7.67904
▁re	-7.68214
se	-7.68646
▁back	-7.68901
▁due	-7.69274
▁15	-7.70165
able	-7.70384
▁any	-7.70684
▁some	-7.71759
k	-7.72632
▁announc	-7.72704
man	-7.73064
▁di	-7.73806
▁12	-7.73822
▁per	-7.74326
▁cricket	-7.74677
b	-7.74754
▁five	-7.74851
▁won	-7.74889
▁where	-7.74908
ment	-7.7502
▁now	-7.75056
▁home	-7.75315
▁f	-7.75904
ary	-7.75911
▁7	-7.76017
▁officials	-7.76183
▁sunday	-7.76491
▁since	-7.76525
▁player	-7.76599
▁media	-7.76783
▁house	-7.76803
▁school	-7.76806
▁saturday	-7.76885
▁what	-7.77054
▁p	-7.7716
out	-7.77263
rote	-7.77855
▁start	-7.77863
▁death	-7.77892
▁shar	-7.7831
▁family	-7.78798
▁100	-7.78865
▁service	-7.79568
te	-7.79989
coming	-7.80165
ra	-7.80173
▁open	-7.80175
▁d	-7.80197
▁six	-7.80729
▁set	-7.80799
▁son	-7.82466
ation	-7.83246
▁twitter	-7.83522
▁down	-7.83835
▁facebook	-7.83861
▁rahul	-7.83917
▁co	-7.83966
▁don	-7.84014
▁know	-7.84538
▁gandhi	-7.84568
▁recent	-7.85202
p	-7.85331
en	-7.85708
▁share	-7.85866
▁allow	-7.86065
▁week	-7.86385
▁securit	-7.867
line	-7.86723
▁ex	-7.86981
▁2017	-7.87077
▁30	-7.87686
▁win	-7.88141
ity	-7.88416
▁8	-7.88547
▁director	-7.89212
▁life	-7.89263
▁narendra	-7.8955
▁hit	-7.89554
▁days	-7.89687
▁notabl	-7.89831
▁pay	-7.90154
3	-7.90299
1	-7.90328
▁50	-7.9079
▁wife	-7.90873
▁led	-7.91036
▁number	-7.9145
▁google	-7.91734
▁our	-7.92026
▁become	-7.92245
▁international	-7.92645
le	-7.92666
▁end	-7.92923
▁own	-7.93141
▁kohl	-7.93232
▁person	-7.93377
▁11	-7.93938
▁firm	-7.93939
▁uk	-7.94096
▁data	-7.94551
▁donald	-7.952
▁incident	-7.9533
▁through	-7.95394
▁official	-7.95521
▁south	-7.96764
▁am	-7.96894
▁board	-7.97802
▁hospital	-7.99065
▁ban	-7.99183
est	-7.99221
▁serie	-7.99608
▁kumar	-7.99907
▁just	-8.00027
▁train	-8.00052
▁issue	-8.00098
▁direct	-8.00891
▁public	-8.00921
▁need	-8.00933
▁kapoor	-8.0133
▁men	-8.01359
am	-8.01436
▁uttar	-8.01634
▁25	-8.0225
▁use	-8.02269
▁look	-8.02459
▁award	-8.0301
z	-8.03091
▁flight	-8.03099
▁protest	-8.0322
▁officer	-8.03685
▁north	-8.03754
▁offer	-8.03842
▁18	-8.04047
▁centre	-8.0409
▁picture	-8.04091
▁hour	-8.04199
▁deal	-8.04537
▁does	-8.04702
▁power	-8.04754
▁final	-8.0484
2	-8.05527
▁large	-8.05875
▁release	-8.0594
▁visit	-8.06002
ar	-8.06162
▁ever	-8.06304
▁place	-8.06716
▁nam	-8.06932
▁such	-8.07061
▁govt	-8.07072
▁space	-8.07124
▁korea	-8.07425
▁cup	-8.07651
self	-8.07917
▁long	-8.07949
▁held	-8.08023
▁lea	-8.08061
▁australia	-8.0835
▁force	-8.08581
▁money	-8.08941
▁social	-8.09777
▁employee	-8.09889
▁16	-8.09972
▁worth	-8.10167
▁sexual	-8.10401
▁mp	-8.10561
▁another	-8.10585
▁founder	-8.10587
▁releas	-8.10619
▁human	-8.10948
▁next	-8.11182
▁9	-8.11238
ld	-8.12043
▁17	-8.12229
▁head	-8.12305
▁e	-8.12597
▁demand	-8.12671
▁plan	-8.12759
▁law	-8.12803
▁got	-8.12866
7	-8.12884
▁r	-8.12917
▁body	-8.12985
▁give	-8.1319
▁union	-8.1321
ember	-8.13365
▁shah	-8.13593
▁fire	-8.13826
▁city	-8.14426
▁prime	-8.14955
▁daughter	-8.15496
▁support	-8.15551
▁good	-8.15699
▁system	-8.15962
▁star	-8.15963
▁apple	-8.167
cause	-8.16927
pur	-8.17079
▁real	-8.17084
▁business	-8.17097
▁account	-8.1718
▁among	-8.17221
▁ram	-8.17252
▁supreme	-8.17268
▁same	-8.17546
▁feature	-8.17776
▁seen	-8.1779
▁app	-8.17795
▁airport	-8.18009
▁return	-8.18045
▁away	-8.18219
▁later	-8.18292
▁event	-8.18678
f	-8.18747
▁third	-8.18963
▁severa	-8.19191
▁father	-8.19326
▁fil	-8.19377
▁water	-8.1945
▁current	-8.19656
ers	-8.1971
▁even	-8.19953
▁technolog	-8.20051
▁army	-8.20067
▁13	-8.20183
▁passenger	-8.20824
children	-8.20834
▁14	-8.2085
▁face	-8.21196
▁de	-8.22173
▁elections	-8.22465
▁al	-8.23164
▁name	-8.23324
▁act	-8.23336
▁nation	-8.23362
▁ball	-8.234
▁jail	-8.23486
▁list	-8.23592
▁injur	-8.23635
▁tax	-8.23902
▁j	-8.2405
▁top	-8.24072
20	-8.24098
▁kerala	-8.24357
▁along	-8.24914
▁receiv	-8.25042
▁district	-8.25122
ic	-8.25313
▁free	-8.25396
▁cricketer	-8.25669
▁very	-8.25755
▁boy	-8.26304
▁victim	-8.26668
▁authorit	-8.27061
▁mother	-8.2715
▁500	-8.27482
▁every	-8.27544
▁gold	-8.27683
▁lead	-8.28035
▁miss	-8.28072
x	-8.28525
▁researcher	-8.2857
each	-8.28871
▁fund	-8.28921
▁russia	-8.29026
▁way	-8.29167
▁come	-8.29499
▁reach	-8.29784
▁odi	-8.30516
▁sharma	-8.30997
▁england	-8.31051
▁making	-8.31331
▁ministr	-8.32005
▁pass	-8.3206
▁rape	-8.32328
▁19	-8.32489
▁chine	-8.32548
▁war	-8.32747
▁turn	-8.32825
▁dead	-8.33205
▁karnatak	-8.33477
▁came	-8.34008
▁given	-8.34024
▁station	-8.34025
▁many	-8.34091
▁register	-8.34174
▁seek	-8.34503
▁your	-8.3475
▁speak	-8.34835
▁slamm	-8.34929
▁study	-8.34971
▁railway	-8.3516
▁food	-8.35207
▁role	-8.35315
▁best	-8.35346
▁pre	-8.355
▁yr	-8.35663
▁ve	-8.36046
▁american	-8.36251
▁times	-8.36279
▁decision	-8.36393
▁fan	-8.36507
▁sc	-8.36581
▁child	-8.36582
ive	-8.36714
0	-8.36785
▁health	-8.36824
cross	-8.37119
▁rule	-8.37149
▁never	-8.37273
▁term	-8.37451
ch	-8.37582
la	-8.37617
▁starr	-8.38412
▁capital	-8.3856
▁general	-8.38563
▁40	-8.387
▁universit	-8.39101
▁working	-8.39351
▁office	-8.39484
▁job	-8.39552
▁21	-8.39669
▁mla	-8.39711
▁right	-8.3982
el	-8.39836
▁muslim	-8.39938
▁driver	-8.40017
▁move	-8.40221
▁class	-8.40272
one	-8.40282
▁seven	-8.40435
▁love	-8.40726
ta	-8.40824
▁project	-8.40832
▁both	-8.40976
▁book	-8.41483
land	-8.41714
▁murder	-8.41734
▁amid	-8.41855
▁g	-8.42164
▁minute	-8.42239
or	-8.42674
▁area	-8.4275
▁japan	-8.42848
▁kashmir	-8.42855
▁russian	-8.43215
▁assembly	-8.43321
▁late	-8.43352
▁gujarat	-8.4346
us	-8.43542
▁join	-8.43631
▁develop	-8.4365
▁left	-8.43719
▁sri	-8.43794
▁vehicle	-8.43871
▁change	-8.43916
▁bengalur	-8.43997
▁anti	-8.4437
ten	-8.44408
▁price	-8.44479
▁think	-8.44493
w	-8.44637
▁those	-8.44856
▁mean	-8.44923
▁bill	-8.45397
▁sell	-8.45553
salman	-8.45567
▁ipl	-8.4568
▁department	-8.45795
▁read	-8.46044
▁scor	-8.46072
▁uber	-8.46338
▁bihar	-8.4648
head	-8.4649
▁fail	-8.46562
▁united	-8.47038
▁market	-8.47058
▁harass	-8.47112
▁maharashtra	-8.47218
▁cost	-8.47226
▁meeting	-8.47546
▁action	-8.4793
ty	-8.48104
▁members	-8.48118
ial	-8.48134
▁well	-8.48155
▁fake	-8.48522
▁australian	-8.48573
▁today	-8.48684
▁complaint	-8.48685
▁point	-8.48813
▁total	-8.48995
▁chairman	-8.49158
▁24	-8.49213
ro	-8.4935
nath	-8.4968
it	-8.49954
ri	-8.49989
▁worker	-8.50064
di	-8.50338
went	-8.50363
▁song	-8.50433
▁increase	-8.50471
▁airline	-8.50567
ought	-8.51291
▁shot	-8.51336
vi	-8.51378
▁german	-8.51457
ma	-8.51982
▁global	-8.52234
▁wedding	-8.52359
▁land	-8.52591
▁wicket	-8.52626
▁virat	-8.5302
▁within	-8.53121
cy	-8.53169
▁election	-8.53218
▁cr	-8.53412
▁parent	-8.5342
▁march	-8.53429
▁league	-8.53646
raj	-8.53792
▁husband	-8.53812
came	-8.53992
▁form	-8.5413
▁why	-8.54221
age	-8.54273
ir	-8.54448
▁22	-8.54543
re	-8.54595
▁stop	-8.54642
▁eight	-8.54726
▁raised	-8.5479
lost	-8.55128
v	-8.55154
▁special	-8.55177
ber	-8.55322
▁foreign	-8.55432
▁sign	-8.55687
▁cbi	-8.55913
▁fight	-8.5604
▁seat	-8.56057
▁defeat	-8.56189
▁local	-8.56356
li	-8.56471
▁live	-8.56472
▁dhoni	-8.5681
at	-8.56872
▁remain	-8.56874
▁cut	-8.56993
▁private	-8.57054
▁couple	-8.57167
▁see	-8.57289
▁countr	-8.57349
▁scientist	-8.57515
▁tamil	-8.57517
▁sent	-8.57658
▁round	-8.57762
▁compani	-8.57994
▁coach	-8.58099
▁ka	-8.58137
▁mark	-8.58261
▁statement	-8.5827
▁gst	-8.58537
▁comment	-8.58827
▁safe	-8.5915
▁wear	-8.59253
um	-8.59447
▁suicide	-8.59613
▁question	-8.59643
ak	-8.59662
hra	-8.59693
▁central	-8.5972
▁issu	-8.59862
▁priyanka	-8.60089
▁instagram	-8.60324
▁raj	-8.60389
▁game	-8.60405
▁watch	-8.60817
▁punjab	-8.60915
▁break	-8.61119
▁put	-8.61489
▁expect	-8.61627
▁fir	-8.61885
▁platform	-8.61975
nuclear	-8.62009
▁rap	-8.62108
▁amazon	-8.62283
▁enter	-8.62473
▁operation	-8.62715
▁saudi	-8.62745
▁plann	-8.62913
▁aim	-8.62919
▁december	-8.6297
ul	-8.63013
▁big	-8.63502
▁militar	-8.63609
▁terrorist	-8.63621
▁brother	-8.63784
co	-8.63883
▁age	-8.63944
▁road	-8.64018
▁previous	-8.64219
▁attempt	-8.64471
▁doctor	-8.64473
while	-8.64608
▁temple	-8.6498
▁buy	-8.64993
▁phone	-8.64997
▁sachin	-8.65042
▁grow	-8.6508
▁information	-8.65211
▁ago	-8.65424
▁non	-8.65425
▁highe	-8.65621
▁agenc	-8.65647
▁tak	-8.65731
▁west	-8.65737
▁commission	-8.6607
▁building	-8.66115
▁june	-8.66168
▁conduct	-8.66358
▁0	-8.66562
▁26	-8.66599
▁model	-8.66934
▁singer	-8.66951
▁female	-8.66966
▁loss	-8.67028
▁ask	-8.67064
▁campaign	-8.67096
▁sabha	-8.67402
▁address	-8.67457
to	-8.67606
▁musk	-8.68403
▁ali	-8.68522
▁provide	-8.68587
▁much	-8.68939
▁political	-8.69067
▁23	-8.69081
▁iran	-8.69102
▁loan	-8.69285
▁pak	-8.69354
▁investigation	-8.69477
▁carry	-8.69507
▁shows	-8.69563
▁leave	-8.6975
▁debut	-8.69848
▁senior	-8.69925
▁react	-8.70035
▁great	-8.7009
▁attend	-8.70171
▁letter	-8.70221
▁quarter	-8.7046
▁card	-8.70538
▁hotel	-8.70538
▁inside	-8.70798
▁199	-8.70843
▁raise	-8.71268
less	-8.71274
▁funding	-8.71317
▁deni	-8.71444
▁black	-8.71537
▁defence	-8.71675
ha	-8.71697
▁bigge	-8.71922
▁earth	-8.71968
▁single	-8.72358
▁sept	-8.72361
▁going	-8.72408
▁bann	-8.72512
▁these	-8.72526
ti	-8.72639
▁major	-8.73068
▁allegation	-8.73265
▁ll	-8.73305
▁yadav	-8.73319
▁april	-8.73388
▁assault	-8.73528
▁investor	-8.73643
▁states	-8.74091
▁thing	-8.74162
▁probe	-8.74173
nd	-8.74176
▁hav	-8.74389
▁finance	-8.74467
▁keep	-8.74473
▁different	-8.74708
▁histor	-8.74727
▁pakistani	-8.74793
ard	-8.74942
▁development	-8.74978
▁birthday	-8.74992
▁hand	-8.75017
▁till	-8.75096
▁still	-8.75227
▁refus	-8.75324
▁farmer	-8.75373
▁nov	-8.75618
▁strike	-8.75626
▁janu	-8.75673
▁nasa	-8.75708
▁side	-8.75736
▁member	-8.75955
▁rajasthan	-8.75977
▁sale	-8.76161
▁result	-8.76617
▁h	-8.76978
▁secretar	-8.77075
▁product	-8.77076
▁schedul	-8.77188
▁white	-8.77216
▁confirm	-8.77261
▁level	-8.77359
▁paid	-8.77483
▁tv	-8.7753
▁trying	-8.77778
▁far	-8.77842
▁notice	-8.779
▁include	-8.77904
▁illegal	-8.7791
▁border	-8.7791
▁august	-8.78055
▁let	-8.78135
▁cover	-8.78271
▁suggest	-8.78364
▁respond	-8.78417
▁vote	-8.78522
▁meet	-8.7861
▁sex	-8.78666
▁la	-8.78682
▁suspend	-8.78708
▁despi	-8.79001
▁marri	-8.79033
▁60	-8.79054
ness	-8.79194
ollywood	-8.7935
▁tesla	-8.7944
▁target	-8.79686
▁financial	-8.79809
▁l	-8.80219
▁control	-8.80235
▁send	-8.80437
ja	-8.80455
▁past	-8.80852
▁self	-8.80894
▁outside	-8.80906
▁consider	-8.80953
getting	-8.81013
▁light	-8.81067
▁message	-8.81067
▁korean	-8.81103
▁discover	-8.81144
▁staff	-8.81437
▁medical	-8.81968
▁stay	-8.8199
▁once	-8.82202
▁28	-8.82385
▁canno	-8.82401
▁aadhaar	-8.82646
▁baby	-8.82748
▁customer	-8.82786
▁football	-8.82849
▁affair	-8.82874
▁giant	-8.82877
▁host	-8.82947
▁rbi	-8.83285
▁arm	-8.83416
▁full	-8.8346
▁beat	-8.83477
▁caus	-8.83501
▁device	-8.83502
▁together	-8.83585
▁31	-8.83594
▁candidate	-8.83743
▁must	-8.83989
▁u	-8.84127
▁friend	-8.8428
▁appoint	-8.84284
▁british	-8.84328
▁payment	-8.84439
▁night	-8.84458
▁title	-8.84489
▁creat	-8.84841
▁plane	-8.84935
▁haryana	-8.85024
▁militant	-8.85034
▁micro	-8.85172
▁bus	-8.85329
▁character	-8.85335
▁suspect	-8.85413
▁net	-8.85415
▁london	-8.8549
▁find	-8.85515
nadu	-8.85518
▁cash	-8.8568
▁french	-8.85803
▁winning	-8.85822
han	-8.85932
▁met	-8.86083
▁35	-8.86164
▁na	-8.86167
▁kid	-8.86248
▁photo	-8.86356
▁mobile	-8.86383
▁ma	-8.86395
▁batsman	-8.86523
▁violen	-8.86785
▁amount	-8.86825
▁remark	-8.87066
ka	-8.87117
▁broke	-8.87206
ry	-8.87248
▁terror	-8.87413
▁flipkart	-8.87459
▁vice	-8.87459
▁village	-8.87569
▁hold	-8.878
▁parliament	-8.87803
▁personal	-8.87889
▁behind	-8.87957
ur	-8.88123
▁su	-8.88228
▁reject	-8.88445
kar	-8.88553
▁octo	-8.88584
▁club	-8.88659
▁image	-8.8873
▁season	-8.88825
▁300	-8.88877
▁perform	-8.88981
▁half	-8.89069
▁create	-8.89103
▁fac	-8.89193
et	-8.89275
▁fall	-8.89479
▁70	-8.89517
aught	-8.89647
garh	-8.89684
▁leaders	-8.89735
▁aditya	-8.89898
▁present	-8.90297
▁clear	-8.90351
ia	-8.90375
▁affect	-8.90387
▁involv	-8.90488
▁career	-8.90952
▁games	-8.91024
▁bar	-8.91118
da	-8.91179
ious	-8.91229
ish	-8.91343
ne	-8.91366
▁medal	-8.91438
▁jamm	-8.91537
▁driv	-8.91593
▁var	-8.91704
▁marriage	-8.91704
▁college	-8.91765
▁guru	-8.91915
▁27	-8.92067
▁bad	-8.9233
▁threat	-8.92643
▁investment	-8.93057
▁matter	-8.93208
▁rights	-8.93435
▁better	-8.93542
bi	-8.93546
hi	-8.93609
▁hindu	-8.93613
▁brand	-8.93645
▁decided	-8.93771
▁committee	-8.93784
ism	-8.93874
▁appear	-8.9402
▁close	-8.94065
▁threaten	-8.94096
ent	-8.94202
▁crime	-8.94288
▁complete	-8.94326
▁walk	-8.94564
▁declar	-8.94691
abad	-8.94699
▁block	-8.94899
▁bring	-8.94942
▁request	-8.95057
▁warn	-8.95071
▁score	-8.95308
▁dismiss	-8.95382
▁date	-8.9542
▁africa	-8.95423
▁lok	-8.95684
▁sena	-8.95685
▁search	-8.95745
▁toward	-8.95983
▁interest	-8.95998
ther	-8.96034
▁caption	-8.96098
▁resign	-8.96486
▁29	-8.9667
▁madhya	-8.96707
▁alway	-8.96714
▁deepika	-8.9679
▁stake	-8.96791
▁filmmaker	-8.96813
▁bengal	-8.96838
stead	-8.97051
▁judge	-8.97109
▁justice	-8.97138
▁gun	-8.97278
▁400	-8.97288
▁ranveer	-8.974
▁crash	-8.97411
▁short	-8.97469
▁organisation	-8.97687
▁spot	-8.97722
▁note	-8.98267
▁teacher	-8.9837
▁missile	-8.98466
▁iphone	-8.98474
▁gave	-8.98485
▁store	-8.985
▁super	-8.98923
▁express	-8.99116
▁condition	-8.99173
▁continue	-8.99185
▁value	-8.99199
▁news	-8.99218
▁quit	-8.99535
▁doing	-8.99796
▁travel	-8.99804
▁process	-8.99885
▁fell	-9.00105
ance	-9.00122
▁recover	-9.00164
▁track	-9.00226
▁km	-9.00238
▁happen	-9.0025
▁wrong	-9.00331
▁grant	-9.00347
▁site	-9.00605
▁yogi	-9.00616
▁akshay	-9.00617
▁small	-9.01163
▁oil	-9.01168
▁access	-9.01228
▁fine	-9.01308
▁field	-9.01347
▁fly	-9.01356
▁aap	-9.01478
▁matches	-9.01509
▁hyderabad	-9.01616
▁too	-9.01663
▁slam	-9.01768
▁accept	-9.01892
▁z	-9.01979
▁nine	-9.02087
▁design	-9.02182
▁journalist	-9.02218
▁few	-9.02225
▁happy	-9.02352
▁pilot	-9.02358
▁invest	-9.02493
▁inning	-9.02694
▁hc	-9.02801
▁stated	-9.02802
▁fraud	-9.02907
▁charg	-9.03044
▁bcci	-9.03093
▁unit	-9.0316
▁pic	-9.03187
▁accident	-9.03364
▁afghanistan	-9.03466
▁website	-9.03466
▁olympic	-9.03559
▁aircraft	-9.03843
▁reason	-9.03933
▁trade	-9.04061
▁hai	-9.0409
▁charges	-9.04456
▁industry	-9.04498
▁lot	-9.04628
▁leak	-9.0463
▁economic	-9.04644
▁flood	-9.04686
▁sanction	-9.04781
▁check	-9.04943
▁rank	-9.04944
ship	-9.05016
▁camera	-9.05054
▁profit	-9.05066
▁cop	-9.05198
▁opposition	-9.05255
▁governor	-9.05357
▁shiv	-9.05384
▁policy	-9.05494
ese	-9.05575
▁intelligen	-9.05635
▁birth	-9.05641
▁jaitley	-9.05731
▁32	-9.05802
▁stat	-9.05958
▁sold	-9.05963
▁paper	-9.06073
▁scheme	-9.06209
▁whatsapp	-9.0621
▁plant	-9.06313
ate	-9.06439
▁fourth	-9.0649
▁legal	-9.06495
ni	-9.065
▁less	-9.06526
▁word	-9.06554
▁limit	-9.06658
▁main	-9.06664
▁youth	-9.06859
▁tournament	-9.0698
▁rohit	-9.07174
▁bachchan	-9.07367
▁du	-9.07432
war	-9.07567
▁pictures	-9.0766
▁relian	-9.07814
▁exist	-9.08099
▁featur	-9.08132
▁venture	-9.08146
▁education	-9.08268
▁forc	-9.0835
▁yet	-9.08415
▁kejriwal	-9.0844
▁propert	-9.08497
▁jul	-9.0856
▁mov	-9.08621
▁polls	-9.08673
▁karan	-9.08738
▁communit	-9.08835
▁cit	-9.09167
▁speed	-9.09258
mi	-9.09276
▁tried	-9.09302
▁chopra	-9.09527
▁wa	-9.09594
▁sister	-9.09628
▁wish	-9.09668
j	-9.09717
▁problem	-9.09724
▁unveil	-9.09923
▁dies	-9.09936
▁prevent	-9.10022
▁suffer	-9.10159
▁electric	-9.10179
▁dog	-9.10189
▁red	-9.10261
▁poll	-9.10305
▁metro	-9.10369
▁deliver	-9.10396
angana	-9.10422
▁room	-9.10525
▁writ	-9.10586
▁revenue	-9.10622
▁done	-9.10637
lo	-9.10819
▁period	-9.10823
ant	-9.10833
▁mission	-9.10844
▁plea	-9.10865
▁treatment	-9.10962
▁avail	-9.11124
▁lanka	-9.11221
▁rukh	-9.11225
▁sanjay	-9.11528
▁goal	-9.11583
▁ki	-9.11632
▁tell	-9.11725
▁york	-9.11732
ala	-9.11747
▁lawyer	-9.1184
▁sea	-9.11944
taken	-9.1201
▁income	-9.12037
▁killing	-9.12086
▁billionaire	-9.12239
mar	-9.12304
▁agree	-9.12304
▁kapil	-9.12443
▁asia	-9.12445
▁o	-9.12543
▁owner	-9.12744
▁maker	-9.12773
▁region	-9.1278
▁grand	-9.12854
▁low	-9.12953
▁executive	-9.12958
going	-9.13035
nel	-9.13106
▁committ	-9.13145
▁ground	-9.13246
▁god	-9.13347
▁mid	-9.13385
▁provid	-9.13414
▁rise	-9.13602
▁vira	-9.13604
▁banks	-9.13652
▁charge	-9.13694
▁propos	-9.13745
▁row	-9.13947
▁45	-9.14044
▁feel	-9.14073
▁po	-9.14151
▁file	-9.14202
ot	-9.14244
▁amit	-9.1433
▁line	-9.14468
ian	-9.14471
▁champions	-9.14481
▁rao	-9.14482
▁kol	-9.14568
▁los	-9.14698
▁able	-9.1481
▁heart	-9.14819
▁goa	-9.14913
▁double	-9.15003
▁build	-9.15009
gram	-9.15017
▁honour	-9.15028
men	-9.15194
ready	-9.15221
▁vijay	-9.15338
▁detail	-9.15448
▁born	-9.15574
▁producer	-9.1565
▁spokesperson	-9.15659
▁clean	-9.15715
▁auction	-9.15764
▁ticket	-9.15764
▁poster	-9.15955
▁network	-9.15981
▁con	-9.16163
▁zealand	-9.16187
▁burn	-9.1624
▁90	-9.16337
▁relat	-9.1636
▁compar	-9.16369
▁future	-9.164
▁ag	-9.1653
▁wor	-9.16544
ful	-9.16626
▁convict	-9.16666
▁successful	-9.16724
▁metre	-9.16749
▁movie	-9.1675
▁complet	-9.16761
▁giving	-9.16767
▁france	-9.16825
▁ensure	-9.16974
▁anil	-9.17025
▁toilet	-9.17041
▁cancer	-9.17149
▁bail	-9.17163
▁resident	-9.17254
▁sun	-9.17295
▁criticis	-9.17332
un	-9.17442
▁mi	-9.17593
▁drive	-9.1778
▁pacer	-9.17821
▁admitted	-9.17922
▁33	-9.18188
▁tour	-9.1825
▁victor	-9.18585
▁cause	-9.1863
▁earn	-9.1864
▁urg	-9.18687
▁bharat	-9.18766
▁hearing	-9.18867
▁fast	-9.18909
▁council	-9.18982
▁race	-9.19011
▁198	-9.19016
ie	-9.1905
▁response	-9.19091
▁rumour	-9.19091
▁jump	-9.19094
▁80	-9.19154
▁emergenc	-9.19299
▁hard	-9.19337
▁bowler	-9.19438
▁tend	-9.19446
▁concern	-9.19528
▁bitcoin	-9.19638
▁kim	-9.19686
▁lose	-9.19699
▁front	-9.19717
▁pick	-9.19741
▁ai	-9.19794
ani	-9.19887
ton	-9.19913
▁protect	-9.19915
▁jet	-9.19963
ebru	-9.19979
▁smartphone	-9.20078
▁park	-9.20352
▁exam	-9.20584
▁kg	-9.20623
▁rate	-9.20664
▁ambani	-9.20741
▁interview	-9.20742
uddin	-9.20835
▁traffic	-9.2092
▁37	-9.21282
▁isi	-9.21298
▁position	-9.21521
iya	-9.21581
▁annual	-9.21634
▁elon	-9.21691
▁story	-9.21706
▁ceremon	-9.21744
gone	-9.21794
▁treat	-9.22039
▁cars	-9.22143
▁asian	-9.22193
▁transport	-9.22194
▁asset	-9.22222
▁criminal	-9.22288
kata	-9.22314
▁stock	-9.22333
▁commerc	-9.22398
▁36	-9.22455
▁inform	-9.22613
▁approach	-9.22645
▁moon	-9.22648
▁gift	-9.22779
▁cell	-9.22789
▁weapon	-9.22871
▁delivery	-9.23013
▁buil	-9.23027
ya	-9.23088
ba	-9.23195
▁saw	-9.23263
▁ronaldo	-9.23447
▁interne	-9.23502
▁scam	-9.23522
▁restaurant	-9.23553
tion	-9.23618
▁bangladesh	-9.23748
▁syria	-9.23835
▁forward	-9.23855
▁tata	-9.24029
▁session	-9.24126
▁festival	-9.24129
▁fashion	-9.24355
▁connect	-9.24533
▁shooting	-9.24605
▁extend	-9.2461
▁stopp	-9.24647
▁thought	-9.24796
▁animal	-9.24817
▁music	-9.24842
▁minor	-9.24843
▁joint	-9.25033
▁deput	-9.25048
▁stage	-9.2508
▁troll	-9.25124
▁sector	-9.25166
▁research	-9.2522
▁soon	-9.25363
▁pa	-9.25433
▁programme	-9.25446
▁drug	-9.25511
▁digital	-9.25523
▁x	-9.25644
▁relationship	-9.25746
▁rain	-9.25819
ulkar	-9.25844
▁stand	-9.25863
▁spinner	-9.25863
▁poor	-9.25905
ve	-9.26015
id	-9.26043
▁almo	-9.26055
ter	-9.26092
▁petition	-9.26132
▁english	-9.26213
▁base	-9.26298
▁common	-9.26332
▁young	-9.26387
▁tweets	-9.26426
▁manag	-9.26444
amir	-9.26511
▁defend	-9.26686
▁deep	-9.2671
▁machine	-9.26918
▁fifa	-9.27043
▁avoid	-9.27154
▁mo	-9.27431
▁john	-9.27493
▁throw	-9.27508
▁patient	-9.27521
▁israel	-9.27593
▁drink	-9.27747
▁removed	-9.27806
▁cong	-9.27894
▁impos	-9.2796
▁xi	-9.28084
▁sports	-9.2811
ham	-9.28299
▁contest	-9.28334
▁ten	-9.28382
▁wind	-9.28434
▁activist	-9.28584
▁corporation	-9.28584
▁speech	-9.28584
▁arabia	-9.28759
▁tel	-9.28818
nb	-9.28831
▁min	-9.28981
▁fin	-9.28982
▁seiz	-9.29031
▁blood	-9.29065
mo	-9.29069
ine	-9.2912
▁exchange	-9.2914
▁pull	-9.2918
▁performance	-9.29204
▁friends	-9.29241
▁bomb	-9.29321
▁display	-9.29549
▁prison	-9.29609
▁peace	-9.29659
▁holding	-9.29915
mk	-9.29954
▁alliance	-9.30034
▁credit	-9.30083
▁screen	-9.30203
soft	-9.30241
▁chennai	-9.30278
body	-9.30364
▁citizens	-9.30718
▁tiger	-9.3077
go	-9.30982
wag	-9.31065
▁unti	-9.31198
▁gu	-9.31213
▁fix	-9.31776
▁royal	-9.31789
▁chang	-9.31838
▁wait	-9.32154
▁arjun	-9.32249
▁rival	-9.32249
▁bag	-9.32365
▁participat	-9.32367
▁dat	-9.32565
▁alia	-9.32589
▁foot	-9.32727
ida	-9.32946
ck	-9.32949
ory	-9.3306
▁stole	-9.33128
▁bowl	-9.33278
▁kangan	-9.33292
▁budget	-9.33376
▁le	-9.33432
▁similar	-9.3344
▁box	-9.33445
▁cap	-9.33452
ous	-9.33479
▁shut	-9.33495
▁joha	-9.33553
ge	-9.3357
▁roll	-9.33657
▁mc	-9.33816
va	-9.33832
▁management	-9.33891
▁ranb	-9.33971
▁putin	-9.33984
▁dut	-9.34011
▁production	-9.3411
he	-9.34121
▁fee	-9.34143
▁rally	-9.34293
be	-9.3433
▁v	-9.34397
▁cow	-9.3448
▁winner	-9.34535
lamic	-9.34719
▁save	-9.34824
▁icc	-9.34888
▁categor	-9.34898
▁cryptocurrenc	-9.34898
▁hundred	-9.34898
cr	-9.34922
▁document	-9.34923
▁dress	-9.35022
▁entire	-9.35026
▁hope	-9.35065
▁dutt	-9.35091
ca	-9.35132
▁34	-9.35212
▁early	-9.35313
▁asks	-9.35521
▁arun	-9.35527
pent	-9.35596
hindi	-9.35669
▁activit	-9.35674
▁ke	-9.35977
▁touch	-9.36061
▁idea	-9.36112
▁believe	-9.36211
▁connection	-9.36243
▁corrupti	-9.36277
▁century	-9.36313
ki	-9.36358
▁soft	-9.36393
▁television	-9.36443
▁via	-9.36486
▁import	-9.36563
▁panel	-9.36615
▁smith	-9.36705
▁rss	-9.36805
▁hat	-9.36992
rd	-9.37103
▁pune	-9.37143
ut	-9.37227
▁finish	-9.37241
▁cook	-9.37386
▁engineer	-9.3746
▁partner	-9.37482
▁anyone	-9.37484
▁championship	-9.37498
ang	-9.37612
▁energ	-9.37753
▁referr	-9.37788
▁hail	-9.37838
ai	-9.37928
▁eat	-9.37977
▁view	-9.38019
▁construction	-9.3804
▁prasad	-9.38199
bo	-9.38276
▁anniversar	-9.38409
▁mallya	-9.38415
▁champion	-9.3845
▁robot	-9.38516
▁leg	-9.38613
▁seh	-9.3862
▁makes	-9.38646
▁infosys	-9.38675
irav	-9.3889
▁focus	-9.3894
▁ho	-9.39112
▁association	-9.39221
▁spread	-9.39242
tennis	-9.39252
▁press	-9.39269
▁respect	-9.39317
▁flag	-9.39327
▁whe	-9.39401
▁serv	-9.39421
side	-9.39435
▁approv	-9.39465
▁abuse	-9.39501
▁econom	-9.39566
▁administration	-9.39742
▁wins	-9.39773
▁runn	-9.39798
▁anushka	-9.39876
▁statue	-9.40024
▁truck	-9.40052
▁600	-9.40264
▁pr	-9.40307
▁wall	-9.40342
▁living	-9.40415
▁nothing	-9.40455
▁fear	-9.40557
ik	-9.40635
▁crew	-9.40685
▁maha	-9.40954
▁ms	-9.41051
▁75	-9.41195
▁lord	-9.41236
ist	-9.41292
▁padma	-9.41352
▁girlfriend	-9.41501
▁satellite	-9.41501
ji	-9.4161
tic	-9.41616
▁150	-9.41644
▁ran	-9.41645
▁produc	-9.41678
▁assam	-9.41846
▁thank	-9.41912
▁patel	-9.4193
up	-9.41935
▁european	-9.42091
▁bat	-9.42112
▁ni	-9.42245
hu	-9.42413
▁scene	-9.42474
▁vi	-9.42497
▁content	-9.42508
▁premier	-9.42626
▁challenge	-9.42892
▁domestic	-9.43014
▁individual	-9.43014
▁rescue	-9.43196
▁stars	-9.43281
il	-9.4343
ally	-9.436
▁li	-9.43609
▁blue	-9.43738
▁detect	-9.43753
▁sentenc	-9.43799
▁ju	-9.43809
▁effort	-9.43849
▁language	-9.43849
▁ravi	-9.43966
▁famili	-9.43989
trophy	-9.43993
▁important	-9.44
▁kind	-9.44066
▁collect	-9.44165
▁da	-9.44234
▁introduc	-9.44335
▁chi	-9.44441
▁residence	-9.44443
▁initial	-9.44552
▁began	-9.44583
▁cabinet	-9.44695
▁steal	-9.44696
▁discuss	-9.44779
▁situation	-9.44835
▁secret	-9.44837
▁ready	-9.44925
▁remove	-9.44972
▁tourist	-9.4507
▁carri	-9.45109
▁proposal	-9.45206
▁48	-9.45242
▁immediate	-9.45256
▁institute	-9.45256
▁fuel	-9.45296
▁reduce	-9.45301
▁something	-9.45407
▁false	-9.45549
▁male	-9.4556
▁dispute	-9.45683
▁manager	-9.4574
▁travell	-9.45745
▁facilit	-9.45861
▁channel	-9.45971
▁review	-9.45972
▁complain	-9.46044
▁mass	-9.46105
▁delay	-9.46181
bank	-9.46226
▁steve	-9.46259
▁politic	-9.46301
▁stone	-9.4638
▁cross	-9.46385
▁occasion	-9.46397
▁penalt	-9.4644
▁withdraw	-9.46473
▁pan	-9.46497
▁solar	-9.46686
▁38	-9.46714
ol	-9.46745
▁sonam	-9.46877
▁regard	-9.46972
▁hack	-9.47078
▁mn	-9.47167
▁requir	-9.47204
▁inter	-9.4721
▁lift	-9.47412
▁jai	-9.47546
▁elect	-9.4755
itabh	-9.47653
▁dhawan	-9.47696
do	-9.47696
▁receive	-9.47821
▁pro	-9.47831
▁mu	-9.47935
▁river	-9.47987
▁experience	-9.48029
▁prize	-9.48134
dependence	-9.48134
▁dr	-9.48159
▁contract	-9.48231
▁opening	-9.48372
▁lives	-9.48525
▁strong	-9.4857
pa	-9.48571
▁catch	-9.48891
▁practice	-9.49011
▁witness	-9.49038
▁shahid	-9.49048
▁jio	-9.49113
▁singapore	-9.49306
▁step	-9.49464
▁planet	-9.49548
▁soldiers	-9.49639
▁trial	-9.497
▁enough	-9.4975
▁middle	-9.4975
▁lo	-9.49757
▁destroy	-9.49898
▁liquor	-9.50047
▁rocket	-9.50057
▁197	-9.5012
▁operat	-9.5015
▁rai	-9.50184
▁represent	-9.50303
▁colour	-9.50345
▁sunil	-9.50356
▁status	-9.50387
▁pressure	-9.50506
▁par	-9.50535
feet	-9.5055
▁biopic	-9.50643
ga	-9.50667
▁va	-9.50767
▁detain	-9.50777
▁floor	-9.50793
▁might	-9.508
▁david	-9.50943
▁agreement	-9.51007
erg	-9.51029
▁petrol	-9.51113
▁implement	-9.51244
▁average	-9.51244
▁compensation	-9.51245
▁civil	-9.5138
▁wi	-9.51407
▁computer	-9.51428
▁bid	-9.51537
▁serious	-9.51549
▁odisha	-9.51558
▁65	-9.51565
▁celebrat	-9.51629
ab	-9.51635
▁lawsuit	-9.51702
wa	-9.52004
arcelo	-9.52039
▁debt	-9.52376
▁prince	-9.52378
▁jawan	-9.52475
▁sh	-9.52593
▁heavy	-9.5261
▁island	-9.5264
▁guest	-9.52652
ng	-9.52659
▁trip	-9.52669
ke	-9.52782
▁gain	-9.52959
op	-9.53106
▁partie	-9.53165
▁iit	-9.53166
▁drop	-9.53184
▁install	-9.53186
▁respective	-9.53195
▁green	-9.5321
▁figure	-9.53219
tri	-9.53231
nagar	-9.53286
▁mar	-9.533
▁rescu	-9.53325
▁regulator	-9.53373
ana	-9.53433
▁messi	-9.53443
ho	-9.536
▁learn	-9.53635
rought	-9.53644
▁count	-9.53658
▁ride	-9.53669
▁trailer	-9.53728
▁movement	-9.53815
▁origin	-9.53854
▁tree	-9.53943
possible	-9.5405
▁demonetis	-9.54145
▁sp	-9.54258
▁code	-9.54278
▁brain	-9.54328
▁benefit	-9.54455
▁ahmed	-9.54455
▁source	-9.54455
▁effect	-9.54587
▁edition	-9.54638
▁nawaz	-9.54766
▁ko	-9.54832
▁jong	-9.54955
kept	-9.54992
▁evidence	-9.55078
▁appeal	-9.55079
hat	-9.55091
▁paris	-9.55095
▁surfac	-9.55109
▁understand	-9.55114
▁violation	-9.55126
▁twi	-9.55198
▁canad	-9.55226
▁squad	-9.55235
▁believ	-9.55426
▁summit	-9.55549
▁bro	-9.55578
▁consumer	-9.5559
▁celebration	-9.55604
az	-9.55762
▁raid	-9.55861
▁shoot	-9.5589
tel	-9.55973
▁identifi	-9.56021
▁plastic	-9.56021
▁everyone	-9.56104
▁bo	-9.56195
▁gas	-9.56247
ay	-9.56263
▁dance	-9.56393
chester	-9.56485
▁arvind	-9.56499
▁blast	-9.5673
▁san	-9.56815
▁riche	-9.5687
▁van	-9.56902
▁swa	-9.56907
▁page	-9.56957
▁tech	-9.56976
▁damage	-9.57054
▁abov	-9.57055
▁engine	-9.57107
▁madrid	-9.57132
▁section	-9.57139
har	-9.57163
ip	-9.57252
▁organis	-9.57273
▁handed	-9.57316
▁salar	-9.57349
▁application	-9.57454
▁injurie	-9.57568
▁african	-9.5757
▁smart	-9.5762
▁link	-9.5772
▁kar	-9.5779
▁protection	-9.5785
▁object	-9.57857
roid	-9.57868
▁jeweller	-9.57934
▁clos	-9.57953
ah	-9.57989
▁begin	-9.5809
▁44	-9.5819
▁software	-9.5826
▁vot	-9.58448
▁bhatt	-9.58483
▁function	-9.5851
▁ship	-9.58595
▁town	-9.58606
▁names	-9.58814
▁sa	-9.58935
gi	-9.5904
▁chhattis	-9.59066
▁katrina	-9.5907
all	-9.59102
▁ice	-9.59203
▁religious	-9.5923
▁sleep	-9.59281
▁dropp	-9.593
taking	-9.59337
▁care	-9.59431
▁bridge	-9.5967
▁version	-9.59732
▁triple	-9.59857
ari	-9.59974
▁aid	-9.60071
▁achiev	-9.60078
▁55	-9.60203
▁em	-9.60221
▁print	-9.60307
▁risk	-9.60377
▁hollywood	-9.60413
▁anything	-9.60553
▁naid	-9.60589
▁navy	-9.60835
▁sridevi	-9.60872
▁linked	-9.60993
▁trust	-9.61041
▁communication	-9.61041
▁sinha	-9.61042
▁42	-9.6108
lves	-9.61093
ical	-9.61115
▁contain	-9.61182
▁answer	-9.61205
▁hands	-9.61332
▁societ	-9.61537
▁800	-9.61699
ov	-9.61748
▁separate	-9.61818
ag	-9.61866
▁competition	-9.61872
▁street	-9.61872
▁voice	-9.6205
▁dalit	-9.62225
▁202	-9.62244
▁lack	-9.62245
▁ti	-9.62293
▁higher	-9.62389
▁varun	-9.62397
▁payt	-9.62648
▁external	-9.62712
▁lalu	-9.62789
▁sense	-9.62812
▁multiple	-9.62856
▁lock	-9.62916
▁cancell	-9.62924
▁mistake	-9.62981
▁stadium	-9.6305
▁politician	-9.63063
▁reduc	-9.63156
▁size	-9.63235
▁fifth	-9.63239
▁apologis	-9.63346
▁sentence	-9.63463
▁factor	-9.63483
jit	-9.63498
▁portray	-9.6356
▁nath	-9.63985
▁bodie	-9.64086
▁original	-9.64129
▁email	-9.6425
▁surger	-9.64548
▁transaction	-9.64586
▁permission	-9.64592
▁deploy	-9.64715
ita	-9.64733
▁guilt	-9.64765
▁700	-9.64823
een	-9.64851
▁straight	-9.64931
▁paduk	-9.65106
▁crisi	-9.65281
▁magazine	-9.6545
▁moment	-9.65517
▁takes	-9.65862
▁sets	-9.6594
▁currenc	-9.65972
▁additional	-9.66037
▁violat	-9.66125
▁dream	-9.66321
▁highway	-9.66365
fi	-9.66402
▁qualit	-9.66419
▁anand	-9.66488
▁zuckerb	-9.66496
▁item	-9.66517
▁ab	-9.66561
▁feder	-9.66587
▁semi	-9.66687
▁challeng	-9.66692
▁tr	-9.6673
▁failure	-9.66863
▁draw	-9.67019
▁rat	-9.67233
▁lower	-9.6724
▁responsibilit	-9.67376
pe	-9.67398
▁ro	-9.67464
▁observ	-9.67495
▁retir	-9.67551
▁queen	-9.67559
▁deposit	-9.6773
▁pandya	-9.6773
▁airway	-9.67783
▁jan	-9.67891
low	-9.67923
▁conference	-9.68086
▁chain	-9.6815
▁serve	-9.68183
▁polluti	-9.682
▁fighter	-9.68201
▁ra	-9.68217
▁silver	-9.68265
dhya	-9.68282
▁rose	-9.6829
mph	-9.68291
▁47	-9.6838
▁maintain	-9.68443
▁angel	-9.68557
▁daily	-9.68631
▁celebrate	-9.68638
wal	-9.68729
▁hike	-9.68786
▁east	-9.6903
▁replace	-9.69099
▁39	-9.69108
▁coast	-9.69111
▁exit	-9.69113
▁key	-9.69185
▁rajya	-9.69555
▁alleg	-9.69603
▁mars	-9.6961
▁ga	-9.69615
▁sub	-9.69702
wi	-9.69723
▁nn	-9.69744
▁impact	-9.69884
▁responsibl	-9.70065
▁push	-9.70075
▁warning	-9.70189
▁apologise	-9.70213
▁duba	-9.70234
▁terroris	-9.70265
▁monitor	-9.70428
▁boss	-9.70514
▁selfie	-9.70588
▁sikh	-9.70612
ea	-9.70678
ell	-9.70764
▁potential	-9.70794
▁ruling	-9.70798
▁77	-9.71002
▁favour	-9.71158
▁municipal	-9.7116
▁visa	-9.71164
▁offering	-9.71231
▁describ	-9.71238
▁science	-9.71344
▁chandra	-9.71466
▁professional	-9.71554
▁shelter	-9.71713
▁nick	-9.71735
ise	-9.71798
▁artificial	-9.71898
▁survey	-9.71898
▁electronic	-9.71903
viation	-9.71944
▁measure	-9.72075
▁hardik	-9.72097
▁gay	-9.7219
▁bit	-9.72284
▁phones	-9.72378
▁here	-9.72406
▁canadian	-9.72468
hand	-9.72577
▁alert	-9.72645
me	-9.72651
ow	-9.72743
▁cha	-9.72744
▁shift	-9.72973
▁youtube	-9.72991
▁king	-9.73062
▁srk	-9.73079
▁jd	-9.73112
▁51	-9.73152
▁dev	-9.73212
ft	-9.73282
▁ir	-9.73282
▁hurt	-9.73419
▁mental	-9.73456
▁art	-9.73458
▁blam	-9.73501
▁filing	-9.73527
▁eu	-9.73532
▁jack	-9.73567
▁initiative	-9.73587
▁mind	-9.73665
ee	-9.73715
▁difficult	-9.73765
▁artist	-9.7377
▁hair	-9.73826
▁ji	-9.73844
lmart	-9.73959
▁motion	-9.73979
▁dal	-9.74054
▁europe	-9.74085
▁joke	-9.74222
▁collection	-9.74404
▁environment	-9.74405
▁43	-9.74511
▁physical	-9.74513
▁consecutive	-9.74522
ara	-9.74592
▁drugs	-9.74654
▁bullet	-9.74721
▁troop	-9.74903
▁smash	-9.74953
▁eye	-9.75082
▁bike	-9.75089
ated	-9.75094
▁option	-9.75121
▁telecom	-9.75285
▁faste	-9.75327
ganguly	-9.75332
▁balls	-9.7534
▁range	-9.75404
▁thai	-9.75421
▁scandal	-9.75476
▁little	-9.75478
▁imran	-9.75478
▁bomba	-9.75512
▁sad	-9.75552
▁49	-9.756
▁46	-9.75712
▁resignation	-9.75756
▁voter	-9.758
▁obama	-9.7586
▁felt	-9.75861
▁inspir	-9.75893
▁nobel	-9.76054
▁sure	-9.76149
▁verdict	-9.76246
▁orbit	-9.76248
▁recall	-9.76249
▁relief	-9.7644
▁wealth	-9.76497
▁mob	-9.76506
▁jaya	-9.76601
ada	-9.76622
shant	-9.76717
▁kilometre	-9.76828
▁marry	-9.76848
pain	-9.76892
▁wasn	-9.76934
▁auto	-9.76951
erjee	-9.76959
que	-9.77027
▁wide	-9.77047
▁serving	-9.77059
ised	-9.77138
▁mexic	-9.77353
▁encounter	-9.77412
▁freedom	-9.7742
▁valuation	-9.77437
▁climate	-9.77608
▁commercial	-9.77645
▁custod	-9.77804
▁philippine	-9.77805
▁investigat	-9.77845
▁estimat	-9.77856
▁breach	-9.77911
▁bottle	-9.78002
▁rock	-9.78018
nt	-9.78022
▁pal	-9.78042
▁rest	-9.78088
▁52	-9.78114
▁launche	-9.78126
▁program	-9.78126
▁acquir	-9.78151
▁web	-9.78158
▁rounder	-9.7817
▁mahind	-9.78204
▁kick	-9.78258
▁celebrit	-9.78395
▁chemical	-9.78395
▁injury	-9.78481
▁batter	-9.78578
▁material	-9.78592
▁fresh	-9.78614
▁replac	-9.78617
▁pen	-9.78619
▁foundation	-9.78675
▁bound	-9.78685
▁citie	-9.78742
▁promote	-9.78764
▁alcohol	-9.78764
▁rohingya	-9.7879
▁morning	-9.78793
way	-9.78918
ru	-9.78974
▁certain	-9.78989
▁opportunit	-9.78989
▁legend	-9.78989
▁passport	-9.78996
wide	-9.79014
▁leav	-9.79101
▁natural	-9.79187
surance	-9.79189
▁sara	-9.79191
▁cast	-9.79206
▁plac	-9.7926
▁54	-9.79348
▁sued	-9.79352
▁kovind	-9.79387
▁culture	-9.79387
▁photos	-9.79575
▁california	-9.79586
▁theatre	-9.79589
▁examination	-9.79596
▁course	-9.79601
▁danc	-9.79667
▁molest	-9.79787
▁thrash	-9.79787
▁drunk	-9.79947
▁civilian	-9.80001
▁accidental	-9.80005
▁250	-9.80139
▁hacker	-9.80176
▁italian	-9.80197
▁64	-9.80212
▁ph	-9.80335
za	-9.80336
▁photograph	-9.8034
▁luxur	-9.80389
▁nepal	-9.80408
▁occurr	-9.80429
po	-9.80517
ping	-9.81018
▁dig	-9.81032
ran	-9.81064
▁sales	-9.81165
▁myanmar	-9.81198
▁pet	-9.81297
▁ola	-9.81298
▁ba	-9.81337
▁neighbour	-9.81396
▁vajpayee	-9.81403
▁designer	-9.81515
▁actual	-9.81611
▁surface	-9.81769
▁prove	-9.8177
▁41	-9.8179
▁america	-9.81802
▁reserve	-9.8186
▁ha	-9.81951
▁emerg	-9.82007
▁tharoor	-9.82013
▁tri	-9.82123
▁qu	-9.82141
▁suffering	-9.82142
▁mamata	-9.82218
▁population	-9.82218
▁indigo	-9.82219
▁partners	-9.82245
ley	-9.8232
▁milk	-9.82325
▁mal	-9.82349
▁explain	-9.82423
▁abhishek	-9.82423
▁pitch	-9.8245
▁promis	-9.82495
fare	-9.82531
▁cctv	-9.82629
▁talaq	-9.8263
▁sound	-9.82653
▁batt	-9.82683
▁2020	-9.82686
▁james	-9.82708
q	-9.82784
2012	-9.82788
▁transfer	-9.82833
▁controvers	-9.82835
▁rafale	-9.82835
▁majorit	-9.82966
▁adopt	-9.82989
▁saif	-9.83062
▁criticism	-9.83245
ci	-9.83301
▁ben	-9.83325
▁table	-9.83455
▁supply	-9.83457
▁sit	-9.83491
oo	-9.83564
▁wc	-9.83632
▁announce	-9.83666
▁pregnan	-9.83673
▁99	-9.8368
avat	-9.83695
iad	-9.83699
▁rush	-9.8381
▁map	-9.83886
▁karee	-9.8398
▁oscar	-9.84082
▁nda	-9.84107
▁dad	-9.84147
no	-9.8419
hockey	-9.84291
▁astronaut	-9.84291
▁independent	-9.84291
▁employ	-9.84336
▁mit	-9.8457
▁rj	-9.84577
▁select	-9.84819
▁caste	-9.84878
▁athlete	-9.84921
▁contact	-9.84922
▁kamal	-9.85124
▁rising	-9.85137
▁storm	-9.85242
▁himachal	-9.85343
▁territor	-9.85343
▁clarifi	-9.85351
▁footage	-9.85376
▁ajay	-9.85403
pal	-9.85408
▁counter	-9.85436
▁bal	-9.85447
▁nitish	-9.85598
▁band	-9.85628
▁56	-9.85711
▁iraq	-9.8572
▁popular	-9.85769
▁roads	-9.85776
▁michael	-9.8598
▁museum	-9.86194
ukesh	-9.86261
▁fiscal	-9.86407
▁everything	-9.86415
▁standard	-9.86722
▁pant	-9.86814
ff	-9.86836
▁rishi	-9.86837
▁helicopter	-9.87051
▁snapdeal	-9.87051
▁retail	-9.87178
▁sport	-9.87243
▁die	-9.8731
▁earning	-9.87313
▁success	-9.87424
▁landing	-9.87449
▁gang	-9.87457
▁bigg	-9.87556
▁reply	-9.87588
▁door	-9.87688
▁trick	-9.87719
kanth	-9.87722
▁involve	-9.87762
▁ja	-9.87822
▁censor	-9.87916
▁mohammad	-9.87916
▁veteran	-9.87916
▁zero	-9.8796
▁camp	-9.87972
▁taliban	-9.88133
dp	-9.88144
▁ta	-9.882
▁behaviour	-9.88351
▁aus	-9.88387
▁pe	-9.88411
cent	-9.88561
▁crowd	-9.88569
▁choice	-9.8857
▁martyr	-9.8857
▁assistant	-9.88575
▁cab	-9.88678
▁invit	-9.88745
▁rajini	-9.888
▁publish	-9.88819
▁produce	-9.88844
af	-9.88848
▁mention	-9.8886
▁opener	-9.88893
▁prakash	-9.88907
▁knock	-9.88965
▁chris	-9.89069
▁cinema	-9.89227
▁journey	-9.89227
▁advertisement	-9.89227
▁try	-9.89237
lam	-9.89246
▁fair	-9.89257
ram	-9.89301
dha	-9.89317
▁57	-9.89319
▁spott	-9.89546
▁approval	-9.89558
▁ocean	-9.89669
▁padmavat	-9.89669
▁guard	-9.89719
hood	-9.89771
▁pair	-9.89809
▁refugee	-9.8984
▁ambassador	-9.8989
▁hrithik	-9.8989
▁constable	-9.8989
▁shop	-9.89924
▁alibaba	-9.90111
▁decade	-9.90116
▁patent	-9.9012
▁else	-9.90166
inder	-9.90215
▁skin	-9.90288
▁taka	-9.90294
▁spend	-9.90367
▁68	-9.90378
▁85	-9.90472
▁gambhir	-9.90556
dambar	-9.90559
▁196	-9.90591
tuck	-9.90599
▁younge	-9.90725
ud	-9.90843
gar	-9.91015
▁ill	-9.91145
▁themse	-9.91165
▁speaker	-9.91207
▁lucknow	-9.91227
▁uae	-9.9123
▁abus	-9.91274
▁titl	-9.91437
▁rahim	-9.91452
▁realit	-9.91459
▁mandator	-9.91625
▁afghan	-9.91677
▁goals	-9.91684
ting	-9.91823
▁trillion	-9.91903
▁duo	-9.91918
▁handle	-9.91952
▁para	-9.91982
▁syrian	-9.92031
▁oppos	-9.92092
▁repeated	-9.92135
▁route	-9.92145
▁controll	-9.92249
▁hot	-9.92251
ec	-9.92481
tan	-9.92496
▁expert	-9.92583
▁samsung	-9.92583
▁tower	-9.92608
▁improve	-9.92635
▁fb	-9.92688
board	-9.92697
▁industri	-9.92746
▁sand	-9.92748
▁toll	-9.92768
▁temperature	-9.92811
▁thousand	-9.92811
ver	-9.92833
▁basi	-9.92965
▁advisor	-9.92983
▁raja	-9.9309
▁sushma	-9.93102
▁solution	-9.93105
▁iranian	-9.93119
fer	-9.9318
▁ranking	-9.93404
▁bn	-9.93493
▁boyfriend	-9.93498
▁dollar	-9.93506
▁hear	-9.93524
▁dil	-9.93569
▁waste	-9.93596
av	-9.93619
akhand	-9.9368
▁argentin	-9.93727
▁diamond	-9.93728
▁kiss	-9.93736
▁prais	-9.9389
▁normal	-9.93948
ble	-9.93975
ium	-9.94138
▁mock	-9.94145
pped	-9.94151
▁extreme	-9.94189
▁jhark	-9.94191
▁gender	-9.94197
▁warm	-9.94213
▁krishna	-9.94323
▁taxi	-9.94323
▁53	-9.94372
▁aishwarya	-9.9442
▁suit	-9.94433
oj	-9.94451
ina	-9.94625
▁huge	-9.94813
▁spoke	-9.94889
▁assert	-9.94889
▁oneplus	-9.94899
▁72	-9.94903
▁ties	-9.95052
▁fish	-9.95067
▁rail	-9.95068
istic	-9.95079
▁steel	-9.95121
▁ru	-9.95284
▁tamper	-9.95352
▁comedian	-9.95359
▁institution	-9.95513
▁dece	-9.95529
▁inaugurat	-9.95564
▁embass	-9.95586
care	-9.95645
▁israeli	-9.95657
▁hd	-9.95736
▁maximum	-9.95821
▁outfit	-9.95821
▁cbse	-9.95821
▁purchase	-9.95875
▁trad	-9.95892
▁footballer	-9.95902
▁constitution	-9.95919
▁riot	-9.95947
▁turkey	-9.96056
▁spy	-9.96065
▁hong	-9.96086
▁yuv	-9.96124
preet	-9.96362
▁setting	-9.96375
▁resolution	-9.9653
▁yoga	-9.96537
▁malik	-9.96541
▁kaif	-9.96544
▁marks	-9.96638
pi	-9.96672
▁commissioner	-9.96739
▁sec	-9.9682
▁pad	-9.96964
▁acquisition	-9.97003
▁identify	-9.97003
▁degree	-9.97003
▁reservation	-9.97012
▁ca	-9.97117
min	-9.97179
▁extra	-9.97237
▁disease	-9.97241
ong	-9.97402
▁firing	-9.9741
▁religion	-9.97484
▁escape	-9.97484
▁sitting	-9.97489
▁glass	-9.97503
▁relative	-9.97672
▁migrant	-9.97719
▁shastri	-9.97719
▁lake	-9.97782
▁operator	-9.97795
▁convert	-9.97958
▁com	-9.97995
nze	-9.98032
▁warner	-9.98081
latter	-9.98097
▁acquire	-9.98256
▁hole	-9.98276
ep	-9.98403
▁dravid	-9.9844
▁identit	-9.98441
▁equal	-9.98456
ez	-9.985
▁se	-9.98575
▁undergo	-9.9861
abilit	-9.98621
▁farm	-9.98655
▁climb	-9.98681
▁tribute	-9.98681
▁ashwin	-9.98681
▁forest	-9.98723
▁bin	-9.98957
▁indonesia	-9.99
▁failing	-9.99005
▁bribe	-9.99064
▁script	-9.99166
▁church	-9.99166
▁winter	-9.99238
light	-9.99305
▁bhan	-9.99315
▁wood	-9.99352
▁positive	-9.99425
ily	-9.99431
▁62	-9.9957
▁63	-9.99579
▁divorce	-9.9963
▁gates	-9.99659
▁presen	-9.99664
▁relations	-9.9979
▁roy	-9.99869
▁text	-9.99896
▁diwali	-9.99901
▁proud	-9.99907
esh	-9.99931
▁ring	-9.99936
▁expens	-10.0023
▁jo	-10.0024
che	-10.0027
▁lodg	-10.003
▁pos	-10.0035
jadhav	-10.0039
▁announcement	-10.0044
entry	-10.0046
▁cat	-10.0047
▁zone	-10.005
▁fit	-10.0054
ali	-10.0058
▁tea	-10.006
▁franchise	-10.0063
ure	-10.0069
where	-10.0074
▁che	-10.0079
▁lu	-10.0093
▁merger	-10.0098
▁port	-10.0106
zos	-10.0117
▁69	-10.0117
▁95	-10.012
▁ec	-10.0139
▁q	-10.0147
▁combin	-10.0153
confidence	-10.0165
fc	-10.0172
▁promise	-10.0179
▁constituenc	-10.0188
▁permanent	-10.0188
▁shirt	-10.0188
▁ayo	-10.0204
▁barr	-10.0212
iz	-10.0216
▁true	-10.0222
▁gupta	-10.0225
▁submitt	-10.023
▁chose	-10.0237
▁slow	-10.0237
▁article	-10.0238
▁transgender	-10.0238
▁qatar	-10.0238
▁chance	-10.0243
▁rajput	-10.0263
▁tribunal	-10.0263
▁pra	-10.0264
▁md	-10.0274
od	-10.0277
▁damag	-10.0277
▁dark	-10.0294
harry	-10.0296
▁58	-10.0306
▁certificate	-10.0313
▁brita	-10.0318
▁73	-10.0324
ence	-10.0334
▁welcome	-10.0347
pp	-10.0349
▁location	-10.0353
▁laws	-10.0355
▁priva	-10.0358
▁parri	-10.037
▁seem	-10.0378
▁professor	-10.0389
▁electricit	-10.039
▁reward	-10.04
▁sack	-10.0418
▁kong	-10.0423
ika	-10.0431
▁sir	-10.044
▁newspaper	-10.0441
▁sindhu	-10.0446
▁alone	-10.0457
▁construct	-10.0461
▁establish	-10.0462
▁commit	-10.0464
▁cristian	-10.0466
▁appearance	-10.047
lin	-10.047
▁seconds	-10.0477
▁fi	-10.0478
▁please	-10.0486
▁baahubali	-10.0492
▁ya	-10.0495
panish	-10.0505
▁kings	-10.0506
▁predict	-10.0512
▁beach	-10.0513
▁decide	-10.0515
▁feat	-10.0516
▁trigger	-10.0518
▁specie	-10.0519
▁sharif	-10.0521
rfan	-10.0526
▁sav	-10.0528
▁surviv	-10.0534
▁drone	-10.0539
▁meal	-10.054
lan	-10.0543
▁ital	-10.0546
▁clothe	-10.0568
▁surprise	-10.0569
▁gra	-10.0577
▁rti	-10.0582
▁proper	-10.0583
▁66	-10.0586
▁rajkum	-10.0587
▁disaster	-10.0595
▁structure	-10.0595
▁arriv	-10.0598
▁fill	-10.0599
▁critical	-10.0614
▁republic	-10.0615
▁author	-10.062
▁reddy	-10.0622
ler	-10.0623
▁evm	-10.0624
ko	-10.0631
▁denie	-10.0631
▁temporar	-10.0647
▁galax	-10.0648
▁lady	-10.0648
▁shami	-10.0654
oli	-10.0656
wealth	-10.0666
▁taj	-10.0668
▁odis	-10.0679
▁write	-10.069
anaut	-10.0691
▁vladimir	-10.07
▁swara	-10.0712
▁cyber	-10.0726
▁gautam	-10.0726
▁guy	-10.0736
▁swam	-10.0737
▁supporter	-10.0741
▁gi	-10.0748
▁kas	-10.0751
▁lankan	-10.0754
▁eith	-10.077
▁hindustan	-10.0781
▁chat	-10.0784
▁style	-10.0784
▁active	-10.0784
tv	-10.0785
▁bor	-10.0788
▁engage	-10.0804
▁rajiv	-10.0813
▁rates	-10.0823
▁robber	-10.0827
▁sidhu	-10.0832
▁locat	-10.0835
▁influence	-10.0839
▁rid	-10.0842
new	-10.0843
by	-10.0852
▁wicketkeeper	-10.0859
▁teen	-10.0861
▁hate	-10.0863
mal	-10.0866
▁promot	-10.0874
▁trains	-10.0878
▁brazil	-10.0884
▁manufactur	-10.0886
▁delet	-10.0887
▁phase	-10.0888
▁bug	-10.0897
▁civic	-10.0912
▁resource	-10.0912
▁islam	-10.0914
▁wave	-10.0914
▁require	-10.0919
▁plus	-10.0936
▁though	-10.0938
▁williams	-10.0939
▁expand	-10.0939
▁index	-10.094
▁distance	-10.0942
▁trapp	-10.0942
io	-10.0954
▁alive	-10.0961
▁enjoy	-10.0966
tood	-10.0989
▁heat	-10.0992
▁licence	-10.0993
▁carrier	-10.0997
mba	-10.1004
▁meant	-10.1005
rat	-10.1008
▁lab	-10.1012
▁tunnel	-10.102
▁audience	-10.102
▁minorit	-10.1021
▁cur	-10.1025
mp	-10.1029
▁ch	-10.1036
sar	-10.1039
▁lee	-10.1042
▁dialogue	-10.1047
fall	-10.1048
ekar	-10.1059
▁rich	-10.1061
▁tim	-10.1069
▁59	-10.1071
▁explosion	-10.1075
▁reform	-10.1075
▁remember	-10.1075
▁tension	-10.1075
▁writing	-10.1089
▁wel	-10.1092
▁hitt	-10.1098
▁signal	-10.1115
▁jer	-10.1119
▁headquarter	-10.1129
▁194	-10.113
erson	-10.113
▁sunny	-10.1131
▁update	-10.1138
▁tool	-10.1139
▁apolog	-10.1143
▁manish	-10.1144
▁har	-10.1146
▁litre	-10.1158
ster	-10.1163
▁bird	-10.1165
▁infrastructure	-10.1184
▁attach	-10.1185
▁teammate	-10.1187
▁91	-10.1189
▁fled	-10.1193
▁mistaken	-10.1197
wala	-10.1197
▁harbhajan	-10.1212
▁ryan	-10.1213
▁type	-10.1213
▁mayor	-10.1214
▁agent	-10.1219
▁boost	-10.1224
▁tank	-10.1242
▁regime	-10.1242
▁weight	-10.1246
▁introduce	-10.1255
▁appointment	-10.1255
▁rath	-10.1257
▁spin	-10.1257
▁beautiful	-10.1268
▁verma	-10.1269
▁71	-10.1278
▁mom	-10.1287
▁democrac	-10.1295
▁sabarimala	-10.1295
▁cloud	-10.1296
▁shankar	-10.1296
▁stream	-10.1319
▁vision	-10.1324
▁shock	-10.1325
uk	-10.1333
▁piece	-10.1344
ier	-10.1348
▁christian	-10.1352
▁branch	-10.1353
ug	-10.1358
▁captur	-10.1364
▁belong	-10.1372
▁snow	-10.138
▁bagg	-10.1382
▁brex	-10.1385
▁sam	-10.1394
▁collapse	-10.1397
▁memor	-10.1397
▁deny	-10.1412
ron	-10.1417
▁bha	-10.1426
▁ek	-10.1426
▁stor	-10.1427
▁ray	-10.143
▁falling	-10.143
▁74	-10.143
▁bull	-10.1433
▁newly	-10.1446
▁67	-10.1446
▁severe	-10.1449
▁recommend	-10.146
▁sensor	-10.1465
▁standing	-10.1465
▁tripur	-10.1467
▁partnership	-10.1467
▁offence	-10.147
▁samajwadi	-10.1493
▁enforcement	-10.1493
▁export	-10.1494
ged	-10.1497
tar	-10.1516
▁bear	-10.152
▁priest	-10.1522
▁lender	-10.1522
▁pain	-10.1535
▁imprison	-10.155
▁difference	-10.155
▁tariff	-10.155
▁swiss	-10.155
▁transferr	-10.155
endra	-10.1555
ank	-10.1561
tech	-10.1566
▁lur	-10.1574
hacker	-10.1575
▁package	-10.1575
▁sixe	-10.1577
▁error	-10.1578
▁premise	-10.1579
▁argu	-10.1582
▁province	-10.1583
▁battle	-10.1589
▁arms	-10.1593
lu	-10.1594
▁path	-10.161
▁beyon	-10.1611
▁collaps	-10.1618
▁dar	-10.162
▁custom	-10.1632
ig	-10.1634
▁mosque	-10.1636
▁lal	-10.164
▁ne	-10.1641
▁internal	-10.1641
▁88	-10.1648
ger	-10.165
▁launder	-10.1665
▁concert	-10.1665
▁umpire	-10.1672
▁refuse	-10.1672
▁mix	-10.1677
▁el	-10.1682
▁choks	-10.1688
work	-10.1696
▁mis	-10.1697
▁secur	-10.1698
askar	-10.1699
▁charit	-10.1701
sali	-10.1705
over	-10.1707
▁direction	-10.1711
▁flow	-10.1722
▁passe	-10.1725
▁sustain	-10.1725
ib	-10.1727
▁gar	-10.1728
▁kk	-10.1729
shree	-10.1732
▁sonia	-10.1738
▁correct	-10.1752
▁haas	-10.1754
kari	-10.1773
▁rupee	-10.1781
▁maiden	-10.1783
▁jain	-10.1783
▁polic	-10.179
▁learning	-10.1792
wards	-10.1801
▁follower	-10.1802
▁subject	-10.1811
▁draft	-10.1811
▁flat	-10.1811
▁bang	-10.1825
▁coin	-10.1835
▁wing	-10.1836
▁wishe	-10.1839
though	-10.184
rk	-10.1841
▁inquir	-10.1842
▁era	-10.1842
hir	-10.1845
▁govern	-10.1863
▁oxygen	-10.1869
▁jeff	-10.187
▁195	-10.187
▁stabb	-10.1901
▁dna	-10.1901
▁lets	-10.1902
▁boat	-10.1903
par	-10.1903
night	-10.1912
mb	-10.1912
van	-10.1928
▁86	-10.1929
▁minimum	-10.1929
▁principal	-10.1929
▁dh	-10.1936
▁900	-10.194
▁repli	-10.1941
▁bab	-10.1941
▁baba	-10.1944
▁shri	-10.1952
▁conflict	-10.1958
ex	-10.196
▁76	-10.1965
▁bond	-10.1966
▁janh	-10.1966
ural	-10.1968
▁dy	-10.1971
▁seren	-10.1984
▁writer	-10.1984
▁condemn	-10.1988
▁holiday	-10.1988
▁summon	-10.1988
▁akhilesh	-10.199
▁campus	-10.1992
▁gene	-10.1994
▁rani	-10.2007
▁exercise	-10.2009
▁abduct	-10.2013
bsp	-10.2014
ania	-10.2015
▁sequel	-10.202
▁prisoner	-10.2034
▁wild	-10.2034
▁120	-10.2034
mbledo	-10.204
▁shett	-10.204
▁crpf	-10.2049
▁malaysia	-10.2068
▁deadline	-10.2073
▁hall	-10.2078
▁rating	-10.2084
▁continu	-10.2103
▁racis	-10.2104
cha	-10.2105
▁square	-10.2109
▁reference	-10.2109
▁83	-10.2117
▁finding	-10.2127
▁hir	-10.2135
▁democratic	-10.214
▁invite	-10.2142
▁prob	-10.2158
▁bench	-10.2176
angalore	-10.2187
▁norm	-10.2187
▁61	-10.2191
▁mishr	-10.2192
▁pujar	-10.22
▁insult	-10.22
▁mani	-10.22
▁argument	-10.2204
terte	-10.2206
▁federal	-10.2214
well	-10.222
▁cheating	-10.2221
▁allah	-10.2226
ami	-10.2228
▁generation	-10.2235
▁jade	-10.2241
isation	-10.2241
▁choose	-10.2243
if	-10.2244
▁gad	-10.2244
▁fun	-10.2253
▁broadcast	-10.2259
ify	-10.2262
▁mad	-10.2265
▁whole	-10.2267
▁csk	-10.2269
▁94	-10.227
▁effective	-10.2274
▁delayed	-10.2278
▁parking	-10.229
▁technical	-10.2292
▁mohammed	-10.2292
▁apps	-10.2293
▁retirement	-10.2296
▁hero	-10.2296
▁concept	-10.2296
▁atm	-10.2321
▁kajol	-10.2323
▁symbol	-10.2323
▁bharti	-10.2324
aapse	-10.2327
bar	-10.2342
▁scale	-10.2342
▁earthquake	-10.2354
▁resort	-10.2354
▁western	-10.2354
▁expos	-10.236
ju	-10.236
▁jay	-10.2376
▁indira	-10.2385
▁shashi	-10.2387
▁om	-10.2393
▁donate	-10.2395
▁hanging	-10.2395
▁wrestler	-10.2397
▁bi	-10.2397
▁settle	-10.2405
▁achieve	-10.2406
▁modern	-10.2416
▁br	-10.2429
▁radio	-10.2433
▁operate	-10.2439
▁steps	-10.2446
▁regular	-10.2447
▁manohar	-10.2447
▁spacecraft	-10.2448
▁clash	-10.246
ims	-10.2467
▁vo	-10.2469
▁diagnos	-10.2478
▁retain	-10.2478
▁click	-10.2479
▁talent	-10.2479
▁shareholder	-10.2483
▁longe	-10.2486
cc	-10.2491
aj	-10.2492
▁macro	-10.2497
▁golden	-10.251
tention	-10.2511
navi	-10.2513
▁declare	-10.2513
iff	-10.2516
ota	-10.2537
▁strength	-10.2537
▁seal	-10.2542
▁dera	-10.2545
▁nearb	-10.2545
▁yo	-10.255
mc	-10.2561
▁virender	-10.2573
▁patanjali	-10.2573
▁turki	-10.2574
▁gdp	-10.2577
▁patna	-10.2578
▁bride	-10.258
chi	-10.2596
▁entit	-10.2598
▁jersey	-10.2605
▁roger	-10.2606
▁recogni	-10.2607
▁meat	-10.2608
▁sim	-10.2613
▁gav	-10.2614
▁bansal	-10.2614
▁storie	-10.2626
▁academ	-10.2633
▁clip	-10.2644
▁hr	-10.2664
▁complex	-10.2669
▁conversation	-10.2669
▁stump	-10.2669
▁ramdev	-10.2671
▁highlight	-10.2675
▁justin	-10.2685
▁chase	-10.2694
▁formal	-10.2699
▁pregnanc	-10.2699
▁corporate	-10.2701
▁division	-10.2701
▁skill	-10.2701
▁capacit	-10.2701
otra	-10.2706
▁oust	-10.2706
▁finger	-10.2709
▁consum	-10.2715
▁pl	-10.2721
truck	-10.2726
▁irani	-10.2728
▁strateg	-10.2728
▁refund	-10.2733
ade	-10.2744
▁valu	-10.2752
▁78	-10.2755
▁attract	-10.2763
▁boxer	-10.2763
▁entrepreneur	-10.2765
▁zimbabwe	-10.2765
▁das	-10.2766
ner	-10.2766
gh	-10.2776
▁halt	-10.2778
▁aide	-10.2787
▁judges	-10.2796
▁coalition	-10.2797
▁multi	-10.2803
▁nd	-10.2805
▁waiver	-10.2811
▁threatening	-10.2821
▁mall	-10.2823
time	-10.2826
▁smok	-10.2827
ithara	-10.283
▁apart	-10.2831
▁82	-10.2831
▁madras	-10.2831
▁theft	-10.2833
▁saeed	-10.2833
▁del	-10.2843
▁kit	-10.2845
▁advis	-10.2846
▁ku	-10.2857
▁beate	-10.286
▁crown	-10.2863
▁anthem	-10.2863
▁quick	-10.2863
▁capitalisation	-10.2865
▁curb	-10.2868
▁nag	-10.2875
▁wouldn	-10.288
▁cl	-10.2882
▁desh	-10.2884
ore	-10.2884
▁bans	-10.2889
▁mine	-10.2894
▁bureau	-10.2895
▁necessar	-10.2895
▁universe	-10.2895
▁dedicat	-10.2895
▁pric	-10.2902
den	-10.2903
▁snapc	-10.2912
▁whom	-10.2928
▁mahal	-10.2935
▁metoo	-10.2938
▁wip	-10.294
▁johns	-10.2943
▁champ	-10.2956
▁hang	-10.2961
▁ayushman	-10.2961
▁throne	-10.2961
▁urban	-10.2961
▁opposite	-10.2961
▁87	-10.2962
▁formula	-10.2964
▁hu	-10.2973
▁equit	-10.2977
▁cry	-10.2981
▁bio	-10.2982
▁kidnapp	-10.2986
▁kher	-10.2987
▁nad	-10.2988
mer	-10.2989
▁siddaramaiah	-10.2994
▁mahatma	-10.2994
▁vidya	-10.2994
usale	-10.2994
▁valley	-10.2994
▁93	-10.2995
▁dam	-10.2996
▁promotion	-10.3001
ena	-10.3004
shire	-10.3017
▁rebel	-10.3023
▁ads	-10.3026
▁uncle	-10.3027
▁tonne	-10.3033
▁mohan	-10.3036
▁weigh	-10.3038
ular	-10.3039
▁brad	-10.3048
▁touris	-10.3057
▁surpass	-10.306
▁increasing	-10.306
▁inspector	-10.3061
▁rashid	-10.3061
lal	-10.3062
▁bur	-10.3073
▁chou	-10.3076
▁punish	-10.309
▁pat	-10.3093
▁balance	-10.3097
▁ngo	-10.3109
▁regional	-10.3117
▁fbi	-10.3118
▁tn	-10.3118
▁bowled	-10.312
▁vs	-10.3124
▁episode	-10.3127
▁junior	-10.3127
▁sidharth	-10.3127
▁drill	-10.3128
▁bri	-10.3143
▁tanu	-10.3145
▁pin	-10.3145
ung	-10.3146
▁devi	-10.3149
▁qa	-10.3159
▁links	-10.3161
▁cave	-10.317
▁smuggl	-10.3177
▁improv	-10.318
▁virus	-10.3196
mon	-10.3197
▁belt	-10.3199
▁isn	-10.3203
▁luck	-10.3209
ator	-10.3209
▁cool	-10.3217
▁ut	-10.3218
more	-10.3224
aswam	-10.3227
▁malh	-10.3228
▁sample	-10.3228
▁chels	-10.323
▁kin	-10.3233
▁quot	-10.3237
▁decline	-10.3238
▁violent	-10.3245
▁advanc	-10.3246
▁84	-10.3249
rawat	-10.3254
water	-10.3256
aya	-10.3256
▁awarenes	-10.3257
aina	-10.3261
▁negative	-10.3264
▁pi	-10.3265
▁interesting	-10.3273
▁yes	-10.3283
▁weather	-10.3295
▁switzer	-10.3296
▁conclud	-10.3296
▁feeling	-10.3297
▁elder	-10.3299
▁goya	-10.3303
▁corrupt	-10.3305
▁en	-10.331
gan	-10.3311
▁imp	-10.3323
▁clashe	-10.3326
▁pil	-10.3326
▁dangerous	-10.3331
uri	-10.3331
▁sanit	-10.3331
▁atmosphere	-10.3336
tro	-10.3349
▁chandi	-10.3353
ago	-10.3356
▁restrict	-10.3359
▁truth	-10.3364
▁overseas	-10.3364
▁abandon	-10.3365
▁sanju	-10.3365
▁blame	-10.3365
pat	-10.3369
▁adult	-10.3382
▁kaur	-10.3386
▁riders	-10.3389
gayle	-10.3397
▁maoist	-10.3399
▁smriti	-10.3399
▁protester	-10.3402
▁paul	-10.3409
▁george	-10.3433
bumrah	-10.3433
▁atal	-10.3433
▁stepp	-10.3435
uru	-10.3441
▁mode	-10.3444
▁nehru	-10.3468
▁cold	-10.3471
▁impose	-10.3472
▁submit	-10.3479
aid	-10.3482
▁inmate	-10.3483
▁tu	-10.3491
day	-10.3498
villiers	-10.3502
▁ambulance	-10.3502
▁counterpart	-10.3502
hrew	-10.3503
▁bone	-10.3503
▁entertainment	-10.3505
▁debate	-10.3508
▁survivor	-10.3509
▁pink	-10.3513
▁villager	-10.3524
▁gross	-10.3529
▁chair	-10.3537
▁beating	-10.3539
▁sky	-10.3542
mohan	-10.3542
zi	-10.3545
▁manufacturer	-10.3554
▁easy	-10.3556
pending	-10.3557
uresh	-10.3558
▁sue	-10.3561
▁lione	-10.3567
▁method	-10.3572
wan	-10.3573
hal	-10.3581
ick	-10.3585
▁advance	-10.3588
▁hi	-10.359
▁proof	-10.3603
▁telugu	-10.3607
▁robert	-10.3608
▁dump	-10.3613
▁daniel	-10.3614
▁beer	-10.3614
▁ipo	-10.3622
▁traditional	-10.3624
pl	-10.3625
▁cancel	-10.3634
▁generat	-10.3636
▁pv	-10.3642
▁medicine	-10.3643
▁slogan	-10.3643
▁warrant	-10.3643
akhtar	-10.3643
▁dinner	-10.3643
▁yemen	-10.3644
▁demis	-10.3646
▁nak	-10.3648
▁kan	-10.3648
▁astronomer	-10.3651
▁cam	-10.3652
▁paint	-10.3656
▁songs	-10.3667
▁format	-10.3667
▁disrupt	-10.3673
▁jacque	-10.3678
▁kumble	-10.3678
afridi	-10.3678
▁feed	-10.3683
▁tough	-10.369
ide	-10.3692
▁81	-10.3705
▁scores	-10.3706
▁task	-10.371
▁obtain	-10.3713
▁hawk	-10.3713
▁abdullah	-10.3713
▁estate	-10.3714
▁assistance	-10.3714
donald	-10.3717
▁comed	-10.372
▁2000	-10.3727
▁automatic	-10.3728
▁hire	-10.3733
▁blind	-10.3749
▁rcb	-10.3751
▁amar	-10.3755
▁rajan	-10.3757
▁agra	-10.3775
▁nu	-10.3779
▁unique	-10.3785
▁surrender	-10.3785
▁vinod	-10.3785
▁mukherje	-10.3786
▁fad	-10.3787
reland	-10.3791
▁runway	-10.3794
▁beef	-10.3802
▁prepared	-10.3802
▁approve	-10.3807
▁apply	-10.3811
▁saving	-10.3819
▁arsenal	-10.3821
▁switch	-10.3821
▁kal	-10.3824
▁bhai	-10.3834
▁secure	-10.3838
▁fat	-10.384
▁posting	-10.3855
▁max	-10.3855
▁equipment	-10.3856
▁uniform	-10.3856
pr	-10.3857
▁citizenship	-10.3858
▁intend	-10.386
▁cloth	-10.3862
▁slapp	-10.3863
▁mari	-10.387
▁trader	-10.387
▁mr	-10.3875
▁ii	-10.388
▁compos	-10.3883
▁pope	-10.3885
▁nominat	-10.3887
▁regulation	-10.3893
▁telescope	-10.3893
▁beaut	-10.3893
▁nomination	-10.3898
broad	-10.3899
▁abu	-10.3902
sf	-10.3913
▁97	-10.3922
art	-10.3923
▁stress	-10.3929
▁happi	-10.3929
▁conspirac	-10.3929
▁reception	-10.3931
ture	-10.3936
▁shout	-10.3942
rice	-10.3943
▁boundar	-10.3949
▁rent	-10.3956
▁retire	-10.3961
▁virtual	-10.3965
▁cheap	-10.3966
▁advertis	-10.3968
ebi	-10.3998
▁rakhi	-10.3998
▁salarie	-10.3998
▁hurricane	-10.4002
▁consent	-10.4002
cici	-10.4004
ball	-10.4004
▁tiwar	-10.4005
▁proceeding	-10.4009
▁rare	-10.4009
▁trai	-10.4018
▁eyes	-10.4019
ible	-10.4029
▁98	-10.4036
▁colleague	-10.4038
▁absolute	-10.4038
▁pande	-10.4042
▁raising	-10.4059
▁chand	-10.4059
ashes	-10.4061
▁fact	-10.4072
▁ranji	-10.4072
▁corridor	-10.4075
▁francis	-10.4075
▁anurag	-10.4075
▁helmet	-10.4075
▁owners	-10.4078
▁ios	-10.4087
▁nee	-10.4089
▁tall	-10.4108
▁emission	-10.4112
▁valid	-10.4113
▁th	-10.4115
▁visitor	-10.4119
▁reporter	-10.4125
tor	-10.4126
▁89	-10.4131
our	-10.4141
thi	-10.4142
sensitive	-10.4149
▁punishment	-10.4154
▁duck	-10.416
▁sat	-10.4161
▁attacker	-10.4165
field	-10.4184
▁unidentifi	-10.4186
▁unbeate	-10.4186
▁leela	-10.4192
▁massive	-10.4192
▁subramania	-10.4196
ware	-10.4197
▁stan	-10.4197
gra	-10.4201
▁trolls	-10.4203
▁96	-10.4208
ev	-10.421
▁runner	-10.4214
comm	-10.4218
▁exploit	-10.4224
▁cfo	-10.4227
▁martin	-10.4229
▁teenager	-10.4231
▁assured	-10.4232
▁wake	-10.4232
▁kam	-10.4238
▁stands	-10.4247
▁cheat	-10.425
▁sham	-10.4255
▁ud	-10.4259
▁meghalaya	-10.4261
▁fault	-10.4263
▁fitness	-10.4263
▁sometime	-10.4266
▁bolt	-10.4269
▁citizen	-10.4275
▁fare	-10.4275
▁ac	-10.4281
▁sen	-10.429
▁cows	-10.429
ane	-10.4294
▁abbas	-10.4299
▁representative	-10.4299
▁richard	-10.4302
▁haven	-10.4303
▁valuable	-10.4304
▁tear	-10.4306
tur	-10.4313
▁congratulat	-10.432
bridge	-10.4328
▁labour	-10.433
urav	-10.4331
▁urge	-10.4334
▁unknow	-10.4336
▁mike	-10.4341
▁batsm	-10.4345
▁nor	-10.4347
▁means	-10.4349
▁harm	-10.4353
▁tag	-10.4356
▁mann	-10.4371
ac	-10.4372
▁naga	-10.4373
wei	-10.4376
ou	-10.4376
▁chu	-10.4377
berg	-10.4398
▁cal	-10.441
▁particular	-10.4412
▁mehta	-10.4412
▁lines	-10.4413
ill	-10.4415
organ	-10.4434
▁pollut	-10.4437
and	-10.4438
▁mon	-10.4441
▁evacuat	-10.4445
hyap	-10.445
▁apparent	-10.445
▁immigrant	-10.445
▁upload	-10.4457
ini	-10.448
ors	-10.4481
▁admit	-10.4481
▁bihari	-10.4487
▁gap	-10.449
▁participate	-10.4491
▁settlement	-10.4494
▁aware	-10.4502
▁flee	-10.4507
▁iron	-10.4509
▁motor	-10.4515
▁panchayat	-10.4527
▁ashok	-10.4531
ven	-10.4534
▁shortage	-10.4536
tenant	-10.454
▁recognise	-10.4543
ambi	-10.4544
▁pok	-10.4551
▁soldier	-10.4558
▁probabl	-10.4559
▁suspicion	-10.4566
▁beside	-10.4568
▁strengthen	-10.4571
▁survive	-10.4573
▁selection	-10.4575
▁angr	-10.4582
▁motorcycle	-10.4605
▁sar	-10.4605
messaging	-10.4605
▁specific	-10.4605
▁spice	-10.4606
▁encourage	-10.4606
▁warne	-10.4607
▁ht	-10.4614
▁shops	-10.4615
▁rana	-10.462
ku	-10.4626
fone	-10.4628
▁nitin	-10.4639
▁snake	-10.4644
▁joking	-10.4644
omato	-10.4657
ile	-10.466
bfc	-10.4661
▁kha	-10.4672
lew	-10.4673
▁swed	-10.4676
▁broad	-10.4677
▁provision	-10.4682
▁wonder	-10.4682
▁opponent	-10.4682
▁perfect	-10.4682
▁cigarette	-10.4682
▁strand	-10.4683
▁abdul	-10.4683
▁pack	-10.4684
▁resolve	-10.4686
▁wheel	-10.4687
▁shrad	-10.4691
▁tej	-10.4692
▁nana	-10.4693
hington	-10.4693
▁hostel	-10.4695
▁gangrap	-10.4697
▁faith	-10.4705
▁nav	-10.4715
▁listen	-10.472
▁float	-10.4722
▁crackdown	-10.4722
▁mel	-10.4723
▁venue	-10.4725
▁contribution	-10.4725
▁forbe	-10.4729
▁belonging	-10.4732
ek	-10.4734
▁nagar	-10.4743
▁jona	-10.4753
▁enable	-10.4755
▁tracks	-10.476
▁anupam	-10.4761
▁shoes	-10.4762
▁tribal	-10.4762
▁bilateral	-10.4763
ix	-10.4764
▁contestant	-10.4765
▁engagement	-10.4767
▁command	-10.477
▁entr	-10.4772
▁dhar	-10.4772
wg	-10.478
▁donation	-10.4782
▁cpi	-10.4786
gaon	-10.4787
▁ow	-10.4788
▁prayer	-10.4798
▁naxal	-10.48
▁pacific	-10.4801
▁funeral	-10.4801
▁buffet	-10.4801
▁carbon	-10.4801
▁profile	-10.4801
▁roshan	-10.4802
▁diplomat	-10.4803
▁newborn	-10.4803
▁realis	-10.4804
▁removal	-10.4806
paid	-10.4811
▁92	-10.4821
▁shell	-10.4822
space	-10.4824
▁bars	-10.4826
▁interi	-10.4833
▁abilit	-10.4833
▁79	-10.4834
▁fift	-10.4836
eum	-10.484
▁bankrupt	-10.484
▁ghazi	-10.484
▁asteroid	-10.484
▁palestinian	-10.4841
▁lawmaker	-10.4842
▁wallet	-10.4844
▁guin	-10.4855
▁retailer	-10.4857
orry	-10.4866
▁ur	-10.4873
▁boycott	-10.488
▁strict	-10.488
▁fortune	-10.488
▁cruise	-10.488
▁silence	-10.488
▁whale	-10.4881
▁northern	-10.4881
▁fellow	-10.4883
▁audio	-10.4885
▁murth	-10.489
▁spending	-10.4898
▁studio	-10.4899
▁harsh	-10.4915
▁prohibit	-10.4915
▁ye	-10.4915
▁prompt	-10.4919
▁mayawat	-10.492
▁parineet	-10.492
▁siddiqu	-10.492
▁gesture	-10.492
▁housing	-10.492
▁nada	-10.4921
▁clint	-10.4922
▁wash	-10.4933
▁objection	-10.4933
▁pool	-10.4952
▁nar	-10.4956
ene	-10.4956
▁depict	-10.496
▁fossil	-10.496
▁laptop	-10.496
▁nirmal	-10.4961
▁stephen	-10.4961
▁skipp	-10.4962
▁license	-10.4966
voda	-10.497
▁onboard	-10.4975
▁shooter	-10.498
▁inch	-10.4981
▁hiv	-10.4984
▁confess	-10.4995
▁pilgrim	-10.4999
▁pizza	-10.5001
▁client	-10.5001
▁vishal	-10.5001
▁repair	-10.5001
▁garden	-10.5001
▁gauri	-10.5003
▁portal	-10.5012
▁window	-10.5013
winkle	-10.5024
▁stick	-10.5025
▁hua	-10.5032
shi	-10.5032
▁shape	-10.5033
▁primar	-10.5036
▁venezuela	-10.5041
trudeau	-10.5041
▁postpon	-10.5042
▁renam	-10.5043
▁swede	-10.5043
▁hindus	-10.5043
kin	-10.5044
▁organiser	-10.5046
▁ganga	-10.5047
▁appli	-10.505
▁ear	-10.5054
▁discussion	-10.5056
ified	-10.5059
fa	-10.5059
▁buse	-10.5069
ula	-10.5071
▁progress	-10.5079
▁egypt	-10.5081
▁rifle	-10.5082
▁ransom	-10.5082
▁vikas	-10.5082
▁serial	-10.5083
▁hid	-10.512
▁opinion	-10.5123
▁reflect	-10.5123
▁ceasefire	-10.5123
nce	-10.5132
oc	-10.5133
▁peak	-10.5138
▁yu	-10.5139
▁fa	-10.5149
▁coal	-10.5149
▁sha	-10.5155
▁chant	-10.5156
▁books	-10.5158
▁sang	-10.5162
▁assist	-10.5167
▁pose	-10.517
bir	-10.5171
▁federation	-10.5173
▁personalit	-10.518
▁dinesh	-10.5183
▁rake	-10.5201
con	-10.5203
▁brazilian	-10.5206
▁discriminat	-10.521
▁knight	-10.5213
ovic	-10.5217
ela	-10.5225
▁din	-10.5231
ree	-10.524
▁sentiment	-10.5246
▁ending	-10.5247
▁hospitalis	-10.5254
▁motors	-10.5259
▁meme	-10.5261
▁withdrawal	-10.5265
▁ge	-10.5272
▁cor	-10.5275
▁weak	-10.5275
jet	-10.5277
▁ignor	-10.5278
▁arunachal	-10.5288
▁elephant	-10.5288
▁apex	-10.5288
wani	-10.529
▁holder	-10.5304
▁sasik	-10.5305
▁donat	-10.5313
▁priorit	-10.5315
dar	-10.532
▁casting	-10.5321
▁lynching	-10.5323
▁escap	-10.5328
▁chargesheet	-10.5329
▁dubb	-10.5329
▁particle	-10.5329
▁christmas	-10.5329
▁pump	-10.5329
mma	-10.5331
▁shuttler	-10.5334
▁uida	-10.5336
▁cooperati	-10.5336
▁handl	-10.5346
▁developer	-10.5349
▁metal	-10.5352
▁chas	-10.5361
for	-10.5362
▁jin	-10.5363
▁kashmiri	-10.5365
▁revis	-10.5368
▁pop	-10.5369
▁disturb	-10.5371
▁juventu	-10.5371
▁centuri	-10.5371
ole	-10.5371
▁sonu	-10.5383
gue	-10.5398
ake	-10.5405
▁rains	-10.5406
▁neet	-10.5407
▁florid	-10.5413
▁example	-10.5413
▁illness	-10.5416
▁plot	-10.5416
▁weinstein	-10.5418
▁putting	-10.5419
▁seed	-10.5424
▁spirit	-10.5455
▁advice	-10.5455
▁dinosaur	-10.5455
▁mastermind	-10.5455
▁disappoint	-10.5455
▁disney	-10.5455
▁combat	-10.5455
▁automaker	-10.5456
▁akbar	-10.5456
▁communal	-10.5457
▁margin	-10.5457
▁bhu	-10.5458
▁carmaker	-10.5458
lalitha	-10.5461
▁130	-10.5479
▁shi	-10.5482
▁regret	-10.5498
▁breath	-10.5498
▁nude	-10.5498
▁pension	-10.5498
▁surgical	-10.5498
▁diplomatic	-10.5502
her	-10.5503
▁expell	-10.5504
▁twin	-10.551
dkar	-10.5511
▁kl	-10.5516
▁tmc	-10.553
▁easi	-10.5532
▁split	-10.554
▁spark	-10.554
▁revolve	-10.5541
▁significant	-10.5552
bc	-10.5556
▁cutt	-10.5557
▁prior	-10.5561
▁teach	-10.5562
▁propose	-10.557
cher	-10.5571
▁declin	-10.5575
▁tip	-10.5578
▁suspension	-10.5583
▁tenure	-10.5585
▁beginning	-10.5585
▁partial	-10.5586
gregor	-10.559
▁outlet	-10.5591
kuldeep	-10.5594
annu	-10.5596
▁shaw	-10.5609
▁button	-10.5615
▁initiat	-10.5617
▁visas	-10.5618
▁poison	-10.5622
▁supposed	-10.5626
▁honest	-10.5626
▁brief	-10.5626
▁rapper	-10.5627
ij	-10.5628
▁punch	-10.5628
▁vick	-10.563
▁hum	-10.564
▁chau	-10.564
▁devg	-10.5647
roff	-10.565
▁fy	-10.5651
▁coffee	-10.5669
▁pooja	-10.5669
wear	-10.567
▁kriti	-10.567
▁groom	-10.5671
▁clock	-10.5673
▁dragg	-10.5673
om	-10.5677
▁surg	-10.5679
▁parliamentar	-10.5697
ook	-10.57
▁nazi	-10.5704
▁bra	-10.5705
▁reaction	-10.5706
app	-10.5706
▁envoy	-10.5712
▁liquid	-10.5712
▁maldiv	-10.5713
▁stall	-10.5714
ella	-10.5715
▁mala	-10.5721
ila	-10.5724
▁neha	-10.5726
▁eve	-10.5728
stan	-10.5733
▁ratna	-10.5739
▁basic	-10.5745
▁jab	-10.5756
▁ukrain	-10.5756
▁bell	-10.5758
▁inflation	-10.5758
▁acid	-10.5758
▁fold	-10.5759
▁height	-10.5769
▁350	-10.5771
▁feels	-10.5789
▁coo	-10.5792
▁crop	-10.5793
▁rod	-10.5796
▁alphabet	-10.5799
▁collision	-10.5799
▁thakur	-10.5799
▁vandalis	-10.5799
▁divert	-10.5799
▁extension	-10.5799
▁div	-10.5803
sumption	-10.5806
▁scar	-10.5815
▁opt	-10.5817
▁forum	-10.5818
▁dec	-10.5819
pt	-10.5825
▁approximate	-10.5843
▁bhushan	-10.5843
▁guideline	-10.5845
▁hide	-10.5846
tru	-10.5857
▁usa	-10.5863
▁180	-10.5872
bal	-10.5886
▁peter	-10.5889
▁nature	-10.5889
▁remote	-10.5889
vanka	-10.5891
▁rite	-10.5892
▁sheet	-10.5895
▁explor	-10.5896
▁promoter	-10.5918
▁prana	-10.592
▁core	-10.5922
▁ak	-10.5925
▁drama	-10.5931
▁misconduct	-10.5932
▁mount	-10.5932
▁logo	-10.5932
▁zoo	-10.5937
bu	-10.5937
▁apartment	-10.5937
▁protestor	-10.5941
▁satya	-10.5941
▁hug	-10.5951
▁amrit	-10.5954
▁porn	-10.5954
▁dup	-10.596
▁edge	-10.5966
attle	-10.5971
▁manner	-10.5976
▁karthik	-10.5976
▁password	-10.5976
▁terminal	-10.5976
▁favourite	-10.5977
▁painting	-10.5977
aji	-10.5979
▁robb	-10.5991
hen	-10.5995
▁blow	-10.6003
pol	-10.6006
gal	-10.6015
▁lay	-10.6015
▁danger	-10.602
▁shilpa	-10.6021
▁kathu	-10.6021
▁shap	-10.6033
▁coca	-10.6035
▁conviction	-10.6043
▁rang	-10.6044
▁noise	-10.6045
can	-10.6048
▁constitutional	-10.6056
▁weekend	-10.6066
▁teaser	-10.6067
▁depression	-10.6067
▁neck	-10.6068
▁richa	-10.607
▁industrial	-10.6078
▁twins	-10.6079
band	-10.608
ntra	-10.608
▁scorer	-10.6101
ground	-10.6103
disclos	-10.6108
▁admission	-10.611
▁daredevil	-10.611
▁explosive	-10.611
▁unfair	-10.611
▁wwe	-10.6116
arbage	-10.6117
▁seeing	-10.6117
ification	-10.6122
▁drones	-10.6126
▁harve	-10.6144
▁crossing	-10.6145
▁immigrati	-10.6156
▁sudden	-10.6156
▁wound	-10.6156
▁yellow	-10.6156
▁jnu	-10.6156
▁chest	-10.6158
▁lieu	-10.6165
anand	-10.6166
▁snap	-10.6167
▁alok	-10.6182
▁provider	-10.6189
▁purchas	-10.6191
▁recruit	-10.6197
▁char	-10.6201
▁kannada	-10.6201
▁sponsor	-10.6201
▁stokes	-10.6201
▁oath	-10.6201
▁commitment	-10.6209
▁markets	-10.6212
drew	-10.6216
rpool	-10.6219
▁offender	-10.6219
▁iaf	-10.6221
▁jets	-10.6229
com	-10.6229
▁instance	-10.6234
▁indo	-10.6234
wise	-10.6237
▁clinch	-10.6247
▁yatra	-10.6247
▁palace	-10.6247
▁amazing	-10.6247
▁brown	-10.6247
▁gangster	-10.6248
▁mandir	-10.6248
barack	-10.6248
▁scared	-10.6249
▁shikhar	-10.6253
▁parade	-10.6271
▁ney	-10.6277
▁hop	-10.629
▁lyric	-10.6292
▁op	-10.6292
▁gorakh	-10.6293
▁owaisi	-10.6293
▁superhero	-10.6293
▁taiwan	-10.6293
▁vir	-10.6294
▁amendment	-10.6295
▁generate	-10.6296
▁divers	-10.6298
▁janat	-10.6306
▁ncr	-10.6314
▁staffer	-10.6317
▁qual	-10.632
judicial	-10.6327
▁muf	-10.6335
▁associate	-10.6337
▁ravindra	-10.6339
▁mehul	-10.6339
▁kingdom	-10.6339
▁photographer	-10.6351
▁traffick	-10.6357
▁recognis	-10.6365
▁lowe	-10.6369
▁stag	-10.6382
▁mountain	-10.6385
▁collid	-10.6385
▁prabhu	-10.6385
▁sushil	-10.6385
▁grew	-10.6386
▁seller	-10.6388
ite	-10.6391
▁nahi	-10.6394
▁notification	-10.6406
▁shame	-10.6416
▁marine	-10.6419
ino	-10.6422
▁bloomberg	-10.6432
weather	-10.6433
▁rec	-10.6433
▁cabin	-10.6441
▁hunt	-10.6445
▁pole	-10.6455
▁vip	-10.6456
gen	-10.6461
▁distribut	-10.6464
▁sab	-10.6469
▁virgin	-10.6472
▁belgi	-10.6473
▁forget	-10.6479
▁achievement	-10.6485
▁recommendation	-10.6485
deep	-10.6486
▁usual	-10.6495
▁mouth	-10.6505
▁expense	-10.6509
▁acquitt	-10.6519
nder	-10.6523
▁nepotis	-10.6525
▁sonakshi	-10.6525
▁burst	-10.6529
▁eligib	-10.6538
▁taxe	-10.6541
laid	-10.6555
nam	-10.6557
▁exempt	-10.6567
▁turns	-10.6568
▁easter	-10.6568
are	-10.657
▁critic	-10.6571
▁plate	-10.6572
▁spider	-10.6572
▁element	-10.6573
▁mitha	-10.6573
▁eventual	-10.6575
▁advocate	-10.6576
▁rio	-10.6584
▁flyer	-10.6585
▁commander	-10.6598
▁bandh	-10.6621
reli	-10.6621
kot	-10.6622
bra	-10.6622
dev	-10.6629
▁misra	-10.663
▁dw	-10.6639
▁tradition	-10.6645
▁defamat	-10.6646
▁faster	-10.6649
hav	-10.6652
qui	-10.6666
▁essential	-10.6667
▁piyush	-10.6667
▁infant	-10.6668
▁enem	-10.6668
▁tejash	-10.667
▁delete	-10.6671
▁background	-10.6672
▁bright	-10.6673
▁strategic	-10.6674
▁smoke	-10.6675
▁mercede	-10.6676
▁log	-10.6679
▁mary	-10.6685
▁gather	-10.6686
ngt	-10.6686
ney	-10.6696
▁sung	-10.6698
▁solve	-10.6713
▁danga	-10.6714
▁kilogram	-10.6715
▁volunteer	-10.6715
▁remake	-10.6715
▁medium	-10.6716
▁honey	-10.6716
▁restriction	-10.6723
mm	-10.6723
▁labourer	-10.6724
▁moral	-10.6732
baaz	-10.6738
▁loc	-10.6748
▁default	-10.6752
▁crush	-10.6764
▁monkey	-10.6764
▁horse	-10.677
▁purpose	-10.6771
▁val	-10.6779
▁hill	-10.678
ivit	-10.6782
▁defam	-10.6785
▁experiment	-10.6793
cel	-10.6795
▁mahesh	-10.68
▁erupt	-10.6806
dney	-10.6808
▁strip	-10.6808
▁compete	-10.681
▁stretch	-10.6812
bourne	-10.6812
▁tackle	-10.6812
▁malware	-10.6812
▁remind	-10.6813
▁twenty	-10.6814
dhar	-10.6817
▁screening	-10.6826
ett	-10.6828
▁cji	-10.6829
▁sterli	-10.683
▁arab	-10.6843
▁intel	-10.6859
▁abscond	-10.686
▁discount	-10.686
▁swachh	-10.686
▁mirza	-10.6861
▁editor	-10.6861
▁ganesh	-10.6861
▁malayal	-10.6861
▁wireless	-10.6862
▁hidd	-10.6864
▁mor	-10.6865
▁tie	-10.687
▁shopp	-10.6891
▁thanks	-10.6896
10	-10.6897
▁pelt	-10.6898
▁mag	-10.6901
▁dip	-10.6903
▁formation	-10.6903
▁aren	-10.6905
▁quer	-10.6905
▁nehwal	-10.6909
▁mile	-10.6912
▁jean	-10.692
▁ease	-10.6923
▁deol	-10.6928
▁acre	-10.6929
▁sick	-10.6929
▁vp	-10.6937
▁vega	-10.6937
uck	-10.6938
▁magic	-10.6939
▁dismissal	-10.6947
mic	-10.6955
venkaiah	-10.6958
▁transplant	-10.6958
▁unfortunate	-10.6958
▁vikram	-10.6958
▁works	-10.6958
▁subsidiar	-10.6959
▁registration	-10.6959
▁memorial	-10.6962
▁directors	-10.6967
fl	-10.6967
hani	-10.6969
ayog	-10.6974
▁indonesian	-10.6992
▁resume	-10.6995
▁sw	-10.7003
▁ros	-10.7007
▁retaliat	-10.7007
▁cultural	-10.7007
▁referee	-10.7008
▁master	-10.7015
ome	-10.7016
▁eid	-10.7022
ilit	-10.7029
▁pul	-10.7034
▁fc	-10.704
rh	-10.7045
▁educational	-10.7049
▁bhi	-10.7053
▁associat	-10.7053
▁restor	-10.7054
▁homes	-10.7056
▁bungalow	-10.7057
▁pratap	-10.7057
▁summer	-10.7057
▁jihad	-10.7057
▁idol	-10.7058
▁flash	-10.7061
▁vow	-10.7062
▁pati	-10.7073
▁reading	-10.7077
▁emotional	-10.7079
▁lies	-10.7087
▁tan	-10.7098
▁mere	-10.7099
▁prem	-10.7103
▁doubt	-10.7107
▁fruit	-10.7107
▁knife	-10.7107
▁shutdown	-10.7107
▁cake	-10.7114
point	-10.7118
▁facial	-10.712
▁tap	-10.7121
hil	-10.7121
▁gl	-10.7129
▁sequ	-10.713
ode	-10.7132
▁stalk	-10.7132
fo	-10.7133
per	-10.7134
▁niti	-10.7136
▁root	-10.7137
▁pledg	-10.7147
▁mini	-10.7148
▁portrait	-10.7157
▁procedure	-10.7157
▁cream	-10.7157
▁superstar	-10.7157
▁destination	-10.7157
▁volk	-10.7158
▁soil	-10.7175
karnik	-10.7179
mn	-10.7184
▁gal	-10.7195
uana	-10.7197
▁transform	-10.7203
▁organ	-10.7206
▁enterprise	-10.7207
▁inappropriate	-10.7207
▁breast	-10.7207
▁cousin	-10.7207
▁stunt	-10.7207
▁troph	-10.7207
▁empower	-10.7207
▁wb	-10.7209
▁upset	-10.7222
ayne	-10.7242
▁193	-10.7245
▁analysi	-10.7252
▁logistic	-10.7258
▁chip	-10.726
ford	-10.7271
▁graduate	-10.7281
▁ul	-10.7283
ura	-10.7292
ock	-10.7297
wagen	-10.7297
▁constant	-10.7308
▁grocer	-10.7308
▁hafiz	-10.7308
▁kh	-10.7325
▁icon	-10.7326
▁greatest	-10.7335
▁actions	-10.7337
▁140	-10.7338
babu	-10.7345
nato	-10.735
had	-10.7353
car	-10.7353
▁fianc	-10.7356
▁vijayan	-10.7357
▁qualify	-10.7359
▁cyclone	-10.736
▁audit	-10.7363
▁edit	-10.7366
▁hitler	-10.7367
▁125	-10.7379
▁remov	-10.7381
18	-10.739
kha	-10.7391
lia	-10.7392
▁rooms	-10.7393
▁dust	-10.7409
▁stabili	-10.741
▁pixel	-10.741
rora	-10.741
abri	-10.7412
▁download	-10.7413
▁suv	-10.7414
rcom	-10.7416
ries	-10.7416
ria	-10.7423
▁aur	-10.7432
ikka	-10.7441
▁karunanidhi	-10.7462
▁bypoll	-10.7462
▁fox	-10.7463
▁entrance	-10.7463
▁djok	-10.7466
▁herita	-10.7467
▁coache	-10.7474
▁pc	-10.7476
yahu	-10.7481
▁bh	-10.7487
▁lion	-10.7498
▁lived	-10.7506
▁gul	-10.7511
▁nephew	-10.7514
▁throat	-10.7514
▁dispos	-10.7514
▁sweet	-10.7514
▁disha	-10.7516
▁capabilit	-10.7516
▁grounds	-10.7526
▁lama	-10.7526
anta	-10.7529
fu	-10.7532
▁gopal	-10.7537
▁integrat	-10.7538
▁panch	-10.7545
▁quant	-10.7547
gam	-10.7549
▁madur	-10.7549
▁participant	-10.7566
▁definite	-10.7566
▁autonomous	-10.7566
▁xiao	-10.7567
▁mask	-10.7568
▁possession	-10.757
resa	-10.7574
▁cable	-10.7576
▁absen	-10.7581
eaks	-10.7585
▁harv	-10.7592
ksha	-10.7593
und	-10.7602
▁buri	-10.7607
▁fisherm	-10.7611
▁tha	-10.7612
▁chicken	-10.7618
▁netherland	-10.7618
▁technique	-10.7618
▁liga	-10.7621
▁dok	-10.7626
▁teaching	-10.7627
▁ambe	-10.7629
▁except	-10.7632
▁marij	-10.7633
burg	-10.7634
▁owe	-10.7641
▁110	-10.7657
▁compulsor	-10.7671
▁firecracker	-10.7671
▁goalkeeper	-10.7671
▁journo	-10.7671
▁lunch	-10.7671
▁rahman	-10.7671
▁habit	-10.7673
▁bharatiya	-10.7676
▁robotic	-10.7682
▁loved	-10.7682
leep	-10.7684
▁upper	-10.7688
kyo	-10.7701
▁deserve	-10.7712
▁adviser	-10.7715
▁mos	-10.7715
▁penn	-10.7715
▁buyer	-10.7718
▁circulat	-10.7718
▁demonstrat	-10.7718
▁especial	-10.7724
▁guarantee	-10.7724
▁rickshaw	-10.7724
▁ancient	-10.7724
▁gurme	-10.7724
▁thoma	-10.7725
insula	-10.7725
▁ekta	-10.773
▁joshi	-10.7735
anda	-10.7736
▁questioning	-10.7738
▁jr	-10.7744
▁intercept	-10.7755
▁quota	-10.7759
▁rac	-10.7762
▁nz	-10.7765
▁explod	-10.777
haan	-10.777
▁aero	-10.7776
▁occupie	-10.7777
▁roof	-10.7779
▁instant	-10.7781
▁trend	-10.7782
▁lions	-10.7787
▁gram	-10.779
▁copy	-10.7795
▁kalani	-10.7795
▁192	-10.7803
▁dop	-10.7803
ren	-10.7804
▁cia	-10.7804
▁swimm	-10.7808
▁shoulder	-10.7808
very	-10.7811
▁gate	-10.7815
we	-10.7816
▁nun	-10.7827
▁conglomerate	-10.783
▁defect	-10.783
▁hijack	-10.783
▁bru	-10.7834
sange	-10.7835
▁exclusive	-10.7836
▁distribution	-10.7836
▁booth	-10.7837
▁jee	-10.7844
▁narayana	-10.7847
▁puri	-10.7862
▁tender	-10.7866
▁estimate	-10.787
▁badminton	-10.7884
▁croatia	-10.7884
▁javad	-10.7884
▁muzaffar	-10.7884
▁stomach	-10.7884
▁snatch	-10.7884
▁southern	-10.7885
▁kedar	-10.7889
▁meghan	-10.789
▁rover	-10.7892
the	-10.7899
▁jal	-10.7903
▁pray	-10.7906
▁bai	-10.7907
▁wage	-10.7911
▁scott	-10.7914
▁depend	-10.7916
▁locations	-10.7922
▁nose	-10.7934
▁fool	-10.7937
▁creator	-10.7938
▁kulbhus	-10.7938
▁possibilit	-10.7938
▁kyli	-10.7939
▁ze	-10.7941
▁haul	-10.7943
▁mentor	-10.7944
ega	-10.7948
▁dan	-10.7948
▁omar	-10.7951
▁arrival	-10.7952
▁manage	-10.7972
▁agarwal	-10.799
▁encourag	-10.799
▁submarine	-10.7993
▁attribut	-10.7993
▁blog	-10.7993
▁monsoon	-10.7993
▁sundar	-10.7994
gp	-10.7995
pro	-10.7997
▁manipur	-10.7998
▁wikil	-10.8
▁iraqi	-10.8005
▁trans	-10.801
room	-10.8016
appa	-10.8017
manuel	-10.802
▁hillar	-10.802
▁scot	-10.8035
▁leon	-10.8037
▁bare	-10.8041
▁consist	-10.8046
▁anonymous	-10.8047
▁kochhar	-10.8047
▁offensive	-10.8047
▁kala	-10.8055
▁jha	-10.8056
▁axi	-10.8058
air	-10.806
▁mail	-10.806
▁madhuri	-10.8064
▁jodh	-10.8066
▁struggle	-10.8072
▁laser	-10.8079
▁storey	-10.808
▁supplie	-10.8081
einstein	-10.8096
▁grade	-10.8097
▁crack	-10.8098
▁slaughter	-10.8102
▁alternative	-10.8102
▁homosexual	-10.8102
▁masjid	-10.8102
▁vessel	-10.8102
▁standoff	-10.8103
▁sarkar	-10.8107
▁wheeler	-10.8107
▁fm	-10.8111
mat	-10.8114
▁jun	-10.8115
isf	-10.8119
▁flu	-10.8125
▁misleading	-10.8126
life	-10.8136
▁prepare	-10.8138
▁gp	-10.8139
ze	-10.8145
▁jag	-10.815
▁farha	-10.8152
▁sl	-10.8155
▁pahlaj	-10.8157
▁succeed	-10.8157
▁shield	-10.8157
▁yeddy	-10.8157
eh	-10.8159
▁comeback	-10.816
▁investigate	-10.8163
▁bomber	-10.8169
▁mexican	-10.8174
▁jew	-10.8177
ieber	-10.8185
▁comp	-10.8189
▁grove	-10.8198
▁windows	-10.8198
▁wine	-10.8203
▁ramesh	-10.8204
eem	-10.8209
▁joe	-10.8211
▁attorney	-10.8213
▁bicycle	-10.8213
▁emoji	-10.8213
▁sunrisers	-10.8213
mukh	-10.8213
▁dawood	-10.8213
▁fe	-10.8217
▁melani	-10.8223
let	-10.8232
▁1990	-10.8232
abh	-10.8241
▁pod	-10.8244
▁bacteria	-10.8245
▁employer	-10.8253
▁measur	-10.8258
▁mira	-10.826
▁confus	-10.8264
▁chancellor	-10.8269
▁pradhan	-10.8269
▁drown	-10.8269
▁jawahar	-10.8269
▁nurse	-10.8269
▁challenger	-10.8269
▁dowr	-10.827
▁bot	-10.827
▁rahan	-10.827
▁jahan	-10.8273
▁infection	-10.8273
▁sandeep	-10.8274
▁medalist	-10.8275
▁punjabi	-10.8285
▁ski	-10.8291
weight	-10.8299
▁evening	-10.8301
▁marking	-10.8307
▁fu	-10.8311
▁prepar	-10.8318
▁agricultur	-10.8318
evin	-10.8322
hai	-10.8324
▁pocket	-10.8325
▁sheikh	-10.8326
▁equipp	-10.8331
▁fernande	-10.8333
▁gau	-10.8335
▁induct	-10.8337
▁trail	-10.8339
▁shane	-10.8344
▁commuter	-10.8345
▁devendr	-10.835
held	-10.8351
▁boe	-10.8354
▁eater	-10.8357
▁160	-10.836
▁accusation	-10.8362
cks	-10.8365
▁nei	-10.8371
▁cafe	-10.8382
▁bathroom	-10.8382
▁continuous	-10.8383
▁rou	-10.8389
▁tc	-10.839
▁scrapp	-10.8394
▁tal	-10.8394
▁mac	-10.8394
▁grave	-10.8395
▁hostage	-10.8396
▁volcano	-10.8398
▁gur	-10.841
asia	-10.8414
▁hari	-10.8415
▁golf	-10.842
▁nice	-10.842
▁gathering	-10.842
▁picha	-10.8423
▁recreat	-10.8427
var	-10.8437
▁expansion	-10.8438
▁negligen	-10.8438
▁taxpayer	-10.8438
▁racket	-10.8438
▁antarctic	-10.8438
▁tons	-10.8439
stone	-10.8439
▁portug	-10.844
▁rob	-10.8444
▁upa	-10.8447
▁operational	-10.8461
▁bhaga	-10.8463
jo	-10.8468
▁gangrape	-10.8474
gre	-10.8477
▁label	-10.8483
▁wire	-10.8493
fielder	-10.8495
▁bhopal	-10.8495
▁netflix	-10.8495
▁surveillance	-10.8495
▁asylum	-10.8495
▁visual	-10.8495
▁landmark	-10.8497
▁gym	-10.8497
uram	-10.8498
▁anna	-10.8498
▁loot	-10.8499
▁sort	-10.85
▁crud	-10.8501
▁academic	-10.8502
▁separat	-10.8508
▁casualt	-10.8512
▁nin	-10.8517
▁mein	-10.8522
▁shoe	-10.8523
▁nba	-10.8525
▁chan	-10.8532
nish	-10.8537
ori	-10.8537
off	-10.8543
▁deport	-10.8551
▁chocolate	-10.8553
▁deficit	-10.8553
▁fundamental	-10.8553
▁household	-10.8553
▁condom	-10.8554
▁mill	-10.8555
▁laugh	-10.8559
▁lifetime	-10.856
▁naval	-10.8565
▁lie	-10.8566
▁enabl	-10.8571
cious	-10.8572
▁load	-10.8584
▁creation	-10.8593
▁plead	-10.8595
▁bust	-10.8606
▁defender	-10.8609
▁glitch	-10.8611
▁govinda	-10.8611
▁pistol	-10.8611
▁vivek	-10.8611
▁smell	-10.8611
▁replacement	-10.8625
▁ver	-10.8629
▁tally	-10.8634
▁fur	-10.8644
swami	-10.8646
▁homeless	-10.8648
▁baat	-10.8653
▁guj	-10.8657
▁rajesh	-10.8664
▁cho	-10.8666
▁accompani	-10.8669
▁succumb	-10.8669
▁spiritual	-10.8669
▁stuff	-10.867
▁ashish	-10.8671
▁electora	-10.8672
▁reduction	-10.8672
cherry	-10.8672
▁misus	-10.8676
▁abhi	-10.8677
▁contribut	-10.8678
▁hacking	-10.868
urapp	-10.8682
indies	-10.8688
▁supplier	-10.8691
▁gill	-10.8704
chain	-10.8716
▁surrounding	-10.8718
▁backward	-10.8718
book	-10.8721
▁michel	-10.8724
▁froze	-10.8727
▁messenger	-10.8727
▁racial	-10.873
▁exact	-10.873
▁hunger	-10.8734
▁begun	-10.8752
▁info	-10.8755
bur	-10.8757
▁permit	-10.8762
▁capture	-10.8762
▁dhan	-10.8772
▁bip	-10.8774
▁ibrahim	-10.878
▁misuse	-10.8785
▁borrow	-10.8786
▁devotee	-10.8786
▁disorder	-10.8786
▁neutral	-10.8786
▁famous	-10.8786
▁vogue	-10.8787
▁puja	-10.8788
▁friendship	-10.8795
▁sau	-10.8796
▁dutch	-10.8797
nkesh	-10.88
▁allege	-10.8809
▁190	-10.8816
sen	-10.8836
box	-10.8837
▁comply	-10.8838
xip	-10.8842
▁appropriate	-10.8845
▁knowledge	-10.8845
▁texa	-10.8846
▁afr	-10.8846
▁blackmail	-10.8847
▁srikanth	-10.8851
▁killer	-10.8859
▁designat	-10.8862
▁worse	-10.8875
kumar	-10.8875
▁nia	-10.8878
▁tur	-10.8878
▁believes	-10.8881
▁consult	-10.8894
▁studie	-10.8899
▁bombs	-10.8902
▁striker	-10.8902
▁cartoon	-10.8905
▁benchmark	-10.8905
▁rough	-10.8906
▁lesson	-10.8907
aylor	-10.8908
▁interior	-10.8909
shekhar	-10.8916
▁chit	-10.8922
▁lights	-10.8922
▁slipp	-10.8924
▁hal	-10.893
▁cycle	-10.8933
▁kya	-10.8944
▁babu	-10.8947
▁karni	-10.895
▁jam	-10.8954
▁kat	-10.8961
▁insolven	-10.8965
▁sultan	-10.8965
▁motivat	-10.8965
▁overturn	-10.8965
▁ritual	-10.8966
▁hirani	-10.8967
▁mou	-10.8971
rey	-10.8981
▁cp	-10.8988
pan	-10.8992
▁mm	-10.8992
▁describe	-10.9001
▁kuna	-10.9012
ott	-10.9015
▁disclos	-10.9023
▁eclipse	-10.9025
▁mutual	-10.9025
▁flaw	-10.9025
▁rodrig	-10.9025
▁patidar	-10.9025
▁historic	-10.9026
▁physic	-10.9029
▁joy	-10.903
chandran	-10.9031
▁chef	-10.9032
▁navj	-10.9034
▁maharaj	-10.9034
▁discharg	-10.9041
▁marath	-10.9046
ola	-10.9056
▁knee	-10.9063
▁intention	-10.9066
▁petitioner	-10.9067
▁nano	-10.9068
▁trace	-10.9071
▁stupid	-10.9086
▁gown	-10.9086
▁vacation	-10.9087
▁warren	-10.9089
▁kidney	-10.9089
▁lotter	-10.9092
▁clearance	-10.9095
▁requirement	-10.9095
▁hugg	-10.9097
hief	-10.9097
▁observation	-10.9099
▁forgot	-10.91
▁pub	-10.9101
▁mur	-10.9101
kat	-10.9104
bobby	-10.9106
venge	-10.9115
cb	-10.9118
ugh	-10.9123
▁layer	-10.9129
shore	-10.914
▁privilege	-10.914
▁simpl	-10.9143
▁authoris	-10.9146
▁pretext	-10.9147
▁retweet	-10.9147
▁balloon	-10.9147
▁falcon	-10.9147
▁challenges	-10.9158
anasi	-10.9169
▁engineers	-10.9169
oia	-10.917
▁isha	-10.9175
dore	-10.9177
▁dressing	-10.9192
▁amul	-10.9192
▁slip	-10.9201
▁entertain	-10.9204
▁brahm	-10.9204
och	-10.9206
▁indefinite	-10.9208
▁shoaib	-10.9208
▁bishop	-10.9208
▁empty	-10.9208
▁lahor	-10.9209
▁closure	-10.921
▁nift	-10.9211
▁youngster	-10.9211
▁catche	-10.9211
zoram	-10.9212
▁hyd	-10.9213
▁lynch	-10.9217
▁compare	-10.9229
ravis	-10.9237
ache	-10.9237
ort	-10.9239
▁disabl	-10.9241
▁wrestl	-10.9246
mumbai	-10.9255
▁realise	-10.9261
atic	-10.9261
▁mechanism	-10.927
▁voluntar	-10.927
▁signature	-10.927
▁spell	-10.9272
▁transition	-10.9273
▁senator	-10.9273
▁peaceful	-10.9275
▁invitation	-10.9281
▁settl	-10.9285
▁gb	-10.9288
▁violate	-10.9293
▁happening	-10.9301
▁rapid	-10.9303
▁gree	-10.9311
▁swor	-10.9319
ranchi	-10.932
▁cater	-10.9325
▁sur	-10.9326
▁assailant	-10.9332
▁scooter	-10.9332
▁denmark	-10.9332
▁vishwa	-10.9332
▁anchor	-10.9332
▁eliminat	-10.9333
▁chhe	-10.9334
▁kiran	-10.9335
▁negotiation	-10.9336
▁kanpur	-10.9337
▁trouble	-10.934
▁102	-10.9345
▁adam	-10.9348
▁analyst	-10.9348
▁chal	-10.9353
bul	-10.9387
asha	-10.939
▁none	-10.9391
▁competitive	-10.9394
▁magistrate	-10.9394
▁suspicious	-10.9394
▁thiev	-10.9395
▁sajid	-10.9395
▁erdo	-10.9395
▁prosecutor	-10.9397
▁abortion	-10.9397
▁solid	-10.9403
▁kuch	-10.9404
▁bhar	-10.9404
beth	-10.9406
▁dear	-10.9408
kal	-10.9415
▁dala	-10.9425
▁cau	-10.9432
▁grown	-10.9435
▁zo	-10.9438
oom	-10.9438
▁kur	-10.944
▁isolat	-10.9443
clusive	-10.9453
▁terminat	-10.9454
▁unemploy	-10.9457
▁practis	-10.9457
▁restrain	-10.9457
▁corner	-10.9458
▁cheque	-10.9459
▁titan	-10.9462
▁collector	-10.9469
tenanc	-10.9481
▁sahara	-10.9488
▁tobac	-10.9511
▁ips	-10.9512
ean	-10.9516
▁kr	-10.9517
▁palestin	-10.952
▁pothole	-10.952
▁tomorrow	-10.952
▁manipulat	-10.952
▁agenda	-10.9521
▁departure	-10.9521
graph	-10.9521
▁hizb	-10.9522
▁dignit	-10.9525
▁kenya	-10.9525
▁booking	-10.9525
▁jacket	-10.9525
▁replica	-10.9526
▁oppose	-10.9531
jeet	-10.9534
▁unite	-10.9536
▁maria	-10.9536
▁gen	-10.9539
▁guid	-10.9543
▁pill	-10.9545
▁chic	-10.9554
▁novel	-10.9557
▁environmental	-10.9559
▁spie	-10.9563
ative	-10.9573
▁simple	-10.9573
▁rub	-10.9583
▁ideology	-10.9584
▁koffee	-10.9584
▁pattern	-10.9584
▁nissan	-10.9584
▁compet	-10.9588
aiba	-10.9592
▁alter	-10.96
▁grab	-10.9604
▁welcom	-10.9619
▁sharp	-10.9619
▁sharad	-10.9621
admi	-10.9622
▁visibl	-10.9634
▁explore	-10.9636
▁mah	-10.9636
▁bless	-10.9638
power	-10.9638
▁interact	-10.9641
▁ascertain	-10.9648
▁referendum	-10.9648
▁vietnam	-10.9648
▁monetar	-10.9648
▁poem	-10.9648
▁conced	-10.9649
▁dharmend	-10.965
▁collaboration	-10.9652
▁oh	-10.9654
▁facts	-10.9654
▁ren	-10.9655
▁jenni	-10.9659
▁forti	-10.966
▁blu	-10.9661
▁ramp	-10.9662
lash	-10.9675
blaze	-10.9687
▁flower	-10.969
overt	-10.9692
iness	-10.9694
▁yash	-10.9699
▁litera	-10.9702
▁haj	-10.9706
▁resolv	-10.9708
down	-10.971
akaran	-10.9711
tooth	-10.9712
▁eliza	-10.9713
▁dozen	-10.9713
▁substance	-10.9713
▁nrc	-10.9713
▁comparison	-10.9714
▁physicist	-10.9714
▁conven	-10.9714
▁schedule	-10.9714
▁analytica	-10.9716
▁eggs	-10.9716
▁sugar	-10.9717
back	-10.9718
▁dj	-10.972
gel	-10.9723
▁defaulter	-10.9728
ibm	-10.9742
▁frame	-10.9756
▁appreciat	-10.9759
▁dry	-10.9759
port	-10.9763
▁hanuman	-10.9778
▁ferrari	-10.9778
▁milestone	-10.9778
▁premium	-10.9778
▁rishab	-10.9779
▁nihal	-10.978
▁hurl	-10.9781
ghan	-10.9784
▁malaysian	-10.9801
dani	-10.9805
▁bombing	-10.9815
▁panda	-10.9819
wick	-10.9825
▁luna	-10.983
▁equall	-10.983
bus	-10.9836
▁tape	-10.9841
▁affidavit	-10.9843
▁crypto	-10.9843
▁hyperloop	-10.9843
▁kaushal	-10.9843
▁saturn	-10.9843
▁repay	-10.9844
▁magnetic	-10.9844
▁smile	-10.9847
17	-10.9847
▁topper	-10.9848
▁disclose	-10.9849
▁surge	-10.985
illa	-10.9852
▁ghosh	-10.9853
▁membership	-10.9854
▁attendance	-10.9855
ency	-10.9856
▁inspiration	-10.9857
▁selector	-10.9858
▁stable	-10.9864
path	-10.9865
▁stripp	-10.9868
▁khand	-10.9872
▁judgement	-10.9875
▁math	-10.9879
riya	-10.9888
▁pari	-10.9889
chell	-10.9894
▁zinda	-10.9895
▁execut	-10.9902
oor	-10.9903
▁infect	-10.9904
▁deb	-10.9904
▁administrator	-10.9909
▁affiliate	-10.9909
▁consequence	-10.9909
▁sreesanth	-10.9909
▁tattoo	-10.9909
▁brawl	-10.9909
▁genetic	-10.9911
illy	-10.9911
▁impeach	-10.9914
▁lip	-10.9917
iest	-10.9926
▁berk	-10.9927
▁chopper	-10.9927
▁jud	-10.9933
▁guards	-10.9942
▁tele	-10.9946
▁ensur	-10.9949
▁shall	-10.9957
▁flie	-10.9967
▁allocat	-10.997
▁chairperson	-10.9975
▁mehbooba	-10.9975
▁alarm	-10.9975
▁expir	-10.9975
laxman	-10.9976
▁mood	-10.9977
▁commentator	-10.9979
▁sacrifice	-10.998
▁mosco	-10.998
▁demolish	-10.9982
▁rapist	-10.9985
bh	-11.0002
▁unity	-11.0003
▁siri	-11.0006
▁integr	-11.0011
▁pathan	-11.0013
▁expression	-11.0015
▁cri	-11.0017
▁rk	-11.0019
▁directive	-11.0022
▁praise	-11.0024
wara	-11.0032
▁rafael	-11.0042
▁globe	-11.0042
▁panama	-11.0042
▁pride	-11.0043
▁exceed	-11.0048
▁cannes	-11.005
▁pledge	-11.0056
eek	-11.0057
▁maa	-11.0068
▁thane	-11.0069
maker	-11.0084
▁andrew	-11.0088
▁karti	-11.0089
▁styl	-11.0091
▁demo	-11.0092
▁sangh	-11.0103
▁upgrad	-11.0109
radhika	-11.0109
▁juvenile	-11.0109
▁subscriber	-11.0109
▁venezuelan	-11.0109
▁hamil	-11.0109
▁silent	-11.011
▁legislator	-11.0114
▁swami	-11.0114
▁lewi	-11.0115
▁bay	-11.0115
▁wherea	-11.0115
▁bias	-11.0116
▁thi	-11.0117
india	-11.012
▁450	-11.0127
▁contractor	-11.0131
aq	-11.0132
▁underwa	-11.0134
▁accord	-11.0136
▁chatt	-11.014
▁airb	-11.0144
▁stamp	-11.0152
▁haq	-11.0155
▁narayan	-11.0155
▁briha	-11.0165
ibbe	-11.0171
▁dictator	-11.0176
▁vulnerab	-11.0176
▁circuit	-11.0176
▁misbehav	-11.0176
▁prototype	-11.0176
▁clinic	-11.0177
▁cleric	-11.0177
rove	-11.0179
▁wifi	-11.018
▁pact	-11.0181
▁innocent	-11.0181
icit	-11.0182
▁bangladeshi	-11.0196
▁00	-11.0199
▁harman	-11.0199
▁vacan	-11.0205
kg	-11.0206
oyo	-11.0206
▁chips	-11.0207
▁fleet	-11.0212
▁balan	-11.0215
▁haley	-11.0218
▁bose	-11.0219
eshwar	-11.022
▁suggestion	-11.0226
half	-11.0229
▁scrap	-11.0232
▁rope	-11.0234
ava	-11.0241
teshwar	-11.0244
▁identification	-11.0244
▁lashkar	-11.0245
aimur	-11.0245
▁drain	-11.0245
▁raksha	-11.0246
▁chahal	-11.0248
▁unlock	-11.0251
▁interaction	-11.0251
▁durga	-11.0264
▁kidnapping	-11.0265
▁chin	-11.028
▁keeper	-11.0292
rayi	-11.0308
▁venu	-11.031
▁automat	-11.0314
▁meddl	-11.0314
▁indulg	-11.0314
▁tibetan	-11.0317
▁pina	-11.0318
▁vendor	-11.0318
▁chanda	-11.0319
▁pig	-11.032
▁priya	-11.0327
▁kailas	-11.0332
▁kul	-11.0346
▁colombia	-11.0347
pati	-11.035
▁bol	-11.0351
▁addition	-11.0357
▁mai	-11.0358
▁memo	-11.0362
▁marked	-11.0371
▁mud	-11.0375
▁cylinder	-11.0382
▁streak	-11.0382
▁segment	-11.0382
▁soviet	-11.0382
▁tsunami	-11.0382
▁advani	-11.0382
▁arrangement	-11.0384
▁villain	-11.0384
▁vasu	-11.0385
▁pudu	-11.0385
▁eric	-11.0386
▁determine	-11.0386
▁economist	-11.0386
▁grabb	-11.0387
▁tinder	-11.0389
▁prett	-11.039
uff	-11.0403
pad	-11.0403
▁triv	-11.0407
▁revok	-11.0413
▁happens	-11.0417
rlin	-11.0426
▁studi	-11.0427
▁resist	-11.0436
▁mangal	-11.0437
▁shower	-11.0442
▁fraudulent	-11.0451
▁oxford	-11.0451
▁sikkim	-11.0451
▁abraham	-11.0451
▁bmw	-11.0451
▁hussa	-11.0452
▁marketplace	-11.0452
▁percentage	-11.0452
▁agitation	-11.0453
▁expressway	-11.0456
▁instruction	-11.0456
▁gil	-11.0456
▁observe	-11.0457
▁sole	-11.0457
▁ward	-11.0459
▁sacr	-11.0461
▁bath	-11.0465
▁attitude	-11.0467
bandhan	-11.0471
ati	-11.0472
▁rental	-11.0473
▁anger	-11.0475
▁bse	-11.0478
▁dealing	-11.0513
▁hans	-11.0518
▁madrasa	-11.0519
▁disappear	-11.052
▁bajrang	-11.0521
▁wheelchair	-11.0521
▁implant	-11.0521
▁avenger	-11.0522
▁sardar	-11.0522
▁kochi	-11.0523
▁coins	-11.0523
bahl	-11.053
▁batch	-11.0538
post	-11.0546
▁nigeria	-11.0551
▁allowance	-11.0551
list	-11.0551
▁hub	-11.0559
▁hain	-11.0573
▁contribute	-11.0574
chadha	-11.0575
▁kho	-11.0579
▁possess	-11.0587
▁mitta	-11.0589
▁baa	-11.059
▁prabha	-11.059
▁crashe	-11.0592
▁athletic	-11.0592
▁kitchen	-11.0592
▁unauthori	-11.0592
▁swift	-11.0592
itarian	-11.0595
▁tyre	-11.0596
▁complainant	-11.0597
▁pu	-11.0607
▁nationalist	-11.0619
▁financ	-11.0629
▁thu	-11.0632
▁jim	-11.0651
dai	-11.0659
▁certification	-11.0663
▁frequent	-11.0663
▁fugitive	-11.0663
▁jasprit	-11.0663
▁nilekani	-11.0663
▁whistleblower	-11.0663
▁khurra	-11.0663
▁fetch	-11.0663
▁poach	-11.0663
▁levi	-11.0663
▁medallist	-11.0664
▁hint	-11.0664
▁kabul	-11.0665
▁assassination	-11.0666
▁detention	-11.0669
▁irish	-11.0671
fast	-11.0675
▁finalis	-11.0677
▁judicia	-11.0681
▁covering	-11.0687
▁infra	-11.0687
▁afford	-11.0704
▁mocking	-11.0708
aad	-11.0718
▁dc	-11.0731
uz	-11.0733
▁panic	-11.0733
▁dept	-11.0734
▁regulate	-11.0734
▁sovereign	-11.0734
▁communist	-11.0734
▁jackson	-11.0736
▁anthon	-11.0736
▁kri	-11.0738
▁imf	-11.0739
▁bhavan	-11.074
▁allott	-11.0747
standing	-11.0759
▁saa	-11.077
jal	-11.0774
▁koi	-11.078
▁tortur	-11.0783
rraf	-11.0783
▁trac	-11.0793
urya	-11.0795
▁coa	-11.0795
woman	-11.0797
▁colon	-11.0802
▁tablet	-11.0805
▁superintendent	-11.0806
▁tumour	-11.0806
▁reopen	-11.0806
▁impossible	-11.0807
▁separatist	-11.0807
▁bhumi	-11.0808
▁inspection	-11.0809
▁indu	-11.0811
▁gaming	-11.0811
▁displac	-11.0811
▁naik	-11.0814
▁musha	-11.0821
▁slit	-11.0833
▁lar	-11.0834
▁alexand	-11.0841
iggy	-11.0849
▁server	-11.0854
lain	-11.0861
▁rama	-11.0868
▁advantage	-11.0878
▁watchdog	-11.0878
▁jenner	-11.0879
▁bonus	-11.0879
▁tubelight	-11.0879
▁intervention	-11.0879
▁madhav	-11.0879
▁charter	-11.088
▁wonderful	-11.088
▁innovation	-11.0882
▁menu	-11.0882
▁vers	-11.0883
▁lover	-11.0886
▁marathon	-11.089
▁360	-11.0893
▁yard	-11.0896
▁wax	-11.0897
play	-11.0898
kk	-11.0899
▁excited	-11.0905
▁banner	-11.0906
▁talle	-11.0915
▁shipp	-11.0916
▁struggl	-11.0919
▁alien	-11.0927
▁enhance	-11.0928
▁madhu	-11.0932
▁nnn	-11.0935
▁educat	-11.0946
▁mcd	-11.0948
▁clark	-11.0948
▁karna	-11.0949
▁calculat	-11.0951
▁incorrect	-11.0951
▁tissue	-11.0951
▁courage	-11.0951
▁pompe	-11.0951
▁sakshi	-11.0951
▁charles	-11.0952
▁verification	-11.0952
basket	-11.0952
▁tribe	-11.0955
pel	-11.0961
▁spare	-11.0963
▁hik	-11.0971
▁composer	-11.0988
bil	-11.0991
▁arrive	-11.0997
chan	-11.0999
▁experienc	-11.1003
▁binn	-11.1004
▁melt	-11.1012
dhana	-11.1013
▁hul	-11.1019
act	-11.1019
▁dancer	-11.1024
▁supermarket	-11.1025
▁bhagwat	-11.1025
▁warrior	-11.1025
▁refut	-11.1025
▁confin	-11.1025
▁disabilit	-11.1026
▁trademark	-11.1026
▁admir	-11.1027
▁hood	-11.1029
▁thriller	-11.1031
▁recruitment	-11.1032
▁farah	-11.1033
lf	-11.1034
▁gho	-11.1036
▁attendant	-11.1037
▁rex	-11.1037
▁pure	-11.105
▁vk	-11.1053
▁declaration	-11.1059
▁victoria	-11.1073
▁pace	-11.1074
▁theme	-11.1091
▁im	-11.1092
▁negotiat	-11.1094
▁delegation	-11.1099
▁laborator	-11.1099
▁landslide	-11.1099
▁lugg	-11.1099
▁principle	-11.1099
▁sisodi	-11.1099
▁skull	-11.1099
▁vegetarian	-11.1099
▁embarrass	-11.1099
▁silicon	-11.1099
▁applicant	-11.11
▁interference	-11.11
▁sides	-11.11
▁altitude	-11.11
▁workplace	-11.1101
▁irregularit	-11.1101
▁kalyan	-11.1102
▁barrier	-11.1104
▁execution	-11.1105
▁glad	-11.1108
continent	-11.1109
▁rear	-11.1113
house	-11.1116
▁lara	-11.1116
▁stray	-11.1123
nic	-11.1125
▁gogo	-11.1128
▁pursu	-11.1131
▁merc	-11.1137
eath	-11.1139
▁organise	-11.1141
▁mil	-11.1144
▁mat	-11.1157
▁purposes	-11.1162
▁forcibl	-11.1163
dom	-11.1164
▁refer	-11.1166
▁las	-11.1173
▁patriot	-11.1174
▁bhuvneshwar	-11.1174
▁convoy	-11.1174
▁hashtag	-11.1174
▁judwaa	-11.1174
▁jupiter	-11.1174
▁propagand	-11.1174
▁vegetable	-11.1174
▁immun	-11.1174
▁thugs	-11.1174
▁javed	-11.1174
▁kotak	-11.1175
▁unlike	-11.1176
▁raw	-11.1177
▁prank	-11.1177
▁farooq	-11.1177
▁calm	-11.1183
▁goat	-11.1184
▁canteen	-11.1184
▁iceland	-11.1184
▁lens	-11.1189
▁worry	-11.1197
▁rajkumar	-11.1201
▁sew	-11.1203
erkel	-11.1214
▁guide	-11.1227
oggi	-11.1229
ova	-11.1231
▁odd	-11.1231
▁subsid	-11.1233
▁cameo	-11.1247
▁basketball	-11.1249
▁circular	-11.1249
▁concret	-11.1249
▁joseph	-11.1249
▁ceiling	-11.1249
▁burger	-11.125
▁shrine	-11.1253
▁classified	-11.1253
▁gulf	-11.1256
▁verifi	-11.1257
▁excit	-11.1259
▁craz	-11.1259
▁azad	-11.1261
▁haz	-11.1261
tten	-11.1265
charge	-11.1273
pak	-11.1276
▁recording	-11.1278
▁assum	-11.129
▁manj	-11.1301
▁beard	-11.1302
ington	-11.1309
▁camps	-11.1314
je	-11.1315
▁rashtr	-11.1323
▁conspir	-11.1324
▁prat	-11.1324
▁length	-11.1325
▁saffron	-11.1325
▁yamuna	-11.1325
▁ultra	-11.1325
▁mujahid	-11.1325
▁millionaire	-11.1325
▁ken	-11.1326
▁cart	-11.1326
▁lev	-11.1327
▁pot	-11.1327
▁amarnath	-11.1329
▁nehra	-11.133
▁analys	-11.1332
▁nit	-11.1339
hmi	-11.1357
▁fame	-11.136
▁raju	-11.1366
▁divid	-11.1373
▁vande	-11.1374
▁insist	-11.1376
▁shav	-11.1387
▁christ	-11.1394
▁bengali	-11.14
▁deliberate	-11.1401
▁furniture	-11.1401
▁scientific	-11.1401
▁sculpture	-11.1401
▁monument	-11.1401
▁librar	-11.1401
▁lending	-11.1401
▁murali	-11.1402
hansi	-11.1402
▁khatta	-11.1402
▁speculation	-11.1405
▁chaudhar	-11.1411
▁assess	-11.1411
▁brick	-11.1411
ender	-11.1413
gc	-11.1416
▁sacha	-11.1417
▁coup	-11.1417
▁fulfill	-11.1418
▁khash	-11.142
fisher	-11.142
jamin	-11.1422
mond	-11.1427
▁electrical	-11.1433
▁congratulate	-11.1434
▁105	-11.1438
▁pira	-11.1441
▁basu	-11.1448
▁scan	-11.1451
chand	-11.1458
▁hiring	-11.1475
▁confident	-11.1476
▁laureate	-11.1478
▁shweta	-11.1478
▁tricolour	-11.1478
▁unacceptabl	-11.1478
aga	-11.1478
▁sauda	-11.148
▁evasi	-11.1483
▁prov	-11.1484
fusion	-11.1487
▁fitt	-11.1488
▁chap	-11.149
▁restore	-11.1492
worth	-11.1495
▁bbc	-11.1498
▁stra	-11.1499
▁vend	-11.1502
▁lightn	-11.1507
▁emi	-11.1508
▁sword	-11.1512
▁copie	-11.152
▁criticise	-11.1524
▁shark	-11.1525
mate	-11.1529
oval	-11.1542
▁examin	-11.1546
ikwa	-11.1553
▁compound	-11.1555
▁grenade	-11.1555
▁indigenous	-11.1555
▁simultaneous	-11.1555
▁kumbh	-11.1555
▁circumstance	-11.1555
▁fingerprint	-11.1556
▁exclud	-11.1557
▁truly	-11.1557
▁exhibition	-11.1558
▁guardian	-11.1559
▁compris	-11.1562
teen	-11.1566
▁reverse	-11.1568
▁paine	-11.1573
▁kom	-11.1579
▁bett	-11.1585
▁khali	-11.1589
▁mata	-11.1589
▁copying	-11.1594
maybe	-11.1596
▁dirty	-11.1601
▁suprem	-11.1604
▁raman	-11.1616
▁kate	-11.1618
▁beta	-11.1619
▁instruct	-11.1625
▁coat	-11.1625
▁stu	-11.1629
▁leopard	-11.1634
▁database	-11.1634
▁routine	-11.1634
▁hoax	-11.1634
▁subhash	-11.1635
▁shangh	-11.1635
▁egyptian	-11.1636
ahoo	-11.1637
▁grandson	-11.1637
▁urgent	-11.1644
▁exec	-11.1645
▁endors	-11.1646
▁unna	-11.165
▁hip	-11.1658
▁compromis	-11.1658
▁rathor	-11.1665
▁investigator	-11.1667
▁behead	-11.1675
lock	-11.1676
ison	-11.1685
▁foreigner	-11.1689
▁fulfil	-11.1695
▁northeast	-11.1696
▁bout	-11.1697
▁supergiant	-11.1712
▁disrespect	-11.1712
▁nominee	-11.1712
▁widow	-11.1712
ao	-11.1716
▁native	-11.1719
ryl	-11.1721
▁05	-11.1721
stalin	-11.1722
▁huma	-11.1725
▁patch	-11.1727
▁cuba	-11.173
▁gambl	-11.1734
▁geo	-11.1741
▁updat	-11.175
▁ways	-11.1761
▁lung	-11.1761
reshi	-11.1768
▁raz	-11.1772
▁witnesse	-11.1778
▁soul	-11.1779
pec	-11.1781
pool	-11.1786
▁component	-11.1792
▁pedestrian	-11.1792
▁relevan	-11.1792
▁aggressive	-11.1792
▁verbal	-11.1792
▁sachs	-11.1792
▁meaning	-11.1793
▁facilitate	-11.1793
cry	-11.1795
▁audition	-11.1801
oid	-11.1802
▁indicat	-11.1809
▁plung	-11.1816
ilever	-11.1822
▁masters	-11.1829
▁incit	-11.1831
bn	-11.1835
▁dhin	-11.1835
▁arrang	-11.1839
rah	-11.184
▁assembl	-11.185
▁proceed	-11.1857
▁holy	-11.186
ngue	-11.1861
▁hassan	-11.1862
▁pursue	-11.1868
▁invent	-11.187
▁anticipat	-11.1872
▁algorithm	-11.1872
▁carpet	-11.1872
▁endanger	-11.1872
▁southeast	-11.1872
▁ncp	-11.1872
▁acknowledg	-11.1872
▁condolence	-11.1872
▁gravit	-11.1872
▁upgrade	-11.1872
▁toxic	-11.1873
▁taste	-11.1874
rom	-11.1876
▁merg	-11.1878
▁poisoning	-11.188
▁renew	-11.1884
suit	-11.1884
▁passion	-11.1885
mool	-11.1886
▁jesu	-11.1888
▁portion	-11.1889
▁jar	-11.189
▁installation	-11.1892
▁shaba	-11.1901
obe	-11.1907
tial	-11.1918
▁possibl	-11.1923
▁tail	-11.1925
▁qualifi	-11.1935
▁raje	-11.1942
▁trends	-11.1945
▁hind	-11.1945
▁egg	-11.1948
▁extradit	-11.1948
kov	-11.1951
▁expenditure	-11.1952
▁mosquito	-11.1952
▁reputation	-11.1952
▁album	-11.1952
▁hydrogen	-11.1952
▁hawaii	-11.1953
▁wanna	-11.1953
▁secular	-11.1953
▁nigam	-11.1954
▁hoist	-11.1957
▁wats	-11.1964
▁cape	-11.1973
russel	-11.1974
▁dair	-11.1976
▁bleed	-11.1979
▁ratan	-11.1983
hot	-11.1991
hill	-11.2004
▁sum	-11.2014
diac	-11.2014
▁helpline	-11.2016
▁legislat	-11.2022
▁slap	-11.2022
▁dun	-11.2023
▁kuwait	-11.2034
▁pepsi	-11.2034
▁treasur	-11.2034
▁defraud	-11.2034
▁activat	-11.2034
▁emirate	-11.2034
▁mafia	-11.2034
▁chemist	-11.2034
▁verify	-11.2034
▁palaniswa	-11.2034
▁random	-11.2035
▁bhutan	-11.2035
▁center	-11.2035
▁hindo	-11.2038
▁manek	-11.2038
▁nickname	-11.2042
▁pit	-11.2043
▁pont	-11.2044
▁ordina	-11.2044
▁extremist	-11.2045
▁establishment	-11.2047
▁borne	-11.2048
▁ration	-11.2052
▁raveen	-11.2052
▁bush	-11.2053
▁debr	-11.2056
isha	-11.2058
dwaj	-11.2064
▁baron	-11.2066
▁shim	-11.2069
▁pla	-11.2072
▁badal	-11.2072
▁princess	-11.2075
▁solo	-11.2076
mail	-11.2084
▁brave	-11.2115
▁zaheer	-11.2116
▁jordan	-11.2116
▁workforce	-11.2116
▁orient	-11.2116
▁spray	-11.2116
▁accommodation	-11.2116
▁birla	-11.2117
▁imti	-11.2119
▁prelim	-11.2119
▁shin	-11.2119
▁luc	-11.212
▁legislation	-11.2121
▁stronger	-11.2124
▁successive	-11.2124
▁tai	-11.2125
bro	-11.2126
zz	-11.2129
asthana	-11.213
▁1980	-11.2133
▁104	-11.2136
▁saree	-11.2137
▁inventor	-11.214
screen	-11.2141
▁stampede	-11.2145
rway	-11.2145
▁dhab	-11.215
▁pais	-11.2154
▁pai	-11.2154
laden	-11.2155
▁tab	-11.2163
▁giri	-11.2163
aryan	-11.2186
▁swim	-11.2189
▁sho	-11.219
asi	-11.2195
▁biometric	-11.2198
▁digvijaya	-11.2198
▁lecture	-11.2198
▁merchant	-11.2198
▁radiation	-11.2198
▁domain	-11.2198
▁bedroom	-11.2199
▁potter	-11.2199
▁foul	-11.22
▁lit	-11.2203
▁merit	-11.2209
aja	-11.2213
▁hell	-11.2217
▁zin	-11.2222
▁fest	-11.2222
▁torture	-11.2226
▁comic	-11.224
▁dia	-11.224
▁traveller	-11.2241
▁sanya	-11.2244
▁worri	-11.2252
wada	-11.2256
▁lt	-11.2266
ganj	-11.227
▁disqualifi	-11.2278
▁repeat	-11.228
▁adequate	-11.2282
▁catholic	-11.2282
▁belief	-11.2282
▁forecast	-11.2282
▁pertain	-11.2282
▁assad	-11.2283
▁funny	-11.2283
▁outrage	-11.2283
▁lifestyle	-11.2283
▁compliance	-11.2285
▁servant	-11.2288
itz	-11.2291
mund	-11.2292
▁equalit	-11.2292
▁collective	-11.2295
▁debutant	-11.2296
▁videocon	-11.2296
inho	-11.2298
▁invade	-11.2298
▁cola	-11.23
▁cancellation	-11.2301
▁chile	-11.2305
▁urine	-11.2309
▁slave	-11.2316
▁alex	-11.2317
▁drought	-11.2318
▁neuro	-11.2324
▁lyon	-11.2333
▁cag	-11.2333
▁vh	-11.2335
▁pun	-11.2338
▁marc	-11.234
▁horn	-11.2342
darshan	-11.2349
▁occur	-11.2349
▁hol	-11.235
sson	-11.235
▁dri	-11.2355
▁inaugura	-11.2364
▁magnitude	-11.2366
▁powder	-11.2366
▁screenshot	-11.2366
▁farewell	-11.2366
▁preparation	-11.2372
▁nike	-11.2375
▁wasim	-11.2377
▁waq	-11.2378
▁busy	-11.2384
alinga	-11.2388
iyar	-11.2388
▁detection	-11.2398
▁sweep	-11.2406
▁carlo	-11.2407
▁cycl	-11.2407
▁wil	-11.241
▁shia	-11.241
▁191	-11.2412
▁uma	-11.2418
gv	-11.2433
▁shakti	-11.2433
▁atom	-11.2433
▁exci	-11.2435
▁quitt	-11.2437
▁shiva	-11.2442
▁felicitat	-11.245
▁ammunition	-11.245
▁prithvi	-11.245
▁extract	-11.2451
▁azhar	-11.2451
▁foil	-11.2451
▁martial	-11.2452
▁privatis	-11.2455
▁lap	-11.2456
▁opp	-11.2458
▁monk	-11.2461
ahuja	-11.2463
▁disruption	-11.2463
▁surje	-11.2464
▁doors	-11.2472
sonali	-11.2493
xit	-11.2499
▁nigerian	-11.25
action	-11.2502
▁examine	-11.2504
▁wars	-11.2516
oda	-11.2516
▁jayant	-11.2517
▁ghat	-11.2524
west	-11.253
▁horror	-11.2536
▁ranjan	-11.2536
▁brutal	-11.2536
▁ukrainian	-11.2538
▁animat	-11.2539
▁shake	-11.2541
▁costume	-11.2543
▁lag	-11.2548
▁ruin	-11.2554
sonic	-11.2558
▁pee	-11.2558
ilip	-11.2562
bat	-11.2567
pah	-11.2582
▁emotion	-11.2583
▁gaya	-11.2585
▁camero	-11.2589
▁tabu	-11.2594
▁ches	-11.2598
gca	-11.2601
▁shak	-11.2602
▁communicate	-11.2604
▁lett	-11.2613
▁trap	-11.2617
▁masturbat	-11.2622
▁nirbhay	-11.2622
▁mortem	-11.2622
▁clarify	-11.2622
▁chawl	-11.2623
▁lin	-11.2624
▁documentar	-11.2625
▁nri	-11.2626
▁jeep	-11.2628
▁spring	-11.2629
▁abusive	-11.2631
▁usain	-11.2637
imim	-11.2642
▁iii	-11.2646
▁hor	-11.2651
surat	-11.2659
shahr	-11.266
▁jat	-11.2661
tub	-11.2676
ein	-11.2681
▁bla	-11.2681
owda	-11.2691
▁sight	-11.2697
▁dropping	-11.2697
kula	-11.27
▁1000	-11.2702
▁demoli	-11.2704
▁defecat	-11.2705
▁bottom	-11.2709
▁khosrowsha	-11.2709
▁portfolio	-11.2709
▁protein	-11.2709
▁pretend	-11.2709
▁traged	-11.2709
▁saint	-11.271
▁kabhi	-11.271
▁islamist	-11.2712
▁grey	-11.2715
arnab	-11.2721
ebay	-11.2732
▁seize	-11.2734
▁kad	-11.2737
how	-11.2737
erut	-11.2738
▁deo	-11.2743
shatru	-11.275
hapat	-11.2754
▁gro	-11.276
▁vc	-11.2763
ouri	-11.2777
▁papa	-11.2782
of	-11.2791
▁addict	-11.2792
▁assign	-11.2794
lisa	-11.2795
▁abolish	-11.2797
▁grandmother	-11.2797
▁siddharth	-11.2797
▁bureaucrat	-11.2797
▁relax	-11.2797
▁recep	-11.2797
▁scare	-11.2798
▁newton	-11.2799
▁katha	-11.2799
▁rome	-11.2809
▁poet	-11.2811
▁bulan	-11.2814
nger	-11.2821
▁journal	-11.2823
▁bran	-11.2833
▁undertaking	-11.2838
▁sari	-11.2839
▁khil	-11.2844
trina	-11.2845
▁bagh	-11.2848
▁fre	-11.2849
▁thin	-11.2855
▁abe	-11.2855
gah	-11.2856
ifa	-11.2862
▁counsel	-11.2866
▁udd	-11.2869
▁esha	-11.287
iju	-11.2874
▁veere	-11.2878
▁kore	-11.2878
▁pirate	-11.2882
▁contempt	-11.2885
▁jimmy	-11.2885
▁copyright	-11.2885
▁karachi	-11.2886
▁romantic	-11.2886
▁kartar	-11.2887
▁denuclearis	-11.2888
ogat	-11.2898
▁750	-11.2903
load	-11.2904
▁brian	-11.2909
▁uri	-11.2913
▁asad	-11.2917
▁beck	-11.2918
▁creative	-11.2925
▁benz	-11.2925
right	-11.2927
▁lone	-11.2928
▁entitl	-11.293
pti	-11.293
▁maratha	-11.2932
▁mandate	-11.2935
▁solv	-11.2936
▁101	-11.2938
▁neil	-11.2939
▁ajit	-11.2942
▁musical	-11.2947
▁imagin	-11.295
▁bhag	-11.2953
▁premiere	-11.2957
▁discriminati	-11.2962
pollo	-11.2967
▁satisf	-11.2972
▁mathematic	-11.2973
▁calendar	-11.2974
▁circle	-11.2974
▁dhadak	-11.2974
▁pharmaceutical	-11.2974
▁browser	-11.2974
▁utilis	-11.2974
▁naseer	-11.2975
▁salute	-11.2975
▁prescrib	-11.2976
▁frank	-11.2976
▁slum	-11.2977
nsari	-11.2977
▁masa	-11.2981
▁hostess	-11.2984
▁inaugurate	-11.2985
▁rename	-11.2985
▁belgian	-11.2986
▁kartik	-11.2992
▁decorat	-11.2994
▁awardee	-11.2999
▁mam	-11.3002
▁tagg	-11.3009
▁lane	-11.3011
▁ipad	-11.3012
▁saha	-11.3014
▁heroe	-11.3022
▁austria	-11.3023
▁bud	-11.303
▁cord	-11.3037
▁doll	-11.3038
▁06	-11.3057
▁administrative	-11.3065
▁conclusion	-11.3065
▁derogat	-11.3065
▁floyd	-11.3065
▁obscene	-11.3065
▁puerto	-11.3065
▁dwarf	-11.3065
▁surroga	-11.3065
▁marvel	-11.3065
▁headphone	-11.3066
▁okay	-11.3067
▁muscle	-11.3067
▁confidential	-11.3067
▁migration	-11.3067
▁tube	-11.3068
fore	-11.307
▁anant	-11.3071
▁nikk	-11.3072
stair	-11.3072
▁quote	-11.3077
▁sprinter	-11.308
nik	-11.3083
hazare	-11.3086
▁scal	-11.3091
▁vad	-11.3093
▁faction	-11.3093
▁ger	-11.3094
▁constitut	-11.3104
▁patra	-11.3104
▁wh	-11.311
master	-11.3114
▁lac	-11.3118
▁03	-11.3118
▁dot	-11.312
▁serge	-11.3133
▁beti	-11.3151
▁chopp	-11.3153
▁derail	-11.3153
▁jaw	-11.3154
▁mukerj	-11.3155
▁altercation	-11.3155
▁equivalent	-11.3155
▁gravitational	-11.3155
▁instrument	-11.3155
▁mughal	-11.3155
▁distract	-11.3155
▁nerve	-11.3156
▁ayurved	-11.3156
▁asaram	-11.3157
▁cybersecur	-11.3157
▁fatwa	-11.3157
▁consulate	-11.3157
stellar	-11.3158
eeling	-11.3162
couch	-11.3162
mila	-11.3164
bai	-11.3165
▁nanda	-11.3166
enge	-11.3168
▁aussie	-11.317
▁crorepati	-11.3173
▁yeh	-11.3178
▁ballot	-11.3179
▁descen	-11.3182
noon	-11.3187
bull	-11.3197
▁pipe	-11.3198
▁timing	-11.3199
▁modifi	-11.3207
▁vacate	-11.3213
▁maid	-11.3216
blogg	-11.3225
▁lalit	-11.3225
rik	-11.3226
jury	-11.3228
▁fever	-11.324
▁189	-11.3244
▁preserv	-11.3245
▁eliminate	-11.3245
▁genuine	-11.3247
▁recycl	-11.3247
▁kardashian	-11.3247
▁crystal	-11.3247
▁burden	-11.3248
▁vin	-11.3249
▁188	-11.325
▁jibe	-11.3251
▁juice	-11.3252
▁shuk	-11.3254
▁hbo	-11.3258
hwa	-11.3261
▁sheera	-11.3266
gun	-11.3267
ojana	-11.3268
▁bhima	-11.3279
▁01	-11.3281
▁divide	-11.3282
▁carrie	-11.3282
▁amu	-11.3289
▁cess	-11.3302
▁incredible	-11.3326
▁swear	-11.3327
▁outage	-11.333
▁applica	-11.3338
▁ol	-11.3338
hari	-11.3339
▁deteriorat	-11.334
▁dissolv	-11.334
▁eleven	-11.334
▁narrow	-11.334
▁unconscious	-11.334
▁unnecessar	-11.334
▁gorge	-11.334
▁feedback	-11.334
▁dorse	-11.3341
glenn	-11.3342
vardhan	-11.3343
▁tripath	-11.3343
▁buddhist	-11.3345
▁assessment	-11.3345
▁mull	-11.3345
▁guess	-11.3347
▁outbreak	-11.3347
▁deem	-11.3348
▁demonstration	-11.3349
▁kishore	-11.335
▁hp	-11.3356
iser	-11.3357
▁rag	-11.3391
gde	-11.3398
▁dish	-11.3398
▁vati	-11.3402
▁parisha	-11.3412
oun	-11.342
▁hema	-11.3422
▁navigation	-11.3433
▁absorb	-11.3433
▁cannabi	-11.3433
▁biological	-11.3433
▁rico	-11.3434
▁amend	-11.3434
▁exposure	-11.3435
▁sukh	-11.3436
▁vest	-11.3436
▁shivaji	-11.3437
▁eng	-11.344
ibal	-11.344
▁prof	-11.344
▁improvement	-11.3451
▁650	-11.3451
upani	-11.3456
▁accompany	-11.3457
odder	-11.3458
▁torn	-11.3464
▁greeting	-11.3466
▁salt	-11.3468
ologist	-11.3479
kok	-11.348
▁roo	-11.3483
▁bow	-11.3485
vani	-11.3493
sky	-11.3497
▁dual	-11.3497
▁begg	-11.3499
▁varsit	-11.3504
▁09	-11.3504
esha	-11.3506
▁expose	-11.3507
▁audi	-11.3508
ef	-11.3509
▁patrol	-11.351
▁loya	-11.3511
▁prefer	-11.3516
▁accessor	-11.3518
▁mona	-11.3519
▁iv	-11.352
▁taker	-11.3527
aria	-11.3527
▁ecuador	-11.3528
▁frustrat	-11.3528
▁bikini	-11.3528
▁discipline	-11.3528
▁muhammad	-11.3528
adona	-11.3528
▁napkin	-11.3528
▁cremat	-11.3528
▁mahendra	-11.3528
▁quint	-11.3529
▁mulay	-11.353
▁drawing	-11.353
upia	-11.353
▁william	-11.353
▁moham	-11.3535
▁auditor	-11.3538
▁hyper	-11.3539
▁packag	-11.3544
▁resistan	-11.355
▁hunga	-11.3553
▁freeze	-11.3556
▁gm	-11.3564
hala	-11.3567
▁conductor	-11.3573
▁doc	-11.3576
▁veer	-11.3582
eez	-11.3584
▁meter	-11.3586
roft	-11.359
ault	-11.3599
raan	-11.3614
akh	-11.3618
▁roman	-11.3621
▁darj	-11.3622
▁escort	-11.3623
▁adelaide	-11.3623
▁protocol	-11.3623
▁encrypt	-11.3623
▁firefighter	-11.3623
▁cruel	-11.3623
▁vocal	-11.3623
▁variet	-11.3623
▁kanye	-11.3624
▁lpg	-11.3624
▁dominat	-11.3624
▁evolv	-11.3624
ology	-11.3625
▁harmful	-11.3625
▁azam	-11.3626
▁bhandar	-11.3626
▁tehr	-11.3627
pedia	-11.3629
▁bash	-11.3631
▁skip	-11.3632
▁virginia	-11.3636
waha	-11.3636
▁surround	-11.3638
▁arch	-11.3641
▁ghar	-11.3643
▁locate	-11.3651
▁starbu	-11.3651
▁yam	-11.3652
andon	-11.3656
uj	-11.3658
▁grace	-11.3659
▁jae	-11.3661
▁historical	-11.3667
▁garg	-11.367
▁interfere	-11.3671
▁170	-11.3681
▁sail	-11.3682
▁remo	-11.3682
▁patan	-11.3684
▁baija	-11.3685
▁tongue	-11.3685
▁determin	-11.3709
▁depart	-11.3714
▁confront	-11.3715
arctic	-11.3719
▁ecosystem	-11.3719
▁malicious	-11.3719
▁evict	-11.3719
▁wales	-11.3723
▁manu	-11.3723
▁poop	-11.3726
▁kant	-11.3726
▁shutt	-11.3727
scope	-11.3727
▁breed	-11.3728
▁hama	-11.3728
▁veil	-11.3735
ctc	-11.3739
▁glove	-11.3739
▁counsell	-11.374
ouza	-11.374
▁filter	-11.3741
▁labell	-11.375
▁presiden	-11.3751
▁soha	-11.3752
▁matti	-11.3753
▁mega	-11.3755
▁qualifier	-11.3755
▁convince	-11.3759
▁meteorolog	-11.3777
fight	-11.3777
tc	-11.3778
▁ft	-11.3781
▁molecule	-11.3783
▁khal	-11.3792
udu	-11.3792
▁lapse	-11.3798
▁worship	-11.3799
▁revers	-11.3808
▁ajinkya	-11.3816
▁genital	-11.3816
▁estrange	-11.3816
▁rohta	-11.3816
▁2030	-11.3816
▁pieter	-11.3816
saheb	-11.3816
▁clarification	-11.3816
▁raghuram	-11.3816
▁washroom	-11.3817
▁towel	-11.3818
▁akash	-11.3818
garwal	-11.3822
▁greek	-11.3823
▁rick	-11.3826
mark	-11.3826
▁milan	-11.3829
▁consume	-11.383
▁marut	-11.3834
qvi	-11.3836
▁boot	-11.3836
▁tactic	-11.3838
▁iim	-11.3839
tia	-11.3857
▁angad	-11.3857
▁leap	-11.3865
▁raha	-11.3868
▁103	-11.3874
▁donor	-11.3876
will	-11.3881
trip	-11.3883
▁mir	-11.3883
▁levell	-11.3883
rence	-11.3884
▁assassinat	-11.3909
▁accelerat	-11.3913
▁thiruva	-11.3914
▁accurac	-11.3914
▁bajaj	-11.3914
▁chrome	-11.3914
▁dispens	-11.3914
▁mirror	-11.3914
▁spectrum	-11.3914
▁obstruct	-11.3914
▁toddler	-11.3914
▁desert	-11.3914
▁louis	-11.3914
▁teeth	-11.3914
▁wholesale	-11.3914
▁ailment	-11.3915
▁aspirant	-11.3915
▁epic	-11.3915
▁forgive	-11.3915
▁sink	-11.3916
ayush	-11.3917
▁bahu	-11.392
▁addiction	-11.392
▁nand	-11.392
▁transformation	-11.3922
▁biker	-11.3924
▁08	-11.3925
▁comfortabl	-11.3925
haway	-11.3925
anne	-11.393
▁nab	-11.3932
▁transparent	-11.3933
▁mistr	-11.3933
▁rampal	-11.394
▁jason	-11.3947
▁fram	-11.3956
arisma	-11.3962
▁swap	-11.3974
arti	-11.3981
▁manush	-11.3983
flow	-11.3994
▁craft	-11.3998
▁profession	-11.3999
saur	-11.4
▁02	-11.4006
apova	-11.4011
▁emphasis	-11.4013
▁malfunction	-11.4013
▁ultimate	-11.4013
▁scream	-11.4013
▁zafar	-11.4013
▁jyoti	-11.4013
▁conceal	-11.4013
▁distort	-11.4013
▁atrocit	-11.4013
▁idiot	-11.4013
▁philip	-11.4013
▁serbia	-11.4013
▁input	-11.4014
▁pandit	-11.4014
▁unrest	-11.4015
▁debit	-11.4016
▁loud	-11.4016
▁michelle	-11.4019
num	-11.4019
gate	-11.4021
▁token	-11.4022
▁ladie	-11.4027
▁kurdis	-11.4031
▁fo	-11.4033
▁varma	-11.4038
iah	-11.4047
▁finch	-11.405
conic	-11.4051
▁functional	-11.4055
ikea	-11.4065
desk	-11.4065
krishna	-11.4071
agne	-11.4072
▁115	-11.4073
▁beneficiar	-11.4074
diana	-11.4081
▁compromise	-11.4082
▁128	-11.4087
▁indic	-11.409
▁span	-11.4092
▁iq	-11.4094
▁kalam	-11.4104
▁bob	-11.4104
▁ethnic	-11.4113
▁spectator	-11.4113
▁tussauds	-11.4113
▁suppress	-11.4113
▁volume	-11.4113
▁forensic	-11.4113
▁uphold	-11.4113
▁infinit	-11.4113
▁unesco	-11.4113
▁await	-11.4113
▁naveen	-11.4115
▁venkat	-11.4116
▁packet	-11.4117
▁extraditi	-11.4119
▁cracker	-11.412
▁exemption	-11.4124
▁144	-11.4127
vel	-11.4131
▁atlanti	-11.4139
▁banker	-11.4157
baddi	-11.416
ttle	-11.4171
▁gir	-11.4183
eva	-11.4188
▁analyse	-11.4195
met	-11.4195
▁teenage	-11.4202
▁undertake	-11.4207
▁jagg	-11.4209
▁excess	-11.4212
▁cockpit	-11.4214
▁hybrid	-11.4214
▁mahabharat	-11.4214
▁subsequent	-11.4214
▁burglar	-11.4214
▁chowk	-11.4214
▁relocat	-11.4214
ign	-11.4214
▁hoarding	-11.4214
▁leban	-11.4215
▁artiste	-11.4215
▁insect	-11.4216
▁phrase	-11.4216
▁chetan	-11.4216
▁paresh	-11.4218
▁slab	-11.4218
▁chok	-11.4219
▁brahmin	-11.4222
▁mortal	-11.4222
akram	-11.4226
oxide	-11.4227
▁interrupt	-11.4233
▁emma	-11.4234
▁vedant	-11.4235
▁republican	-11.4237
apna	-11.4243
▁scanner	-11.4243
▁jama	-11.4245
▁ero	-11.425
▁maxi	-11.4252
pless	-11.4256
▁viv	-11.4267
▁rr	-11.4271
▁manual	-11.4284
▁ck	-11.4295
▁impress	-11.4311
▁coordinat	-11.4314
▁accurate	-11.4316
▁competitor	-11.4316
▁nervous	-11.4316
▁woznia	-11.4316
▁adjust	-11.4316
▁chamber	-11.4316
▁predator	-11.4316
▁sweat	-11.4316
▁wrist	-11.4317
▁textbook	-11.4317
▁aurang	-11.4318
▁grie	-11.4322
▁nuke	-11.4323
▁careful	-11.4323
pee	-11.4323
▁steer	-11.4324
▁sagar	-11.4325
▁musician	-11.4326
▁vijaya	-11.4327
▁ethic	-11.433
▁scann	-11.4344
▁morph	-11.4346
▁175	-11.4354
▁ether	-11.4357
▁seva	-11.4386
▁overtake	-11.4387
safe	-11.4393
▁miner	-11.4399
▁rep	-11.4403
▁publisher	-11.4405
▁elevat	-11.441
▁speculat	-11.4414
▁incorporat	-11.4419
▁lakshmi	-11.4419
▁pronounc	-11.4419
▁blasphem	-11.4419
▁madame	-11.4419
▁knot	-11.442
▁vvs	-11.442
▁rallie	-11.442
▁reliev	-11.442
▁ashram	-11.4421
▁copper	-11.4422
▁preserve	-11.4422
nathan	-11.4423
▁wrapp	-11.4425
▁geeta	-11.4426
▁muku	-11.4427
▁polish	-11.4428
fraz	-11.4429
▁rash	-11.4435
▁euro	-11.4436
▁stranger	-11.4436
lima	-11.4439
▁uday	-11.4441
▁rider	-11.4454
anshu	-11.4462
▁comet	-11.4478
▁khar	-11.448
▁collaborat	-11.4485
world	-11.449
▁ramm	-11.4491
▁fatal	-11.4492
▁liver	-11.4494
awant	-11.4495
uefa	-11.4504
▁gita	-11.4511
▁diet	-11.4515
▁glacier	-11.4523
▁hometown	-11.4523
▁incurr	-11.4523
▁phenomenon	-11.4523
▁semifinal	-11.4523
▁unsold	-11.4523
▁ahmad	-11.4523
▁coincid	-11.4523
▁alumin	-11.4523
▁quiet	-11.4524
▁surname	-11.4524
▁imitat	-11.4524
▁portugues	-11.4524
▁evil	-11.4524
▁scholarship	-11.4524
▁observator	-11.4525
▁simran	-11.4526
icef	-11.4527
▁freed	-11.4527
▁headline	-11.4528
▁flyover	-11.4528
▁atomic	-11.4528
▁raut	-11.4529
▁muga	-11.4529
▁amber	-11.453
dul	-11.4533
▁billboard	-11.4533
▁eruption	-11.4535
▁agricultural	-11.4536
▁mahaja	-11.4537
▁objective	-11.4539
▁telco	-11.4539
▁widen	-11.454
▁combination	-11.454
▁takeover	-11.4546
▁cci	-11.4551
▁accommodate	-11.4552
▁sudan	-11.4552
▁ant	-11.4555
▁desa	-11.4566
▁fal	-11.4568
▁robin	-11.4574
ornstar	-11.4576
▁tam	-11.4577
▁nnnn	-11.4583
▁disc	-11.4584
bhai	-11.459
▁bhati	-11.4593
▁walt	-11.4593
zan	-11.4598
▁som	-11.4606
▁ev	-11.4613
▁comfort	-11.4617
▁harvest	-11.4619
▁hijab	-11.4629
▁unhapp	-11.4629
▁valentine	-11.4629
▁intimidat	-11.4629
▁module	-11.4629
▁sibling	-11.4629
▁jinnah	-11.4629
▁yashwant	-11.4629
▁outcome	-11.4629
zuki	-11.4629
▁retriev	-11.4629
▁conn	-11.4631
▁cement	-11.4634
▁pilgrimage	-11.4634
▁cnn	-11.4636
▁divya	-11.4639
▁resembl	-11.4644
▁holo	-11.4656
▁bearing	-11.4665
▁hugh	-11.4665
▁patt	-11.467
▁acharya	-11.4686
▁sms	-11.4691
▁banc	-11.4692
hou	-11.4698
▁186	-11.4701
ukma	-11.4703
▁reserv	-11.4704
aditya	-11.4704
militar	-11.4705
acle	-11.4707
keep	-11.4709
▁transparen	-11.4715
▁187	-11.472
▁kenn	-11.4723
▁clo	-11.4728
ajpayee	-11.4734
▁baaghi	-11.4735
▁explanation	-11.4735
▁laxmi	-11.4735
▁purported	-11.4735
▁recipient	-11.4735
▁bravo	-11.4735
▁casino	-11.4735
▁testimon	-11.4735
▁unfi	-11.4735
▁aditi	-11.4736
▁fantastic	-11.4736
▁bump	-11.4736
▁gaga	-11.4742
rapy	-11.4743
▁santa	-11.4744
▁dial	-11.4744
▁separation	-11.4745
▁explode	-11.475
▁111	-11.4755
▁mate	-11.4758
▁pour	-11.4762
▁280	-11.4768
▁hence	-11.4768
▁ratio	-11.4771
▁230	-11.4772
▁grop	-11.4774
ndre	-11.4788
▁kapur	-11.4788
▁convinc	-11.4798
▁procession	-11.4798
▁behave	-11.4812
▁laga	-11.4813
▁blessing	-11.4819
▁sil	-11.4821
▁poli	-11.4833
▁jon	-11.4836
▁tibet	-11.4837
▁simulat	-11.4838
▁analytic	-11.4838
▁inflat	-11.484
▁hrd	-11.4842
▁accomplice	-11.4843
▁consortium	-11.4843
▁distress	-11.4843
▁honorar	-11.4843
▁aspect	-11.4843
▁betray	-11.4843
▁umesh	-11.4843
▁queue	-11.4843
▁bount	-11.4843
▁morcha	-11.4843
▁khalistan	-11.4844
▁seizure	-11.4847
▁vadra	-11.4848
▁tomb	-11.485
▁tho	-11.485
▁garland	-11.4851
rgil	-11.4854
▁sledg	-11.4854
▁whit	-11.4858
▁abduction	-11.4862
▁strapp	-11.4863
▁meri	-11.4866
itis	-11.4874
▁enhanc	-11.4878
achi	-11.4878
▁rug	-11.4879
provok	-11.4885
lav	-11.4889
▁sufficient	-11.4891
▁gana	-11.4907
▁skirt	-11.4911
▁smuggle	-11.4916
wad	-11.4918
spread	-11.4922
dnan	-11.4923
cutta	-11.4937
▁mathur	-11.4941
kaj	-11.4944
▁nandan	-11.4946
▁adapt	-11.4947
▁plott	-11.4947
▁crocodile	-11.4951
▁ingredient	-11.4951
▁arrogan	-11.4951
▁capsule	-11.4951
▁jaguar	-11.4951
▁conferr	-11.4951
▁catalan	-11.4951
▁khushi	-11.4952
▁numero	-11.4952
▁nokia	-11.4952
▁bypass	-11.4952
▁disclosure	-11.4952
▁sequence	-11.4952
▁220	-11.4952
▁deduct	-11.4953
▁artwork	-11.4954
▁pipeline	-11.4956
▁samaj	-11.4961
▁hello	-11.4964
▁julian	-11.4965
▁ysr	-11.4965
▁matt	-11.4965
andeep	-11.4967
castle	-11.4971
▁customis	-11.4982
▁consistent	-11.4988
▁marital	-11.4997
▁07	-11.5003
annoy	-11.5003
▁manufacture	-11.5008
▁bhask	-11.5027
▁jind	-11.5042
▁sidelin	-11.5045
▁slipper	-11.5045
▁je	-11.5046
▁alexa	-11.505
adia	-11.5052
walk	-11.5052
panna	-11.5053
▁abd	-11.5056
▁transit	-11.506
▁contingent	-11.5061
▁culprit	-11.5061
▁discontinu	-11.5061
▁unanimous	-11.5061
▁fibre	-11.5061
▁enquir	-11.5061
▁instalment	-11.5061
▁gorkha	-11.5061
▁vulnerabilit	-11.5062
▁impair	-11.5062
▁rajeev	-11.5062
▁112	-11.5063
▁buyback	-11.5064
▁pawan	-11.5064
▁obc	-11.5064
▁abram	-11.5065
▁yester	-11.5066
▁bacha	-11.5066
▁cheese	-11.5067
▁angle	-11.5068
▁bhawan	-11.507
▁swing	-11.507
▁hopeful	-11.507
▁romeo	-11.5073
▁bog	-11.5079
▁brace	-11.5081
▁doubl	-11.5087
tanjali	-11.509
▁evan	-11.5095
▁dishe	-11.51
▁phil	-11.5108
hanush	-11.5109
▁mcc	-11.5116
▁jaan	-11.5122
▁fabric	-11.5123
▁waive	-11.5127
▁desire	-11.5129
vp	-11.5133
▁pmo	-11.5137
grown	-11.5146
▁cure	-11.5152
▁nse	-11.5157
▁revive	-11.5159
▁tanker	-11.5163
▁comprise	-11.5163
▁holi	-11.5172
▁adventure	-11.5172
▁efficient	-11.5172
▁lipstick	-11.5172
▁vaccine	-11.5172
▁houthi	-11.5172
▁goddess	-11.5172
▁sangeet	-11.5172
▁rihan	-11.5173
▁albert	-11.5173
▁kush	-11.5174
▁parole	-11.5174
▁sneak	-11.5175
▁aggregator	-11.5175
ette	-11.5176
▁uncover	-11.5176
▁southwest	-11.5177
▁laughing	-11.5179
▁cum	-11.5179
▁raaz	-11.5179
▁rij	-11.5183
▁thick	-11.5183
ataram	-11.5195
▁550	-11.5196
▁gopi	-11.5196
▁malin	-11.5197
▁beyonc	-11.5197
nkita	-11.5199
▁shoo	-11.52
▁warship	-11.5201
▁indoor	-11.5211
▁nathan	-11.5217
▁rawal	-11.5219
bmp	-11.522
▁revolution	-11.5231
mcg	-11.5232
▁digit	-11.5236
▁sympath	-11.5236
▁lil	-11.524
▁libya	-11.5243
▁commemorate	-11.5255
stance	-11.5257
▁builder	-11.526
▁bhattachary	-11.5265
▁dug	-11.5271
▁intra	-11.5276
▁flexib	-11.528
▁patek	-11.5281
▁suite	-11.5281
▁compliment	-11.5285
▁confiscat	-11.5285
▁conservative	-11.5285
▁intellectual	-11.5285
▁obvious	-11.5285
▁porsche	-11.5285
▁subscription	-11.5285
▁bahrain	-11.5285
▁reinstat	-11.5285
▁turtle	-11.5285
▁turban	-11.5285
▁conscious	-11.5285
▁toronto	-11.5285
▁beverage	-11.5285
▁mccull	-11.5285
▁mammal	-11.5285
▁flame	-11.5285
▁munna	-11.5286
▁mahmo	-11.5286
ndhara	-11.529
▁imam	-11.5291
etta	-11.5292
▁distributor	-11.5298
▁fence	-11.5304
▁gems	-11.531
nanthap	-11.5311
▁tune	-11.5312
▁mul	-11.5319
▁alwar	-11.5321
▁sprint	-11.5323
▁lodge	-11.5327
▁intern	-11.5328
▁faz	-11.5333
aran	-11.5336
▁bite	-11.5338
▁nicol	-11.5338
▁strain	-11.5339
▁chao	-11.5341
▁kham	-11.535
▁chor	-11.5356
tap	-11.5361
roll	-11.537
▁vijend	-11.5372
gopal	-11.5379
▁continent	-11.5383
▁108	-11.5386
▁wink	-11.5389
▁innovat	-11.5393
▁bind	-11.5397
▁automobile	-11.5398
▁grandfather	-11.5398
▁matthew	-11.5398
▁rhino	-11.5398
▁handwrit	-11.5398
▁yacht	-11.5398
▁trauma	-11.5398
▁shreya	-11.5398
▁convey	-11.5398
▁vr	-11.5399
▁textile	-11.54
mrc	-11.5401
▁excessive	-11.5401
▁fantas	-11.5401
▁prosecution	-11.5402
▁youtuber	-11.5412
▁defin	-11.5418
▁classic	-11.5423
▁999	-11.5424
▁commando	-11.5425
▁adoption	-11.5428
▁jalan	-11.5437
mont	-11.5446
▁kharg	-11.5449
▁peru	-11.5454
brow	-11.5459
▁terribl	-11.5464
etra	-11.5467
▁imagine	-11.5474
▁sai	-11.548
▁mandat	-11.5482
▁sushm	-11.5483
▁wearable	-11.5485
▁dada	-11.5486
christ	-11.549
▁cheer	-11.5498
▁vine	-11.5505
▁inspect	-11.5505
▁lic	-11.5508
▁escalat	-11.5508
actic	-11.5509
▁lgbt	-11.551
▁reiterat	-11.5513
▁breastfeed	-11.5513
▁correspond	-11.5513
▁tremendous	-11.5513
▁vertical	-11.5513
▁regain	-11.5513
▁intimate	-11.5513
▁wildfire	-11.5513
▁ferry	-11.5513
▁jamaica	-11.5513
▁matern	-11.5514
▁mainstream	-11.5514
▁bodyguard	-11.5515
▁accent	-11.5516
▁kendal	-11.5516
▁blacklist	-11.5516
▁kabir	-11.5519
▁scold	-11.5519
▁harmon	-11.5526
mble	-11.5529
▁tiny	-11.5529
▁starv	-11.5531
▁kaala	-11.5536
▁subsidis	-11.5549
city	-11.5562
▁nsa	-11.5564
▁interfer	-11.5574
▁gall	-11.5575
▁duration	-11.5577
▁romania	-11.558
▁seeker	-11.5584
leana	-11.5585
▁allen	-11.5587
▁intervene	-11.5595
exist	-11.56
cio	-11.5601
clap	-11.561
▁destructi	-11.5615
▁mobil	-11.5618
▁convention	-11.5623
uter	-11.5624
▁authentic	-11.5625
▁tejas	-11.5629
▁adjourn	-11.5629
▁catalonia	-11.5629
▁homebuyer	-11.5629
▁krunal	-11.5629
▁remuneration	-11.5629
▁uncomfortabl	-11.5629
▁terrace	-11.563
▁cooperat	-11.563
gba	-11.5631
▁tahir	-11.5632
▁colonel	-11.5633
▁derailment	-11.5635
thur	-11.5637
▁flagg	-11.5641
▁paradi	-11.5641
pleasure	-11.5642
▁prostitute	-11.5645
steyn	-11.5647
▁crosse	-11.5648
▁galler	-11.5648
▁dani	-11.5656
▁ignore	-11.5656
pence	-11.5663
▁240	-11.5676
▁cub	-11.568
zai	-11.568
▁tem	-11.5681
ize	-11.5697
▁dragon	-11.5698
▁humiliat	-11.5702
▁sumit	-11.5712
ullah	-11.5724
▁cv	-11.5739
▁democrat	-11.5742
diego	-11.5746
▁contaminat	-11.5747
▁whitewash	-11.5747
▁housefull	-11.5747
▁unaware	-11.5747
▁immers	-11.5747
▁rashtrapati	-11.5747
▁accelerator	-11.5751
▁showcase	-11.5751
▁classroom	-11.5752
▁broadcaster	-11.5754
cw	-11.5755
▁tayy	-11.5756
▁divorc	-11.5758
nani	-11.5761
▁surgeon	-11.5765
▁costlie	-11.5765
▁initiate	-11.5765
▁toleran	-11.5769
▁barod	-11.577
▁vinta	-11.5775
▁trash	-11.5775
▁bayer	-11.5777
▁hina	-11.578
▁suss	-11.5787
▁stroke	-11.5792
atima	-11.5794
▁tier	-11.5796
▁temp	-11.5798
▁shk	-11.5799
▁motive	-11.5817
▁economical	-11.583
hurt	-11.5834
drum	-11.5846
constitutional	-11.5847
hansal	-11.5853
▁abort	-11.5862
▁chipmak	-11.5863
juhi	-11.5863
▁qualification	-11.5863
wama	-11.5865
▁conversion	-11.5866
▁exoplanet	-11.5866
▁scrutin	-11.5866
▁variant	-11.5866
▁incentive	-11.5866
▁reddit	-11.5867
rizon	-11.5867
▁twel	-11.5867
▁orange	-11.5867
▁plaza	-11.5867
▁salah	-11.5868
▁mallika	-11.5868
vacu	-11.5869
▁gaza	-11.587
▁sailor	-11.5874
kyc	-11.5877
mouli	-11.5878
▁nex	-11.5879
▁relate	-11.5882
▁istan	-11.5885
▁kfc	-11.5897
rata	-11.591
▁revoke	-11.5932
▁gala	-11.5936
▁sync	-11.5937
▁expectation	-11.5944
erse	-11.5945
logical	-11.5949
▁keen	-11.595
▁krish	-11.5953
▁rashtra	-11.5955
▁rp	-11.5961
▁slot	-11.5965
wood	-11.597
▁mosu	-11.5984
▁nightclub	-11.5987
▁substantial	-11.5987
▁unprecedented	-11.5987
▁deferr	-11.5987
▁hindutva	-11.5987
▁criteri	-11.5987
▁radar	-11.5989
▁spill	-11.5989
▁color	-11.599
▁insight	-11.5994
▁hurr	-11.5996
▁electron	-11.6012
▁barrel	-11.6015
▁notifi	-11.6017
pali	-11.6021
▁appreciate	-11.6021
▁nap	-11.6023
▁panne	-11.6031
▁hayd	-11.6032
▁lava	-11.6034
▁adulter	-11.6045
▁padd	-11.6048
▁secretaria	-11.6056
rao	-11.6072
▁04	-11.6077
▁biz	-11.6077
▁playbo	-11.6079
▁dealers	-11.6088
heri	-11.6088
▁mahir	-11.609
▁mantri	-11.609
▁mela	-11.6095
want	-11.6097
▁expel	-11.6098
▁chandrashek	-11.6101
pac	-11.6105
▁depress	-11.6105
▁scholar	-11.6107
▁grateful	-11.6109
▁prolong	-11.6109
▁shadow	-11.6109
▁swallow	-11.6109
▁joh	-11.6109
▁beacon	-11.6109
▁raghu	-11.6109
▁avert	-11.6111
▁intense	-11.6111
▁shaik	-11.6111
▁perception	-11.6113
▁narrat	-11.6115
▁depp	-11.6122
▁successor	-11.6122
▁paralys	-11.6123
▁playoff	-11.6124
▁nail	-11.6124
▁evacuation	-11.6126
▁149	-11.6129
chur	-11.6132
▁behav	-11.6134
▁shootout	-11.6142
uhar	-11.6146
▁ego	-11.6147
▁tent	-11.6149
▁golfer	-11.6158
▁topic	-11.6159
▁permitt	-11.6159
▁penalis	-11.6161
▁polar	-11.6164
urdu	-11.6165
▁ghost	-11.6167
▁dive	-11.617
▁grati	-11.6173
bindra	-11.6184
▁murr	-11.6185
▁bir	-11.6197
▁azm	-11.62
▁lego	-11.6203
lvam	-11.6203
▁ankit	-11.6212
▁assure	-11.6214
laughter	-11.6219
▁pornograph	-11.6227
▁shaki	-11.6228
▁consolidat	-11.6232
▁penguin	-11.6232
▁rooftop	-11.6232
▁sketch	-11.6232
▁volcanic	-11.6232
▁suburb	-11.6232
▁quadr	-11.6232
▁ncl	-11.6233
▁enact	-11.6233
▁safeguard	-11.6233
degrad	-11.6233
▁hedge	-11.6234
▁premji	-11.6234
▁snack	-11.6235
▁hazard	-11.6235
▁renewable	-11.6239
uhana	-11.6241
▁laud	-11.6242
▁allocation	-11.6242
▁dilut	-11.6245
▁alumn	-11.6247
▁grass	-11.6248
▁1970	-11.6251
▁stem	-11.6253
▁heroin	-11.6253
▁aunt	-11.6256
▁126	-11.6265
▁shipment	-11.6266
▁detector	-11.627
▁jayanti	-11.6273
▁haram	-11.6274
pte	-11.6284
▁conventional	-11.6284
▁114	-11.6293
▁amrita	-11.6294
▁dara	-11.6296
hail	-11.6301
▁translate	-11.6305
▁bali	-11.6313
▁135	-11.6329
liberation	-11.6336
▁smuggler	-11.6338
watch	-11.6344
murth	-11.6345
strong	-11.6346
▁fiction	-11.6347
▁ananth	-11.6348
▁merge	-11.6355
▁biscuit	-11.6357
▁buffalo	-11.6357
▁disinvestment	-11.6357
▁foetus	-11.6357
▁inclusion	-11.6357
▁mauriti	-11.6357
▁unusual	-11.6357
▁infringement	-11.6357
▁kyrg	-11.6357
▁cadre	-11.6357
▁excuse	-11.6357
▁witch	-11.6357
▁augment	-11.6357
▁mindset	-11.6358
▁biograph	-11.6358
▁fateh	-11.6359
▁husse	-11.636
▁parliamentarian	-11.636
arekh	-11.6361
▁extinction	-11.6361
▁silk	-11.6363
▁pageant	-11.6366
mati	-11.6367
▁weaken	-11.6369
▁container	-11.6374
haps	-11.6381
▁tumbl	-11.6383
▁waiv	-11.6385
▁compensate	-11.6391
▁pitt	-11.6393
chang	-11.6396
▁225	-11.64
▁pond	-11.6404
▁nut	-11.6405
50	-11.6406
▁sticker	-11.641
▁originat	-11.6426
▁bidd	-11.6428
dbi	-11.6435
rej	-11.6442
rshad	-11.6453
njali	-11.6459
▁pharmac	-11.6463
▁viewers	-11.6468
▁influen	-11.6471
▁siva	-11.6473
tack	-11.6478
▁inject	-11.6478
▁boo	-11.6481
▁blank	-11.6482
▁judgment	-11.6484
▁loudspeaker	-11.6484
▁prospect	-11.6484
▁skeleton	-11.6484
▁osama	-11.6484
▁diabet	-11.6484
▁condol	-11.6484
▁tractor	-11.6484
▁ariana	-11.6484
▁framework	-11.6484
▁chha	-11.6485
▁blanket	-11.6485
▁relay	-11.6485
▁balcon	-11.6485
▁admin	-11.6488
▁extortion	-11.6489
▁quiz	-11.6491
▁aerial	-11.6491
▁insert	-11.6492
lani	-11.6493
▁mineral	-11.6493
▁rohan	-11.6494
▁katy	-11.6501
▁deriv	-11.6503
▁intentional	-11.6504
qi	-11.6506
▁117	-11.6507
▁gear	-11.651
▁archer	-11.651
▁shinde	-11.6514
▁cage	-11.6517
▁bhat	-11.6521
▁interven	-11.6523
▁hond	-11.6534
▁dawa	-11.6535
▁oversee	-11.6539
▁naam	-11.654
▁jamal	-11.6543
▁bj	-11.6544
▁revolutionar	-11.6545
370	-11.6556
▁slash	-11.6558
▁kane	-11.6562
▁somalia	-11.6563
ville	-11.6565
▁julie	-11.6574
▁evade	-11.659
▁vol	-11.6592
▁jp	-11.6595
akkal	-11.6596
akhar	-11.6601
▁wiki	-11.6601
▁ronald	-11.6603
ception	-11.6607
▁insan	-11.6608
▁reache	-11.6609
▁aspir	-11.661
▁arbitrati	-11.6612
▁conservation	-11.6612
▁dynamic	-11.6612
▁golmaal	-11.6612
▁legitimate	-11.6612
▁sanskrit	-11.6612
▁showstopper	-11.6612
nutrition	-11.6612
▁strangl	-11.6612
▁stitch	-11.6612
▁impersonat	-11.6612
▁hamid	-11.6612
▁hubble	-11.6613
▁indrani	-11.6613
course	-11.6613
bbs	-11.6614
▁interrogation	-11.6615
▁gigi	-11.6615
▁marshal	-11.6616
▁rubber	-11.6616
edition	-11.6617
▁khadi	-11.6619
▁deportation	-11.6621
▁circulation	-11.6625
▁brake	-11.6625
▁takeoff	-11.6627
▁column	-11.6628
▁riz	-11.6632
▁joli	-11.6639
▁uc	-11.6641
▁122	-11.6643
bad	-11.6645
▁pw	-11.6659
▁georgia	-11.667
▁vacanc	-11.6691
▁khawa	-11.6696
▁kalk	-11.6714
cker	-11.6718
▁umar	-11.6721
▁battl	-11.6729
▁showcas	-11.6741
▁exten	-11.6741
▁vulgar	-11.6742
▁arrow	-11.6742
▁chappell	-11.6742
▁grievance	-11.6742
▁narcotic	-11.6742
▁prevail	-11.6742
▁cyrus	-11.6742
▁frog	-11.6742
▁upadhyay	-11.6742
▁attire	-11.6742
▁bhubanes	-11.6742
▁pressuris	-11.6742
▁jaso	-11.6743
▁shail	-11.6743
▁gif	-11.6744
▁gaurav	-11.6744
▁shortlist	-11.6744
▁keyboard	-11.6745
▁vistar	-11.6749
▁spit	-11.6752
▁rekha	-11.6754
▁organic	-11.6754
kit	-11.6761
▁nestl	-11.6771
clue	-11.6772
▁lg	-11.6773
▁hatch	-11.6773
▁testify	-11.6775
▁azaa	-11.6776
▁captive	-11.6782
iyer	-11.6785
▁lata	-11.6787
iyani	-11.6815
▁chilli	-11.6817
▁ideal	-11.6819
hiv	-11.6822
▁mika	-11.6824
▁jaish	-11.6835
coin	-11.6841
odara	-11.6867
▁greet	-11.6872
▁agusta	-11.6873
▁brilliant	-11.6873
▁exhaust	-11.6873
▁philosoph	-11.6873
▁quarterfinal	-11.6873
▁srinivas	-11.6873
▁christophe	-11.6873
▁mohit	-11.6873
▁loose	-11.6873
▁mourn	-11.6874
▁dagg	-11.6874
▁humour	-11.6874
▁rangoli	-11.6875
▁iceberg	-11.6876
▁authentication	-11.6878
▁kanwar	-11.6878
▁mcaf	-11.6882
▁distribute	-11.6883
▁legac	-11.6883
▁hotte	-11.6894
▁yuva	-11.6895
▁zee	-11.69
▁mumm	-11.6912
▁tara	-11.692
▁sergi	-11.6924
essar	-11.6924
soon	-11.6929
▁austrian	-11.6934
▁rabad	-11.6935
▁grosser	-11.694
lett	-11.6946
▁118	-11.6946
▁dekh	-11.6959
lept	-11.6962
▁promo	-11.6971
lumni	-11.6974
▁strange	-11.6986
break	-11.6991
▁starc	-11.6995
▁relation	-11.6998
▁ordinar	-11.6998
pilot	-11.7003
▁accel	-11.7006
▁desperate	-11.7007
▁bucket	-11.7007
▁context	-11.7007
▁lesbian	-11.7007
▁scuffle	-11.7007
▁universal	-11.7007
▁zlatan	-11.7007
▁baghdad	-11.7007
▁libert	-11.7007
▁pentag	-11.7008
▁urinat	-11.701
▁editorial	-11.7012
▁aaron	-11.7016
▁intent	-11.7018
▁digg	-11.7019
reby	-11.7019
▁tight	-11.7025
▁vij	-11.7026
arre	-11.7028
▁rip	-11.7028
▁shyam	-11.7031
▁publication	-11.7032
▁kaun	-11.7032
▁mansion	-11.7047
▁heavie	-11.7051
▁optic	-11.7053
andhu	-11.7062
▁khatte	-11.7069
ishaan	-11.7072
vez	-11.7076
▁replie	-11.708
▁wav	-11.7087
▁137	-11.7087
under	-11.7089
▁inspire	-11.7091
▁clon	-11.7098
pler	-11.7106
▁indirect	-11.7142
▁lehenga	-11.7142
▁photoshopp	-11.7142
▁predecessor	-11.7142
▁output	-11.7142
▁spoil	-11.7142
▁wwii	-11.7142
▁niece	-11.7142
▁furnish	-11.7142
▁archaeologist	-11.7142
▁photoshoot	-11.7142
▁preference	-11.7142
▁graphic	-11.7143
▁mysterious	-11.7143
▁cyclist	-11.7143
▁chapter	-11.7143
▁progressive	-11.715
▁pushkar	-11.7152
▁everyday	-11.7153
▁woke	-11.7155
▁grip	-11.7163
▁eco	-11.717
nekar	-11.7176
▁270	-11.7179
rder	-11.7181
▁limb	-11.7185
▁sewer	-11.7191
mala	-11.7195
▁sarah	-11.7195
assault	-11.7199
▁fabricat	-11.7204
drop	-11.7204
cj	-11.7213
▁consideration	-11.7215
▁vinay	-11.7216
▁simon	-11.7218
▁rahe	-11.7228
oya	-11.724
▁ramad	-11.7242
▁neo	-11.7247
▁dean	-11.7252
ankar	-11.7255
olds	-11.7256
▁curriculum	-11.7279
▁erect	-11.7279
▁fertil	-11.7279
▁manifesto	-11.7279
▁premature	-11.7279
▁smooth	-11.7279
▁ludhian	-11.7279
▁slaughterhouse	-11.7279
▁surf	-11.7279
▁cruz	-11.7283
▁classmate	-11.7283
▁rae	-11.7284
▁satish	-11.7285
▁choreographer	-11.7286
▁creature	-11.7288
▁confusion	-11.7294
▁reviv	-11.7295
▁feminist	-11.7296
▁jone	-11.7296
hoot	-11.7298
▁advise	-11.7298
▁pharma	-11.7301
▁emerge	-11.7302
▁quash	-11.7303
▁diwa	-11.7304
▁representation	-11.7316
moi	-11.7321
zill	-11.7334
▁nair	-11.7343
▁finalist	-11.7353
▁swimmer	-11.7355
adakh	-11.7356
ipc	-11.7372
unanda	-11.7377
enei	-11.7378
▁mehr	-11.7388
▁tenth	-11.7397
▁carat	-11.74
▁bun	-11.7401
▁pulse	-11.7407
▁extort	-11.7412
▁evaluat	-11.7412
▁aggregat	-11.7414
▁commence	-11.7415
▁primari	-11.7415
▁bhoo	-11.7415
▁rotat	-11.7416
▁palm	-11.7417
▁bazaar	-11.7418
▁interface	-11.7418
▁norwegian	-11.7418
▁obstacle	-11.7418
▁unearth	-11.7418
▁carolina	-11.7418
▁rajdhani	-11.7418
▁rhode	-11.7418
▁warehouse	-11.7418
▁rigg	-11.7418
▁buzz	-11.7418
▁rajyavardhan	-11.7419
▁autograph	-11.7419
▁supriy	-11.742
corp	-11.742
▁parcel	-11.742
▁talwar	-11.7421
▁manto	-11.7421
hillar	-11.7422
▁makemy	-11.7424
▁pillar	-11.7425
▁justify	-11.7433
nown	-11.7434
▁yuz	-11.7437
ashi	-11.7438
▁khel	-11.7442
▁miller	-11.7458
▁bouncer	-11.7459
▁bost	-11.7467
eera	-11.7469
▁vihar	-11.7472
▁equi	-11.7486
▁worm	-11.7487
▁khara	-11.749
▁imd	-11.7494
▁legalis	-11.7518
▁brun	-11.7526
▁glor	-11.7534
▁influenc	-11.7535
rgis	-11.7536
▁cohe	-11.7537
▁taran	-11.7537
▁diploma	-11.7538
tihar	-11.7539
linda	-11.7543
vinder	-11.7547
▁agni	-11.755
▁consultan	-11.7553
▁pupp	-11.7558
gehlot	-11.7558
▁cambodia	-11.7558
▁chhatra	-11.7558
▁definition	-11.7558
▁frequenc	-11.7558
▁vvpat	-11.7558
▁disguis	-11.7559
▁lizard	-11.7559
▁metropoli	-11.7559
▁jungle	-11.7559
▁sajja	-11.7559
▁himalaya	-11.7559
▁partition	-11.7559
▁crater	-11.7559
▁sperm	-11.7559
▁dabang	-11.7559
▁choudhar	-11.756
▁kelly	-11.7561
▁matri	-11.7564
▁fanney	-11.7566
▁consultation	-11.7568
▁rav	-11.7572
▁firework	-11.7573
▁tolerate	-11.7581
▁consultant	-11.7581
▁andaman	-11.7584
▁upside	-11.7588
▁arya	-11.7593
▁saira	-11.7598
▁indicate	-11.7603
▁indra	-11.7604
▁mahi	-11.7605
▁nabi	-11.7608
▁cleanl	-11.7611
▁madhur	-11.7615
▁210	-11.7616
▁logg	-11.7625
▁presentation	-11.7628
tharan	-11.7629
aswan	-11.763
duct	-11.7668
▁performer	-11.768
char	-11.769
giri	-11.7691
▁hydro	-11.7695
married	-11.7696
▁autonom	-11.77
▁administer	-11.7701
▁refrain	-11.7701
disproportionate	-11.7701
▁airlift	-11.7701
▁bread	-11.7701
▁cosmetic	-11.7701
▁denounc	-11.7701
▁evolution	-11.7701
▁kazakhstan	-11.7701
▁sabyasachi	-11.7701
▁symptom	-11.7701
▁ancestor	-11.7701
▁vomit	-11.7701
▁jitendra	-11.7701
▁sahib	-11.7701
▁icbm	-11.7701
▁prosper	-11.7701
▁pyaar	-11.7702
▁attain	-11.7702
▁soap	-11.7702
▁farmhouse	-11.7702
▁davis	-11.7702
▁autops	-11.7703
▁stain	-11.7703
▁obligation	-11.7704
▁prashant	-11.7705
▁cheek	-11.7705
emerit	-11.7705
math	-11.7708
▁lamb	-11.7709
▁pav	-11.771
qualification	-11.7711
▁chew	-11.7714
▁legalise	-11.772
▁zari	-11.772
▁render	-11.7722
▁roadside	-11.7723
▁113	-11.7729
ight	-11.7734
▁hawa	-11.7734
rdam	-11.7743
▁resum	-11.7744
▁tere	-11.7748
▁cube	-11.7748
▁myster	-11.7751
▁meteor	-11.776
▁amla	-11.7785
terres	-11.7788
hub	-11.7797
▁unchange	-11.7798
▁assume	-11.7811
made	-11.7812
fax	-11.7818
▁bounce	-11.783
▁marg	-11.784
▁repo	-11.7844
▁mimic	-11.7845
▁brewer	-11.7846
▁dictionar	-11.7846
▁harbour	-11.7846
▁immense	-11.7846
▁insurgenc	-11.7846
▁rubbish	-11.7846
▁sanjeev	-11.7846
▁thorough	-11.7846
▁typical	-11.7846
▁crunch	-11.7846
▁lookalike	-11.7846
▁workshop	-11.7846
▁invasion	-11.7846
▁krush	-11.7846
▁repeal	-11.7846
▁alaska	-11.7846
▁overcome	-11.7847
▁raghav	-11.7847
▁loving	-11.7847
▁baker	-11.7847
▁greenhouse	-11.7848
▁brett	-11.7848
llusion	-11.7848
▁drugmaker	-11.7848
▁reclaim	-11.7849
▁utter	-11.785
▁benami	-11.785
▁spacewalk	-11.785
▁salv	-11.7853
▁reign	-11.7853
▁yusuf	-11.7856
▁mandal	-11.7858
▁dare	-11.7859
▁1950	-11.7861
▁cleaner	-11.7861
darbha	-11.7863
▁deaf	-11.7864
▁850	-11.7866
▁massage	-11.7872
▁jpm	-11.7874
▁vette	-11.7876
▁nare	-11.7878
▁abhiya	-11.7882
▁farid	-11.7882
▁deployment	-11.7883
▁jen	-11.7888
blo	-11.7891
▁alp	-11.7892
langer	-11.7893
yoshi	-11.7894
xar	-11.7914
▁radioactiv	-11.7917
▁carv	-11.7918
urkha	-11.7919
▁constitute	-11.7921
▁coma	-11.793
▁recit	-11.793
▁jami	-11.794
ille	-11.7963
▁humble	-11.797
▁extremis	-11.7973
▁dope	-11.7974
▁bark	-11.7974
door	-11.7975
▁sele	-11.7975
▁capp	-11.7982
▁bala	-11.7987
▁exhibit	-11.7988
▁acknowledge	-11.7993
▁avalanche	-11.7993
▁bahadur	-11.7993
▁blackbuck	-11.7993
▁leonardo	-11.7993
▁mubarak	-11.7993
▁sanctuar	-11.7993
▁tuticor	-11.7993
▁tycoon	-11.7993
▁commodit	-11.7993
▁bunker	-11.7993
▁meghna	-11.7993
▁sapling	-11.7993
▁dynast	-11.7994
▁propell	-11.7994
▁thumb	-11.7994
avelin	-11.7996
▁headset	-11.7996
▁fluid	-11.7996
▁thermal	-11.7998
▁amra	-11.7999
view	-11.7999
▁heroine	-11.8
▁munic	-11.8001
▁vigilant	-11.8001
▁villa	-11.8001
▁blade	-11.8003
▁consensual	-11.8003
▁penis	-11.8005
▁define	-11.8008
▁kambl	-11.8018
▁evad	-11.8019
wine	-11.8021
▁knockout	-11.8022
▁specialist	-11.8031
fish	-11.8032
▁literal	-11.8033
▁drugg	-11.8042
naut	-11.8049
▁barg	-11.8049
▁rib	-11.8049
eaten	-11.8051
▁gado	-11.8056
▁addresse	-11.8061
iulia	-11.8062
▁trio	-11.8066
▁ril	-11.8076
▁penal	-11.8086
▁rejection	-11.8092
inzo	-11.81
▁corpse	-11.811
enko	-11.8114
atti	-11.8118
▁militan	-11.8123
▁eti	-11.8123
▁informal	-11.8134
liye	-11.8136
▁palik	-11.814
▁aggressi	-11.8142
▁czech	-11.8143
▁extraordinar	-11.8143
▁haircut	-11.8143
▁invalid	-11.8143
▁jurisdiction	-11.8143
▁leicester	-11.8143
▁mechanical	-11.8143
▁neglect	-11.8143
▁receipt	-11.8143
▁sebasti	-11.8143
▁stimul	-11.8143
▁disgust	-11.8143
▁rebuild	-11.8143
▁saurabh	-11.8143
▁biryani	-11.8143
▁crucia	-11.8143
▁psychological	-11.8143
▁hookah	-11.8143
▁morris	-11.8143
▁harris	-11.8144
▁ripple	-11.8146
▁infiltration	-11.8147
▁align	-11.8148
▁cooperative	-11.8149
▁ramayan	-11.8149
▁statistic	-11.815
▁impression	-11.815
▁rehabilitati	-11.8151
▁ghani	-11.8152
▁lamp	-11.8154
ittal	-11.8158
rock	-11.8159
▁recreate	-11.816
▁mak	-11.816
▁drunken	-11.8173
▁prediction	-11.8174
▁banana	-11.8176
▁pelter	-11.818
▁methan	-11.818
▁forceful	-11.8187
▁terr	-11.8189
▁clause	-11.8194
▁260	-11.8196
link	-11.8201
▁exchang	-11.8204
▁scoreline	-11.8211
▁clay	-11.8213
▁lungi	-11.8214
eiffe	-11.8215
▁neer	-11.8216
▁dab	-11.8223
▁upsc	-11.8229
▁deck	-11.8231
▁rage	-11.825
▁radicalis	-11.8253
▁heavi	-11.8254
arova	-11.8257
unita	-11.826
crease	-11.8262
▁comput	-11.8263
▁charm	-11.8272
▁stab	-11.8285
▁admitt	-11.8291
ulu	-11.8294
▁cockroach	-11.8294
▁corporator	-11.8294
▁dosanjh	-11.8294
▁doorstep	-11.8294
▁faculty	-11.8294
▁renuka	-11.8294
▁firearm	-11.8294
▁spouse	-11.8294
▁dussehr	-11.8294
▁meteorite	-11.8294
▁hyun	-11.8295
▁wolf	-11.8295
▁wilful	-11.8296
sinh	-11.8297
▁latin	-11.8297
▁conceiv	-11.8298
▁neighbourhood	-11.8298
▁detonat	-11.8299
▁mishap	-11.8299
▁qamar	-11.8299
▁adaptation	-11.83
▁mahanagar	-11.8302
▁deadlie	-11.8304
▁outdoor	-11.8306
▁acquittal	-11.8316
ukhtar	-11.8316
▁enforce	-11.8322
▁congo	-11.8322
▁roam	-11.8323
▁rim	-11.8325
▁surre	-11.8333
▁mri	-11.8339
▁wow	-11.8343
▁kali	-11.8371
valu	-11.8375
▁hung	-11.8376
▁wang	-11.838
pore	-11.8383
moto	-11.8394
▁boom	-11.841
▁cooperate	-11.8415
oyi	-11.8416
▁143	-11.8434
▁substitute	-11.8447
▁syllab	-11.8448
elecommunication	-11.8448
▁contradict	-11.8448
▁electrocut	-11.8448
▁irresponsibl	-11.8448
▁memorandum	-11.8448
▁peacock	-11.8448
▁prominent	-11.8448
▁scenario	-11.8448
▁stereotyp	-11.8448
▁franco	-11.8448
▁lehman	-11.8448
▁congestion	-11.8448
▁sumeet	-11.8448
▁councillor	-11.8448
▁grid	-11.8448
▁infring	-11.8448
▁rift	-11.8448
▁donkey	-11.8448
▁vital	-11.8449
▁khalifa	-11.8449
▁enrolment	-11.845
▁quake	-11.845
▁procurement	-11.8452
▁hallow	-11.8453
▁bakr	-11.8454
▁guinea	-11.8454
▁evaluation	-11.8454
▁mantra	-11.8455
▁garage	-11.8458
▁romance	-11.8461
▁termination	-11.8461
▁waterfall	-11.8464
privilege	-11.8465
mposition	-11.8465
▁refiner	-11.8466
▁brush	-11.8475
▁zair	-11.8479
▁candy	-11.849
mobi	-11.8493
▁josh	-11.85
▁spann	-11.8514
▁bashar	-11.8521
▁flip	-11.8524
▁overbridge	-11.8548
bodh	-11.8551
▁salma	-11.8559
▁reactor	-11.8564
troller	-11.8568
zama	-11.857
▁fractur	-11.8574
▁saath	-11.8577
▁prosecut	-11.8593
▁rak	-11.8596
▁sudha	-11.86
▁cluster	-11.8604
▁interpret	-11.8604
▁ladder	-11.8604
▁lobby	-11.8604
▁militia	-11.8604
▁antigua	-11.8604
▁scratch	-11.8604
▁shashank	-11.8604
▁nirupa	-11.8604
▁purpl	-11.8605
▁indecent	-11.8605
▁fridge	-11.8607
▁thirt	-11.8607
▁gulza	-11.8607
▁pound	-11.8608
▁henry	-11.8608
▁liabilit	-11.861
sibilit	-11.8613
▁boko	-11.8613
habib	-11.8614
▁vigilante	-11.8618
▁nabb	-11.8623
▁psl	-11.8624
▁drag	-11.8624
▁operative	-11.8629
lwale	-11.8629
▁compil	-11.8631
▁gru	-11.8633
▁percent	-11.8634
▁burial	-11.8635
vendr	-11.8638
▁accountant	-11.8648
▁rubin	-11.8652
▁zoom	-11.8652
▁hygien	-11.8656
▁nico	-11.8659
▁kaz	-11.8659
▁mush	-11.8674
▁dismisse	-11.8674
▁chak	-11.868
▁cto	-11.8681
irma	-11.869
▁222	-11.8692
▁choos	-11.8701
▁procure	-11.8721
▁facilitat	-11.8724
hind	-11.8729
▁sindh	-11.873
▁licens	-11.874
▁pg	-11.8747
▁mutilat	-11.8758
▁physi	-11.8759
xena	-11.8761
▁certifi	-11.8763
▁adverse	-11.8763
▁autobiograph	-11.8763
▁bubble	-11.8763
▁distinct	-11.8763
▁embryo	-11.8763
▁emperor	-11.8763
▁hectare	-11.8763
▁incumbent	-11.8763
▁perpetrator	-11.8763
▁precaution	-11.8763
▁yield	-11.8763
▁crawl	-11.8763
▁pepper	-11.8763
▁compartment	-11.8763
▁brend	-11.8763
▁lavr	-11.8764
▁thigh	-11.8764
▁inherit	-11.8764
▁capsiz	-11.8765
▁jk	-11.8766
▁mouni	-11.8767
▁tripp	-11.8768
▁rab	-11.8768
▁interactive	-11.8769
▁mutt	-11.877
▁injection	-11.877
style	-11.8772
▁torch	-11.8779
▁bryan	-11.8784
▁alcoholic	-11.8784
▁brigade	-11.8785
proof	-11.8785
stream	-11.8785
▁graduat	-11.8789
▁hungar	-11.8789
▁patroll	-11.8793
▁trainee	-11.8809
▁raza	-11.8816
▁arrange	-11.8824
▁inde	-11.8825
mithi	-11.883
▁passage	-11.8832
▁cea	-11.8845
▁visak	-11.8852
jiang	-11.8852
▁gat	-11.886
▁plunge	-11.8876
▁bold	-11.8888
▁132	-11.8889
phy	-11.8894
▁migrat	-11.8919
dela	-11.892
▁disagree	-11.892
▁abnormal	-11.8924
▁collage	-11.8924
▁effig	-11.8924
▁granddaughter	-11.8924
▁manmarziya	-11.8924
▁obsess	-11.8924
▁occupation	-11.8924
▁unlawful	-11.8924
▁chowdh	-11.8924
▁liberal	-11.8924
▁massacre	-11.8924
▁sarfar	-11.8924
▁sanjiv	-11.8924
▁coimb	-11.8924
▁kushwaha	-11.8924
▁shatter	-11.8925
▁wkt	-11.8925
▁horizon	-11.8925
▁airbag	-11.8926
▁garner	-11.8927
▁monster	-11.8927
▁deewan	-11.8927
▁kiren	-11.8928
▁kothar	-11.8931
▁seminar	-11.8932
▁luis	-11.8933
specifi	-11.8933
pg	-11.8933
▁flop	-11.8933
▁weightlifter	-11.8938
craft	-11.894
▁wrongful	-11.8943
▁confession	-11.8946
▁prohibition	-11.8946
cosmo	-11.8948
qan	-11.8953
ivo	-11.8954
▁zay	-11.8955
▁slice	-11.8958
▁cassi	-11.8968
palli	-11.8969
scrib	-11.8977
aval	-11.9013
▁menstrua	-11.9017
▁yana	-11.9021
shima	-11.9044
▁hunter	-11.9045
born	-11.9077
▁bachelor	-11.9088
▁bulgaria	-11.9088
▁counterfeit	-11.9088
▁description	-11.9088
▁ethiopia	-11.9088
▁expedition	-11.9088
▁explicit	-11.9088
▁junction	-11.9088
▁mcgrath	-11.9088
▁restructur	-11.9088
▁shopkeeper	-11.9088
▁uruguay	-11.9088
▁zareen	-11.9088
▁optimis	-11.9088
▁doodle	-11.9088
▁reproduc	-11.9088
▁lounge	-11.9088
▁thunderstorm	-11.9088
▁allotment	-11.9088
▁chunk	-11.9088
▁flick	-11.9088
▁keshav	-11.9088
▁defi	-11.9089
▁tilt	-11.9089
▁prayag	-11.9093
▁fond	-11.9095
▁karim	-11.9096
▁enroll	-11.9096
▁icu	-11.9097
▁luka	-11.9098
▁cait	-11.9104
dolf	-11.9107
complete	-11.9115
nfl	-11.9124
▁preferr	-11.9125
▁mute	-11.9128
▁amste	-11.9128
▁iftar	-11.9139
▁libyan	-11.9149
▁bailout	-11.9154
itra	-11.9161
tpc	-11.9163
▁processor	-11.9167
▁peer	-11.9191
▁dash	-11.9192
▁notify	-11.9201
▁ober	-11.9203
▁sincere	-11.9211
▁mart	-11.9212
ircar	-11.9216
▁resid	-11.9218
titude	-11.9221
▁ub	-11.9231
▁tiru	-11.9231
▁resemble	-11.9231
akkara	-11.9237
cso	-11.9241
▁kidnap	-11.9243
▁slide	-11.9247
▁extinct	-11.925
▁balochis	-11.9255
▁alphons	-11.9255
▁dikshit	-11.9255
▁empire	-11.9255
▁gurdwara	-11.9255
▁overwhelm	-11.9255
▁psychiatri	-11.9255
▁stakeholder	-11.9255
▁supervisor	-11.9255
▁thread	-11.9255
▁embedd	-11.9255
▁engaging	-11.9255
▁potato	-11.9255
jeeb	-11.9255
▁irrigat	-11.9255
▁buttler	-11.9255
▁bahujan	-11.9255
▁mouthpiece	-11.9255
▁stint	-11.9255
▁euthan	-11.9255
▁vyas	-11.9256
▁hostil	-11.9256
▁legislature	-11.9256
▁danny	-11.9256
▁microphone	-11.9256
▁earring	-11.9256
▁dhaka	-11.9257
▁lakm	-11.9258
▁industrialist	-11.9258
▁dum	-11.926
▁hom	-11.9263
akarta	-11.9263
▁fog	-11.9263
razzi	-11.9264
▁cummin	-11.9265
▁biswa	-11.9271
▁cue	-11.9281
▁technological	-11.9283
▁bric	-11.9287
▁corps	-11.93
▁beggar	-11.9307
cap	-11.9319
▁nicola	-11.932
acqui	-11.9321
▁beast	-11.9323
▁thor	-11.9324
▁offend	-11.9372
▁casual	-11.9376
▁saini	-11.9388
▁distan	-11.9396
▁momo	-11.9406
gadi	-11.9409
▁feb	-11.9422
▁oct	-11.9422
▁litigation	-11.9424
▁narasimha	-11.9424
▁transmission	-11.9424
▁crowdfund	-11.9424
▁efficienc	-11.9424
▁monarch	-11.9424
▁vvip	-11.9424
▁osaka	-11.9424
▁taunt	-11.9424
▁downgrad	-11.9424
▁hammer	-11.9424
▁faint	-11.9424
▁nizam	-11.9424
▁depriv	-11.9425
▁wrongdoing	-11.9425
▁pardon	-11.9425
▁emitt	-11.9425
▁thunder	-11.9425
▁surendra	-11.9426
▁gentleman	-11.9426
▁caution	-11.9427
▁lyricist	-11.9428
▁quran	-11.9429
▁dense	-11.9431
▁udai	-11.9432
▁elevation	-11.9433
▁slur	-11.9435
mecca	-11.9435
▁depth	-11.9436
▁dave	-11.9436
ristol	-11.9438
▁waist	-11.944
llah	-11.9446
▁antoni	-11.9446
▁tewa	-11.9456
▁reyn	-11.9457
▁fracture	-11.9458
▁330	-11.9461
▁yuan	-11.9476
▁productiv	-11.9476
▁alexi	-11.9478
▁collaborate	-11.9479
▁bhim	-11.9479
ailing	-11.9524
gow	-11.9533
▁etc	-11.9553
aleem	-11.9554
▁hashim	-11.9564
▁vigilan	-11.9572
jah	-11.9573
▁shikha	-11.9575
cade	-11.9584
▁justifi	-11.959
▁bloc	-11.9592
▁hut	-11.9595
enka	-11.9596
▁arbitrar	-11.9597
▁decriminalis	-11.9597
▁desktop	-11.9597
▁dismantl	-11.9597
▁revelation	-11.9597
▁schoolgirl	-11.9597
▁squash	-11.9597
▁proportion	-11.9597
▁stubble	-11.9597
▁vishva	-11.9597
▁swept	-11.9597
▁lbw	-11.9597
▁shaadi	-11.9597
▁contrar	-11.9597
▁shivakumar	-11.9597
▁abhay	-11.9597
▁loyalt	-11.9597
▁manhandl	-11.9597
▁volley	-11.9598
▁sensation	-11.9598
▁mukerjea	-11.9598
▁narrative	-11.96
▁pakoda	-11.96
▁buddha	-11.9601
▁jaz	-11.9602
▁kj	-11.9602
▁painful	-11.9603
▁curry	-11.9607
▁rajendra	-11.9608
rhea	-11.9609
▁mulk	-11.9612
▁1960	-11.9615
ampton	-11.9616
smog	-11.9625
uchi	-11.963
▁tired	-11.963
▁obes	-11.9631
plus	-11.9638
▁procur	-11.9638
buil	-11.9642
ergei	-11.9649
▁institutional	-11.9651
▁dresse	-11.9657
methi	-11.9658
▁pave	-11.9663
▁veni	-11.9664
ebri	-11.9667
▁dirt	-11.9673
▁hook	-11.9675
elphin	-11.9676
comb	-11.9688
▁dock	-11.9704
▁commut	-11.9711
afford	-11.9729
▁nita	-11.9743
▁reunite	-11.9743
▁prostitut	-11.9749
▁fab	-11.9751
▁ivor	-11.9766
▁psycho	-11.9767
isco	-11.9767
▁accumulat	-11.9772
▁distinguish	-11.9772
▁miscreant	-11.9772
▁philanthrop	-11.9772
▁purohit	-11.9772
▁reshuffle	-11.9772
▁uncertain	-11.9772
▁eradicat	-11.9772
▁gurudwara	-11.9772
▁saqib	-11.9772
▁dulhani	-11.9772
▁appease	-11.9772
▁sohrab	-11.9772
▁shubman	-11.9772
▁shahzad	-11.9772
▁balakrishna	-11.9772
▁devastat	-11.9772
▁newcomer	-11.9772
▁renovat	-11.9773
▁blogger	-11.9774
▁fortni	-11.9778
▁satyend	-11.9781
▁reef	-11.9782
▁boris	-11.9783
▁charli	-11.9785
▁revision	-11.9795
aspers	-11.9795
▁liberat	-11.9802
▁measurement	-11.9814
▁commemorat	-11.9819
▁yami	-11.9824
▁kik	-11.983
▁decent	-11.9831
▁superse	-11.9836
▁saama	-11.984
borne	-11.9844
▁budd	-11.985
tact	-11.985
asek	-11.986
▁ugl	-11.987
▁decompos	-11.9871
▁criminalise	-11.9887
▁brib	-11.9901
▁edward	-11.9902
▁excellen	-11.9905
▁opera	-11.9909
ugc	-11.991
▁imag	-11.991
▁abet	-11.9919
▁misinform	-11.9941
▁340	-11.9949
▁destabilis	-11.9951
▁identical	-11.9951
▁moustache	-11.9951
▁srivastav	-11.9951
▁technician	-11.9951
▁umbrella	-11.9951
▁applaud	-11.9951
▁burqa	-11.9951
▁gadget	-11.9951
▁gucci	-11.9951
▁gutted	-11.9951
▁screw	-11.9951
▁smiling	-11.9951
▁gabriel	-11.9951
▁dissent	-11.9951
▁takht	-11.9951
▁proclaim	-11.9951
▁oprah	-11.9951
▁fuku	-11.9952
▁provisional	-11.9953
▁weird	-11.9954
▁fixture	-11.9955
▁unilateral	-11.9955
▁elevator	-11.9958
▁raab	-11.9959
phone	-11.9961
▁barbar	-11.9961
▁recreation	-11.9968
▁shade	-11.9969
natal	-11.9972
nidhi	-11.9973
ophie	-11.9973
udhir	-11.9982
▁northeaster	-11.9988
▁decid	-11.999
secure	-11.9992
▁adr	-11.9995
shift	-11.9999
▁disco	-12.0001
▁moti	-12.0005
wik	-12.0015
▁decrease	-12.0016
▁violator	-12.0031
▁jose	-12.0031
ravana	-12.0033
▁doug	-12.0033
place	-12.0036
ashik	-12.0039
▁stalker	-12.004
▁breache	-12.0048
▁credib	-12.0058
100	-12.0073
▁gupt	-12.0083
▁embrace	-12.0086
▁diya	-12.0096
▁chakra	-12.0115
▁paan	-12.0128
ograph	-12.0133
▁bhojpur	-12.0133
▁catastroph	-12.0133
▁cognizan	-12.0133
▁denomination	-12.0133
▁eyewitness	-12.0133
▁flavour	-12.0133
▁hurdle	-12.0133
▁olympia	-12.0133
▁skyscraper	-12.0133
▁treason	-12.0133
▁compassion	-12.0133
▁triumph	-12.0133
▁pyeong	-12.0133
▁dustbin	-12.0133
▁misspell	-12.0133
▁disburs	-12.0133
▁oppress	-12.0133
▁ridiculous	-12.0133
misbah	-12.0133
▁remand	-12.0134
▁hungr	-12.0134
▁majid	-12.0134
shuto	-12.0137
▁mohal	-12.0139
▁instructor	-12.014
▁payload	-12.014
dhia	-12.014
heimer	-12.0143
▁yell	-12.0147
tarun	-12.0152
▁chakrab	-12.0154
▁appella	-12.0156
▁burhan	-12.0157
▁mehen	-12.016
▁coral	-12.0165
ushik	-12.0165
▁immo	-12.0169
nayak	-12.0169
omo	-12.0174
▁dipp	-12.0176
▁mitra	-12.0176
▁wade	-12.0177
▁phir	-12.0179
▁dharma	-12.0185
▁chop	-12.0186
▁pubg	-12.0189
▁uran	-12.019
ajwa	-12.0192
▁mouse	-12.0193
hrc	-12.0193
▁absent	-12.0213
bhi	-12.0219
▁dumb	-12.0221
▁toppl	-12.0223
mple	-12.0225
colm	-12.0238
▁chem	-12.0246
ometer	-12.0253
▁papp	-12.0262
hutto	-12.0269
saw	-12.0275
amine	-12.0277
▁decor	-12.0287
▁sophi	-12.0289
▁personalis	-12.0289
▁ashle	-12.029
▁lump	-12.03
▁equat	-12.0312
▁kap	-12.0315
tung	-12.0317
▁misinterpret	-12.0318
dicaprio	-12.0318
nclave	-12.0318
▁anxiet	-12.0318
▁gradual	-12.0318
▁improper	-12.0318
▁jealous	-12.0318
▁organization	-12.0318
▁pesticide	-12.0318
▁rabbit	-12.0318
▁skripal	-12.0318
▁sportsperson	-12.0318
▁tunisia	-12.0318
▁chronic	-12.0318
▁alternate	-12.0318
▁genius	-12.0318
▁folk	-12.0318
▁implicat	-12.0318
▁pravin	-12.0318
▁grill	-12.0318
▁stunn	-12.0318
▁utilit	-12.0319
▁feud	-12.032
▁zindagi	-12.032
▁tutor	-12.032
▁candle	-12.032
▁cbd	-12.032
▁disappearance	-12.0321
▁harley	-12.0322
▁reconstruction	-12.0322
▁concentration	-12.0322
▁disagreement	-12.0323
▁tighten	-12.0323
▁lohan	-12.0324
▁genre	-12.0324
▁preced	-12.0325
▁armour	-12.0325
▁provocation	-12.0326
pika	-12.0328
▁attractive	-12.0331
▁panther	-12.0337
▁berth	-12.0338
▁multiplex	-12.0346
▁exile	-12.0346
▁fukr	-12.0348
▁reunit	-12.0349
▁ripp	-12.0352
▁lingeri	-12.0356
▁hale	-12.0359
▁spam	-12.0365
▁malai	-12.0369
▁worshipp	-12.0372
broke	-12.0372
▁mick	-12.0378
▁bidder	-12.0379
▁kota	-12.0381
▁gabbar	-12.0381
▁cath	-12.0417
▁chill	-12.0432
logy	-12.0482
▁akhil	-12.0495
▁desi	-12.0495
▁magnet	-12.0503
caust	-12.0506
▁arnold	-12.0506
▁perspective	-12.0506
▁blackberry	-12.0506
▁deutsch	-12.0506
▁reboot	-12.0506
▁soccer	-12.0506
▁uproot	-12.0506
▁discourag	-12.0507
▁khich	-12.0507
▁instigat	-12.0507
▁footprint	-12.0507
▁ventilator	-12.0507
▁smartwatch	-12.0507
▁lauren	-12.0508
phobi	-12.0508
bhadra	-12.0509
nirman	-12.0509
▁flak	-12.051
▁dramatic	-12.051
▁prabhakar	-12.051
▁dependent	-12.0511
▁akali	-12.0512
▁radiu	-12.0512
▁birmi	-12.0513
▁pornographic	-12.0514
▁loop	-12.0515
▁woh	-12.0515
▁slump	-12.0516
▁mobik	-12.0516
ngham	-12.0521
arajan	-12.0527
▁warden	-12.0532
▁gwal	-12.0534
▁flush	-12.0538
▁cena	-12.0543
▁unsc	-12.0546
ndrome	-12.0558
piece	-12.0559
front	-12.056
like	-12.057
immel	-12.0579
impl	-12.0579
▁misha	-12.0602
▁politicis	-12.0606
oonch	-12.0616
▁clar	-12.0622
▁decreas	-12.0632
▁consula	-12.0642
▁overcharg	-12.0644
▁suicid	-12.0655
▁architect	-12.0658
▁techie	-12.0667
▁prop	-12.0693
▁petro	-12.0699
▁airplane	-12.0699
▁defense	-12.0699
▁disciplinar	-12.0699
▁lamborghini	-12.0699
▁reconsider	-12.0699
▁redesign	-12.0699
▁revamp	-12.0699
▁bapu	-12.0699
▁davo	-12.0699
centric	-12.0699
▁ambition	-12.0699
▁lasith	-12.0699
▁piano	-12.0699
▁sitaram	-12.0699
▁chandrasekar	-12.0699
▁prerna	-12.0699
▁heaven	-12.07
▁martian	-12.07
▁songwriter	-12.07
▁traitor	-12.0701
▁incubator	-12.0701
▁restart	-12.0702
▁pearl	-12.0703
▁memoir	-12.0705
▁subway	-12.0705
▁aspiration	-12.0705
▁intoleran	-12.0707
rushi	-12.0708
▁shoppers	-12.0712
▁sarabha	-12.0712
▁zara	-12.0713
▁masoo	-12.0719
uitt	-12.0734
▁mario	-12.0749
▁radical	-12.0752
synthesis	-12.0759
▁bhaskar	-12.0762
▁experimental	-12.0773
▁masal	-12.078
thappa	-12.0781
wind	-12.0784
▁quantit	-12.0787
rogen	-12.079
▁telephone	-12.0829
abbar	-12.0835
▁curio	-12.0842
▁induc	-12.085
▁enforc	-12.0853
ctor	-12.086
▁troubl	-12.087
▁chaudh	-12.087
▁specialis	-12.0871
▁rehabilitat	-12.0884
▁accomplish	-12.0895
▁chhota	-12.0895
▁cosmonaut	-12.0895
▁mallikarjun	-12.0895
▁motorbike	-12.0895
▁neutron	-12.0895
▁occupy	-12.0895
▁pancreati	-12.0895
▁structural	-12.0895
▁unicorn	-12.0895
▁bakshi	-12.0895
▁interconnect	-12.0895
▁rejoin	-12.0895
▁pellet	-12.0895
▁namaste	-12.0895
ubati	-12.0895
▁domino	-12.0895
▁mbapp	-12.0895
▁soyuz	-12.0895
▁censu	-12.0895
▁armaan	-12.0895
▁orphanage	-12.0896
▁ghula	-12.0897
▁faiz	-12.0897
▁tulsi	-12.0897
▁unofficial	-12.0898
ginni	-12.0899
▁archive	-12.09
▁holland	-12.09
▁nikhi	-12.0901
▁tailor	-12.0901
▁booklet	-12.0903
▁forehead	-12.0904
ozhi	-12.0907
▁lupi	-12.0909
▁fictional	-12.0911
▁yong	-12.0912
▁amass	-12.0914
▁diversion	-12.0918
▁eas	-12.0919
amby	-12.0929
lasse	-12.0935
▁harish	-12.0937
▁stir	-12.0938
▁gj	-12.0942
▁kansa	-12.0944
▁excellenc	-12.0945
▁transmitt	-12.0954
storm	-12.0962
▁electro	-12.0964
match	-12.0965
batra	-12.0973
ghat	-12.0988
riddhima	-12.0992
▁roma	-12.0994
▁flipp	-12.0997
▁criminalis	-12.0998
karni	-12.0999
▁desir	-12.1005
▁maul	-12.1013
▁bhang	-12.1016
▁lodh	-12.1027
inson	-12.1052
fire	-12.1066
▁shuttle	-12.1082
▁infiltrat	-12.1082
▁apprehend	-12.1095
▁ayatollah	-12.1095
▁confederation	-12.1095
▁dessert	-12.1095
▁dolphin	-12.1095
▁enthusias	-12.1095
▁extinguish	-12.1095
▁hypocri	-12.1095
▁inadequate	-12.1095
▁landfill	-12.1095
▁megapixel	-12.1095
▁patriarch	-12.1095
▁pratyush	-12.1095
▁shrivastav	-12.1095
diterran	-12.1095
▁duplicat	-12.1095
▁reptile	-12.1095
▁tantrik	-12.1095
▁nelson	-12.1095
▁extensive	-12.1095
▁persuad	-12.1095
▁awake	-12.1095
▁mlc	-12.1096
▁layoff	-12.1096
▁defy	-12.1096
▁encroachment	-12.1096
▁kishan	-12.1097
▁ghana	-12.1097
▁vault	-12.1097
▁clad	-12.1098
▁steam	-12.1098
▁samson	-12.1098
▁amenit	-12.1099
gui	-12.11
▁jign	-12.1101
igress	-12.1101
▁defecati	-12.1104
▁uzbeki	-12.1106
▁thankful	-12.111
▁signboard	-12.1112
baidu	-12.1112
jung	-12.1113
▁ruck	-12.1117
▁feasib	-12.1122
▁mcca	-12.1136
▁punit	-12.1138
▁lime	-12.1139
▁liar	-12.1143
▁janta	-12.1157
rashtra	-12.1158
▁brida	-12.1173
▁dung	-12.1176
▁translat	-12.1177
▁similarit	-12.1195
purva	-12.1201
logg	-12.121
cover	-12.1215
▁creditor	-12.1218
▁saraswat	-12.1222
meira	-12.1226
▁cease	-12.1276
▁fawa	-12.1278
irsa	-12.1279
blew	-12.1289
▁orde	-12.1291
▁archaeolog	-12.1298
funct	-12.1299
▁caretaker	-12.1299
▁fountain	-12.1299
▁fundraising	-12.1299
▁inconvenience	-12.1299
▁paralympic	-12.1299
▁prosthetic	-12.1299
▁retract	-12.1299
▁surprising	-12.1299
▁unavailab	-12.1299
▁unbelievabl	-12.1299
▁python	-12.1299
▁vajubha	-12.1299
▁abhinav	-12.1299
▁hamper	-12.1299
▁safari	-12.1299
▁ziva	-12.1299
▁ajmer	-12.1299
▁superior	-12.1299
▁dmitr	-12.1299
▁bulb	-12.1299
▁pravee	-12.13
▁europa	-12.13
▁mathematician	-12.1301
▁complication	-12.1303
▁idli	-12.1303
▁nisha	-12.1304
▁mercur	-12.1304
▁chatur	-12.1304
▁1930	-12.1308
▁simulation	-12.1309
▁misunderst	-12.1309
▁recharge	-12.1312
▁kerr	-12.1317
▁delight	-12.1322
▁430	-12.1324
▁fia	-12.1324
▁darre	-12.1325
panda	-12.1348
zeb	-12.1365
respective	-12.1368
limit	-12.1368
sabha	-12.1375
▁woode	-12.1379
▁sanders	-12.1387
▁hoga	-12.1388
fell	-12.1405
▁digitis	-12.1414
yatri	-12.1438
▁creativ	-12.1439
augh	-12.1469
bane	-12.1474
▁kesar	-12.1482
otherap	-12.1494
▁complian	-12.15
▁jem	-12.15
▁registr	-12.15
▁zil	-12.1502
▁reimburs	-12.1507
▁cocktail	-12.1507
▁diameter	-12.1507
▁flirt	-12.1507
▁insurgent	-12.1507
▁refresh	-12.1507
▁shloka	-12.1507
▁unconditional	-12.1507
▁unnatural	-12.1507
▁jacob	-12.1507
▁tanzania	-12.1507
▁zakir	-12.1507
▁senegal	-12.1507
▁geographic	-12.1507
▁craig	-12.1507
▁siberia	-12.1507
▁shrink	-12.1507
▁santosh	-12.1507
▁gulshan	-12.1508
▁lenin	-12.1508
▁steep	-12.1508
▁navratr	-12.1508
▁daim	-12.1508
▁azim	-12.1508
▁refrigerator	-12.1509
▁aqua	-12.1509
▁emmy	-12.1509
▁challan	-12.1509
▁vibra	-12.151
▁heckl	-12.1512
▁terrifi	-12.1512
▁translation	-12.1513
▁pillow	-12.1513
▁michi	-12.1515
▁cern	-12.1515
▁weakness	-12.1515
▁vaugh	-12.1516
▁bhog	-12.1518
▁satisfact	-12.1522
▁olive	-12.1527
▁hover	-12.1527
▁shubh	-12.1531
▁axe	-12.1537
▁guil	-12.1548
380	-12.1565
adarsh	-12.1573
guard	-12.1577
▁vacat	-12.158
▁nadia	-12.1586
check	-12.1599
▁jewel	-12.161
haaga	-12.1637
active	-12.1673
auli	-12.1673
▁atmospher	-12.1685
▁greg	-12.1686
▁residenc	-12.169
▁balk	-12.1705
romani	-12.1712
▁curtail	-12.172
▁fortunate	-12.172
▁medication	-12.172
▁practical	-12.172
▁wankhed	-12.172
▁vyapa	-12.172
▁banknote	-12.172
▁exceptional	-12.172
▁rajapaks	-12.172
▁radhakrishna	-12.172
▁superstitio	-12.172
▁submerge	-12.172
▁contractual	-12.172
▁postcard	-12.172
▁cotton	-12.172
▁mushroom	-12.172
▁sleeve	-12.172
▁pluto	-12.172
▁convocation	-12.1721
▁otto	-12.1721
▁sofia	-12.1721
anhaiya	-12.1722
▁sampa	-12.1722
mpson	-12.1724
▁bundl	-12.1724
▁font	-12.1725
▁motorist	-12.1725
aqqa	-12.1726
▁echo	-12.1727
▁mutilation	-12.1727
▁foam	-12.1728
▁flex	-12.173
▁bibi	-12.173
▁rakh	-12.1734
▁salon	-12.1736
▁destruct	-12.1748
▁prima	-12.1757
▁shanti	-12.176
▁bipla	-12.1778
abdi	-12.181
▁balaj	-12.1833
yama	-12.1854
abita	-12.1867
liwal	-12.1885
▁morta	-12.1891
▁sarb	-12.1919
▁thrill	-12.192
▁interrogat	-12.1932
▁agitat	-12.1933
▁breakthrough	-12.1937
▁compatriot	-12.1937
▁comprehensive	-12.1937
▁dislodg	-12.1937
▁guatemala	-12.1937
▁livelihood	-12.1937
▁pyramid	-12.1937
▁quarrel	-12.1937
▁reprimand	-12.1937
▁eject	-12.1937
▁handshake	-12.1937
▁illustrat	-12.1937
▁intermedia	-12.1937
▁mascot	-12.1937
▁sadhvi	-12.1937
▁suitcase	-12.1937
igorous	-12.1937
▁pegg	-12.1937
▁squeez	-12.1937
▁intensive	-12.1937
▁trouser	-12.1937
▁guitar	-12.1937
▁sholay	-12.1937
▁miracle	-12.1938
▁monetis	-12.1938
▁bukhar	-12.1938
mukti	-12.1938
▁celeb	-12.1938
▁arpit	-12.1938
▁avatar	-12.1939
▁boast	-12.1939
remes	-12.1939
▁macau	-12.1939
▁vilas	-12.1939
▁clown	-12.194
armament	-12.1941
▁sadden	-12.1942
▁modify	-12.1942
▁shafi	-12.1942
▁faec	-12.1942
▁graft	-12.1943
▁colonial	-12.1944
▁ghai	-12.1948
▁assignment	-12.1948
▁lokhand	-12.1953
▁cobra	-12.1956
▁salim	-12.1957
▁roti	-12.1959
▁mrp	-12.1961
▁950	-12.1963
▁ockh	-12.1967
▁affordabl	-12.1981
▁architectur	-12.1984
cull	-12.1994
skirt	-12.202
▁darw	-12.2024
▁stewar	-12.2029
haar	-12.2031
press	-12.2032
▁journalis	-12.2036
▁colomb	-12.2049
invest	-12.2051
ameswar	-12.2077
▁nandi	-12.2107
▁pause	-12.2109
▁idf	-12.2118
volv	-12.2139
▁provocati	-12.215
pulsion	-12.2158
▁bloom	-12.2159
▁antibiotic	-12.216
▁columbia	-12.216
▁enormous	-12.216
▁stronghold	-12.216
▁swayamsevak	-12.216
▁deactivat	-12.216
▁whistle	-12.216
▁coffin	-12.216
▁konkan	-12.216
▁tuition	-12.216
▁jagannath	-12.216
▁bhajan	-12.216
▁tarnish	-12.216
ncert	-12.216
▁morocc	-12.216
▁mangesh	-12.216
▁maulana	-12.216
▁vibration	-12.2161
▁malign	-12.2161
▁tusk	-12.2161
▁meaningful	-12.2163
▁jonty	-12.2165
▁ankle	-12.2166
▁determination	-12.2169
▁lope	-12.2175
▁jasl	-12.2179
▁vaid	-12.218
track	-12.2182
▁overdose	-12.2184
▁deserv	-12.2209
gulati	-12.2211
▁haf	-12.2216
▁dhol	-12.2221
suriya	-12.224
▁ramachandra	-12.224
tipu	-12.2244
athawal	-12.2259
athiya	-12.2262
▁shab	-12.2268
nanya	-12.2272
ogi	-12.2326
▁bounc	-12.2345
▁lokesh	-12.2352
▁prioritise	-12.2352
▁wrap	-12.2376
▁concentrat	-12.2382
▁centimetre	-12.2387
▁clutch	-12.2387
▁coconut	-12.2387
▁concession	-12.2387
▁mahagath	-12.2387
▁multinational	-12.2387
▁sarpanch	-12.2387
▁submission	-12.2387
▁catalyst	-12.2387
▁suffocat	-12.2387
▁zhang	-12.2387
▁merchandis	-12.2387
▁octopus	-12.2387
▁haunt	-12.2387
▁pigeon	-12.2387
▁snoop	-12.2387
▁bhargav	-12.2387
▁propagat	-12.2387
▁plasma	-12.2387
▁lcd	-12.2387
patrick	-12.2387
▁insurer	-12.2388
▁foster	-12.2388
▁bullock	-12.2389
rassic	-12.2389
▁elite	-12.2389
▁wagon	-12.239
▁jhul	-12.239
▁stylist	-12.239
▁mahila	-12.2392
▁civilisation	-12.2392
▁composition	-12.2393
▁equation	-12.2393
otsav	-12.2394
▁rotation	-12.2396
▁confrontation	-12.2396
▁pierr	-12.2397
▁silva	-12.2399
▁ganja	-12.2399
▁pesha	-12.24
▁disk	-12.2405
▁balanc	-12.2418
▁teri	-12.2421
emia	-12.2426
▁elde	-12.2426
▁dodg	-12.243
rundha	-12.244
hbaz	-12.2452
aph	-12.2457
kock	-12.246
▁tirupat	-12.2473
service	-12.248
▁elop	-12.2482
▁menstruati	-12.2488
▁adj	-12.249
▁zip	-12.2502
▁kasau	-12.2509
▁chah	-12.2519
▁synthe	-12.2546
▁stockhol	-12.2566
▁feminis	-12.2591
ripala	-12.2602
▁reconstruct	-12.2614
▁oblig	-12.2615
▁circum	-12.2619
▁whisk	-12.2619
▁constellation	-12.2619
▁cultivat	-12.2619
▁envelope	-12.2619
▁fragment	-12.2619
▁hemisphere	-12.2619
▁inequalit	-12.2619
▁injustice	-12.2619
▁kalpana	-12.2619
▁mujhe	-12.2619
▁neptune	-12.2619
▁unexpected	-12.2619
▁unintentional	-12.2619
▁unsuccessful	-12.2619
▁faisal	-12.2619
▁spaceflight	-12.2619
▁telecast	-12.2619
▁rectum	-12.2619
▁uganda	-12.2619
▁viswanath	-12.2619
▁terrain	-12.2619
▁apparel	-12.262
▁gossip	-12.262
▁phool	-12.262
▁firangi	-12.262
▁sherpa	-12.262
▁flout	-12.262
▁inhuman	-12.2621
▁ritik	-12.2621
▁urvas	-12.2622
▁minimal	-12.2622
▁scatter	-12.2622
▁gateway	-12.2622
▁ocul	-12.2623
▁saroj	-12.2623
▁typo	-12.2623
▁expulsion	-12.2623
▁dividend	-12.2624
▁cashback	-12.2625
▁halal	-12.2625
▁foolish	-12.2625
▁kavit	-12.2626
▁swipe	-12.2626
▁mimick	-12.2626
▁radha	-12.2627
urvedi	-12.2629
▁moeen	-12.2632
▁indicator	-12.2638
▁matrimoni	-12.264
▁detainee	-12.2644
▁achr	-12.2646
width	-12.2649
▁pyar	-12.2655
▁mature	-12.2661
▁dhoo	-12.2666
▁gadda	-12.2695
claim	-12.2713
▁celin	-12.2714
writer	-12.2716
▁kadam	-12.2717
motive	-12.2718
verge	-12.2722
▁curv	-12.2731
sylv	-12.2742
▁douse	-12.2746
swati	-12.2747
fef	-12.278
▁helm	-12.2796
▁dominan	-12.2826
▁refin	-12.2831
▁hype	-12.2831
juan	-12.2838
print	-12.2844
▁dictat	-12.2855
▁exaggerat	-12.2858
▁autorickshaw	-12.2858
▁barclay	-12.2858
▁cemeter	-12.2858
▁collegi	-12.2858
▁dhinchak	-12.2858
▁elbow	-12.2858
▁heatwave	-12.2858
▁intruder	-12.2858
▁supercomputer	-12.2858
▁butterfl	-12.2858
▁kiosk	-12.2858
▁parameter	-12.2858
▁rainbow	-12.2858
▁stefan	-12.2858
▁chatbot	-12.2858
▁precise	-12.2858
▁reckless	-12.2858
▁schwarz	-12.2858
▁endorsement	-12.2858
▁hamburg	-12.2858
▁parody	-12.2858
▁dental	-12.2858
▁derby	-12.2858
▁whiskey	-12.2858
▁calorie	-12.2858
▁simpson	-12.2858
▁barbie	-12.2858
▁proxy	-12.2858
▁annex	-12.2859
▁grind	-12.2859
▁apj	-12.2859
▁gymnastic	-12.2859
▁feather	-12.286
▁yogend	-12.2861
▁waterlogg	-12.2861
▁throwback	-12.2861
▁discard	-12.2861
▁sniff	-12.2862
▁fifteen	-12.2862
▁dictatorship	-12.2862
▁yousaf	-12.2862
▁coordinator	-12.2864
▁straw	-12.2864
▁kisan	-12.2865
▁moore	-12.2865
▁pagl	-12.2869
▁ganpat	-12.2869
▁zika	-12.2872
▁neural	-12.2877
hajj	-12.2879
▁pew	-12.288
eiro	-12.2901
halke	-12.2912
haitan	-12.2935
vinci	-12.2947
▁zac	-12.2955
▁karwa	-12.2962
faith	-12.2965
▁iisc	-12.2968
▁jayeg	-12.2995
▁unifi	-12.302
▁festiv	-12.3036
realistic	-12.305
santo	-12.3052
tiller	-12.306
ahab	-12.3082
▁coli	-12.3094
▁situat	-12.3096
▁misrepresent	-12.3101
▁awesome	-12.3101
▁chandrasekhar	-12.3101
▁inadvertent	-12.3101
▁monopol	-12.3101
▁supermodel	-12.3101
▁theoretical	-12.3101
▁vishnu	-12.3101
▁pupil	-12.3101
▁conscien	-12.3101
▁johannes	-12.3101
▁recipe	-12.3101
▁depot	-12.3102
▁perceive	-12.3102
▁freight	-12.3102
▁dummy	-12.3102
▁estonia	-12.3102
▁carcass	-12.3102
▁minimise	-12.3102
▁duches	-12.3102
▁samiti	-12.3103
kattu	-12.3103
▁rohin	-12.3103
▁puppet	-12.3104
▁nonsens	-12.3105
▁stylish	-12.3107
▁roopa	-12.3107
▁omert	-12.3108
▁supercar	-12.3108
koech	-12.3109
▁kurta	-12.3111
▁festivit	-12.3113
▁rectif	-12.3121
clud	-12.3127
▁epf	-12.3136
▁slid	-12.3138
dominant	-12.3142
▁kotl	-12.3181
few	-12.3213
▁shakeel	-12.3214
paper	-12.3215
found	-12.322
help	-12.3252
gyan	-12.3302
cheng	-12.3311
▁tolerat	-12.3317
▁significan	-12.3332
▁destin	-12.3349
▁relig	-12.335
▁cult	-12.3351
▁bamboo	-12.3351
▁constituent	-12.3351
▁cumulative	-12.3351
▁embroider	-12.3351
▁homicide	-12.3351
▁scissor	-12.3351
▁undergraduate	-12.3351
▁certify	-12.3351
▁siphon	-12.3351
▁enrich	-12.3351
▁genocid	-12.3351
▁vagina	-12.3351
▁demean	-12.3351
▁inevitabl	-12.3351
▁snub	-12.3351
▁graveyard	-12.3352
▁narmada	-12.3352
▁venom	-12.3352
▁cherish	-12.3352
▁schuma	-12.3352
▁smear	-12.3352
▁adjud	-12.3352
sheel	-12.3352
▁stockpil	-12.3352
▁ishq	-12.3352
enrique	-12.3353
▁defus	-12.3353
▁banaras	-12.3354
▁bbl	-12.3354
▁bandook	-12.3355
▁registrar	-12.3355
▁kundr	-12.3356
▁bunch	-12.3356
▁alpha	-12.3358
▁appliance	-12.3359
000	-12.3362
▁escalator	-12.3363
▁ibrahimovi	-12.3379
▁baneg	-12.3385
▁telegra	-12.3456
prakash	-12.3469
group	-12.3469
▁musc	-12.3493
acharya	-12.3538
▁astronom	-12.3546
mulla	-12.3547
▁orphan	-12.3606
▁engulf	-12.3608
▁plough	-12.3608
▁baadshah	-12.3608
▁barricade	-12.3608
▁illuminat	-12.3608
▁lincoln	-12.3608
▁mortgage	-12.3608
▁paedophile	-12.3608
▁plagiaris	-12.3608
▁posthumous	-12.3608
▁retreat	-12.3608
▁trespass	-12.3608
▁venkataraman	-12.3608
▁discrepanc	-12.3608
▁misappropriat	-12.3608
▁commend	-12.3608
▁navigate	-12.3608
▁imperial	-12.3608
▁striking	-12.3608
▁nikah	-12.3608
▁ladki	-12.3608
▁mistreat	-12.3608
▁sniper	-12.3608
▁creep	-12.3608
▁dacoit	-12.3608
▁tentative	-12.3608
▁ornament	-12.3608
▁chrys	-12.3609
▁emilia	-12.3609
▁thirteen	-12.3609
murugan	-12.3609
▁slowdown	-12.361
▁heartbreak	-12.361
achus	-12.361
▁roohi	-12.3612
▁lynn	-12.3612
▁tumhar	-12.3612
▁invok	-12.3612
▁cubic	-12.3614
▁lgbtq	-12.3615
▁ideologi	-12.3615
▁thriv	-12.3618
▁adhere	-12.3618
▁arise	-12.3638
▁rica	-12.3681
weep	-12.3708
worm	-12.3731
ithun	-12.3772
▁captiv	-12.3789
arrier	-12.379
▁incredibl	-12.3814
ilateral	-12.3853
▁advert	-12.3854
▁overcrowd	-12.3871
▁unfurl	-12.3871
▁crematorium	-12.3871
▁exchequer	-12.3871
▁floral	-12.3871
▁malpractice	-12.3871
▁papua	-12.3871
▁redirect	-12.3871
▁respirator	-12.3871
▁rwanda	-12.3871
▁honeymoon	-12.3871
▁landscape	-12.3871
▁racquet	-12.3871
▁sandwich	-12.3871
▁stipulat	-12.3871
▁avenue	-12.3871
▁dennis	-12.3871
▁entangl	-12.3871
▁zhao	-12.3871
▁pioneer	-12.3871
▁naomi	-12.3871
▁satyamev	-12.3871
▁ancestr	-12.3871
▁scorpion	-12.3871
wyatt	-12.3871
▁mountaineer	-12.3872
▁maturit	-12.3872
▁flint	-12.3872
iranga	-12.3872
▁cellphone	-12.3872
▁kyun	-12.3873
▁prankster	-12.3873
▁philipp	-12.3873
▁touchscreen	-12.3874
▁masaba	-12.3874
▁differentiate	-12.3875
▁reema	-12.3875
▁kasper	-12.3877
▁fried	-12.3878
▁bawan	-12.3884
rrish	-12.3886
▁gibb	-12.3889
▁burj	-12.3889
▁kirst	-12.3894
▁coerc	-12.3903
rank	-12.3906
▁slim	-12.3918
▁nann	-12.3933
iguri	-12.3936
nazir	-12.3955
▁supervisi	-12.3956
▁randh	-12.3973
▁beneficia	-12.3976
▁reimpos	-12.3982
▁withstand	-12.4007
onnie	-12.4028
ollen	-12.4069
▁permissi	-12.4132
▁collud	-12.4141
▁disconnect	-12.4141
▁proxim	-12.4141
▁rebrand	-12.4141
andowsk	-12.4141
▁absurd	-12.4141
▁anganwadi	-12.4141
▁archbishop	-12.4141
▁artefact	-12.4141
▁awkward	-12.4141
▁charlotte	-12.4141
▁circus	-12.4141
▁collar	-12.4141
▁constraint	-12.4141
▁contemporar	-12.4141
▁defensive	-12.4141
▁exclusion	-12.4141
▁flamethrower	-12.4141
▁inaccurate	-12.4141
▁ralph	-12.4141
▁relaunch	-12.4141
▁supremacist	-12.4141
▁turbine	-12.4141
▁lloyd	-12.4141
▁segregat	-12.4141
▁emblem	-12.4141
